{
  "version": "1.0",
  "truncation": null,
  "padding": null,
  "added_tokens": [
    {
      "id": 3148,
      "content": "<UNK>",
      "single_word": false,
      "lstrip": false,
      "rstrip": false,
      "normalized": true,
      "special": true
    },
    {
      "id": 3149,
      "content": "<｜end▁of▁sentence｜>",
      "single_word": false,
      "lstrip": false,
      "rstrip": false,
      "normalized": true,
      "special": true
    },
    {
      "id": 3150,
      "content": "<｜pad｜>",
      "single_word": false,
      "lstrip": false,
      "rstrip": false,
      "normalized": true,
      "special": true
    },
    {
      "id": 3151,
      "content": "<｜begin▁of▁sentence｜>",
      "single_word": false,
      "lstrip": false,
      "rstrip": false,
      "normalized": true,
      "special": true
    }
  ],
  "normalizer": {
    "type": "Sequence",
    "normalizers": []
  },
  "pre_tokenizer": {
    "type": "Sequence",
    "pretokenizers": [
      {
        "type": "Split",
        "pattern": {
          "Regex": "[\\r\\n]"
        },
        "behavior": "Isolated",
        "invert": false
      },
      {
        "type": "Split",
        "pattern": {
          "Regex": "\\s?[A-Za-zµÀ-ÖØ-öø-ƺƼ-ƿǄ-ʓʕ-ʯͰ-ͳͶͷͻ-ͽͿΆΈ-ΊΌΎ-ΡΣ-ϵϷ-ҁҊ-ԯԱ-ՖႠ-ჅᎠ-Ᏽᏸ-ᏽᲐ-ᲺᲽ-Ჿᴀ-ᴫᵫ-ᵷᵹ-ᶚḀ-ἕἘ-Ἕἠ-ὅὈ-Ὅὐ-ὗὙὛὝὟ-ώᾀ-ᾴᾶ-ᾼιῂ-ῄῆ-ῌῐ-ΐῖ-Ίῠ-Ῥῲ-ῴῶ-ῼℂℇℊ-ℓℕℙ-ℝℤΩℨK-ℭℯ-ℴℹℼ-ℿⅅ-ⅉⅎↃↄⰀ-ⱻⱾ-ⳤⳫ-ⳮⳲⳳꙀ-ꙭꚀ-ꚛꜢ-ꝯꝱ-ꞇꞋ-ꞎꭰ-ꮿﬀ-ﬆﬓ-ﬗＡ-Ｚａ-ｚ𐐀-𐑏𐒰-𐓓𐓘-𐓻𐲀-𐲲𐳀-𐳲𑢠-𑣟𞤀-𞥃]+"
        },
        "behavior": "Isolated",
        "invert": false
      },
      {
        "type": "Split",
        "pattern": {
          "Regex": "\\s?[!-/:-~！-／：-～‘-‟　-。]+"
        },
        "behavior": "Isolated",
        "invert": false
      },
      {
        "type": "Split",
        "pattern": {
          "Regex": "\\s+$"
        },
        "behavior": "Isolated",
        "invert": false
      },
      {
        "type": "Split",
        "pattern": {
          "Regex": "[一-龥ࠀ-一가-퟿]+"
        },
        "behavior": "Isolated",
        "invert": false
      },
      {
        "type": "Digits",
        "individual_digits": true
      },
      {
        "type": "ByteLevel",
        "add_prefix_space": false,
        "trim_offsets": true,
        "use_regex": false
      }
    ]
  },
  "post_processor": {
    "type": "ByteLevel",
    "add_prefix_space": true,
    "trim_offsets": false,
    "use_regex": true
  },
  "decoder": {
    "type": "ByteLevel",
    "add_prefix_space": true,
    "trim_offsets": true,
    "use_regex": true
  },
  "model": {
    "type": "BPE",
    "dropout": null,
    "unk_token": "<UNK>",
    "continuing_subword_prefix": null,
    "end_of_word_suffix": null,
    "fuse_unk": false,
    "byte_fallback": false,
    "ignore_merges": false,
    "bMax_frequency": true,
    "max_frequency": 63649887,
    "vocab": {
      "Ġmustard": 0,
      "VIDED": 1,
      "coh": 2,
      "emberg": 3,
      "agner": 4,
      "rx": 5,
      "Ġjer": 6,
      "ĠKaiser": 7,
      "ĠLoh": 8,
      "ĠprincipalColumn": 9,
      "ĠMcConnell": 10,
      "Ġcum": 11,
      "ifers": 12,
      "marshalO": 13,
      "Ġjednej": 14,
      "amaan": 15,
      "Ġpacc": 16,
      "ouls": 17,
      "Ġpaccati": 18,
      "Ġjinak": 19,
      "ĠaDecoder": 20,
      "ĠChai": 21,
      "Ġconvolut": 22,
      "Ġpstmt": 23,
      "ĠCoil": 24,
      "hangman": 25,
      "razine": 26,
      "Graphics": 27,
      "main": 28,
      "ĠIvan": 29,
      "racht": 30,
      "Foreground": 31,
      "Visibility": 32,
      "GraphicsUnit": 33,
      "findById": 34,
      "ĠJak": 35,
      "Ġaj": 36,
      "Ġslit": 37,
      "akang": 38,
      "Ġtuh": 39,
      "ranos": 40,
      "Ġspeeches": 41,
      "ĠBERN": 42,
      "rocytes": 43,
      "exte": 44,
      "DesIP": 45,
      "heat": 46,
      "ĠAtomn": 47,
      "ĠAtomnoj": 48,
      "amus": 49,
      "Ġpacem": 50,
      "Ġpacemaker": 51,
      "norod": 52,
      "spir": 53,
      "Ġtaped": 54,
      "ĠElsie": 55,
      "ipkan": 56,
      "ĠMadonna": 57,
      "rido": 58,
      "LongNumber": 59,
      "Ġgmin": 60,
      "leri": 61,
      "springframework": 62,
      "Ġstatically": 63,
      "isTouching": 64,
      "stateMutability": 65,
      "ashe": 66,
      "ĠSpearman": 67,
      "ĠBlunt": 68,
      "SqlQuery": 69,
      "arov": 70,
      "ĠPKR": 71,
      "Ġcollisional": 72,
      "Ġpiaci": 73,
      "ĠQuaker": 74,
      "ĠIly": 75,
      "ĠTRANSPORT": 76,
      "ĠNicholls": 77,
      "textcolor": 78,
      "SrvGroupIndex": 79,
      "Ġbev": 80,
      "Ġvr": 81,
      "ĠsubTestHDR": 82,
      "Ġtransdu": 83,
      "InfoDto": 84,
      "Ġepoxy": 85,
      "ĠErick": 86,
      "Ġfer": 87,
      "ĠLEP": 88,
      "vadip": 89,
      "vadipine": 90,
      "aring": 91,
      "Ġanthocyan": 92,
      "URI": 93,
      "Ġnotches": 94,
      "ĠTBA": 95,
      "oble": 96,
      "ĠTRANSPORTURI": 97,
      "Ġpatitth": 98,
      "ĠNUS": 99,
      "hana": 100,
      "ĠBot": 101,
      "racted": 102,
      "pieceSelection": 103,
      "holm": 104,
      "ailed": 105,
      "celli": 106,
      "ĠBillings": 107,
      "ĠMonty": 108,
      "vieve": 109,
      "echen": 110,
      "cando": 111,
      "ween": 112,
      "bele": 113,
      "BoardManager": 114,
      "Ġbrack": 115,
      "Ġjunio": 116,
      "anesulfonyl": 117,
      "ĠLily": 118,
      "sip": 119,
      "VO": 120,
      "InfoPlistPath": 121,
      "bild": 122,
      "quard": 123,
      "shoz": 124,
      "ĠRTI": 125,
      "ĠKau": 126,
      "imetable": 127,
      "ĠKauai": 128,
      "ALY": 129,
      "ĠIUnary": 130,
      "ĠPTR": 131,
      "subMenu": 132,
      "Ġroot": 133,
      "Ġtepung": 134,
      "ServiceClient": 135,
      "Ġdiscont": 136,
      "Ġoppress": 137,
      "nului": 138,
      "erical": 139,
      "getStringExtra": 140,
      "Ġvyst": 141,
      "ulsive": 142,
      "ocycl": 143,
      "teral": 144,
      "Ġchas": 145,
      "elecimento": 146,
      "ĠBaloch": 147,
      "useks": 148,
      "kaj": 149,
      "astre": 150,
      "Ġendowments": 151,
      "RetJpegLen": 152,
      "ĠMcGregor": 153,
      "Ġmain": 154,
      "alang": 155,
      "Ġnigra": 156,
      "Ġshaman": 157,
      "ĠERP": 158,
      "Ġoczy": 159,
      "Ratio": 160,
      "ĠNell": 161,
      "ĠNellie": 162,
      "akati": 163,
      "ucin": 164,
      "ĠBukh": 165,
      "ittha": 166,
      "noff": 167,
      "ptid": 168,
      "iggs": 169,
      "Ġforbearance": 170,
      "guez": 171,
      "ebi": 172,
      "heny": 173,
      "Ġrah": 174,
      "ĠCob": 175,
      "Incre": 176,
      "Ġdapibus": 177,
      "oolean": 178,
      "rava": 179,
      "enumeration": 180,
      "ĠSDA": 181,
      "Ġtib": 182,
      "Ġmostrou": 183,
      "apixel": 184,
      "setAdapter": 185,
      "ĠIsid": 186,
      "Ġbajar": 187,
      "CartVO": 188,
      "ĠGoo": 189,
      "FreeFlag": 190,
      "Wel": 191,
      "anjay": 192,
      "Stop": 193,
      "terior": 194,
      "inaan": 195,
      "ossz": 196,
      "eleave": 197,
      "mouseleave": 198,
      "ĠNLRP": 199,
      "ĠGould": 200,
      "riors": 201,
      "abv": 202,
      "Ġfring": 203,
      "midt": 204,
      "niem": 205,
      "ĠXer": 206,
      "urkan": 207,
      "ning": 208,
      "ĠWarriors": 209,
      "tris": 210,
      "deck": 211,
      "aneiro": 212,
      "SdkError": 213,
      "Ġely": 214,
      "Ġelytris": 215,
      "arev": 216,
      "Ġholen": 217,
      "yil": 218,
      "eeper": 219,
      "turkish": 220,
      "ĠfieldValue": 221,
      "ĠAAC": 222,
      "Consec": 223,
      "acki": 224,
      "kunft": 225,
      "ConsecHtIdx": 226,
      "ursa": 227,
      "Ġlanth": 228,
      "Ġlanthan": 229,
      "adder": 230,
      "ĠManish": 231,
      "plen": 232,
      "Drone": 233,
      "dll": 234,
      "ĠPCC": 235,
      "ĠBitt": 236,
      "lastIndexOf": 237,
      "AttributeInfo": 238,
      "Ġodpad": 239,
      "Ġmess": 240,
      "gespr": 241,
      "Ġunimagin": 242,
      "ĠdoGet": 243,
      "Rational": 244,
      "RationalValue": 245,
      "Ġurldecode": 246,
      "itic": 247,
      "ĠArias": 248,
      "Ash": 249,
      "Ġmyogenic": 250,
      "DarkMode": 251,
      "Ġposuere": 252,
      "oct": 253,
      "Ġfringilla": 254,
      "scr": 255,
      "Ġfaucibus": 256,
      "SpriteCollision": 257,
      "DCT": 258,
      "carlo": 259,
      "hite": 260,
      "kah": 261,
      "lesia": 262,
      "Az": 263,
      "Ġmoh": 264,
      "ĠMaya": 265,
      "ĠSeph": 266,
      "appList": 267,
      "inputSelect": 268,
      "urved": 269,
      "apsedTime": 270,
      "Azur": 271,
      "ĠPutnam": 272,
      "ĠNast": 273,
      "ĠBech": 274,
      "ificent": 275,
      "ĠAlger": 276,
      "elum": 277,
      "ĠminY": 278,
      "Ġembr": 279,
      "ĠJOSE": 280,
      "itorious": 281,
      "breviations": 282,
      "kari": 283,
      "ijs": 284,
      "ĠPalestin": 285,
      "Ġultimi": 286,
      "OBI": 287,
      "Ġcoerc": 288,
      "Sheet": 289,
      "ĠHUOBI": 290,
      "ĠShuang": 291,
      "Ġgutter": 292,
      "outen": 293,
      "pection": 294,
      "ĠElo": 295,
      "ĠJosephine": 296,
      "urized": 297,
      "ĠChateau": 298,
      "elligence": 299,
      "Ġultime": 300,
      "PostConstruct": 301,
      "WindowEvent": 302,
      "StartState": 303,
      "inally": 304,
      "ideon": 305,
      "ĠactiveButton": 306,
      "Uuid": 307,
      "Ġbyd": 308,
      "endi": 309,
      "ĠGladys": 310,
      "JP": 311,
      "Ġllama": 312,
      "uld": 313,
      "ĠNieder": 314,
      "ĠCarb": 315,
      "crib": 316,
      "aptan": 317,
      "msp": 318,
      "charg": 319,
      "ĠrootCmd": 320,
      "FieldError": 321,
      "Ġmu": 322,
      "ĠgetDateTime": 323,
      "Segment": 324,
      "rawl": 325,
      "HasFieldError": 326,
      "ĠRish": 327,
      "SegmentInfo": 328,
      "Ġcitric": 329,
      "Buk": 330,
      "ĠselectTable": 331,
      "ĠGenius": 332,
      "gador": 333,
      "Ġtsy": 334,
      "ĠMedford": 335,
      "ĠTrace": 336,
      "ĠSchum": 337,
      "ĠDunne": 338,
      "LayoutPanel": 339,
      "Ġfirm": 340,
      "Ġallez": 341,
      "Ġneque": 342,
      "Ġfranch": 343,
      "Ġluis": 344,
      "zab": 345,
      "Ġdeced": 346,
      "buje": 347,
      "myer": 348,
      "ĠRhoda": 349,
      "jai": 350,
      "ĠTheme": 351,
      "ĠCIR": 352,
      "ĠAssay": 353,
      "ĠMcCullo": 354,
      "ĠThemeOverlay": 355,
      "amarin": 356,
      "enl": 357,
      "oticons": 358,
      "ĠFerrer": 359,
      "ĠStrickland": 360,
      "Ġblas": 361,
      "Alarm": 362,
      "Dale": 363,
      "nikova": 364,
      "forName": 365,
      "ĠMadagascar": 366,
      "Ġcramp": 367,
      "ĠWilmington": 368,
      "RDD": 369,
      "Ġolvid": 370,
      "Ġdover": 371,
      "egna": 372,
      "Ġabar": 373,
      "ĠelevationMap": 374,
      "ĠRocket": 375,
      "Ġserre": 376,
      "oflav": 377,
      "ĠCarbide": 378,
      "Gur": 379,
      "anii": 380,
      "umon": 381,
      "ĠRoxy": 382,
      "arati": 383,
      "ĠStoke": 384,
      "Ġoutc": 385,
      "ĠConsult": 386,
      "cienza": 387,
      "ĠASC": 388,
      "ances": 389,
      "imoto": 390,
      "ĠGerrit": 391,
      "ĠsymbolName": 392,
      "owo": 393,
      "ĠConsultado": 394,
      "esai": 395,
      "ĠDSS": 396,
      "ĠPBC": 397,
      "Ġprecincts": 398,
      "kais": 399,
      "ĠHickman": 400,
      "Ġpopup": 401,
      "Ġstockbild": 402,
      "areth": 403,
      "lius": 404,
      "ĠMourinho": 405,
      "ĠCroydon": 406,
      "ĠClay": 407,
      "ĠpopupButton": 408,
      "ĠSomali": 409,
      "Ġbur": 410,
      "Cc": 411,
      "qar": 412,
      "Ġcio": 413,
      "Ġculp": 414,
      "vn": 415,
      "Sharma": 416,
      "ĠTarif": 417,
      "QG": 418,
      "ĠCQG": 419,
      "ĠAlbu": 420,
      "ĠEstelle": 421,
      "loz": 422,
      "ueto": 423,
      "Ġxr": 424,
      "ĠPalestinians": 425,
      "ĠMcMillan": 426,
      "Ġrender": 427,
      "Ġgiorn": 428,
      "Ġsieht": 429,
      "ĠBall": 430,
      "Ġipv": 431,
      "rys": 432,
      "tml": 433,
      "crumbs": 434,
      "dert": 435,
      "Ġsuddhak": 436,
      "fn": 437,
      "aufen": 438,
      "otoxicity": 439,
      "letzt": 440,
      "mmol": 441,
      "Ġgrantor": 442,
      "Ġtoc": 443,
      "ĠElwood": 444,
      "qa": 445,
      "getRow": 446,
      "jsx": 447,
      "unique": 448,
      "entingan": 449,
      "ĠCBL": 450,
      "ĠHP": 451,
      "Insight": 452,
      "ĠHPV": 453,
      "ĠVillarreal": 454,
      "lected": 455,
      "quartered": 456,
      "Ġanns": 457,
      "Ġtrache": 458,
      "Ġhyper": 459,
      "Ġcounter": 460,
      "ĠHarrow": 461,
      "reu": 462,
      "ivum": 463,
      "Ġparam": 464,
      "ĠKoval": 465,
      "Grunt": 466,
      "ĠFerre": 467,
      "ĠFerreira": 468,
      "ĠOrm": 469,
      "ĠToni": 470,
      "<0x41>": 471,
      "bladder": 472,
      "ĠYatha": 473,
      "phan": 474,
      "ĠChun": 475,
      "ĠDickens": 476,
      "ampshire": 477,
      "ĠMcGee": 478,
      "ĠHampshire": 479,
      "texte": 480,
      "ĠPCE": 481,
      "Ġkole": 482,
      "Ġcillum": 483,
      "ĠbaseApiPath": 484,
      "Constructor": 485,
      "brite": 486,
      "gaz": 487,
      "isTrackCore": 488,
      "very": 489,
      "Ġsuf": 490,
      "luss": 491,
      "ĠTand": 492,
      "Ġrepro": 493,
      "OHN": 494,
      "Wey": 495,
      "ĠChich": 496,
      "ambia": 497,
      "ĠChichester": 498,
      "Ġay": 499,
      "Ġistedi": 500,
      "ĠVivian": 501,
      "ĠXin": 502,
      "entId": 503,
      "mbit": 504,
      "mbito": 505,
      "idays": 506,
      "ĠKiz": 507,
      "inschaft": 508,
      "Ġdisorderly": 509,
      "ĠTracey": 510,
      "Drv": 511,
      "Ġchau": 512,
      "lecting": 513,
      "ĠCBA": 514,
      "ĠHak": 515,
      "Ġbunker": 516,
      "oyloxy": 517,
      "Ġappropri": 518,
      "ĠMillie": 519,
      "ĠVirg": 520,
      "ĠVirgil": 521,
      "gna": 522,
      "ĠaDict": 523,
      "Callories": 524,
      "Ġlow": 525,
      "boxyl": 526,
      "ĠDodd": 527,
      "ĠClemson": 528,
      "ĠGreenhouse": 529,
      "Ġintraven": 530,
      "Popen": 531,
      "Ġkren": 532,
      "Ġvig": 533,
      "elman": 534,
      "Ġaldehyde": 535,
      "Ġdend": 536,
      "ĠWoj": 537,
      "igian": 538,
      "Ġyake": 539,
      "ulations": 540,
      "ĠDoom": 541,
      "iov": 542,
      "year": 543,
      "anar": 544,
      "isance": 545,
      "ĠDENUM": 546,
      "ĠDENUMIRE": 547,
      "myCollision": 548,
      "ĠVerst": 549,
      "Ġremis": 550,
      "Ġnamani": 551,
      "ĠJohnstone": 552,
      "Ġlaborum": 553,
      "ĠArmen": 554,
      "valueOf": 555,
      "Ġdorman": 556,
      "Ġdormancy": 557,
      "Ġball": 558,
      "ĠIOException": 559,
      "ercase": 560,
      "Ġedeb": 561,
      "poon": 562,
      "ĠKeane": 563,
      "ĠAPC": 564,
      "Ġswirls": 565,
      "ĠBell": 566,
      "Ġwen": 567,
      "ĠListNode": 568,
      "Ġkest": 569,
      "ĠReinhold": 570,
      "imuth": 571,
      "slideClass": 572,
      "Ġappend": 573,
      "Ġbifurcation": 574,
      "eae": 575,
      "yson": 576,
      "ĠSUN": 577,
      "rzeb": 578,
      "volution": 579,
      "ĠSUNY": 580,
      "ĠIBA": 581,
      "orrer": 582,
      "uvre": 583,
      "Ġeuismod": 584,
      "Ġpod": 585,
      "ifdef": 586,
      "onite": 587,
      "FindAction": 588,
      "ĠLip": 589,
      "ĠArmand": 590,
      "ExprNode": 591,
      "Ġchild": 592,
      "Ġadhik": 593,
      "LES": 594,
      "Ġmezz": 595,
      "ĠSaud": 596,
      "ĠIGF": 597,
      "Ġaustenite": 598,
      "Ġpernik": 599,
      "ĠKamp": 600,
      "ĠbaseHP": 601,
      "ĠLaird": 602,
      "Connect": 603,
      "owych": 604,
      "Ġdisg": 605,
      "Ġwytr": 606,
      "ĠStaffordshire": 607,
      "NeedConnect": 608,
      "binding": 609,
      "leet": 610,
      "ĠOver": 611,
      "Erik": 612,
      "MediaPath": 613,
      "thebetter": 614,
      "partite": 615,
      "Ġsludge": 616,
      "irov": 617,
      "Interval": 618,
      "ModelComponent": 619,
      "Ġtypedef": 620,
      "Void": 621,
      "Ġlanz": 622,
      "inios": 623,
      "Ġgib": 624,
      "Psal": 625,
      "ienne": 626,
      "ĠTAE": 627,
      "ĠMerkel": 628,
      "orpions": 629,
      "clude": 630,
      "yeong": 631,
      "DN": 632,
      "ukun": 633,
      "ensington": 634,
      "ĠAudrey": 635,
      "Paused": 636,
      "iliation": 637,
      "ĠrenderEncoder": 638,
      "Ġvatth": 639,
      "ĠjobSearch": 640,
      "chan": 641,
      "burgo": 642,
      "izing": 643,
      "plantation": 644,
      "ĠArt": 645,
      "Ġcent": 646,
      "ulla": 647,
      "ĠGalois": 648,
      "inputenc": 649,
      "wealth": 650,
      "ĠRich": 651,
      "ommonwealth": 652,
      "Ġassi": 653,
      "InterfaceLine": 654,
      "ĠRibeiro": 655,
      "Ġranc": 656,
      "Ġcontral": 657,
      "Ġatri": 658,
      "ĠBaird": 659,
      "Ġgelir": 660,
      "Ġhel": 661,
      "Ġlabb": 662,
      "qid": 663,
      "Ġkne": 664,
      "idel": 665,
      "ĠVance": 666,
      "etra": 667,
      "ĠCBT": 668,
      "ayed": 669,
      "Ġparturient": 670,
      "ĠWhitney": 671,
      "prel": 672,
      "avadoc": 673,
      "ĠAlbion": 674,
      "iless": 675,
      "ĠPalma": 676,
      "ĠBrig": 677,
      "schitz": 678,
      "ĠLipschitz": 679,
      "ĠVann": 680,
      "Ġlabbhati": 681,
      "jski": 682,
      "ĠFat": 683,
      "Ġrek": 684,
      "Ġdoub": 685,
      "oln": 686,
      "incoln": 687,
      "imageColour": 688,
      "ĠLincoln": 689,
      "umam": 690,
      "Ġactivity": 691,
      "ĠRCS": 692,
      "ĠKen": 693,
      "ĠactivityTO": 694,
      "uddin": 695,
      "lian": 696,
      "Ġdw": 697,
      "ĠDataTypes": 698,
      "atot": 699,
      "brook": 700,
      "preliquidacion": 701,
      "Ġvy": 702,
      "ĠWestbrook": 703,
      "lada": 704,
      "ieb": 705,
      "ultat": 706,
      "buildSpec": 707,
      "duire": 708,
      "Ġpayog": 709,
      "textepsilon": 710,
      "ĠEBS": 711,
      "razier": 712,
      "alfi": 713,
      "ĠPDC": 714,
      "ĠGuad": 715,
      "ĠGCSE": 716,
      "Ġrued": 717,
      "fnamefont": 718,
      "nega": 719,
      "urban": 720,
      "ustomed": 721,
      "ĠEnglish": 722,
      "createSprite": 723,
      "Ġwnios": 724,
      "dst": 725,
      "stan": 726,
      "Ġrupp": 727,
      "ĠSton": 728,
      "ceme": 729,
      "gare": 730,
      "Ġblem": 731,
      "Ġinflection": 732,
      "ĠPortman": 733,
      "ragment": 734,
      "ĠShahid": 735,
      "alem": 736,
      "Polynucleaires": 737,
      "ĠEnglishChoose": 738,
      "ntilde": 739,
      "Ġbutter": 740,
      "ĠHodge": 741,
      "aptic": 742,
      "ĠCPD": 743,
      "ĠBxg": 744,
      "dbContext": 745,
      "cursive": 746,
      "hutang": 747,
      "Ġmonogram": 748,
      "ĠCohen": 749,
      "anken": 750,
      "iembre": 751,
      "ĠLy": 752,
      "chman": 753,
      "ĠBald": 754,
      "ĠBaldwin": 755,
      "currentComponent": 756,
      "ĠLDA": 757,
      "OKR": 758,
      "ĠNadia": 759,
      "QueueRoot": 760,
      "astes": 761,
      "amh": 762,
      "ĠDaim": 763,
      "ellate": 764,
      "ngl": 765,
      "VSFAULT": 766,
      "ĠRaton": 767,
      "avoz": 768,
      "wString": 769,
      "ikin": 770,
      "Ġpep": 771,
      "ĠHfn": 772,
      "totype": 773,
      "syringe": 774,
      "ĠFamil": 775,
      "Ġtemper": 776,
      "lecht": 777,
      "ymers": 778,
      "indent": 779,
      "Ġsputum": 780,
      "culus": 781,
      "AVOA": 782,
      "ToReference": 783,
      "fall": 784,
      "devkit": 785,
      "riente": 786,
      "tenir": 787,
      "ĠLil": 788,
      "isRunning": 789,
      "IBR": 790,
      "Ġita": 791,
      "Ġitaque": 792,
      "ĠDaisy": 793,
      "ĠEesti": 794,
      "faceted": 795,
      "mason": 796,
      "wydd": 797,
      "ĠSincl": 798,
      "ĠSinclair": 799,
      "ptu": 800,
      "ĠGant": 801,
      "Ġlectus": 802,
      "Increment": 803,
      "Ġont": 804,
      "arbon": 805,
      "ilee": 806,
      "Ġeukary": 807,
      "Ġburden": 808,
      "ArgsConstructor": 809,
      "Ġnotched": 810,
      "PCA": 811,
      "ason": 812,
      "ĠAkbar": 813,
      "ĠADR": 814,
      "ĠNoether": 815,
      "ĠGwen": 816,
      "ĠGrizz": 817,
      "ĠSDP": 818,
      "ezet": 819,
      "Singolare": 820,
      "zsche": 821,
      "ĠTunisia": 822,
      "alon": 823,
      "DispatchRequest": 824,
      "riwal": 825,
      "ĠShan": 826,
      "Ġgiornata": 827,
      "ĠMDL": 828,
      "Ġafterlife": 829,
      "Fragment": 830,
      "jane": 831,
      "ĠSouth": 832,
      "ĠMDA": 833,
      "efa": 834,
      "ĠCed": 835,
      "uerdo": 836,
      "ĠCedex": 837,
      "oli": 838,
      "attuv": 839,
      "attuvasena": 840,
      "ĠRowling": 841,
      "ĠngOnInit": 842,
      "ContentTypes": 843,
      "Cooldown": 844,
      "chand": 845,
      "ĠLutz": 846,
      "Ġllevan": 847,
      "xym": 848,
      "ĠPenelope": 849,
      "eu": 850,
      "elberg": 851,
      "ĠHeidelberg": 852,
      "owym": 853,
      "rtList": 854,
      "ĠHidalgo": 855,
      "Make": 856,
      "ĠNietzsche": 857,
      "icia": 858,
      "ench": 859,
      "ĠDorchester": 860,
      "query": 861,
      "ĠPatton": 862,
      "ĠSouthport": 863,
      "vertex": 864,
      "Ġjuin": 865,
      "merksamkeit": 866,
      "ommun": 867,
      "DPH": 868,
      "ĠNADPH": 869,
      "Ġsapien": 870,
      "tencent": 871,
      "anders": 872,
      "Ġmiel": 873,
      "ĠFons": 874,
      "ĠFonseca": 875,
      "uspended": 876,
      "Ġdendritic": 877,
      "Feign": 878,
      "uretics": 879,
      "olome": 880,
      "triangle": 881,
      "Ġgarn": 882,
      "triangleleft": 883,
      "AspNetUser": 884,
      "ĠVerdi": 885,
      "TimeDict": 886,
      "ajah": 887,
      "ĠTarant": 888,
      "RAMM": 889,
      "ĠLugo": 890,
      "ĠMitt": 891,
      "icals": 892,
      "ĠCaputo": 893,
      "ĠNoetherian": 894,
      "Ġdech": 895,
      "Ġdechlor": 896,
      "Ġissuers": 897,
      "WebApi": 898,
      "olon": 899,
      "ĠNey": 900,
      "selValue": 901,
      "Ġellen": 902,
      "ioides": 903,
      "stop": 904,
      "ibe": 905,
      "rockets": 906,
      "oggio": 907,
      "ĠCyril": 908,
      "ĠPett": 909,
      "ĠMBS": 910,
      "Ġedt": 911,
      "ĠACM": 912,
      "omeg": 913,
      "routing": 914,
      "oyl": 915,
      "uga": 916,
      "ĠBSE": 917,
      "ometri": 918,
      "ĠKinect": 919,
      "iczne": 920,
      "istle": 921,
      "tede": 922,
      "viridis": 923,
      "ĠWolverines": 924,
      "InBackground": 925,
      "ĠSon": 926,
      "ĠUGA": 927,
      "ranton": 928,
      "Merging": 929,
      "DetailUIJobIcon": 930,
      "nbs": 931,
      "ĠMurd": 932,
      "ByMerging": 933,
      "atable": 934,
      "eterm": 935,
      "ĠArund": 936,
      "routingHeader": 937,
      "DAY": 938,
      "chung": 939,
      "ullary": 940,
      "ĠTa": 941,
      "getParameter": 942,
      "Ġprofane": 943,
      "Ġrich": 944,
      "ĠFatima": 945,
      "ĠRial": 946,
      "Ġbaw": 947,
      "iO": 948,
      "ĠHoff": 949,
      "Ġcumplen": 950,
      "Marne": 951,
      "anjing": 952,
      "ĠRajiv": 953,
      "inued": 954,
      "iren": 955,
      "step": 956,
      "ĠSiO": 957,
      "nity": 958,
      "ĠTNFR": 959,
      "ParaName": 960,
      "lingen": 961,
      "dout": 962,
      "Ġvoces": 963,
      "Ġdevast": 964,
      "RVCT": 965,
      "Ġcave": 966,
      "pecColor": 967,
      "Ġuitgen": 968,
      "LogProfile": 969,
      "Ġtrusses": 970,
      "ĠBedi": 971,
      "ayv": 972,
      "otics": 973,
      "Ġaustenitic": 974,
      "Ġhiver": 975,
      "icile": 976,
      "chapter": 977,
      "Ġsubchapter": 978,
      "ttext": 979,
      "Ġalttext": 980,
      "ĠglTranslatef": 981,
      "Ġfist": 982,
      "ĠSPD": 983,
      "Ġvyh": 984,
      "ahy": 985,
      "Bean": 986,
      "kowania": 987,
      "ĠTCU": 988,
      "IsClearedBy": 989,
      "Ġunu": 990,
      "omeric": 991,
      "sst": 992,
      "UDN": 993,
      "bourg": 994,
      "bukkit": 995,
      "ĠPatriots": 996,
      "LaunchAction": 997,
      "Ġswipe": 998,
      "ATIVA": 999,
      "nir": 1000,
      "Ġsensibil": 1001,
      "oLocations": 1002,
      "ĠsAlarm": 1003,
      "ĠtcpHeader": 1004,
      "legen": 1005,
      "ĠCitri": 1006,
      "ĠCitrix": 1007,
      "cheek": 1008,
      "ĠRuntime": 1009,
      "atthane": 1010,
      "ĠYvonne": 1011,
      "RELATIVA": 1012,
      "octrl": 1013,
      "cendo": 1014,
      "Avl": 1015,
      "heer": 1016,
      "bandSize": 1017,
      "Ġnasel": 1018,
      "arante": 1019,
      "Ġgiven": 1020,
      "ravy": 1021,
      "Ġshould": 1022,
      "ĠDec": 1023,
      "ĠgivenChar": 1024,
      "guild": 1025,
      "Hide": 1026,
      "ĠRBC": 1027,
      "ĠNasa": 1028,
      "ĠNSE": 1029,
      "aloko": 1030,
      "Ġtitle": 1031,
      "rire": 1032,
      "oure": 1033,
      "umet": 1034,
      "Blitz": 1035,
      "Ġconcurs": 1036,
      "subheader": 1037,
      "ĠMul": 1038,
      "ĠESM": 1039,
      "anah": 1040,
      "idirectional": 1041,
      "Ġos": 1042,
      "ĠKling": 1043,
      "addSql": 1044,
      "Ġimplic": 1045,
      "ĠuseCustom": 1046,
      "OTE": 1047,
      "ileg": 1048,
      "ively": 1049,
      "ĠPotts": 1050,
      "iotsitewise": 1051,
      "erted": 1052,
      "displayWidth": 1053,
      "Ġtrimestre": 1054,
      "rians": 1055,
      "ĠRuntimeError": 1056,
      "inic": 1057,
      "oggler": 1058,
      "desIP": 1059,
      "cTempVal": 1060,
      "ĠcPix": 1061,
      "indentLevel": 1062,
      "Ġblo": 1063,
      "Eug": 1064,
      "bc": 1065,
      "ĠUML": 1066,
      "apsh": 1067,
      "aos": 1068,
      "Ġatrial": 1069,
      "Ġsop": 1070,
      "UPA": 1071,
      "Ġgewann": 1072,
      "ImageUrl": 1073,
      "ĠresetCounters": 1074,
      "llbracket": 1075,
      "rants": 1076,
      "ĠtitleImageUrl": 1077,
      "Prototype": 1078,
      "tob": 1079,
      "ojis": 1080,
      "ĠgetN": 1081,
      "cznych": 1082,
      "romax": 1083,
      "lisch": 1084,
      "ĠBellevue": 1085,
      "UUID": 1086,
      "WithPath": 1087,
      "anko": 1088,
      "alie": 1089,
      "Ġenfe": 1090,
      "yfik": 1091,
      "sortie": 1092,
      "gev": 1093,
      "ĠHornets": 1094,
      "unki": 1095,
      "UVWXYZ": 1096,
      "NonNull": 1097,
      "QRSTUVWXYZ": 1098,
      "valent": 1099,
      "Ġmites": 1100,
      "ĠAmelia": 1101,
      "Ġhomotopic": 1102,
      "pkey": 1103,
      "essler": 1104,
      "structed": 1105,
      "Ġwad": 1106,
      "eties": 1107,
      "contours": 1108,
      "pagen": 1109,
      "ĠPaola": 1110,
      "CreateInfo": 1111,
      "Ġgrop": 1112,
      "ActionResult": 1113,
      "OLY": 1114,
      "ĠLMP": 1115,
      "ivitis": 1116,
      "ience": 1117,
      "chst": 1118,
      "When": 1119,
      "ĠPalmas": 1120,
      "ĠNAP": 1121,
      "DialogWhen": 1122,
      "riez": 1123,
      "Checked": 1124,
      "OLYBD": 1125,
      "Aspect": 1126,
      "DTD": 1127,
      "ĠRadford": 1128,
      "ĠOnd": 1129,
      "rophys": 1130,
      "arsko": 1131,
      "inalg": 1132,
      "ĠBick": 1133,
      "endela": 1134,
      "Ġindium": 1135,
      "abh": 1136,
      "Ġpout": 1137,
      "startButton": 1138,
      "Ġnow": 1139,
      "ĠHooper": 1140,
      "Ġechelon": 1141,
      "modelLogin": 1142,
      "QU": 1143,
      "sede": 1144,
      "ontium": 1145,
      "getBoolean": 1146,
      "ĠShor": 1147,
      "ĠWildcats": 1148,
      "ĠLoretta": 1149,
      "Ġqubit": 1150,
      "ĠUSAID": 1151,
      "ĠcreateApp": 1152,
      "Ġbipart": 1153,
      "Ġmoving": 1154,
      "ĠmovingRect": 1155,
      "ija": 1156,
      "Ġparthenogenetic": 1157,
      "eql": 1158,
      "eqlist": 1159,
      "fully": 1160,
      "ĠPierce": 1161,
      "Hive": 1162,
      "MinIntensity": 1163,
      "lando": 1164,
      "incinn": 1165,
      "ĠArden": 1166,
      "incinnati": 1167,
      "ĠMans": 1168,
      "Ġpsychos": 1169,
      "ĠLivingston": 1170,
      "hearted": 1171,
      "ĠRSC": 1172,
      "heartedly": 1173,
      "Ġhablando": 1174,
      "Import": 1175,
      "Ġmohabbat": 1176,
      "Ġsklad": 1177,
      "ForEach": 1178,
      "ĠCERN": 1179,
      "etails": 1180,
      "ĠBelg": 1181,
      "JsonPart": 1182,
      "onter": 1183,
      "ĠChaucer": 1184,
      "Ġthalam": 1185,
      "ĠCarrington": 1186,
      "ĠPSF": 1187,
      "ĠTAP": 1188,
      "Ġana": 1189,
      "DebugTest": 1190,
      "Ġanaer": 1191,
      "pageno": 1192,
      "CycleOffset": 1193,
      "userdetails": 1194,
      "matik": 1195,
      "Ġanaerobic": 1196,
      "ification": 1197,
      "fc": 1198,
      "ĠSteck": 1199,
      "Ġsusc": 1200,
      "ĠBhd": 1201,
      "unut": 1202,
      "ĠShare": 1203,
      "ĠTCP": 1204,
      "ĠMcGuire": 1205,
      "mathscr": 1206,
      "Ġchedd": 1207,
      "Ġcheddar": 1208,
      "ImportGroup": 1209,
      "Ġpeat": 1210,
      "Mahon": 1211,
      "ĠHassel": 1212,
      "Ġsalami": 1213,
      "OnFile": 1214,
      "ĠABP": 1215,
      "opuerto": 1216,
      "Ġprzep": 1217,
      "Ġdevastating": 1218,
      "FontFace": 1219,
      "case": 1220,
      "wide": 1221,
      "Ġmagnetores": 1222,
      "KeyboardButton": 1223,
      "ĠSharePoint": 1224,
      "Ġporttitor": 1225,
      "AspectRatio": 1226,
      "ĠArthur": 1227,
      "ercy": 1228,
      "Ġprohl": 1229,
      "AMP": 1230,
      "acle": 1231,
      "oshima": 1232,
      "Schmidt": 1233,
      "Ġnymph": 1234,
      "ĠEc": 1235,
      "Ġnadi": 1236,
      "ĠbuildFor": 1237,
      "cev": 1238,
      "obin": 1239,
      "GetParaPkg": 1240,
      "kenn": 1241,
      "ĠWaz": 1242,
      "ebo": 1243,
      "omized": 1244,
      "ivac": 1245,
      "xff": 1246,
      "Ġobice": 1247,
      "aranteed": 1248,
      "webserv": 1249,
      "ACH": 1250,
      "ĠScientology": 1251,
      "ĠChik": 1252,
      "arred": 1253,
      "afu": 1254,
      "neet": 1255,
      "Ġconvers": 1256,
      "znam": 1257,
      "oci": 1258,
      "gean": 1259,
      "Criterion": 1260,
      "MIB": 1261,
      "ĠTMD": 1262,
      "PointerException": 1263,
      "Ġunsc": 1264,
      "ainte": 1265,
      "atterson": 1266,
      "fullscreen": 1267,
      "orch": 1268,
      "dropdown": 1269,
      "rophic": 1270,
      "Ġcoh": 1271,
      "ĠTuti": 1272,
      "Ġdeser": 1273,
      "ĠMia": 1274,
      "ĠGreensboro": 1275,
      "Ġquae": 1276,
      "song": 1277,
      "roughs": 1278,
      "elter": 1279,
      "Ġnascetur": 1280,
      "vira": 1281,
      "ĠJesus": 1282,
      "ĠBurroughs": 1283,
      "RET": 1284,
      "Ġkiz": 1285,
      "chnik": 1286,
      "hle": 1287,
      "Ġadsor": 1288,
      "ObjectDefer": 1289,
      "ĠgetConnection": 1290,
      "ssr": 1291,
      "Ġkuz": 1292,
      "ĠChung": 1293,
      "ieszka": 1294,
      "GRU": 1295,
      "Ġovipares": 1296,
      "hank": 1297,
      "Ġhyst": 1298,
      "pruch": 1299,
      "auso": 1300,
      "ĠRuff": 1301,
      "Prod": 1302,
      "ĠAladdin": 1303,
      "ĠLie": 1304,
      "eken": 1305,
      "vom": 1306,
      "ĠCarleton": 1307,
      "ĠWinf": 1308,
      "Ġlacinia": 1309,
      "Movement": 1310,
      "MovementControls": 1311,
      "Ġhaud": 1312,
      "Ġpotest": 1313,
      "BlitzID": 1314,
      "Ġach": 1315,
      "Ġpluripotent": 1316,
      "ĠKonstant": 1317,
      "Mord": 1318,
      "ĠuseRef": 1319,
      "UNK": 1320,
      "otid": 1321,
      "ĠCic": 1322,
      "Ġdeserunt": 1323,
      "Ġtarm": 1324,
      "essex": 1325,
      "ĠCicero": 1326,
      "Flexstr": 1327,
      "insley": 1328,
      "Maur": 1329,
      "Ġsatt": 1330,
      "ills": 1331,
      "Ġhau": 1332,
      "Ġpamo": 1333,
      "ĠMoira": 1334,
      "EventEmitter": 1335,
      "andowski": 1336,
      "OnFileChange": 1337,
      "Ġteam": 1338,
      "Ġindul": 1339,
      "inan": 1340,
      "ĠHans": 1341,
      "ĠSorrento": 1342,
      "ertal": 1343,
      "ĠStar": 1344,
      "alak": 1345,
      "kran": 1346,
      "ĠBeyonce": 1347,
      "ointe": 1348,
      "otal": 1349,
      "ĠteamTable": 1350,
      "yue": 1351,
      "OrFail": 1352,
      "valu": 1353,
      "Ġsurcharge": 1354,
      "ystring": 1355,
      "StartX": 1356,
      "ĠHuerta": 1357,
      "ĠoperandSize": 1358,
      "ĠaddCriterion": 1359,
      "fred": 1360,
      "ĠGoodyear": 1361,
      "Ġpunctul": 1362,
      "Ġhsize": 1363,
      "statement": 1364,
      "ĠISC": 1365,
      "ĠRockville": 1366,
      "ĠmyBuilder": 1367,
      "ĠNicholson": 1368,
      "Ġhof": 1369,
      "ectl": 1370,
      "permalink": 1371,
      "GULD": 1372,
      "ĠKxh": 1373,
      "kowy": 1374,
      "ĠspacerItem": 1375,
      "india": 1376,
      "Ġabb": 1377,
      "Ġunderstatement": 1378,
      "Ġabsc": 1379,
      "thebetterindia": 1380,
      "Ġbhfuil": 1381,
      "opol": 1382,
      "Ġnatural": 1383,
      "Ġfeit": 1384,
      "Ġrecombination": 1385,
      "Ġthumbnail": 1386,
      "ĠthumbnailUrl": 1387,
      "ivan": 1388,
      "ĠNoContent": 1389,
      "ĠStaffel": 1390,
      "ĠfontFamily": 1391,
      "zh": 1392,
      "tab": 1393,
      "ĠStringBuffer": 1394,
      "Ġpcl": 1395,
      "phobic": 1396,
      "getStudentNo": 1397,
      "amon": 1398,
      "ĠSilv": 1399,
      "OMS": 1400,
      "ĠMort": 1401,
      "Ġgingham": 1402,
      "ĠEee": 1403,
      "ĠVas": 1404,
      "kaa": 1405,
      "discord": 1406,
      "ĠArora": 1407,
      "niki": 1408,
      "ĠTind": 1409,
      "SubDirectory": 1410,
      "ById": 1411,
      "SubDirectoryPath": 1412,
      "LTH": 1413,
      "ActiveClass": 1414,
      "anthin": 1415,
      "Ġofx": 1416,
      "berts": 1417,
      "eralization": 1418,
      "ĠnowDate": 1419,
      "glyphs": 1420,
      "NoError": 1421,
      "Razibul": 1422,
      "ĠDam": 1423,
      "Ġjednou": 1424,
      "ĠCalvert": 1425,
      "Ġpunctulatis": 1426,
      "Ġpayee": 1427,
      "ignano": 1428,
      "Ġsperm": 1429,
      "Assignment": 1430,
      "iegt": 1431,
      "Ġkompakt": 1432,
      "ĠPusen": 1433,
      "ĠPusenk": 1434,
      "Ġfapt": 1435,
      "otry": 1436,
      "Ġnegar": 1437,
      "atilde": 1438,
      "Ġforceps": 1439,
      "apetva": 1440,
      "risy": 1441,
      "ĠHSE": 1442,
      "minster": 1443,
      "ĠBromley": 1444,
      "Errorf": 1445,
      "ĠShack": 1446,
      "arang": 1447,
      "cyj": 1448,
      "ViewById": 1449,
      "Ġboyunca": 1450,
      "Ġtowel": 1451,
      "hita": 1452,
      "ĠTie": 1453,
      "Ġstand": 1454,
      "cparam": 1455,
      "ĠMulder": 1456,
      "vaient": 1457,
      "ighth": 1458,
      "Ġjumpa": 1459,
      "Ġflaves": 1460,
      "ournal": 1461,
      "Alban": 1462,
      "akup": 1463,
      "Ġolvidado": 1464,
      "ĠSRPGoGet": 1465,
      "onde": 1466,
      "ĠTCPAssignment": 1467,
      "ĠNIM": 1468,
      "Ġsettlor": 1469,
      "umbra": 1470,
      "ĠRousse": 1471,
      "locked": 1472,
      "Ġhetukatt": 1473,
      "Ġkal": 1474,
      "umbi": 1475,
      "hna": 1476,
      "ĠmaxLength": 1477,
      "utage": 1478,
      "PopupWindow": 1479,
      "tfine": 1480,
      "executeUpdate": 1481,
      "Ġemancip": 1482,
      "rbara": 1483,
      "ksi": 1484,
      "ĠCain": 1485,
      "imis": 1486,
      "ĠEndgame": 1487,
      "ufe": 1488,
      "imestamp": 1489,
      "ERT": 1490,
      "ĠSwo": 1491,
      "Chk": 1492,
      "ĠBOSS": 1493,
      "inim": 1494,
      "Ġagacch": 1495,
      "lub": 1496,
      "ACON": 1497,
      "ĠnumArray": 1498,
      "aliyet": 1499,
      "Ġnovo": 1500,
      "Ġposture": 1501,
      "ĠpostureProxy": 1502,
      "SKA": 1503,
      "Portal": 1504,
      "iyam": 1505,
      "nil": 1506,
      "evre": 1507,
      "Ġsaucer": 1508,
      "ĠPPC": 1509,
      "ĠqDebug": 1510,
      "iron": 1511,
      "Ġyksi": 1512,
      "ĠCommand": 1513,
      "glEnd": 1514,
      "englisch": 1515,
      "PreferenceKeys": 1516,
      "Produto": 1517,
      "umping": 1518,
      "ĠnovoProduto": 1519,
      "ĠBrowser": 1520,
      "zyme": 1521,
      "ĠSheng": 1522,
      "Aula": 1523,
      "esia": 1524,
      "apai": 1525,
      "rta": 1526,
      "ckiego": 1527,
      "nilvadipine": 1528,
      "borderwidth": 1529,
      "ropic": 1530,
      "ĠTMC": 1531,
      "icale": 1532,
      "Ġtsa": 1533,
      "zinha": 1534,
      "atern": 1535,
      "Ġhiko": 1536,
      "ĠVeronica": 1537,
      "ĠJamaica": 1538,
      "amycin": 1539,
      "ĠCroft": 1540,
      "ĠPee": 1541,
      "Ġdian": 1542,
      "nje": 1543,
      "ĠUsman": 1544,
      "glich": 1545,
      "awan": 1546,
      "ĠSlovenian": 1547,
      "orderLine": 1548,
      "ĠRooney": 1549,
      "ĠMediaType": 1550,
      "apanam": 1551,
      "ancellor": 1552,
      "Ġstunted": 1553,
      "ysc": 1554,
      "upra": 1555,
      "AsyncKeyState": 1556,
      "astal": 1557,
      "ullivan": 1558,
      "Ġpluck": 1559,
      "cellulose": 1560,
      "Ġfenn": 1561,
      "Ġresigning": 1562,
      "ciem": 1563,
      "zar": 1564,
      "Ġgst": 1565,
      "Ġbege": 1566,
      "Ġhre": 1567,
      "ĠEbert": 1568,
      "rightarrow": 1569,
      "hart": 1570,
      "ĠsetIs": 1571,
      "anst": 1572,
      "ĠEmily": 1573,
      "larini": 1574,
      "mapstruct": 1575,
      "Ġhorm": 1576,
      "Ġsurpassing": 1577,
      "Ġpith": 1578,
      "icillium": 1579,
      "Ġquartile": 1580,
      "Ġsalir": 1581,
      "opez": 1582,
      "manager": 1583,
      "getFullName": 1584,
      "Timestamp": 1585,
      "ĠPMA": 1586,
      "elps": 1587,
      "ĠPhelps": 1588,
      "pence": 1589,
      "ĠStur": 1590,
      "Ġshank": 1591,
      "czyk": 1592,
      "ĠendExpNow": 1593,
      "Ġwork": 1594,
      "ĠOrrell": 1595,
      "ickej": 1596,
      "RAchievement": 1597,
      "ĠShadow": 1598,
      "ĠBeer": 1599,
      "match": 1600,
      "idere": 1601,
      "ĠBeerObj": 1602,
      "uperv": 1603,
      "pwm": 1604,
      "iek": 1605,
      "teilung": 1606,
      "orption": 1607,
      "Ġimpoz": 1608,
      "ises": 1609,
      "managerpage": 1610,
      "StubCompat": 1611,
      "ĠMcCormick": 1612,
      "UTION": 1613,
      "tho": 1614,
      "ĠAlgeria": 1615,
      "estes": 1616,
      "apsing": 1617,
      "afka": 1618,
      "ĠclockRadius": 1619,
      "ĠBland": 1620,
      "hkar": 1621,
      "startTimestamp": 1622,
      "wit": 1623,
      "ĠNath": 1624,
      "cn": 1625,
      "ĠGyne": 1626,
      "anye": 1627,
      "ĠRSM": 1628,
      "Ġgiov": 1629,
      "aly": 1630,
      "Ġponerse": 1631,
      "ĠBing": 1632,
      "ielt": 1633,
      "ĠHayward": 1634,
      "Ġkerat": 1635,
      "Ġatan": 1636,
      "arle": 1637,
      "Ġinvert": 1638,
      "iladi": 1639,
      "ĠLala": 1640,
      "eredith": 1641,
      "ISTR": 1642,
      "ĠMeredith": 1643,
      "AutoSize": 1644,
      "Gon": 1645,
      "ĠJMS": 1646,
      "varn": 1647,
      "ichia": 1648,
      "Ġaastal": 1649,
      "rums": 1650,
      "ĠPogis": 1651,
      "Jlc": 1652,
      "ĠMichaela": 1653,
      "ĠBennett": 1654,
      "Ġcone": 1655,
      "idelity": 1656,
      "vants": 1657,
      "DBES": 1658,
      "Ġversion": 1659,
      "Ġunin": 1660,
      "ĠKarl": 1661,
      "Ġgoofy": 1662,
      "utu": 1663,
      "ĠMaxine": 1664,
      "othpaste": 1665,
      "toothpaste": 1666,
      "ĠNaN": 1667,
      "loid": 1668,
      "ĠMcDon": 1669,
      "ucapkan": 1670,
      "awah": 1671,
      "ĠsetObject": 1672,
      "ĠSSm": 1673,
      "Ġdices": 1674,
      "ĠVIH": 1675,
      "ĠGCB": 1676,
      "ĠGCBO": 1677,
      "oria": 1678,
      "Ġema": 1679,
      "Ġcharg": 1680,
      "Access": 1681,
      "ytaj": 1682,
      "eczytaj": 1683,
      "inud": 1684,
      "ĠPots": 1685,
      "Przeczytaj": 1686,
      "StarCore": 1687,
      "ĠPotsdam": 1688,
      "Ġmid": 1689,
      "Ġneko": 1690,
      "keyValue": 1691,
      "lisher": 1692,
      "ĠGive": 1693,
      "spawn": 1694,
      "Ġsnd": 1695,
      "SampleSize": 1696,
      "ĠOri": 1697,
      "Ġcuy": 1698,
      "ĠUConn": 1699,
      "wch": 1700,
      "ustos": 1701,
      "omist": 1702,
      "ĠOrioles": 1703,
      "OneFrame": 1704,
      "Ġunf": 1705,
      "yun": 1706,
      "Millis": 1707,
      "Ġgen": 1708,
      "bakan": 1709,
      "arter": 1710,
      "hened": 1711,
      "Submit": 1712,
      "ĠJupyter": 1713,
      "essous": 1714,
      "Ġbing": 1715,
      "bons": 1716,
      "ayet": 1717,
      "ocond": 1718,
      "mut": 1719,
      "legate": 1720,
      "jska": 1721,
      "ricorn": 1722,
      "ĠHanuman": 1723,
      "reflectionMap": 1724,
      "ĠODI": 1725,
      "gom": 1726,
      "Ġstric": 1727,
      "ĠBrigitte": 1728,
      "Carlton": 1729,
      "ĠMahesh": 1730,
      "Ġretir": 1731,
      "ĠonSubmit": 1732,
      "selectTable": 1733,
      "Ġurch": 1734,
      "kis": 1735,
      "reich": 1736,
      "zyma": 1737,
      "ĠWatertown": 1738,
      "empty": 1739,
      "ĠKej": 1740,
      "ombres": 1741,
      "ĠKejriwal": 1742,
      "cone": 1743,
      "ĠLois": 1744,
      "tego": 1745,
      "vian": 1746,
      "laub": 1747,
      "ĠdefList": 1748,
      "ĠNAG": 1749,
      "Ġzob": 1750,
      "Ġsuddhakatt": 1751,
      "Ġphleg": 1752,
      "Ġdhan": 1753,
      "ĠUSC": 1754,
      "Ġquantile": 1755,
      "oncer": 1756,
      "Ġnunc": 1757,
      "ĠKig": 1758,
      "ĠDonegal": 1759,
      "ĠApna": 1760,
      "ĠDw": 1761,
      "Ġperf": 1762,
      "ĠRoop": 1763,
      "fd": 1764,
      "ĠSubhanahu": 1765,
      "WeakTableMutex": 1766,
      "icient": 1767,
      "zoom": 1768,
      "Ui": 1769,
      "atini": 1770,
      "Fixed": 1771,
      "anaa": 1772,
      "setVisibility": 1773,
      "Ġclenched": 1774,
      "ctu": 1775,
      "ĠAlvin": 1776,
      "bumper": 1777,
      "hof": 1778,
      "Gruntfile": 1779,
      "anaka": 1780,
      "ĠTanaka": 1781,
      "ĠCermak": 1782,
      "Angle": 1783,
      "SIX": 1784,
      "POSIX": 1785,
      "usch": 1786,
      "TrackAngle": 1787,
      "iaux": 1788,
      "ĠBrooke": 1789,
      "Ġimpenet": 1790,
      "Ġimpenetrable": 1791,
      "Ġvesicles": 1792,
      "ensin": 1793,
      "Ġnibbacan": 1794,
      "areer": 1795,
      "Ġabund": 1796,
      "ituary": 1797,
      "Ġpeaks": 1798,
      "Slate": 1799,
      "ĠLillian": 1800,
      "larak": 1801,
      "ĠisEmpty": 1802,
      "usional": 1803,
      "alej": 1804,
      "hanti": 1805,
      "orable": 1806,
      "ĠGlendale": 1807,
      "ĠIsabella": 1808,
      "ĠAV": 1809,
      "Ġoauth": 1810,
      "iefert": 1811,
      "ytoin": 1812,
      "wiad": 1813,
      "ĠLincolnshire": 1814,
      "unders": 1815,
      "ĠBerlusconi": 1816,
      "ĠNato": 1817,
      "ĠMadsen": 1818,
      "ĠCrete": 1819,
      "Ġnaturalist": 1820,
      "Ġliel": 1821,
      "opoietic": 1822,
      "chter": 1823,
      "ĠCoronado": 1824,
      "ĠBre": 1825,
      "jde": 1826,
      "anner": 1827,
      "ambuco": 1828,
      "source": 1829,
      "Ġzooms": 1830,
      "ĠSig": 1831,
      "imin": 1832,
      "ĠSigmund": 1833,
      "ĠGolan": 1834,
      "ĠMendes": 1835,
      "Ġmartyrdom": 1836,
      "anstalt": 1837,
      "Binary": 1838,
      "farwydd": 1839,
      "biggl": 1840,
      "onge": 1841,
      "ĠEarle": 1842,
      "Ġgyd": 1843,
      "ĠTrin": 1844,
      "createServer": 1845,
      "ergies": 1846,
      "ItemGroup": 1847,
      "ĠHeming": 1848,
      "ĠCommonwealth": 1849,
      "ĠHob": 1850,
      "Trace": 1851,
      "getSelected": 1852,
      "gling": 1853,
      "imgInit": 1854,
      "abu": 1855,
      "ĠCecil": 1856,
      "Ġimpr": 1857,
      "hemm": 1858,
      "Word": 1859,
      "split": 1860,
      "Ġtantrums": 1861,
      "tpl": 1862,
      "ĠCasey": 1863,
      "ĠZul": 1864,
      "rump": 1865,
      "Ġdesto": 1866,
      "Ġvolut": 1867,
      "chak": 1868,
      "ĠMCT": 1869,
      "ubin": 1870,
      "ĠEndpoint": 1871,
      "ĠNadine": 1872,
      "ujjati": 1873,
      "Ġnash": 1874,
      "erei": 1875,
      "Ġaffez": 1876,
      "Ġcil": 1877,
      "ĠSrivastava": 1878,
      "iras": 1879,
      "Ġsill": 1880,
      "ĠHanson": 1881,
      "FBSDKGraph": 1882,
      "fin": 1883,
      "ĠFEMA": 1884,
      "ĠOndo": 1885,
      "Ġsau": 1886,
      "ĠRMA": 1887,
      "Inner": 1888,
      "ostic": 1889,
      "Ġadher": 1890,
      "ĠcustList": 1891,
      "Ġaneu": 1892,
      "ĠToch": 1893,
      "StackTrace": 1894,
      "FileOutput": 1895,
      "ĠRFC": 1896,
      "ĠgetInstance": 1897,
      "retreat": 1898,
      "PhCH": 1899,
      "ured": 1900,
      "estyle": 1901,
      "Ġpross": 1902,
      "ĠMainz": 1903,
      "Ġgam": 1904,
      "ĠDME": 1905,
      "ĠAngie": 1906,
      "peau": 1907,
      "Ġmicroarray": 1908,
      "ĠVLAN": 1909,
      "ĠEET": 1910,
      "Ġnigg": 1911,
      "DBObject": 1912,
      "Ġausp": 1913,
      "ishna": 1914,
      "lade": 1915,
      "Ġdents": 1916,
      "ingStation": 1917,
      "ĠchargingStation": 1918,
      "inse": 1919,
      "ONY": 1920,
      "ĠLampard": 1921,
      "GIN": 1922,
      "ĠMcLaughlin": 1923,
      "request": 1924,
      "ĠMurt": 1925,
      "Aeonium": 1926,
      "orical": 1927,
      "ĠAPS": 1928,
      "Ġtranscript": 1929,
      "Ġobs": 1930,
      "ottak": 1931,
      "msg": 1932,
      "HttpMethod": 1933,
      "Ġeurope": 1934,
      "ĠtotalBlockUsedA": 1935,
      "Ġvelik": 1936,
      "Ġtorque": 1937,
      "ORICAL": 1938,
      "OpenCamera": 1939,
      "Ġdobrze": 1940,
      "ĠDSP": 1941,
      "Enter": 1942,
      "wei": 1943,
      "Ġqar": 1944,
      "ĠIbar": 1945,
      "Ġzove": 1946,
      "ConfigRequest": 1947,
      "Ġspringboard": 1948,
      "airs": 1949,
      "ĠMarty": 1950,
      "olite": 1951,
      "Ġsynergies": 1952,
      "imetype": 1953,
      "Ġhins": 1954,
      "ssen": 1955,
      "meni": 1956,
      "ĠNathalie": 1957,
      "RefSet": 1958,
      "Ġincid": 1959,
      "uniqueItems": 1960,
      "PFA": 1961,
      "rosine": 1962,
      "Ġconfig": 1963,
      "osci": 1964,
      "ĠFog": 1965,
      "Ġabbey": 1966,
      "amming": 1967,
      "PG": 1968,
      "Clip": 1969,
      "Ġthistle": 1970,
      "ĠSek": 1971,
      "ĠAbia": 1972,
      "ambut": 1973,
      "cursors": 1974,
      "yaj": 1975,
      "cles": 1976,
      "ĠFairfield": 1977,
      "Sullivan": 1978,
      "ĠMug": 1979,
      "anggung": 1980,
      "ĠMugabe": 1981,
      "ValMap": 1982,
      "ĠBSTC": 1983,
      "pplication": 1984,
      "imshow": 1985,
      "LEMN": 1986,
      "apse": 1987,
      "ymax": 1988,
      "thead": 1989,
      "Ġobil": 1990,
      "IVATE": 1991,
      "Ġsacrific": 1992,
      "Ġmedulla": 1993,
      "Ġavoid": 1994,
      "akai": 1995,
      "Ġtotam": 1996,
      "Ġcytyle": 1997,
      "anneau": 1998,
      "DUC": 1999,
      "ĠXiang": 2000,
      "Gloria": 2001,
      "common": 2002,
      "arthed": 2003,
      "ĠHosk": 2004,
      "Ġsculpt": 2005,
      "ĠHoskins": 2006,
      "jsce": 2007,
      "ĠTOC": 2008,
      "lak": 2009,
      "BlockHash": 2010,
      "elic": 2011,
      "odoro": 2012,
      "Ġerk": 2013,
      "ĠCline": 2014,
      "Ġklad": 2015,
      "ĠSocrates": 2016,
      "Ġfencing": 2017,
      "Ġplais": 2018,
      "Colors": 2019,
      "endom": 2020,
      "AssetsResponse": 2021,
      "Filtered": 2022,
      "ambuk": 2023,
      "Fill": 2024,
      "Ġsubtropical": 2025,
      "addImage": 2026,
      "Ġsuffered": 2027,
      "ĠBritney": 2028,
      "ĠDora": 2029,
      "ĠMajka": 2030,
      "ĠAins": 2031,
      "ancellation": 2032,
      "ĠAstra": 2033,
      "renew": 2034,
      "Ġhey": 2035,
      "Ġkhen": 2036,
      "razio": 2037,
      "mLogin": 2038,
      "Ġsept": 2039,
      "aconda": 2040,
      "Enumer": 2041,
      "ĠRxe": 2042,
      "KeysFiltered": 2043,
      "GEBURTS": 2044,
      "aturi": 2045,
      "Ġpap": 2046,
      "raphics": 2047,
      "Ġcleaved": 2048,
      "ancellationToken": 2049,
      "iktok": 2050,
      "Ġporo": 2051,
      "Assign": 2052,
      "ĠFuj": 2053,
      "Ġppt": 2054,
      "Assignable": 2055,
      "ĠFujita": 2056,
      "ĠXerox": 2057,
      "ucher": 2058,
      "estrel": 2059,
      "StarGo": 2060,
      "adin": 2061,
      "ĠMB": 2062,
      "ĠMot": 2063,
      "ĠOverton": 2064,
      "utional": 2065,
      "chedelic": 2066,
      "locationX": 2067,
      "cMove": 2068,
      "ĠpcMove": 2069,
      "gomery": 2070,
      "Ġkaro": 2071,
      "AssignableFrom": 2072,
      "ĠGerald": 2073,
      "Ġovert": 2074,
      "ĠGeraldine": 2075,
      "ĠAIC": 2076,
      "qda": 2077,
      "ĠFTE": 2078,
      "ĠDyer": 2079,
      "Ġgeeign": 2080,
      "udahan": 2081,
      "Ġspits": 2082,
      "Ġchromedp": 2083,
      "itimes": 2084,
      "BinaryOperation": 2085,
      "arza": 2086,
      "Ġdisplay": 2087,
      "returnValues": 2088,
      "Ġwomb": 2089,
      "awab": 2090,
      "imread": 2091,
      "ALTERN": 2092,
      "nov": 2093,
      "NAMEN": 2094,
      "ALTERNATIV": 2095,
      "ivre": 2096,
      "Ġsatte": 2097,
      "ĠUIText": 2098,
      "ALTERNATIVNAMEN": 2099,
      "ĠSurrey": 2100,
      "Ġunul": 2101,
      "usk": 2102,
      "iril": 2103,
      "Ġlongitud": 2104,
      "ADE": 2105,
      "miy": 2106,
      "itches": 2107,
      "self": 2108,
      "ĠTInner": 2109,
      "ĠEla": 2110,
      "ĠElaine": 2111,
      "ĠcurrentValue": 2112,
      "feature": 2113,
      "featureType": 2114,
      "stepCharacter": 2115,
      "upervised": 2116,
      "Ġnaud": 2117,
      "itaire": 2118,
      "inisc": 2119,
      "ssled": 2120,
      "olysis": 2121,
      "ĠPoll": 2122,
      "akannya": 2123,
      "Ġentrevista": 2124,
      "Ġloop": 2125,
      "bounding": 2126,
      "ĠHermione": 2127,
      "ĠFERC": 2128,
      "ergeddata": 2129,
      "Ġarterioles": 2130,
      "ĠDrey": 2131,
      "getMove": 2132,
      "ĠSCT": 2133,
      "ĠReap": 2134,
      "Ġincididunt": 2135,
      "ChangeString": 2136,
      "Ġelic": 2137,
      "innah": 2138,
      "eliest": 2139,
      "roj": 2140,
      "ĠHook": 2141,
      "Ġgrim": 2142,
      "ĠPandya": 2143,
      "Ġbib": 2144,
      "puri": 2145,
      "ĠZam": 2146,
      "Ġontst": 2147,
      "Ġmi": 2148,
      "Ġtranscriptome": 2149,
      "Ġloophole": 2150,
      "Ġchildnya": 2151,
      "IManager": 2152,
      "Ġpath": 2153,
      "ĠXian": 2154,
      "ĠGilm": 2155,
      "ĠGilmore": 2156,
      "essor": 2157,
      "ĠManif": 2158,
      "Ġcend": 2159,
      "ĠDian": 2160,
      "ĠstatusBar": 2161,
      "Ġsamb": 2162,
      "ĠDordrecht": 2163,
      "ullable": 2164,
      "Ġsamband": 2165,
      "Suppress": 2166,
      "pey": 2167,
      "Ġedil": 2168,
      "Ġacred": 2169,
      "espo": 2170,
      "LINE": 2171,
      "BtnFill": 2172,
      "Repo": 2173,
      "ĠKeyword": 2174,
      "Ġbibendum": 2175,
      "Ġdali": 2176,
      "rabic": 2177,
      "Schneider": 2178,
      "Arabic": 2179,
      "ToArabic": 2180,
      "ĠFab": 2181,
      "Ġustaw": 2182,
      "ĠHaiti": 2183,
      "querysearch": 2184,
      "Ġfistule": 2185,
      "URU": 2186,
      "yat": 2187,
      "ĠWalther": 2188,
      "ĠDFT": 2189,
      "urad": 2190,
      "ĠDaphne": 2191,
      "artment": 2192,
      "Ġontstaan": 2193,
      "Ġspine": 2194,
      "requestFocus": 2195,
      "ĠSFC": 2196,
      "omini": 2197,
      "mmas": 2198,
      "Ġdeh": 2199,
      "Ġheadless": 2200,
      "Margin": 2201,
      "ĠIPC": 2202,
      "Ġparabola": 2203,
      "edil": 2204,
      "ĠMPS": 2205,
      "Ġfamiliar": 2206,
      "ĠjobSearchRepo": 2207,
      "rons": 2208,
      "lvmama": 2209,
      "unks": 2210,
      "inec": 2211,
      "dean": 2212,
      "ĠSchreiber": 2213,
      "Ġsubsidence": 2214,
      "yka": 2215,
      "sses": 2216,
      "buah": 2217,
      "Ġsetzt": 2218,
      "Ġperpend": 2219,
      "itchCompat": 2220,
      "ĠTym": 2221,
      "liono": 2222,
      "roft": 2223,
      "HIV": 2224,
      "ĠPLHIV": 2225,
      "ceiver": 2226,
      "aacute": 2227,
      "etele": 2228,
      "abla": 2229,
      "ĠTweed": 2230,
      "oport": 2231,
      "ToStr": 2232,
      "icrob": 2233,
      "SQL": 2234,
      "deps": 2235,
      "ĠDario": 2236,
      "multirow": 2237,
      "ĠBowie": 2238,
      "ĠFoam": 2239,
      "uera": 2240,
      "Ġingu": 2241,
      "Ġvutta": 2242,
      "ĠFauc": 2243,
      "ĠFauci": 2244,
      "ĠLola": 2245,
      "ĠSerr": 2246,
      "Ġtegas": 2247,
      "ĠTets": 2248,
      "ĠTener": 2249,
      "rimos": 2250,
      "vitro": 2251,
      "ĠMSA": 2252,
      "ĠGalbraith": 2253,
      "pref": 2254,
      "orbent": 2255,
      "PartResult": 2256,
      "Ġabraz": 2257,
      "blest": 2258,
      "esco": 2259,
      "ncbi": 2260,
      "ĠMorb": 2261,
      "ĠMorbi": 2262,
      "ĠPGR": 2263,
      "CategoryId": 2264,
      "ĠWe": 2265,
      "ccedil": 2266,
      "TEA": 2267,
      "addPreferred": 2268,
      "ĠSacramento": 2269,
      "ĠASM": 2270,
      "Ġrodean": 2271,
      "ĠNight": 2272,
      "maso": 2273,
      "Host": 2274,
      "ĠYYY": 2275,
      "ĠYYYY": 2276,
      "enchen": 2277,
      "atency": 2278,
      "Hunter": 2279,
      "logic": 2280,
      "VoidHunter": 2281,
      "ĠLum": 2282,
      "ĠcallSettings": 2283,
      "badlogic": 2284,
      "email": 2285,
      "lois": 2286,
      "Ġtransceiver": 2287,
      "commonByteArray": 2288,
      "VI": 2289,
      "nv": 2290,
      "Excel": 2291,
      "matchCondition": 2292,
      "Ġreentry": 2293,
      "meric": 2294,
      "UMS": 2295,
      "Ġhuman": 2296,
      "Ġunsupervised": 2297,
      "unen": 2298,
      "store": 2299,
      "ĠPPI": 2300,
      "toa": 2301,
      "ĠMCA": 2302,
      "lein": 2303,
      "ĠHamming": 2304,
      "emailer": 2305,
      "Ġwykorzyst": 2306,
      "Ġsubdued": 2307,
      "Ġazar": 2308,
      "metto": 2309,
      "ĠZagre": 2310,
      "encil": 2311,
      "estinghouse": 2312,
      "ĠLaurel": 2313,
      "ĠAppCompat": 2314,
      "ĠSancho": 2315,
      "ICE": 2316,
      "SystemColors": 2317,
      "adese": 2318,
      "ĠBotox": 2319,
      "iche": 2320,
      "ayscale": 2321,
      "pere": 2322,
      "iones": 2323,
      "zag": 2324,
      "utsches": 2325,
      "ĠDior": 2326,
      "angered": 2327,
      "Ġasymptotics": 2328,
      "ĠBIS": 2329,
      "bm": 2330,
      "Ġgreek": 2331,
      "ĠSmackDown": 2332,
      "InputValue": 2333,
      "eleng": 2334,
      "iva": 2335,
      "ĠBonif": 2336,
      "fq": 2337,
      "nagy": 2338,
      "fqsen": 2339,
      "hod": 2340,
      "riven": 2341,
      "arton": 2342,
      "xcor": 2343,
      "Science": 2344,
      "ScienceStudent": 2345,
      "Ġtokopedia": 2346,
      "Ġvolutpat": 2347,
      "ĠEugenia": 2348,
      "jaya": 2349,
      "pportune": 2350,
      "Ġperjury": 2351,
      "lance": 2352,
      "atched": 2353,
      "atiable": 2354,
      "Ġsatd": 2355,
      "ancis": 2356,
      "substring": 2357,
      "aphyl": 2358,
      "ieme": 2359,
      "ĠCondo": 2360,
      "fileExists": 2361,
      "Ġimmobil": 2362,
      "kul": 2363,
      "Ġsf": 2364,
      "ĠST": 2365,
      "innamon": 2366,
      "Ġferritin": 2367,
      "qing": 2368,
      "unj": 2369,
      "ĠmdlMeshVD": 2370,
      "inkan": 2371,
      "ĠCSC": 2372,
      "KUR": 2373,
      "thrust": 2374,
      "External": 2375,
      "ĠWilkes": 2376,
      "apshot": 2377,
      "ĠShin": 2378,
      "Ġfontweight": 2379,
      "nga": 2380,
      "impulan": 2381,
      "ĠGoObject": 2382,
      "Ġnullable": 2383,
      "Ġalun": 2384,
      "Ġleu": 2385,
      "incs": 2386,
      "KURZ": 2387,
      "obbly": 2388,
      "icarboxylic": 2389,
      "Ġrepudi": 2390,
      "ĠTimor": 2391,
      "ziel": 2392,
      "ĠEdmonds": 2393,
      "ĠCFM": 2394,
      "cych": 2395,
      "ĠChamber": 2396,
      "ĠWIB": 2397,
      "Ġelement": 2398,
      "ioso": 2399,
      "inales": 2400,
      "ĠspineItem": 2401,
      "obacterial": 2402,
      "Ġisch": 2403,
      "ControlPTV": 2404,
      "ulk": 2405,
      "tsv": 2406,
      "Ġactin": 2407,
      "TimeUnit": 2408,
      "oxet": 2409,
      "ĠBoga": 2410,
      "ocia": 2411,
      "ĠConstantin": 2412,
      "fw": 2413,
      "Ġcondo": 2414,
      "Ġzuen": 2415,
      "iei": 2416,
      "bog": 2417,
      "Ġanisot": 2418,
      "ĠRamesh": 2419,
      "lstm": 2420,
      "Ġmergeddata": 2421,
      "Ġfermentum": 2422,
      "ĠMusc": 2423,
      "lert": 2424,
      "vann": 2425,
      "adur": 2426,
      "ĠBeasley": 2427,
      "igte": 2428,
      "Ġmegap": 2429,
      "Ġfale": 2430,
      "Earl": 2431,
      "erde": 2432,
      "Ġheave": 2433,
      "Ġriff": 2434,
      "lain": 2435,
      "ĠMTLTexture": 2436,
      "gwood": 2437,
      "vien": 2438,
      "Ġchut": 2439,
      "Keyword": 2440,
      "uis": 2441,
      "ogr": 2442,
      "idum": 2443,
      "Ġfurther": 2444,
      "immen": 2445,
      "ĠTarantino": 2446,
      "igues": 2447,
      "ashire": 2448,
      "ĠHaitian": 2449,
      "ĠUIAlert": 2450,
      "jskiego": 2451,
      "ĠIHAOAVOA": 2452,
      "increment": 2453,
      "Ġpenguins": 2454,
      "Ġalberg": 2455,
      "Ġalberga": 2456,
      "Ġonly": 2457,
      "Ġfog": 2458,
      "Ġmilliard": 2459,
      "ALLE": 2460,
      "Ġfoams": 2461,
      "Ġvuccanti": 2462,
      "obra": 2463,
      "ĠonlyOwner": 2464,
      "ĠBresc": 2465,
      "ĠBrescia": 2466,
      "Ġlemmas": 2467,
      "itag": 2468,
      "erva": 2469,
      "ĠmaxY": 2470,
      "arda": 2471,
      "umno": 2472,
      "ĠKersh": 2473,
      "ĠKershaw": 2474,
      "vali": 2475,
      "Ġge": 2476,
      "ruci": 2477,
      "ĠEmin": 2478,
      "hdf": 2479,
      "diendo": 2480,
      "jsko": 2481,
      "selfobj": 2482,
      "phenylsulfanyl": 2483,
      "final": 2484,
      "ĠKays": 2485,
      "gimento": 2486,
      "izarra": 2487,
      "arlings": 2488,
      "ribusiness": 2489,
      "Ġhash": 2490,
      "nyez": 2491,
      "pins": 2492,
      "AvlTree": 2493,
      "Poppins": 2494,
      "zier": 2495,
      "ĠTreas": 2496,
      "Ġgsi": 2497,
      "Gener": 2498,
      "mData": 2499,
      "hton": 2500,
      "Work": 2501,
      "ĠChamberlain": 2502,
      "JWT": 2503,
      "ZEN": 2504,
      "ĠSudanese": 2505,
      "GULDUR": 2506,
      "hst": 2507,
      "ĠVID": 2508,
      "ĠACS": 2509,
      "ĠGerd": 2510,
      "ĠPIC": 2511,
      "ĠATR": 2512,
      "Ġnodemailer": 2513,
      "Ġzwe": 2514,
      "Ġthermonuclear": 2515,
      "ĠTorn": 2516,
      "ĠTaunton": 2517,
      "pective": 2518,
      "owi": 2519,
      "Ġsplic": 2520,
      "ĠHerc": 2521,
      "SecurityMarks": 2522,
      "ĠTay": 2523,
      "Ġcomeback": 2524,
      "Ġingles": 2525,
      "ĠTayyip": 2526,
      "renewcommand": 2527,
      "lgende": 2528,
      "WIL": 2529,
      "learn": 2530,
      "Ġbili": 2531,
      "Ġsufrido": 2532,
      "ĠOFDM": 2533,
      "TintColor": 2534,
      "aita": 2535,
      "ĠCanaria": 2536,
      "qualiter": 2537,
      "Ġmite": 2538,
      "Ġsklearn": 2539,
      "native": 2540,
      "achim": 2541,
      "Ġtestclass": 2542,
      "esuada": 2543,
      "Ġmalesuada": 2544,
      "rox": 2545,
      "Ġsweetest": 2546,
      "ĠGrec": 2547,
      "nativeElement": 2548,
      "Pager": 2549,
      "countplot": 2550,
      "ĠSSI": 2551,
      "tsp": 2552,
      "urg": 2553,
      "ceptive": 2554,
      "Ġmiteinander": 2555,
      "Ġpisan": 2556,
      "entious": 2557,
      "astrar": 2558,
      "UILayout": 2559,
      "Ġrecorrer": 2560,
      "ĠHaus": 2561,
      "Ġdet": 2562,
      "thora": 2563,
      "Ġmengh": 2564,
      "izarse": 2565,
      "currentCharacter": 2566,
      "Ġutilisons": 2567,
      "rosk": 2568,
      "roskop": 2569,
      "chaoxing": 2570,
      "ennan": 2571,
      "ĠTrinity": 2572,
      "ĠBlackburn": 2573,
      "bock": 2574,
      "ovan": 2575,
      "Ġbahsede": 2576,
      "apen": 2577,
      "arupani": 2578,
      "ĠCharlene": 2579,
      "ChooseServer": 2580,
      "pInBuffer": 2581,
      "herlands": 2582,
      "Ġbilir": 2583,
      "ĠLoth": 2584,
      "Ġtestator": 2585,
      "Dropdown": 2586,
      "alat": 2587,
      "FormProvider": 2588,
      "scrib": 2589,
      "ĠAGC": 2590,
      "igheten": 2591,
      "trt": 2592,
      "arring": 2593,
      "ĠPetra": 2594,
      "uket": 2595,
      "arding": 2596,
      "ektion": 2597,
      "ĠHumphries": 2598,
      "chten": 2599,
      "xRtList": 2600,
      "AdxRtList": 2601,
      "ĠPollard": 2602,
      "Ans": 2603,
      "volence": 2604,
      "dong": 2605,
      "Ġpropri": 2606,
      "ĠESA": 2607,
      "Ġexcret": 2608,
      "Ġmastic": 2609,
      "RetResult": 2610,
      "ĠDFA": 2611,
      "aude": 2612,
      "builtin": 2613,
      "atura": 2614,
      "ĠBeal": 2615,
      "ostat": 2616,
      "Ġyatharaham": 2617,
      "yez": 2618,
      "Ġberp": 2619,
      "ĠGiuliani": 2620,
      "cohols": 2621,
      "ĠARN": 2622,
      "Ġheyday": 2623,
      "eket": 2624,
      "ĠMinMaxScaler": 2625,
      "ĠVanden": 2626,
      "ĠCoolid": 2627,
      "ĠCoolidge": 2628,
      "starcore": 2629,
      "ryt": 2630,
      "ĠProlog": 2631,
      "ĠADC": 2632,
      "ached": 2633,
      "Ġturp": 2634,
      "ifact": 2635,
      "ĠHardin": 2636,
      "Ġirres": 2637,
      "ĠgetSupport": 2638,
      "ĠFernanda": 2639,
      "ĠSwitchCompat": 2640,
      "ĠWalters": 2641,
      "ĠLjub": 2642,
      "notlocked": 2643,
      "ATH": 2644,
      "ovl": 2645,
      "ozn": 2646,
      "ĠElovl": 2647,
      "ĠZimm": 2648,
      "anish": 2649,
      "MAP": 2650,
      "yatiti": 2651,
      "ĠCox": 2652,
      "ĠCoxeter": 2653,
      "SCR": 2654,
      "ĠSchwarz": 2655,
      "ĠSchwarzschild": 2656,
      "anske": 2657,
      "getLong": 2658,
      "Ġhered": 2659,
      "ikia": 2660,
      "AnimationClip": 2661,
      "Ġrecher": 2662,
      "ĠCric": 2663,
      "west": 2664,
      "idered": 2665,
      "Ġshaft": 2666,
      "itej": 2667,
      "chin": 2668,
      "uelto": 2669,
      "Ġdechlorination": 2670,
      "place": 2671,
      "osters": 2672,
      "Ġkahelar": 2673,
      "ograft": 2674,
      "zus": 2675,
      "ako": 2676,
      "taro": 2677,
      "Ġintoxic": 2678,
      "Ġdemie": 2679,
      "dbjc": 2680,
      "olulu": 2681,
      "CaseMissense": 2682,
      "AppSettings": 2683,
      "ĠDFS": 2684,
      "apot": 2685,
      "uve": 2686,
      "getImage": 2687,
      "ĠXing": 2688,
      "ĠWikidata": 2689,
      "ILS": 2690,
      "Ġembank": 2691,
      "Ġeing": 2692,
      "getImageFolder": 2693,
      "Stored": 2694,
      "ĠMcCann": 2695,
      "StoredKeys": 2696,
      "ĠStalingrad": 2697,
      "Ġbicarbon": 2698,
      "Ġposl": 2699,
      "ehan": 2700,
      "ĠSheehan": 2701,
      "vala": 2702,
      "ĠTraf": 2703,
      "Ġcarc": 2704,
      "Ġunital": 2705,
      "Ġdakkh": 2706,
      "dracht": 2707,
      "ĠHaga": 2708,
      "ĠEvent": 2709,
      "iyat": 2710,
      "entino": 2711,
      "Ġcandl": 2712,
      "BSData": 2713,
      "Ġcandlest": 2714,
      "format": 2715,
      "Ġcandlestick": 2716,
      "inski": 2717,
      "ĠLuh": 2718,
      "serrat": 2719,
      "Ġpains": 2720,
      "tapping": 2721,
      "ĠSlovens": 2722,
      "ĠLitt": 2723,
      "olet": 2724,
      "Failed": 2725,
      "ĠLittleton": 2726,
      "Creation": 2727,
      "CreationFailed": 2728,
      "zwe": 2729,
      "ĠTrafalgar": 2730,
      "Ġhotiti": 2731,
      "ĠBhand": 2732,
      "FEN": 2733,
      "Ġvrh": 2734,
      "Ġkeep": 2735,
      "ĠAvery": 2736,
      "Ġinger": 2737,
      "ceral": 2738,
      "ĠConstantine": 2739,
      "MAPb": 2740,
      "Ġcomorbidities": 2741,
      "Ġconifers": 2742,
      "IfExists": 2743,
      "svn": 2744,
      "ĠNCT": 2745,
      "stract": 2746,
      "uesta": 2747,
      "ĠDuncan": 2748,
      "ĠHabib": 2749,
      "Ġindulge": 2750,
      "ttt": 2751,
      "AEA": 2752,
      "ickers": 2753,
      "ĠmaxHeight": 2754,
      "Ġliegt": 2755,
      "ĠItem": 2756,
      "rath": 2757,
      "ĠLibyan": 2758,
      "ĠMetz": 2759,
      "iato": 2760,
      "skipped": 2761,
      "rs": 2762,
      "uator": 2763,
      "atsch": 2764,
      "mouseout": 2765,
      "orsch": 2766,
      "ĠAsher": 2767,
      "ested": 2768,
      "ĠME": 2769,
      "SystemCall": 2770,
      "Ġvelit": 2771,
      "rcParams": 2772,
      "oxane": 2773,
      "pekte": 2774,
      "Ġmycel": 2775,
      "SOR": 2776,
      "chars": 2777,
      "Ġleptonic": 2778,
      "Ġexplic": 2779,
      "Ġshall": 2780,
      "specialchars": 2781,
      "HeaderAccept": 2782,
      "Ġshallower": 2783,
      "Ġsvoj": 2784,
      "tant": 2785,
      "ningarna": 2786,
      "illaume": 2787,
      "ĠUlysses": 2788,
      "wych": 2789,
      "ĠEttha": 2790,
      "ĠIS": 2791,
      "Ġcomical": 2792,
      "plementation": 2793,
      "omethane": 2794,
      "pdo": 2795,
      "foo": 2796,
      "Wnd": 2797,
      "ĠPicard": 2798,
      "avos": 2799,
      "pole": 2800,
      "Ġattho": 2801,
      "ĠMongolia": 2802,
      "Ġsublimation": 2803,
      "akkhand": 2804,
      "Ġdilakukan": 2805,
      "ubh": 2806,
      "Ġreven": 2807,
      "ĠshouldUse": 2808,
      "tu": 2809,
      "ophila": 2810,
      "rparam": 2811,
      "Ġaffront": 2812,
      "atac": 2813,
      "swipe": 2814,
      "atai": 2815,
      "anno": 2816,
      "ritu": 2817,
      "ServletException": 2818,
      "jad": 2819,
      "fax": 2820,
      "Ġcardinal": 2821,
      "ĠPNP": 2822,
      "ĠPaige": 2823,
      "Ġniem": 2824,
      "acyjnego": 2825,
      "anski": 2826,
      "udades": 2827,
      "usan": 2828,
      "ĠClara": 2829,
      "Depend": 2830,
      "Objects": 2831,
      "Syn": 2832,
      "ĠMPI": 2833,
      "ĠAppPage": 2834,
      "Ġpina": 2835,
      "inea": 2836,
      "Ġparler": 2837,
      "COMD": 2838,
      "COMDAT": 2839,
      "BlackSholes": 2840,
      "utterstock": 2841,
      "Ġintoxicated": 2842,
      "odimens": 2843,
      "boor": 2844,
      "ĠcurrentWeather": 2845,
      "BrI": 2846,
      "MAPbBrI": 2847,
      "Ġcinch": 2848,
      "Ġturpis": 2849,
      "Ġmitten": 2850,
      "maxLength": 2851,
      "hard": 2852,
      "Ġvivere": 2853,
      "FG": 2854,
      "venes": 2855,
      "ickly": 2856,
      "foe": 2857,
      "coe": 2858,
      "ĠPach": 2859,
      "urop": 2860,
      "ĠPacheco": 2861,
      "Ġpuer": 2862,
      "Ancest": 2863,
      "feitos": 2864,
      "rell": 2865,
      "Montgomery": 2866,
      "ĠTencent": 2867,
      "tained": 2868,
      "ĠSRS": 2869,
      "Ġadjournment": 2870,
      "finaly": 2871,
      "sorfinaly": 2872,
      "Ġhandler": 2873,
      "quilla": 2874,
      "Ġsuj": 2875,
      "ĠhandlerInput": 2876,
      "copter": 2877,
      "Ġpask": 2878,
      "ossa": 2879,
      "Ġmuc": 2880,
      "bodyParser": 2881,
      "Ġganar": 2882,
      "icum": 2883,
      "Ġproceder": 2884,
      "itsu": 2885,
      "ĠCSO": 2886,
      "Ġsham": 2887,
      "Ġundert": 2888,
      "Ov": 2889,
      "coll": 2890,
      "StrTo": 2891,
      "ĠDante": 2892,
      "Ġide": 2893,
      "ĠSant": 2894,
      "Ġdemikian": 2895,
      "setC": 2896,
      "IDES": 2897,
      "Ġforecl": 2898,
      "urence": 2899,
      "Ġconcl": 2900,
      "ĠLobkowicz": 2901,
      "ĠAph": 2902,
      "rak": 2903,
      "irken": 2904,
      "ĠNucleaires": 2905,
      "ostrar": 2906,
      "htaking": 2907,
      "itti": 2908,
      "Ġakut": 2909,
      "ĠPrabh": 2910,
      "ysel": 2911,
      "henga": 2912,
      "ĠAPA": 2913,
      "PMorgan": 2914,
      "Ġskj": 2915,
      "Ġmessy": 2916,
      "shan": 2917,
      "Ġtaj": 2918,
      "Ġluat": 2919,
      "auk": 2920,
      "Ġultras": 2921,
      "Ġundersigned": 2922,
      "inox": 2923,
      "Ġultrasonic": 2924,
      "hay": 2925,
      "ĠUART": 2926,
      "Ġtuj": 2927,
      "Ġcardinality": 2928,
      "ĠLeach": 2929,
      "Ġhamilton": 2930,
      "DUCED": 2931,
      "Ġkeeps": 2932,
      "Ġenshr": 2933,
      "Ġkeepsake": 2934,
      "Ġrestruct": 2935,
      "Ġsukham": 2936,
      "wak": 2937,
      "achery": 2938,
      "iora": 2939,
      "Ġelekt": 2940,
      "ĠOkada": 2941,
      "ĠSht": 2942,
      "Ġrac": 2943,
      "ĠKwan": 2944,
      "ename": 2945,
      "ctree": 2946,
      "ĠRhys": 2947,
      "dum": 2948,
      "alized": 2949,
      "atang": 2950,
      "ĠIEC": 2951,
      "ĠKampala": 2952,
      "JsonObject": 2953,
      "igree": 2954,
      "ĠHeidi": 2955,
      "odhya": 2956,
      "Ġrestructuring": 2957,
      "atma": 2958,
      "Ġalice": 2959,
      "readFileSync": 2960,
      "ĠUlu": 2961,
      "Ġdissanti": 2962,
      "Ġfreuen": 2963,
      "ulier": 2964,
      "GTG": 2965,
      "hman": 2966,
      "lineContainer": 2967,
      "pure": 2968,
      "EndInit": 2969,
      "Ġmessage": 2970,
      "OWN": 2971,
      "mUserManager": 2972,
      "Ġlength": 2973,
      "THF": 2974,
      "ĠHollow": 2975,
      "ĠKug": 2976,
      "Ġbloated": 2977,
      "Ġhummus": 2978,
      "ulasi": 2979,
      "arren": 2980,
      "Ġsplike": 2981,
      "Ġpegs": 2982,
      "Ġcallbacks": 2983,
      "ĠManifesto": 2984,
      "asar": 2985,
      "ineuses": 2986,
      "Ġtrivalent": 2987,
      "ĠUIColor": 2988,
      "Ġcogener": 2989,
      "Ġcogeneration": 2990,
      "ĠPirelli": 2991,
      "ĠSand": 2992,
      "onov": 2993,
      "SynSocket": 2994,
      "BeforeCall": 2995,
      "umar": 2996,
      "ĠPelosi": 2997,
      "Ġhaf": 2998,
      "ĠVenus": 2999,
      "amblea": 3000,
      "mb": 3001,
      "Ġcollided": 3002,
      "stanza": 3003,
      "SData": 3004,
      "ĠBSData": 3005,
      "ĠNair": 3006,
      "CURSOR": 3007,
      "ĠBurgess": 3008,
      "Ġrecense": 3009,
      "nop": 3010,
      "ĠFSA": 3011,
      "Ġister": 3012,
      "agena": 3013,
      "otted": 3014,
      "Ġbuck": 3015,
      "ĠHuan": 3016,
      "ĠBitter": 3017,
      "ĠED": 3018,
      "Ġapex": 3019,
      "ĠMuscat": 3020,
      "ĠMenzies": 3021,
      "Ġsputtering": 3022,
      "moji": 3023,
      "equired": 3024,
      "Phantom": 3025,
      "ArrayAdapter": 3026,
      "Common": 3027,
      "isRequired": 3028,
      "ylation": 3029,
      "Ġberada": 3030,
      "entet": 3031,
      "Ġyaar": 3032,
      "ĠLister": 3033,
      "estead": 3034,
      "ĠSWAT": 3035,
      "hyung": 3036,
      "followers": 3037,
      "ĠBoyle": 3038,
      "roly": 3039,
      "vit": 3040,
      "dering": 3041,
      "ĠMartini": 3042,
      "llll": 3043,
      "ĠContrer": 3044,
      "ĠContreras": 3045,
      "prefetch": 3046,
      "ĠMcCulloch": 3047,
      "atiu": 3048,
      "kad": 3049,
      "ĠBrushed": 3050,
      "bacanam": 3051,
      "itam": 3052,
      "Ġslto": 3053,
      "ahue": 3054,
      "Ġasync": 3055,
      "endet": 3056,
      "ssd": 3057,
      "ethoxy": 3058,
      "ĠMira": 3059,
      "userDetail": 3060,
      "zott": 3061,
      "ĠJSP": 3062,
      "onie": 3063,
      "endam": 3064,
      "iquer": 3065,
      "Ġpleadings": 3066,
      "Ġrecip": 3067,
      "ĠVerm": 3068,
      "Ġabscess": 3069,
      "Ġsing": 3070,
      "ĠMaui": 3071,
      "hatti": 3072,
      "ibranch": 3073,
      "emeral": 3074,
      "fopen": 3075,
      "ĠJPMorgan": 3076,
      "voren": 3077,
      "cciona": 3078,
      "Ancestor": 3079,
      "Ġsaddas": 3080,
      "Coordinate": 3081,
      "elude": 3082,
      "Ġbeth": 3083,
      "enal": 3084,
      "enschaft": 3085,
      "reci": 3086,
      "Ġsmooth": 3087,
      "Ġimparts": 3088,
      "phemeral": 3089,
      "Ġjednog": 3090,
      "Ephemeral": 3091,
      "Caprio": 3092,
      "unya": 3093,
      "ĠLang": 3094,
      "omin": 3095,
      "ohms": 3096,
      "Ġaure": 3097,
      "Ġsubjecting": 3098,
      "blum": 3099,
      "Ġforeclose": 3100,
      "MJ": 3101,
      "ĠFei": 3102,
      "ategy": 3103,
      "userInput": 3104,
      "ĠGMT": 3105,
      "ĠSIA": 3106,
      "UTILS": 3107,
      "Ġterraz": 3108,
      "StateManager": 3109,
      "features": 3110,
      "featuresMatrix": 3111,
      "StackNavigator": 3112,
      "ĠMembranes": 3113,
      "imiter": 3114,
      "ĠSBOM": 3115,
      "hrad": 3116,
      "ĠChauhan": 3117,
      "HeaderParams": 3118,
      "ĠMohd": 3119,
      "ĠJaaye": 3120,
      "mour": 3121,
      "ActionButton": 3122,
      "ĠOz": 3123,
      "ibou": 3124,
      "aksana": 3125,
      "bros": 3126,
      "ĠJara": 3127,
      "Ġanglais": 3128,
      "Ġkis": 3129,
      "ĠJava": 3130,
      "ĠSchilling": 3131,
      "rafted": 3132,
      "ĠOlaf": 3133,
      "clo": 3134,
      "ĠAngelica": 3135,
      "Total": 3136,
      "Ġhafif": 3137,
      "defaultValue": 3138,
      "Ġdehuman": 3139,
      "kadot": 3140,
      "ĠAdil": 3141,
      "racking": 3142,
      "pler": 3143,
      "Ġdobro": 3144,
      "Ġstale": 3145,
      "uther": 3146,
      "ĠDBS": 3147,
      "<UNK>": 3148
    },
    "old_vocab": {
      "!": 0,
      "\"": 1,
      "#": 2,
      "$": 3,
      "%": 4,
      "&": 5,
      "'": 6,
      "(": 7,
      ")": 8,
      "*": 9,
      "+": 10,
      ",": 11,
      "-": 12,
      ".": 13,
      "/": 14,
      "0": 15,
      "1": 16,
      "2": 17,
      "3": 18,
      "4": 19,
      "5": 20,
      "6": 21,
      "7": 22,
      "8": 23,
      "9": 24,
      ":": 25,
      ";": 26,
      "<": 27,
      "=": 28,
      ">": 29,
      "?": 30,
      "@": 31,
      "A": 32,
      "B": 33,
      "C": 34,
      "D": 35,
      "E": 36,
      "F": 37,
      "G": 38,
      "H": 39,
      "I": 40,
      "J": 41,
      "K": 42,
      "L": 43,
      "M": 44,
      "N": 45,
      "O": 46,
      "P": 47,
      "Q": 48,
      "R": 49,
      "S": 50,
      "T": 51,
      "U": 52,
      "V": 53,
      "W": 54,
      "X": 55,
      "Y": 56,
      "Z": 57,
      "[": 58,
      "\\": 59,
      "]": 60,
      "^": 61,
      "_": 62,
      "`": 63,
      "a": 64,
      "b": 65,
      "c": 66,
      "d": 67,
      "e": 68,
      "f": 69,
      "g": 70,
      "h": 71,
      "i": 72,
      "j": 73,
      "k": 74,
      "l": 75,
      "m": 76,
      "n": 77,
      "o": 78,
      "p": 79,
      "q": 80,
      "r": 81,
      "s": 82,
      "t": 83,
      "u": 84,
      "v": 85,
      "w": 86,
      "x": 87,
      "y": 88,
      "z": 89,
      "{": 90,
      "|": 91,
      "}": 92,
      "~": 93,
      "¡": 94,
      "¢": 95,
      "£": 96,
      "¤": 97,
      "¥": 98,
      "¦": 99,
      "§": 100,
      "¨": 101,
      "©": 102,
      "ª": 103,
      "«": 104,
      "¬": 105,
      "®": 106,
      "¯": 107,
      "°": 108,
      "±": 109,
      "²": 110,
      "³": 111,
      "´": 112,
      "µ": 113,
      "¶": 114,
      "·": 115,
      "¸": 116,
      "¹": 117,
      "º": 118,
      "»": 119,
      "¼": 120,
      "½": 121,
      "¾": 122,
      "¿": 123,
      "À": 124,
      "Á": 125,
      "Â": 126,
      "Ã": 127,
      "Ä": 128,
      "Å": 129,
      "Æ": 130,
      "Ç": 131,
      "È": 132,
      "É": 133,
      "Ê": 134,
      "Ë": 135,
      "Ì": 136,
      "Í": 137,
      "Î": 138,
      "Ï": 139,
      "Ð": 140,
      "Ñ": 141,
      "Ò": 142,
      "Ó": 143,
      "Ô": 144,
      "Õ": 145,
      "Ö": 146,
      "×": 147,
      "Ø": 148,
      "Ù": 149,
      "Ú": 150,
      "Û": 151,
      "Ü": 152,
      "Ý": 153,
      "Þ": 154,
      "ß": 155,
      "à": 156,
      "á": 157,
      "â": 158,
      "ã": 159,
      "ä": 160,
      "å": 161,
      "æ": 162,
      "ç": 163,
      "è": 164,
      "é": 165,
      "ê": 166,
      "ë": 167,
      "ì": 168,
      "í": 169,
      "î": 170,
      "ï": 171,
      "ð": 172,
      "ñ": 173,
      "ò": 174,
      "ó": 175,
      "ô": 176,
      "õ": 177,
      "ö": 178,
      "÷": 179,
      "ø": 180,
      "ù": 181,
      "ú": 182,
      "û": 183,
      "ü": 184,
      "ý": 185,
      "þ": 186,
      "ÿ": 187,
      "Ā": 188,
      "ā": 189,
      "Ă": 190,
      "ă": 191,
      "Ą": 192,
      "ą": 193,
      "Ć": 194,
      "ć": 195,
      "Ĉ": 196,
      "ĉ": 197,
      "Ċ": 198,
      "ċ": 199,
      "Č": 200,
      "č": 201,
      "Ď": 202,
      "ď": 203,
      "Đ": 204,
      "đ": 205,
      "Ē": 206,
      "ē": 207,
      "Ĕ": 208,
      "ĕ": 209,
      "Ė": 210,
      "ė": 211,
      "Ę": 212,
      "ę": 213,
      "Ě": 214,
      "ě": 215,
      "Ĝ": 216,
      "ĝ": 217,
      "Ğ": 218,
      "ğ": 219,
      "Ġ": 220,
      "ġ": 221,
      "Ģ": 222,
      "ģ": 223,
      "Ĥ": 224,
      "ĥ": 225,
      "Ħ": 226,
      "ħ": 227,
      "Ĩ": 228,
      "ĩ": 229,
      "Ī": 230,
      "ī": 231,
      "Ĭ": 232,
      "ĭ": 233,
      "Į": 234,
      "į": 235,
      "İ": 236,
      "ı": 237,
      "Ĳ": 238,
      "ĳ": 239,
      "Ĵ": 240,
      "ĵ": 241,
      "Ķ": 242,
      "ķ": 243,
      "ĸ": 244,
      "Ĺ": 245,
      "ĺ": 246,
      "Ļ": 247,
      "ļ": 248,
      "Ľ": 249,
      "ľ": 250,
      "Ŀ": 251,
      "ŀ": 252,
      "Ł": 253,
      "ł": 254,
      "Ń": 255,
      "er": 256,
      "an": 257,
      "in": 258,
      "en": 259,
      "on": 260,
      "ar": 261,
      "at": 262,
      "es": 263,
      "al": 264,
      "or": 265,
      "et": 266,
      "it": 267,
      "st": 268,
      "le": 269,
      "ic": 270,
      "el": 271,
      "ed": 272,
      "ch": 273,
      "am": 274,
      "ro": 275,
      "is": 276,
      "re": 277,
      "ad": 278,
      "Ġs": 279,
      "Ġp": 280,
      "un": 281,
      "il": 282,
      "ĠS": 283,
      "as": 284,
      "ing": 285,
      "ut": 286,
      "ĠC": 287,
      "ent": 288,
      "ol": 289,
      "ur": 290,
      "ĠM": 291,
      "us": 292,
      "ĠB": 293,
      "ra": 294,
      "ion": 295,
      "Ġc": 296,
      "id": 297,
      "Ġd": 298,
      "ĠP": 299,
      "ul": 300,
      "im": 301,
      "Ġt": 302,
      "Ġm": 303,
      "om": 304,
      "ĠA": 305,
      "ac": 306,
      "ag": 307,
      "em": 308,
      "ab": 309,
      "ĠD": 310,
      "os": 311,
      "ot": 312,
      "um": 313,
      "ig": 314,
      "ct": 315,
      "od": 316,
      "Ġb": 317,
      "ri": 318,
      "ĠT": 319,
      "ĠG": 320,
      "ĠR": 321,
      "ĠH": 322,
      "ap": 323,
      "ie": 324,
      "ak": 325,
      "oc": 326,
      "ir": 327,
      "ĠN": 328,
      "est": 329,
      "ĠL": 330,
      "ay": 331,
      "ow": 332,
      "Ġf": 333,
      "ĠE": 334,
      "Ġg": 335,
      "ex": 336,
      "op": 337,
      "Ġv": 338,
      "Ġh": 339,
      "and": 340,
      "th": 341,
      "ia": 342,
      "ĠK": 343,
      "ce": 344,
      "qu": 345,
      "Ġn": 346,
      "iv": 347,
      "ĠF": 348,
      "ate": 349,
      "av": 350,
      "ers": 351,
      "ĠW": 352,
      "ang": 353,
      "ation": 354,
      "og": 355,
      "Ġl": 356,
      "ant": 357,
      "In": 358,
      "ik": 359,
      "ov": 360,
      "ah": 361,
      "ec": 362,
      "eg": 363,
      "Ġk": 364,
      "ist": 365,
      "end": 366,
      "ub": 367,
      "ud": 368,
      "ter": 369,
      "ff": 370,
      "ine": 371,
      "ont": 372,
      "St": 373,
      "ob": 374,
      "ib": 375,
      "Ġr": 376,
      "up": 377,
      "ip": 378,
      "ton": 379,
      "ess": 380,
      "ath": 381,
      "iz": 382,
      "ian": 383,
      "ey": 384,
      "ell": 385,
      "ug": 386,
      "ect": 387,
      "ĠV": 388,
      "ĠI": 389,
      "ind": 390,
      "ard": 391,
      "ly": 392,
      "ert": 393,
      "ast": 394,
      "ĠJ": 395,
      "pe": 396,
      "ord": 397,
      "ph": 398,
      "ok": 399,
      "get": 400,
      "ill": 401,
      "Ġw": 402,
      "pt": 403,
      "art": 404,
      "ue": 405,
      "Ġre": 406,
      "uc": 407,
      "ne": 408,
      "ht": 409,
      "yl": 410,
      "age": 411,
      "Ġin": 412,
      "ĠU": 413,
      "ĠO": 414,
      "if": 415,
      "eb": 416,
      "te": 417,
      "ass": 418,
      "io": 419,
      "se": 420,
      "au": 421,
      "ung": 422,
      "all": 423,
      "ev": 424,
      "und": 425,
      "ek": 426,
      "ef": 427,
      "ep": 428,
      "ox": 429,
      "able": 430,
      "ile": 431,
      "ens": 432,
      "uk": 433,
      "aw": 434,
      "Ġst": 435,
      "Ġj": 436,
      "ext": 437,
      "ata": 438,
      "erm": 439,
      "ack": 440,
      "he": 441,
      "ult": 442,
      "out": 443,
      "ĠCh": 444,
      "set": 445,
      "int": 446,
      "ity": 447,
      "az": 448,
      "ew": 449,
      "ial": 450,
      "pl": 451,
      "ach": 452,
      "our": 453,
      "ies": 454,
      "ym": 455,
      "rop": 456,
      "ran": 457,
      "ou": 458,
      "sk": 459,
      "aj": 460,
      "ort": 461,
      "Ġch": 462,
      "ick": 463,
      "ame": 464,
      "ock": 465,
      "Ġa": 466,
      "ry": 467,
      "ann": 468,
      "Ġun": 469,
      "ost": 470,
      "ai": 471,
      "cl": 472,
      "Ġcon": 473,
      "sh": 474,
      "son": 475,
      "ĠMc": 476,
      "att": 477,
      "ive": 478,
      "pr": 479,
      "ust": 480,
      "ject": 481,
      "ment": 482,
      "iew": 483,
      "her": 484,
      "iel": 485,
      "yn": 486,
      "ll": 487,
      "ous": 488,
      "per": 489,
      "ele": 490,
      "ya": 491,
      "ier": 492,
      "ode": 493,
      "ype": 494,
      "ain": 495,
      "add": 496,
      "unt": 497,
      "erv": 498,
      "are": 499,
      "put": 500,
      "to": 501,
      "na": 502,
      "ich": 503,
      "ij": 504,
      "ish": 505,
      "ER": 506,
      "ong": 507,
      "eng": 508,
      "ite": 509,
      "lo": 510,
      "ax": 511,
      "ign": 512,
      "ond": 513,
      "Cont": 514,
      "sp": 515,
      "ring": 516,
      "pp": 517,
      "ber": 518,
      "ane": 519,
      "ull": 520,
      "ati": 521,
      "ore": 522,
      "ice": 523,
      "Val": 524,
      "ez": 525,
      "Ar": 526,
      "ire": 527,
      "ure": 528,
      "Ch": 529,
      "Ob": 530,
      "rom": 531,
      "ary": 532,
      "ild": 533,
      "ide": 534,
      "omp": 535,
      "To": 536,
      "man": 537,
      "ron": 538,
      "ash": 539,
      "ated": 540,
      "ST": 541,
      "oh": 542,
      "ru": 543,
      "ft": 544,
      "res": 545,
      "ime": 546,
      "ink": 547,
      "ett": 548,
      "Ġz": 549,
      "sc": 550,
      "ĠSh": 551,
      "iss": 552,
      "ight": 553,
      "nd": 554,
      "ana": 555,
      "err": 556,
      "ield": 557,
      "Ġpro": 558,
      "ark": 559,
      "enc": 560,
      "Object": 561,
      "Type": 562,
      "ge": 563,
      "ith": 564,
      "Con": 565,
      "ern": 566,
      "ize": 567,
      "Ġsp": 568,
      "eth": 569,
      "ere": 570,
      "own": 571,
      "ID": 572,
      "les": 573,
      "eh": 574,
      "Par": 575,
      "iy": 576,
      "tr": 577,
      "Cl": 578,
      "Ġe": 579,
      "orm": 580,
      "itt": 581,
      "ins": 582,
      "ene": 583,
      "View": 584,
      "ray": 585,
      "OR": 586,
      "Value": 587,
      "erc": 588,
      "oll": 589,
      "ley": 590,
      "oy": 591,
      "ON": 592,
      "ham": 593,
      "Ġle": 594,
      "Ġpr": 595,
      "ors": 596,
      "ale": 597,
      "AR": 598,
      "Res": 599,
      "ons": 600,
      "ma": 601,
      "co": 602,
      "EN": 603,
      "ium": 604,
      "UR": 605,
      "rr": 606,
      "Ġim": 607,
      "List": 608,
      "ka": 609,
      "IC": 610,
      "oj": 611,
      "ace": 612,
      "ient": 613,
      "Ex": 614,
      "ho": 615,
      "ss": 616,
      "ical": 617,
      "row": 618,
      "ction": 619,
      "tt": 620,
      "ina": 621,
      "ĠY": 622,
      "IN": 623,
      "Ġth": 624,
      "Path": 625,
      "old": 626,
      "ver": 627,
      "we": 628,
      "AN": 629,
      "ĠAr": 630,
      "act": 631,
      "ence": 632,
      "Pro": 633,
      "olor": 634,
      "ys": 635,
      "que": 636,
      "rit": 637,
      "SC": 638,
      "utton": 639,
      "ase": 640,
      "enn": 641,
      "ato": 642,
      "no": 643,
      "arg": 644,
      "ler": 645,
      "ram": 646,
      "Err": 647,
      "ĠSt": 648,
      "cept": 649,
      "ead": 650,
      "ni": 651,
      "one": 652,
      "ĠZ": 653,
      "atch": 654,
      "Ġqu": 655,
      "Ġex": 656,
      "Ġab": 657,
      "ald": 658,
      "Ġsc": 659,
      "ck": 660,
      "ole": 661,
      "tem": 662,
      "CC": 663,
      "Id": 664,
      "ood": 665,
      "ush": 666,
      "omm": 667,
      "sch": 668,
      "LE": 669,
      "Ġpl": 670,
      "Name": 671,
      "ans": 672,
      "ĠQ": 673,
      "Error": 674,
      "ee": 675,
      "oz": 676,
      "rent": 677,
      "bo": 678,
      "ric": 679,
      "ser": 680,
      "ance": 681,
      "of": 682,
      "ix": 683,
      "erg": 684,
      "ail": 685,
      "Data": 686,
      "Im": 687,
      "ari": 688,
      "Ġdis": 689,
      "ank": 690,
      "AL": 691,
      "app": 692,
      "Ġad": 693,
      "arl": 694,
      "CT": 695,
      "Sc": 696,
      "yd": 697,
      "anc": 698,
      "ado": 699,
      "ini": 700,
      "AT": 701,
      "Key": 702,
      "Ġal": 703,
      "uf": 704,
      "amp": 705,
      "Ġsub": 706,
      "yt": 707,
      "Comp": 708,
      "rid": 709,
      "uff": 710,
      "ĠSch": 711,
      "led": 712,
      "Serv": 713,
      "ĠAl": 714,
      "Button": 715,
      "ement": 716,
      "emb": 717,
      "SE": 718,
      "ret": 719,
      "ani": 720,
      "ait": 721,
      "Text": 722,
      "sl": 723,
      "ĠIn": 724,
      "af": 725,
      "orn": 726,
      "rav": 727,
      "arr": 728,
      "gen": 729,
      "AM": 730,
      "ator": 731,
      "fo": 732,
      "Ġy": 733,
      "equ": 734,
      "hen": 735,
      "ais": 736,
      "land": 737,
      "amb": 738,
      "SP": 739,
      "ings": 740,
      "val": 741,
      "IT": 742,
      "Size": 743,
      "yp": 744,
      "ear": 745,
      "eter": 746,
      "Array": 747,
      "String": 748,
      "ada": 749,
      "ford": 750,
      "air": 751,
      "RE": 752,
      "inn": 753,
      "iti": 754,
      "Item": 755,
      "ien": 756,
      "ions": 757,
      "esh": 758,
      "Co": 759,
      "SA": 760,
      "ren": 761,
      "Param": 762,
      "By": 763,
      "Of": 764,
      "ugh": 765,
      "ade": 766,
      "ott": 767,
      "Ġget": 768,
      "con": 769,
      "Ġsh": 770,
      "RP": 771,
      "kan": 772,
      "eck": 773,
      "inc": 774,
      "ein": 775,
      "cc": 776,
      "uj": 777,
      "utt": 778,
      "BS": 779,
      "ict": 780,
      "era": 781,
      "ica": 782,
      "over": 783,
      "Context": 784,
      "CS": 785,
      "ĠBl": 786,
      "ng": 787,
      "uss": 788,
      "yc": 789,
      "eat": 790,
      "vent": 791,
      "Ġpar": 792,
      "nt": 793,
      "ps": 794,
      "ory": 795,
      "rib": 796,
      "unc": 797,
      "ara": 798,
      "umb": 799,
      "oth": 800,
      "ke": 801,
      "Int": 802,
      "ics": 803,
      "onent": 804,
      "uth": 805,
      "urrent": 806,
      "arm": 807,
      "urs": 808,
      "ql": 809,
      "ena": 810,
      "uch": 811,
      "ger": 812,
      "lement": 813,
      "Pl": 814,
      "yst": 815,
      "ego": 816,
      "Field": 817,
      "Ġan": 818,
      "Ġen": 819,
      "Image": 820,
      "iro": 821,
      "ora": 822,
      "isc": 823,
      "osit": 824,
      "File": 825,
      "AC": 826,
      "ute": 827,
      "PS": 828,
      "ira": 829,
      "App": 830,
      "reate": 831,
      "reen": 832,
      "ih": 833,
      "roup": 834,
      "ama": 835,
      "Ġac": 836,
      "ze": 837,
      "ĠGu": 838,
      "ager": 839,
      "use": 840,
      "ater": 841,
      "CP": 842,
      "va": 843,
      "ala": 844,
      "Ġdes": 845,
      "str": 846,
      "Mod": 847,
      "Ġsl": 848,
      "ve": 849,
      "uto": 850,
      "umber": 851,
      "fl": 852,
      "Ġar": 853,
      "off": 854,
      "Ġap": 855,
      "Get": 856,
      "che": 857,
      "DA": 858,
      "uy": 859,
      "Ġset": 860,
      "ism": 861,
      "den": 862,
      "atth": 863,
      "ery": 864,
      "ĠX": 865,
      "Ġrec": 866,
      "Time": 867,
      "als": 868,
      "me": 869,
      "equest": 870,
      "Man": 871,
      "kh": 872,
      "roll": 873,
      "ress": 874,
      "IA": 875,
      "ise": 876,
      "State": 877,
      "par": 878,
      "ament": 879,
      "Ġper": 880,
      "dex": 881,
      "IS": 882,
      "po": 883,
      "ner": 884,
      "ille": 885,
      "urn": 886,
      "PC": 887,
      "itz": 888,
      "arc": 889,
      "uz": 890,
      "ates": 891,
      "Ġro": 892,
      "ular": 893,
      "orr": 894,
      "ech": 895,
      "let": 896,
      "ius": 897,
      "rad": 898,
      "order": 899,
      "ave": 900,
      "alt": 901,
      "raw": 902,
      "anj": 903,
      "ha": 904,
      "Color": 905,
      "fe": 906,
      "Sh": 907,
      "ets": 908,
      "arb": 909,
      "orb": 910,
      "du": 911,
      "Code": 912,
      "IL": 913,
      "iff": 914,
      "oph": 915,
      "ref": 916,
      "rev": 917,
      "ose": 918,
      "Index": 919,
      "lock": 920,
      "uv": 921,
      "Char": 922,
      "ource": 923,
      "DP": 924,
      "Fl": 925,
      "ES": 926,
      "ili": 927,
      "UT": 928,
      "rist": 929,
      "Ġres": 930,
      "Ġis": 931,
      "uh": 932,
      "gl": 933,
      "bar": 934,
      "pi": 935,
      "ml": 936,
      "iter": 937,
      "Component": 938,
      "MS": 939,
      "ks": 940,
      "kt": 941,
      "ied": 942,
      "ians": 943,
      "ruct": 944,
      "ych": 945,
      "ayout": 946,
      "ree": 947,
      "IP": 948,
      "Request": 949,
      "uan": 950,
      "ld": 951,
      "Ġmen": 952,
      "yr": 953,
      "ĠTh": 954,
      "ington": 955,
      "rack": 956,
      "CH": 957,
      "ii": 958,
      "omb": 959,
      "och": 960,
      "elect": 961,
      "sub": 962,
      "Out": 963,
      "rag": 964,
      "eme": 965,
      "ux": 966,
      "Set": 967,
      "All": 968,
      "ĠAm": 969,
      "ete": 970,
      "SI": 971,
      "rim": 972,
      "Call": 973,
      "MA": 974,
      "cz": 975,
      "CA": 976,
      "fig": 977,
      "ano": 978,
      "ae": 979,
      "abb": 980,
      "ao": 981,
      "rol": 982,
      "form": 983,
      "sw": 984,
      "Ġcont": 985,
      "ely": 986,
      "En": 987,
      "Event": 988,
      "Ref": 989,
      "ĠSc": 990,
      "Group": 991,
      "TR": 992,
      "ays": 993,
      "rans": 994,
      "go": 995,
      "ake": 996,
      "za": 997,
      "asc": 998,
      "ET": 999,
      "erd": 1000,
      "oxy": 1001,
      "Ġjed": 1002,
      "Box": 1003,
      "Ġod": 1004,
      "Action": 1005,
      "oid": 1006,
      "back": 1007,
      "yle": 1008,
      "Ġam": 1009,
      "red": 1010,
      "ros": 1011,
      "ĠLe": 1012,
      "riv": 1013,
      "ese": 1014,
      "oa": 1015,
      "ots": 1016,
      "la": 1017,
      "ork": 1018,
      "oo": 1019,
      "line": 1020,
      "Ġret": 1021,
      "Ġund": 1022,
      "aff": 1023,
      "Result": 1024,
      "UN": 1025,
      "atur": 1026,
      "Sp": 1027,
      "rt": 1028,
      "ĠCon": 1029,
      "ered": 1030,
      "Ġind": 1031,
      "indow": 1032,
      "ception": 1033,
      "Prop": 1034,
      "endo": 1035,
      "Input": 1036,
      "Manager": 1037,
      "Ġcom": 1038,
      "ĠBar": 1039,
      "Up": 1040,
      "MP": 1041,
      "Ġob": 1042,
      "rec": 1043,
      "Exception": 1044,
      "Ġant": 1045,
      "Service": 1046,
      "men": 1047,
      "ling": 1048,
      "ĠAd": 1049,
      "ump": 1050,
      "Count": 1051,
      "AG": 1052,
      "ester": 1053,
      "shire": 1054,
      "ĠEd": 1055,
      "unter": 1056,
      "uild": 1057,
      "ej": 1058,
      "Ad": 1059,
      "aya": 1060,
      "anam": 1061,
      "ios": 1062,
      "rl": 1063,
      "ĠEm": 1064,
      "Class": 1065,
      "els": 1066,
      "Ġimp": 1067,
      "ten": 1068,
      "ocal": 1069,
      "PA": 1070,
      "mer": 1071,
      "eut": 1072,
      "ower": 1073,
      "ats": 1074,
      "Layout": 1075,
      "Table": 1076,
      "ask": 1077,
      "ener": 1078,
      "uit": 1079,
      "ĠRe": 1080,
      "ars": 1081,
      "bur": 1082,
      "ĠAn": 1083,
      "TS": 1084,
      "For": 1085,
      "ocation": 1086,
      "amil": 1087,
      "Ġem": 1088,
      "idd": 1089,
      "my": 1090,
      "ione": 1091,
      "oss": 1092,
      "iqu": 1093,
      "As": 1094,
      "uck": 1095,
      "port": 1096,
      "elle": 1097,
      "ized": 1098,
      "ucle": 1099,
      "ange": 1100,
      "ule": 1101,
      "nik": 1102,
      "SM": 1103,
      "ound": 1104,
      "Ġtr": 1105,
      "ogg": 1106,
      "atic": 1107,
      "ual": 1108,
      "ility": 1109,
      "raph": 1110,
      "org": 1111,
      "ract": 1112,
      "Element": 1113,
      "ouse": 1114,
      "ette": 1115,
      "ED": 1116,
      "last": 1117,
      "pro": 1118,
      "With": 1119,
      "las": 1120,
      "Info": 1121,
      "Config": 1122,
      "DR": 1123,
      "pon": 1124,
      "ayer": 1125,
      "User": 1126,
      "anel": 1127,
      "AD": 1128,
      "lad": 1129,
      "AP": 1130,
      "Api": 1131,
      "berg": 1132,
      "iej": 1133,
      "Ġco": 1134,
      "Ġov": 1135,
      "Ġel": 1136,
      "BC": 1137,
      "Ġph": 1138,
      "ui": 1139,
      "ĠEl": 1140,
      "edi": 1141,
      "idth": 1142,
      "ino": 1143,
      "SS": 1144,
      "be": 1145,
      "icht": 1146,
      "ĠBr": 1147,
      "eader": 1148,
      "reg": 1149,
      "oto": 1150,
      "olic": 1151,
      "hi": 1152,
      "Al": 1153,
      "ome": 1154,
      "IM": 1155,
      "bit": 1156,
      "br": 1157,
      "Is": 1158,
      "unk": 1159,
      "map": 1160,
      "load": 1161,
      "cent": 1162,
      "Ġfl": 1163,
      "inal": 1164,
      "ral": 1165,
      "aut": 1166,
      "Window": 1167,
      "web": 1168,
      "iet": 1169,
      "lect": 1170,
      "CO": 1171,
      "ough": 1172,
      "EC": 1173,
      "ura": 1174,
      "ating": 1175,
      "Ġinc": 1176,
      "Ġent": 1177,
      "Ġon": 1178,
      "Ġx": 1179,
      "Ġed": 1180,
      "Ġsk": 1181,
      "wood": 1182,
      "path": 1183,
      "any": 1184,
      "SRP": 1185,
      "tn": 1186,
      "ali": 1187,
      "Ġang": 1188,
      "ior": 1189,
      "cht": 1190,
      "ski": 1191,
      "abel": 1192,
      "new": 1193,
      "IV": 1194,
      "DK": 1195,
      "Model": 1196,
      "erk": 1197,
      "Ġop": 1198,
      "ĠSal": 1199,
      "arn": 1200,
      "Test": 1201,
      "da": 1202,
      "anti": 1203,
      "PM": 1204,
      "eep": 1205,
      "uid": 1206,
      "rv": 1207,
      "ional": 1208,
      "rab": 1209,
      "Ġgr": 1210,
      "arch": 1211,
      "ENT": 1212,
      "aan": 1213,
      "ider": 1214,
      "Ġmult": 1215,
      "field": 1216,
      "ript": 1217,
      "board": 1218,
      "Ġuse": 1219,
      "aur": 1220,
      "Ph": 1221,
      "Log": 1222,
      "ulf": 1223,
      "fer": 1224,
      "ection": 1225,
      "iment": 1226,
      "Params": 1227,
      "ts": 1228,
      "ima": 1229,
      "BA": 1230,
      "oad": 1231,
      "ega": 1232,
      "ris": 1233,
      "MC": 1234,
      "udd": 1235,
      "lic": 1236,
      "ĠSp": 1237,
      "GF": 1238,
      "igh": 1239,
      "Ġint": 1240,
      "item": 1241,
      "etail": 1242,
      "erty": 1243,
      "US": 1244,
      "oke": 1245,
      "UM": 1246,
      "cal": 1247,
      "Node": 1248,
      "ible": 1249,
      "Ġdi": 1250,
      "Ġcl": 1251,
      "key": 1252,
      "ĠWil": 1253,
      "Panel": 1254,
      "enu": 1255,
      "ations": 1256,
      "olog": 1257,
      "anth": 1258,
      "OA": 1259,
      "ody": 1260,
      "ync": 1261,
      "by": 1262,
      "Ġout": 1263,
      "acter": 1264,
      "Stat": 1265,
      "kow": 1266,
      "HT": 1267,
      "leg": 1268,
      "At": 1269,
      "Map": 1270,
      "PT": 1271,
      "MD": 1272,
      "akan": 1273,
      "Ġra": 1274,
      "vert": 1275,
      "Bar": 1276,
      "sed": 1277,
      "ores": 1278,
      "emp": 1279,
      "Col": 1280,
      "bra": 1281,
      "oken": 1282,
      "je": 1283,
      "Ġbl": 1284,
      "for": 1285,
      "ĠSw": 1286,
      "ĠCl": 1287,
      "adi": 1288,
      "ĠCo": 1289,
      "CM": 1290,
      "hat": 1291,
      "iem": 1292,
      "Number": 1293,
      "ched": 1294,
      "ita": 1295,
      "mo": 1296,
      "Ġau": 1297,
      "Un": 1298,
      "icul": 1299,
      "Ġol": 1300,
      "date": 1301,
      "Start": 1302,
      "eron": 1303,
      "zy": 1304,
      "aud": 1305,
      "ny": 1306,
      "ethod": 1307,
      "ĠMcC": 1308,
      "atri": 1309,
      "CI": 1310,
      "Ġconv": 1311,
      "Or": 1312,
      "aro": 1313,
      "iri": 1314,
      "Ġmax": 1315,
      "Ġpost": 1316,
      "ils": 1317,
      "Content": 1318,
      "TE": 1319,
      "lin": 1320,
      "aa": 1321,
      "Const": 1322,
      "ercent": 1323,
      "Em": 1324,
      "IB": 1325,
      "onic": 1326,
      "ĠBur": 1327,
      "ument": 1328,
      "ponse": 1329,
      "Width": 1330,
      "ĠBh": 1331,
      "omer": 1332,
      "Ġult": 1333,
      "zt": 1334,
      "rich": 1335,
      "alk": 1336,
      "net": 1337,
      "ook": 1338,
      "aus": 1339,
      "Arg": 1340,
      "ua": 1341,
      "CE": 1342,
      "Block": 1343,
      "Date": 1344,
      "SR": 1345,
      "ms": 1346,
      "eer": 1347,
      "ido": 1348,
      "amente": 1349,
      "Ġtrans": 1350,
      "ero": 1351,
      "ona": 1352,
      "On": 1353,
      "etri": 1354,
      "Line": 1355,
      "hr": 1356,
      "Header": 1357,
      "FA": 1358,
      "ender": 1359,
      "Ġas": 1360,
      "OM": 1361,
      "Star": 1362,
      "ommand": 1363,
      "het": 1364,
      "jsk": 1365,
      "Auto": 1366,
      "Ġinter": 1367,
      "lor": 1368,
      "ĠPal": 1369,
      "its": 1370,
      "ois": 1371,
      "AS": 1372,
      "IR": 1373,
      "win": 1374,
      "Ġvol": 1375,
      "Ġer": 1376,
      "Off": 1377,
      "ative": 1378,
      "read": 1379,
      "Server": 1380,
      "imp": 1381,
      "EL": 1382,
      "Ġpot": 1383,
      "DC": 1384,
      "ialog": 1385,
      "ethyl": 1386,
      "stra": 1387,
      "IF": 1388,
      "essage": 1389,
      "Mode": 1390,
      "Output": 1391,
      "js": 1392,
      "UI": 1393,
      "osh": 1394,
      "de": 1395,
      "db": 1396,
      "utter": 1397,
      "aster": 1398,
      "CL": 1399,
      "Ġsw": 1400,
      "urt": 1401,
      "orth": 1402,
      "xc": 1403,
      "rob": 1404,
      "An": 1405,
      "Menu": 1406,
      "itor": 1407,
      "less": 1408,
      "iles": 1409,
      "aks": 1410,
      "ipp": 1411,
      "Mut": 1412,
      "Ġdec": 1413,
      "acch": 1414,
      "Ġto": 1415,
      "LO": 1416,
      "li": 1417,
      "round": 1418,
      "Ġadd": 1419,
      "ouch": 1420,
      "thor": 1421,
      "erson": 1422,
      "aki": 1423,
      "DB": 1424,
      "Pop": 1425,
      "Ġep": 1426,
      "Ġber": 1427,
      "lex": 1428,
      "Ġtest": 1429,
      "ven": 1430,
      "pen": 1431,
      "lar": 1432,
      "Ġjedn": 1433,
      "uffer": 1434,
      "ocus": 1435,
      "Ġbh": 1436,
      "der": 1437,
      "ycl": 1438,
      "ition": 1439,
      "orph": 1440,
      "icz": 1441,
      "MB": 1442,
      "box": 1443,
      "asi": 1444,
      "esp": 1445,
      "Go": 1446,
      "illa": 1447,
      "Ġsal": 1448,
      "ency": 1449,
      "atan": 1450,
      "ols": 1451,
      "ength": 1452,
      "vi": 1453,
      "Ġdef": 1454,
      "raz": 1455,
      "TA": 1456,
      "PE": 1457,
      "ami": 1458,
      "Ġag": 1459,
      "roph": 1460,
      "zo": 1461,
      "PR": 1462,
      "Url": 1463,
      "arth": 1464,
      "ING": 1465,
      "min": 1466,
      "KA": 1467,
      "edia": 1468,
      "eight": 1469,
      "TC": 1470,
      "ious": 1471,
      "aire": 1472,
      "udent": 1473,
      "ola": 1474,
      "met": 1475,
      "ities": 1476,
      "com": 1477,
      "aul": 1478,
      "Conn": 1479,
      "Nav": 1480,
      "bl": 1481,
      "ĠWh": 1482,
      "econd": 1483,
      "amera": 1484,
      "ault": 1485,
      "Av": 1486,
      "cess": 1487,
      "ymb": 1488,
      "ĠQu": 1489,
      "input": 1490,
      "Dialog": 1491,
      "Ġsm": 1492,
      "Ġsch": 1493,
      "ĠPr": 1494,
      "ĠMah": 1495,
      "Control": 1496,
      "ĠAg": 1497,
      "plic": 1498,
      "SO": 1499,
      "eli": 1500,
      "rey": 1501,
      "ĠDor": 1502,
      "ML": 1503,
      "eld": 1504,
      "well": 1505,
      "rain": 1506,
      "rap": 1507,
      "ca": 1508,
      "Ġrem": 1509,
      "ĠMcG": 1510,
      "Ġoc": 1511,
      "Qu": 1512,
      "amm": 1513,
      "IG": 1514,
      "rum": 1515,
      "Ġpal": 1516,
      "oot": 1517,
      "find": 1518,
      "ebug": 1519,
      "Bit": 1520,
      "ĠCB": 1521,
      "Ġrep": 1522,
      "Ġcurrent": 1523,
      "wa": 1524,
      "ĠKn": 1525,
      "ically": 1526,
      "ias": 1527,
      "onn": 1528,
      "Ġmil": 1529,
      "Resource": 1530,
      "uro": 1531,
      "ope": 1532,
      "raft": 1533,
      "Ġpre": 1534,
      "Response": 1535,
      "Init": 1536,
      "lu": 1537,
      "alle": 1538,
      "nya": 1539,
      "Ġapp": 1540,
      "New": 1541,
      "oi": 1542,
      "ability": 1543,
      "awa": 1544,
      "Ġnew": 1545,
      "ĠEr": 1546,
      "ĠWood": 1547,
      "ove": 1548,
      "Ġdel": 1549,
      "ukan": 1550,
      "FBS": 1551,
      "Buffer": 1552,
      "andle": 1553,
      "anz": 1554,
      "user": 1555,
      "Def": 1556,
      "eral": 1557,
      "ropri": 1558,
      "FBSDK": 1559,
      "Inter": 1560,
      "atis": 1561,
      "ream": 1562,
      "itri": 1563,
      "arget": 1564,
      "uer": 1565,
      "ava": 1566,
      "Focus": 1567,
      "van": 1568,
      "Ġsup": 1569,
      "angan": 1570,
      "Var": 1571,
      "aka": 1572,
      "ji": 1573,
      "Oper": 1574,
      "stein": 1575,
      "ĠApp": 1576,
      "ateg": 1577,
      "vis": 1578,
      "ĠBx": 1579,
      "ift": 1580,
      "imm": 1581,
      "OP": 1582,
      "Change": 1583,
      "SD": 1584,
      "Ġup": 1585,
      "ras": 1586,
      "anh": 1587,
      "apt": 1588,
      "oun": 1589,
      "Select": 1590,
      "ante": 1591,
      "Ġcreate": 1592,
      "rz": 1593,
      "cp": 1594,
      "pring": 1595,
      "acy": 1596,
      "ĠWar": 1597,
      "ever": 1598,
      "Ġmeng": 1599,
      "ĠCor": 1600,
      "ĠPh": 1601,
      "ization": 1602,
      "Ġter": 1603,
      "not": 1604,
      "ific": 1605,
      "ĠBro": 1606,
      "ector": 1607,
      "Client": 1608,
      "akt": 1609,
      "iki": 1610,
      "ila": 1611,
      "ste": 1612,
      "Ġleg": 1613,
      "Rec": 1614,
      "Page": 1615,
      "Message": 1616,
      "from": 1617,
      "AF": 1618,
      "type": 1619,
      "Ġgl": 1620,
      "ĠMan": 1621,
      "DI": 1622,
      "akkh": 1623,
      "Ġo": 1624,
      "aga": 1625,
      "Property": 1626,
      "ĠQx": 1627,
      "data": 1628,
      "Down": 1629,
      "current": 1630,
      "nal": 1631,
      "send": 1632,
      "oul": 1633,
      "TP": 1634,
      "do": 1635,
      "Ġact": 1636,
      "erence": 1637,
      "ges": 1638,
      "Ġinf": 1639,
      "vol": 1640,
      "IO": 1641,
      "alf": 1642,
      "eger": 1643,
      "igg": 1644,
      "cont": 1645,
      "ben": 1646,
      "End": 1647,
      "ster": 1648,
      "ION": 1649,
      "anyl": 1650,
      "isT": 1651,
      "erman": 1652,
      "eda": 1653,
      "ean": 1654,
      "CB": 1655,
      "ula": 1656,
      "AY": 1657,
      "uct": 1658,
      "open": 1659,
      "oma": 1660,
      "Detail": 1661,
      "ander": 1662,
      "gar": 1663,
      "Sw": 1664,
      "stit": 1665,
      "ibus": 1666,
      "ĠBe": 1667,
      "Cell": 1668,
      "aft": 1669,
      "ĠAt": 1670,
      "atha": 1671,
      "Sub": 1672,
      "kin": 1673,
      "ypes": 1674,
      "ersion": 1675,
      "DE": 1676,
      "itch": 1677,
      "cad": 1678,
      "ertex": 1679,
      "andler": 1680,
      "elly": 1681,
      "itth": 1682,
      "ages": 1683,
      "And": 1684,
      "RG": 1685,
      "ko": 1686,
      "arks": 1687,
      "oles": 1688,
      "CD": 1689,
      "tot": 1690,
      "ignment": 1691,
      "Ġev": 1692,
      "rat": 1693,
      "ww": 1694,
      "EM": 1695,
      "ĠVill": 1696,
      "down": 1697,
      "Ġcor": 1698,
      "rin": 1699,
      "ney": 1700,
      "ged": 1701,
      "yan": 1702,
      "ced": 1703,
      "MR": 1704,
      "uel": 1705,
      "ants": 1706,
      "Ġir": 1707,
      "ĠMar": 1708,
      "Ġpor": 1709,
      "sm": 1710,
      "Location": 1711,
      "ĠEn": 1712,
      "inch": 1713,
      "imb": 1714,
      "Web": 1715,
      "start": 1716,
      "older": 1717,
      "Main": 1718,
      "ando": 1719,
      "ico": 1720,
      "Att": 1721,
      "inate": 1722,
      "Ġman": 1723,
      "Ġhem": 1724,
      "Ġpat": 1725,
      "imento": 1726,
      "oder": 1727,
      "odes": 1728,
      "asm": 1729,
      "Null": 1730,
      "Ġend": 1731,
      "PP": 1732,
      "Back": 1733,
      "ues": 1734,
      "ĠAb": 1735,
      "roc": 1736,
      "yte": 1737,
      "ken": 1738,
      "TT": 1739,
      "ttp": 1740,
      "Buf": 1741,
      "nam": 1742,
      "patch": 1743,
      "Link": 1744,
      "oint": 1745,
      "ĠRock": 1746,
      "Dis": 1747,
      "ices": 1748,
      "Spr": 1749,
      "ye": 1750,
      "Ġav": 1751,
      "acc": 1752,
      "Status": 1753,
      "ĠSm": 1754,
      "ova": 1755,
      "Form": 1756,
      "ved": 1757,
      "GC": 1758,
      "icks": 1759,
      "Json": 1760,
      "LU": 1761,
      "Card": 1762,
      "enz": 1763,
      "HP": 1764,
      "ja": 1765,
      "Ġexp": 1766,
      "ĠMcK": 1767,
      "Ġmon": 1768,
      "riff": 1769,
      "ĠMon": 1770,
      "Height": 1771,
      "auc": 1772,
      "uen": 1773,
      "rip": 1774,
      "yth": 1775,
      "fs": 1776,
      "Pref": 1777,
      "earch": 1778,
      "ĠRo": 1779,
      "MN": 1780,
      "Posit": 1781,
      "qual": 1782,
      "Debug": 1783,
      "Rect": 1784,
      "rac": 1785,
      "Ed": 1786,
      "umer": 1787,
      "ĠMcD": 1788,
      "var": 1789,
      "mm": 1790,
      "Ġpay": 1791,
      "ather": 1792,
      "irt": 1793,
      "Ġkn": 1794,
      "stance": 1795,
      "Ġrel": 1796,
      "oft": 1797,
      "Ġne": 1798,
      "Ġip": 1799,
      "ally": 1800,
      "Row": 1801,
      "ella": 1802,
      "ente": 1803,
      "sb": 1804,
      "rif": 1805,
      "mp": 1806,
      "iev": 1807,
      "Ġur": 1808,
      "aps": 1809,
      "name": 1810,
      "etry": 1811,
      "text": 1812,
      "Build": 1813,
      "ĠMad": 1814,
      "ahan": 1815,
      "Ġsol": 1816,
      "Ġut": 1817,
      "oin": 1818,
      "elt": 1819,
      "TL": 1820,
      "Exp": 1821,
      "play": 1822,
      "Ġadj": 1823,
      "Find": 1824,
      "ci": 1825,
      "Ġver": 1826,
      "eta": 1827,
      "omen": 1828,
      "Sync": 1829,
      "point": 1830,
      "ison": 1831,
      "ivity": 1832,
      "awn": 1833,
      "ĠCar": 1834,
      "pty": 1835,
      "adr": 1836,
      "yk": 1837,
      "pond": 1838,
      "lay": 1839,
      "igest": 1840,
      "HDR": 1841,
      "ĠVer": 1842,
      "Ġcons": 1843,
      "itter": 1844,
      "ination": 1845,
      "Open": 1846,
      "eni": 1847,
      "From": 1848,
      "usc": 1849,
      "ĠAng": 1850,
      "ĠRx": 1851,
      "unch": 1852,
      "urb": 1853,
      "aug": 1854,
      "lob": 1855,
      "ted": 1856,
      "inu": 1857,
      "han": 1858,
      "Length": 1859,
      "ĠNew": 1860,
      "eit": 1861,
      "ĠMont": 1862,
      "ader": 1863,
      "getB": 1864,
      "ushed": 1865,
      "Method": 1866,
      "utto": 1867,
      "odel": 1868,
      "UC": 1869,
      "RC": 1870,
      "print": 1871,
      "Dec": 1872,
      "anda": 1873,
      "file": 1874,
      "ape": 1875,
      "chen": 1876,
      "ĠFl": 1877,
      "lection": 1878,
      "agn": 1879,
      "Create": 1880,
      "init": 1881,
      "HA": 1882,
      "ctive": 1883,
      "Ġcur": 1884,
      "Ġes": 1885,
      "Query": 1886,
      "Cho": 1887,
      "idaz": 1888,
      "ĠRed": 1889,
      "Ġnot": 1890,
      "igned": 1891,
      "ville": 1892,
      "Num": 1893,
      "Auth": 1894,
      "ersh": 1895,
      "hou": 1896,
      "ustom": 1897,
      "Ġimm": 1898,
      "iya": 1899,
      "sel": 1900,
      "omot": 1901,
      "lem": 1902,
      "mat": 1903,
      "Student": 1904,
      "md": 1905,
      "Ġprz": 1906,
      "way": 1907,
      "ĠOr": 1908,
      "apter": 1909,
      "Update": 1910,
      "mann": 1911,
      "ĠPar": 1912,
      "ĠUn": 1913,
      "oard": 1914,
      "iver": 1915,
      "eto": 1916,
      "Ġemb": 1917,
      "Ġpart": 1918,
      "ei": 1919,
      "SX": 1920,
      "word": 1921,
      "gu": 1922,
      "raf": 1923,
      "ollow": 1924,
      "des": 1925,
      "xy": 1926,
      "riz": 1927,
      "UL": 1928,
      "room": 1929,
      "auf": 1930,
      "Per": 1931,
      "Ġover": 1932,
      "osa": 1933,
      "Ġoff": 1934,
      "GE": 1935,
      "mi": 1936,
      "LC": 1937,
      "del": 1938,
      "rea": 1939,
      "IST": 1940,
      "cop": 1941,
      "Game": 1942,
      "riter": 1943,
      "ines": 1944,
      "allow": 1945,
      "duct": 1946,
      "VC": 1947,
      "Ġfor": 1948,
      "ĠLor": 1949,
      "ful": 1950,
      "Label": 1951,
      "ĠMart": 1952,
      "roid": 1953,
      "ĠBel": 1954,
      "una": 1955,
      "olo": 1956,
      "Ġann": 1957,
      "eal": 1958,
      "Ġbil": 1959,
      "anch": 1960,
      "draw": 1961,
      "sa": 1962,
      "press": 1963,
      "Token": 1964,
      "ume": 1965,
      "irst": 1966,
      "Ġdem": 1967,
      "under": 1968,
      "ĠHar": 1969,
      "argin": 1970,
      "Asset": 1971,
      "Ġref": 1972,
      "ĠCol": 1973,
      "elles": 1974,
      "TH": 1975,
      "obj": 1976,
      "ellen": 1977,
      "vas": 1978,
      "ribute": 1979,
      "Not": 1980,
      "Sl": 1981,
      "Tool": 1982,
      "eks": 1983,
      "Ġneut": 1984,
      "vers": 1985,
      "DS": 1986,
      "atrix": 1987,
      "Style": 1988,
      "ĠSe": 1989,
      "Attribute": 1990,
      "hav": 1991,
      "counter": 1992,
      "Ġpol": 1993,
      "emia": 1994,
      "Ġspl": 1995,
      "ains": 1996,
      "ende": 1997,
      "unn": 1998,
      "gi": 1999,
      "ides": 2000,
      "color": 2001,
      "ba": 2002,
      "ĠFre": 2003,
      "embre": 2004,
      "Position": 2005,
      "ades": 2006,
      "Ġval": 2007,
      "ulfanyl": 2008,
      "Ġq": 2009,
      "space": 2010,
      "ared": 2011,
      "hel": 2012,
      "Builder": 2013,
      "sulfanyl": 2014,
      "Ġacc": 2015,
      "pie": 2016,
      "sal": 2017,
      "arat": 2018,
      "phen": 2019,
      "Full": 2020,
      "URN": 2021,
      "ense": 2022,
      "ĠEll": 2023,
      "ĠBlack": 2024,
      "len": 2025,
      "lov": 2026,
      "esthet": 2027,
      "Ġhum": 2028,
      "ives": 2029,
      "inst": 2030,
      "vel": 2031,
      "bu": 2032,
      "Cent": 2033,
      "Add": 2034,
      "esi": 2035,
      "perm": 2036,
      "Sprite": 2037,
      "Ġsn": 2038,
      "aat": 2039,
      "GR": 2040,
      "ijk": 2041,
      "onc": 2042,
      "api": 2043,
      "ourn": 2044,
      "ites": 2045,
      "Ġtri": 2046,
      "inding": 2047,
      "ungen": 2048,
      "ceed": 2049,
      "ote": 2050,
      "ents": 2051,
      "eton": 2052,
      "iego": 2053,
      "aires": 2054,
      "onne": 2055,
      "opp": 2056,
      "acute": 2057,
      "Ġfre": 2058,
      "irect": 2059,
      "Components": 2060,
      "ĠMor": 2061,
      "rone": 2062,
      "har": 2063,
      "angk": 2064,
      "Offset": 2065,
      "agen": 2066,
      "rog": 2067,
      "Ġtra": 2068,
      "itar": 2069,
      "enna": 2070,
      "cs": 2071,
      "Vertex": 2072,
      "view": 2073,
      "rie": 2074,
      "bb": 2075,
      "ĠWal": 2076,
      "war": 2077,
      "Now": 2078,
      "Ġcar": 2079,
      "bor": 2080,
      "link": 2081,
      "Th": 2082,
      "ugin": 2083,
      "OC": 2084,
      "prop": 2085,
      "sky": 2086,
      "sis": 2087,
      "aph": 2088,
      "ito": 2089,
      "EG": 2090,
      "test": 2091,
      "class": 2092,
      "Ġwh": 2093,
      "esto": 2094,
      "pton": 2095,
      "arsh": 2096,
      "eller": 2097,
      "itis": 2098,
      "ams": 2099,
      "SF": 2100,
      "Source": 2101,
      "Ġpres": 2102,
      "ucc": 2103,
      "iento": 2104,
      "eil": 2105,
      "iler": 2106,
      "ĠGal": 2107,
      "LP": 2108,
      "pos": 2109,
      "string": 2110,
      "isi": 2111,
      "ries": 2112,
      "ital": 2113,
      "sen": 2114,
      "oom": 2115,
      "ĠRaj": 2116,
      "ĠKe": 2117,
      "ĠMo": 2118,
      "ution": 2119,
      "Ġpret": 2120,
      "Port": 2121,
      "ohn": 2122,
      "ique": 2123,
      "Record": 2124,
      "uring": 2125,
      "Non": 2126,
      "rite": 2127,
      "CR": 2128,
      "ERN": 2129,
      "log": 2130,
      "hn": 2131,
      "Body": 2132,
      "Keys": 2133,
      "so": 2134,
      "Sett": 2135,
      "ĠRUT": 2136,
      "umn": 2137,
      "ranch": 2138,
      "Pos": 2139,
      "ĠUI": 2140,
      "ours": 2141,
      "ĠPol": 2142,
      "hab": 2143,
      "ĠHo": 2144,
      "Ġdist": 2145,
      "aker": 2146,
      "ilt": 2147,
      "Login": 2148,
      "akukan": 2149,
      "ideo": 2150,
      "emy": 2151,
      "El": 2152,
      "Video": 2153,
      "ueue": 2154,
      "inct": 2155,
      "Ġmy": 2156,
      "Marks": 2157,
      "review": 2158,
      "ymbol": 2159,
      "Ġpop": 2160,
      "lig": 2161,
      "eler": 2162,
      "ĠHe": 2163,
      "efont": 2164,
      "ĠGar": 2165,
      "eport": 2166,
      "elli": 2167,
      "Ġhab": 2168,
      "mond": 2169,
      "ocket": 2170,
      "Settings": 2171,
      "eft": 2172,
      "ĠEp": 2173,
      "ocalVar": 2174,
      "gg": 2175,
      "other": 2176,
      "TI": 2177,
      "Ġple": 2178,
      "bert": 2179,
      "page": 2180,
      "Sup": 2181,
      "yo": 2182,
      "atu": 2183,
      "etter": 2184,
      "ĠCav": 2185,
      "zn": 2186,
      "Script": 2187,
      "ahi": 2188,
      "annya": 2189,
      "Sal": 2190,
      "Did": 2191,
      "HL": 2192,
      "itle": 2193,
      "big": 2194,
      "ingen": 2195,
      "cher": 2196,
      "rel": 2197,
      "TO": 2198,
      "vo": 2199,
      "ĠCro": 2200,
      "uda": 2201,
      "Ġsur": 2202,
      "Screen": 2203,
      "Player": 2204,
      "Temp": 2205,
      "Ġmel": 2206,
      "ĠCont": 2207,
      "Rad": 2208,
      "FS": 2209,
      "ves": 2210,
      "Counter": 2211,
      "lich": 2212,
      "eston": 2213,
      "eva": 2214,
      "Types": 2215,
      "HS": 2216,
      "Show": 2217,
      "Ġvatt": 2218,
      "ĠIr": 2219,
      "Sql": 2220,
      "OU": 2221,
      "zin": 2222,
      "rvGroup": 2223,
      "ista": 2224,
      "MT": 2225,
      "Ġcyt": 2226,
      "ĠRh": 2227,
      "Queue": 2228,
      "Load": 2229,
      "ilde": 2230,
      "upt": 2231,
      "Ġaus": 2232,
      "count": 2233,
      "Para": 2234,
      "ĠHor": 2235,
      "right": 2236,
      "Ġcomp": 2237,
      "imi": 2238,
      "ude": 2239,
      "tils": 2240,
      "Items": 2241,
      "BE": 2242,
      "reens": 2243,
      "Dict": 2244,
      "ĠSom": 2245,
      "hd": 2246,
      "ashi": 2247,
      "Parameter": 2248,
      "lish": 2249,
      "Parser": 2250,
      "dl": 2251,
      "Ġstat": 2252,
      "ists": 2253,
      "yg": 2254,
      "RS": 2255,
      "ehyd": 2256,
      "illy": 2257,
      "nc": 2258,
      "ocument": 2259,
      "Compat": 2260,
      "yll": 2261,
      "htt": 2262,
      "vider": 2263,
      "Ġbr": 2264,
      "Ġconc": 2265,
      "ece": 2266,
      "omy": 2267,
      "Com": 2268,
      "Ġhot": 2269,
      "getC": 2270,
      "ystem": 2271,
      "aten": 2272,
      "osis": 2273,
      "rome": 2274,
      "gram": 2275,
      "iendo": 2276,
      "efore": 2277,
      "ones": 2278,
      "mouse": 2279,
      "ollis": 2280,
      "FT": 2281,
      "istic": 2282,
      "eed": 2283,
      "AB": 2284,
      "Ġins": 2285,
      "PL": 2286,
      "ki": 2287,
      "augh": 2288,
      "itte": 2289,
      "Ġtre": 2290,
      "atter": 2291,
      "Module": 2292,
      "ymph": 2293,
      "ĠGo": 2294,
      "Btn": 2295,
      "otrop": 2296,
      "ĠBerg": 2297,
      "ĠEst": 2298,
      "Ġele": 2299,
      "Bound": 2300,
      "FF": 2301,
      "create": 2302,
      "wick": 2303,
      "ika": 2304,
      "Wait": 2305,
      "Ġmin": 2306,
      "ĠPA": 2307,
      "Ġcontent": 2308,
      "URL": 2309,
      "irm": 2310,
      "ony": 2311,
      "ativ": 2312,
      "BL": 2313,
      "math": 2314,
      "aria": 2315,
      "une": 2316,
      "rine": 2317,
      "owan": 2318,
      "ĠPl": 2319,
      "aret": 2320,
      "Ġmast": 2321,
      "ici": 2322,
      "Plugin": 2323,
      "etta": 2324,
      "nej": 2325,
      "OL": 2326,
      "Ġpur": 2327,
      "imer": 2328,
      "icons": 2329,
      "BI": 2330,
      "ilit": 2331,
      "iley": 2332,
      "Ġmag": 2333,
      "ytes": 2334,
      "Ġenc": 2335,
      "iled": 2336,
      "hot": 2337,
      "AA": 2338,
      "hm": 2339,
      "ther": 2340,
      "GP": 2341,
      "ival": 2342,
      "ĠSte": 2343,
      "elet": 2344,
      "Ġconse": 2345,
      "obac": 2346,
      "aran": 2347,
      "Ġass": 2348,
      "SU": 2349,
      "ĠAy": 2350,
      "ache": 2351,
      "oen": 2352,
      "Struct": 2353,
      "allback": 2354,
      "andom": 2355,
      "ogen": 2356,
      "Ġcre": 2357,
      "Pk": 2358,
      "aint": 2359,
      "aler": 2360,
      "Operation": 2361,
      "Command": 2362,
      "Dev": 2363,
      "uml": 2364,
      "eek": 2365,
      "ĠAsh": 2366,
      "Ġtor": 2367,
      "zen": 2368,
      "bs": 2369,
      "Scroll": 2370,
      "atham": 2371,
      "uble": 2372,
      "iye": 2373,
      "bury": 2374,
      "Ġdham": 2375,
      "Ret": 2376,
      "Avg": 2377,
      "ited": 2378,
      "Sch": 2379,
      "ĠArch": 2380,
      "Ġpos": 2381,
      "Ġor": 2382,
      "imo": 2383,
      "osc": 2384,
      "Vis": 2385,
      "stock": 2386,
      "ayam": 2387,
      "Ġinv": 2388,
      "Font": 2389,
      "ample": 2390,
      "rou": 2391,
      "AE": 2392,
      "rug": 2393,
      "ether": 2394,
      "ĠPL": 2395,
      "eon": 2396,
      "Rout": 2397,
      "inf": 2398,
      "hal": 2399,
      "rown": 2400,
      "anja": 2401,
      "erto": 2402,
      "amo": 2403,
      "ulation": 2404,
      "Ġstr": 2405,
      "Ġpe": 2406,
      "mas": 2407,
      "roller": 2408,
      "tim": 2409,
      "opl": 2410,
      "Right": 2411,
      "ike": 2412,
      "tered": 2413,
      "Ġreg": 2414,
      "kit": 2415,
      "osph": 2416,
      "ristian": 2417,
      "rowser": 2418,
      "Ġvel": 2419,
      "ga": 2420,
      "ĠNag": 2421,
      "ogram": 2422,
      "ework": 2423,
      "Pack": 2424,
      "Top": 2425,
      "eco": 2426,
      "ogo": 2427,
      "ness": 2428,
      "olson": 2429,
      "vation": 2430,
      "ND": 2431,
      "Ptr": 2432,
      "ĠReg": 2433,
      "ĠRos": 2434,
      "outs": 2435,
      "Ġpers": 2436,
      "etch": 2437,
      "ono": 2438,
      "ados": 2439,
      "unsch": 2440,
      "GS": 2441,
      "asis": 2442,
      "CF": 2443,
      "Press": 2444,
      "face": 2445,
      "olicy": 2446,
      "nem": 2447,
      "Ġsil": 2448,
      "Task": 2449,
      "Ġduk": 2450,
      "lav": 2451,
      "oggle": 2452,
      "Ġmer": 2453,
      "ania": 2454,
      "ĠGir": 2455,
      "iol": 2456,
      "SXml": 2457,
      "Version": 2458,
      "ĠEM": 2459,
      "image": 2460,
      "assa": 2461,
      "umph": 2462,
      "czn": 2463,
      "oup": 2464,
      "Ġloc": 2465,
      "lj": 2466,
      "Search": 2467,
      "hes": 2468,
      "obb": 2469,
      "UID": 2470,
      "ĠMcInt": 2471,
      "Navig": 2472,
      "Http": 2473,
      "Equal": 2474,
      "Gl": 2475,
      "Ġsput": 2476,
      "Instance": 2477,
      "edit": 2478,
      "akes": 2479,
      "oji": 2480,
      "Character": 2481,
      "Ġinput": 2482,
      "Connection": 2483,
      "Unary": 2484,
      "olm": 2485,
      "illes": 2486,
      "lio": 2487,
      "Ġrect": 2488,
      "ilda": 2489,
      "Ġdo": 2490,
      "rame": 2491,
      "ĠDom": 2492,
      "atform": 2493,
      "angu": 2494,
      "asena": 2495,
      "ĠBer": 2496,
      "onucle": 2497,
      "Ġaf": 2498,
      "Props": 2499,
      "ĠEx": 2500,
      "aton": 2501,
      "Ġbul": 2502,
      "icker": 2503,
      "Ġext": 2504,
      "SON": 2505,
      "ĠMcL": 2506,
      "atas": 2507,
      "ART": 2508,
      "aron": 2509,
      "erred": 2510,
      "Ġing": 2511,
      "cre": 2512,
      "racket": 2513,
      "asal": 2514,
      "Pix": 2515,
      "uced": 2516,
      "getM": 2517,
      "Camera": 2518,
      "ology": 2519,
      "rew": 2520,
      "irl": 2521,
      "Ġparab": 2522,
      "Empty": 2523,
      "OW": 2524,
      "Ġsam": 2525,
      "ify": 2526,
      "screen": 2527,
      "Ġlle": 2528,
      "Mutability": 2529,
      "Ġsymbol": 2530,
      "head": 2531,
      "econds": 2532,
      "PD": 2533,
      "idden": 2534,
      "aliz": 2535,
      "idazole": 2536,
      "Ġmic": 2537,
      "Interface": 2538,
      "isTrack": 2539,
      "ador": 2540,
      "Ġgi": 2541,
      "ori": 2542,
      "ained": 2543,
      "alan": 2544,
      "rep": 2545,
      "arant": 2546,
      "cy": 2547,
      "ILL": 2548,
      "hy": 2549,
      "Ow": 2550,
      "apping": 2551,
      "ĠHay": 2552,
      "DL": 2553,
      "Fit": 2554,
      "ground": 2555,
      "Push": 2556,
      "azar": 2557,
      "Ġred": 2558,
      "rod": 2559,
      "ective": 2560,
      "Policy": 2561,
      "miss": 2562,
      "EP": 2563,
      "ury": 2564,
      "ikt": 2565,
      "Ġkar": 2566,
      "ĠLuc": 2567,
      "ials": 2568,
      "Target": 2569,
      "pm": 2570,
      "VCT": 2571,
      "Ġte": 2572,
      "ske": 2573,
      "lectic": 2574,
      "BP": 2575,
      "Ġfo": 2576,
      "Ġde": 2577,
      "ief": 2578,
      "ORT": 2579,
      "enden": 2580,
      "ĠCH": 2581,
      "osk": 2582,
      "nav": 2583,
      "FC": 2584,
      "raven": 2585,
      "Board": 2586,
      "eros": 2587,
      "Bl": 2588,
      "Callback": 2589,
      "bad": 2590,
      "RA": 2591,
      "oor": 2592,
      "Project": 2593,
      "iana": 2594,
      "vr": 2595,
      "Ġcol": 2596,
      "Handler": 2597,
      "rows": 2598,
      "ĠGi": 2599,
      "ister": 2600,
      "amily": 2601,
      "appe": 2602,
      "PO": 2603,
      "Device": 2604,
      "Sample": 2605,
      "ingham": 2606,
      "ĠSk": 2607,
      "race": 2608,
      "ytic": 2609,
      "inde": 2610,
      "ondo": 2611,
      "idin": 2612,
      "Ġpercent": 2613,
      "erno": 2614,
      "ardi": 2615,
      "char": 2616,
      "Ġviv": 2617,
      "Fact": 2618,
      "Flight": 2619,
      "arker": 2620,
      "eground": 2621,
      "esus": 2622,
      "ife": 2623,
      "Used": 2624,
      "Ġvutt": 2625,
      "ĠKx": 2626,
      "Ġmeg": 2627,
      "atiti": 2628,
      "ersch": 2629,
      "ĠBad": 2630,
      "code": 2631,
      "esse": 2632,
      "umann": 2633,
      "Ġbet": 2634,
      "Ġsu": 2635,
      "search": 2636,
      "oney": 2637,
      "ĠMax": 2638,
      "peat": 2639,
      "PI": 2640,
      "imple": 2641,
      "Ġmost": 2642,
      "ungs": 2643,
      "itone": 2644,
      "Ġferr": 2645,
      "Ġren": 2646,
      "Ġgel": 2647,
      "ilis": 2648,
      "wise": 2649,
      "ired": 2650,
      "pear": 2651,
      "inner": 2652,
      "Ġfamil": 2653,
      "ordan": 2654,
      "Ġdiss": 2655,
      "rift": 2656,
      "Ġknock": 2657,
      "rish": 2658,
      "Details": 2659,
      "ĠMaur": 2660,
      "ursor": 2661,
      "ushroom": 2662,
      "ergic": 2663,
      "ĠAll": 2664,
      "osi": 2665,
      "oon": 2666,
      "ĠGall": 2667,
      "eza": 2668,
      "Ġic": 2669,
      "outh": 2670,
      "Ġdata": 2671,
      "ĠBeat": 2672,
      "aze": 2673,
      "burg": 2674,
      "angle": 2675,
      "ahu": 2676,
      "aim": 2677,
      "anny": 2678,
      "DT": 2679,
      "zi": 2680,
      "ilm": 2681,
      "ĠRUTAR": 2682,
      "Save": 2683,
      "url": 2684,
      "ĠOb": 2685,
      "FR": 2686,
      "sid": 2687,
      "ahul": 2688,
      "ague": 2689,
      "rot": 2690,
      "ida": 2691,
      "Ġsubt": 2692,
      "urope": 2693,
      "roke": 2694,
      "lyn": 2695,
      "Ġphen": 2696,
      "tha": 2697,
      "ebra": 2698,
      "Bin": 2699,
      "eres": 2700,
      "stream": 2701,
      "OH": 2702,
      "Ġcle": 2703,
      "UD": 2704,
      "Ġbro": 2705,
      "ures": 2706,
      "ikan": 2707,
      "yatt": 2708,
      "stone": 2709,
      "Ext": 2710,
      "ĠBuk": 2711,
      "Provider": 2712,
      "Ġax": 2713,
      "Ġhead": 2714,
      "owell": 2715,
      "had": 2716,
      "ĠGh": 2717,
      "Wall": 2718,
      "ĠShe": 2719,
      "Adapter": 2720,
      "ĠBoy": 2721,
      "amine": 2722,
      "abbam": 2723,
      "Ġdign": 2724,
      "rust": 2725,
      "Args": 2726,
      "igo": 2727,
      "Ġposit": 2728,
      "amento": 2729,
      "ĠDal": 2730,
      "ĠAnd": 2731,
      "olver": 2732,
      "Des": 2733,
      "Ġmot": 2734,
      "ĠHumph": 2735,
      "tb": 2736,
      "mult": 2737,
      "Flag": 2738,
      "him": 2739,
      "odor": 2740,
      "rant": 2741,
      "ward": 2742,
      "uls": 2743,
      "NS": 2744,
      "Center": 2745,
      "iers": 2746,
      "arah": 2747,
      "Ġvert": 2748,
      "ĠCR": 2749,
      "sad": 2750,
      "ERC": 2751,
      "Ġhand": 2752,
      "Utils": 2753,
      "Ġprop": 2754,
      "Ġcr": 2755,
      "alam": 2756,
      "ffen": 2757,
      "EY": 2758,
      "raul": 2759,
      "Ġtot": 2760,
      "alar": 2761,
      "allel": 2762,
      "stant": 2763,
      "ational": 2764,
      "ĠMarg": 2765,
      "ranc": 2766,
      "urd": 2767,
      "aye": 2768,
      "umm": 2769,
      "VER": 2770,
      "ieg": 2771,
      "Ġmill": 2772,
      "ĠGr": 2773,
      "Controller": 2774,
      "Tab": 2775,
      "alm": 2776,
      "eno": 2777,
      "eless": 2778,
      "tol": 2779,
      "edd": 2780,
      "Ġabh": 2781,
      "ĠCorn": 2782,
      "Ġdil": 2783,
      "Str": 2784,
      "Ass": 2785,
      "ĠNorth": 2786,
      "ĠUt": 2787,
      "ello": 2788,
      "Ġkey": 2789,
      "Dto": 2790,
      "Ġexc": 2791,
      "por": 2792,
      "ĠNL": 2793,
      "uest": 2794,
      "Del": 2795,
      "Opt": 2796,
      "Ġten": 2797,
      "BT": 2798,
      "bre": 2799,
      "revi": 2800,
      "akespe": 2801,
      "wrap": 2802,
      "kar": 2803,
      "itrile": 2804,
      "Current": 2805,
      "Ġvucc": 2806,
      "aad": 2807,
      "ĠBa": 2808,
      "dk": 2809,
      "Ġat": 2810,
      "Ġkah": 2811,
      "Radius": 2812,
      "auer": 2813,
      "pop": 2814,
      "Ġmyc": 2815,
      "sche": 2816,
      "Ġprim": 2817,
      "ĠUIC": 2818,
      "inder": 2819,
      "Ġunder": 2820,
      "itting": 2821,
      "endez": 2822,
      "sy": 2823,
      "reet": 2824,
      "ryst": 2825,
      "fordshire": 2826,
      "VS": 2827,
      "anger": 2828,
      "trl": 2829,
      "esu": 2830,
      "idad": 2831,
      "ĠMull": 2832,
      "oster": 2833,
      "si": 2834,
      "ĠCan": 2835,
      "ily": 2836,
      "Beat": 2837,
      "ĠGreen": 2838,
      "Vector": 2839,
      "ches": 2840,
      "imation": 2841,
      "ommon": 2842,
      "sn": 2843,
      "iaz": 2844,
      "sec": 2845,
      "eder": 2846,
      "Ġven": 2847,
      "Ġsem": 2848,
      "house": 2849,
      "Dir": 2850,
      "Child": 2851,
      "aird": 2852,
      "Re": 2853,
      "atir": 2854,
      "Chang": 2855,
      "icate": 2856,
      "obil": 2857,
      "Popup": 2858,
      "andal": 2859,
      "eze": 2860,
      "struct": 2861,
      "ĠComp": 2862,
      "ĠTon": 2863,
      "Photo": 2864,
      "ĠStaff": 2865,
      "Stack": 2866,
      "ĠStr": 2867,
      "One": 2868,
      "Ġtub": 2869,
      "ences": 2870,
      "ging": 2871,
      "acht": 2872,
      "ĠWeb": 2873,
      "quier": 2874,
      "System": 2875,
      "nes": 2876,
      "drop": 2877,
      "fol": 2878,
      "ypt": 2879,
      "bum": 2880,
      "Byte": 2881,
      "alur": 2882,
      "ĠBarcl": 2883,
      "ĠSab": 2884,
      "ilib": 2885,
      "enie": 2886,
      "INT": 2887,
      "lia": 2888,
      "ĠAp": 2889,
      "ije": 2890,
      "Keyboard": 2891,
      "brevi": 2892,
      "Ġwarm": 2893,
      "ĠFerr": 2894,
      "Ġconf": 2895,
      "Ġest": 2896,
      "cor": 2897,
      "quam": 2898,
      "ayan": 2899,
      "ska": 2900,
      "ĠHer": 2901,
      "ulin": 2902,
      "Mov": 2903,
      "iros": 2904,
      "orum": 2905,
      "Route": 2906,
      "iyet": 2907,
      "has": 2908,
      "iller": 2909,
      "azi": 2910,
      "sql": 2911,
      "Ġet": 2912,
      "abs": 2913,
      "sman": 2914,
      "ME": 2915,
      "Aud": 2916,
      "Case": 2917,
      "eman": 2918,
      "ĠMain": 2919,
      "Ġbe": 2920,
      "uchi": 2921,
      "zym": 2922,
      "orrh": 2923,
      "ikum": 2924,
      "Ġfile": 2925,
      "jel": 2926,
      "ĠsubTest": 2927,
      "olds": 2928,
      "elf": 2929,
      "RAN": 2930,
      "ĠMa": 2931,
      "Ġrup": 2932,
      "ements": 2933,
      "Ġeg": 2934,
      "Percent": 2935,
      "lt": 2936,
      "QL": 2937,
      "uang": 2938,
      "Document": 2939,
      "Product": 2940,
      "ĠFair": 2941,
      "Ġatth": 2942,
      "ewer": 2943,
      "Ġodp": 2944,
      "Ġcin": 2945,
      "Ac": 2946,
      "Ġtem": 2947,
      "iner": 2948,
      "ators": 2949,
      "asp": 2950,
      "Ġmet": 2951,
      "Ġbo": 2952,
      "GA": 2953,
      "ĠHein": 2954,
      "ube": 2955,
      "ĠGer": 2956,
      "Ġmod": 2957,
      "ehen": 2958,
      "wen": 2959,
      "erre": 2960,
      "Ġaff": 2961,
      "kk": 2962,
      "arra": 2963,
      "ĠGro": 2964,
      "cd": 2965,
      "inh": 2966,
      "ĠLut": 2967,
      "aste": 2968,
      "aries": 2969,
      "ograph": 2970,
      "spl": 2971,
      "DF": 2972,
      "onda": 2973,
      "aris": 2974,
      "vach": 2975,
      "wt": 2976,
      "iper": 2977,
      "olt": 2978,
      "Pass": 2979,
      "ieht": 2980,
      "atin": 2981,
      "elo": 2982,
      "ĠCam": 2983,
      "aneu": 2984,
      "ramework": 2985,
      "ission": 2986,
      "ryl": 2987,
      "XY": 2988,
      "ĠAss": 2989,
      "We": 2990,
      "ĠRad": 2991,
      "rach": 2992,
      "ĠEng": 2993,
      "rik": 2994,
      "Navigator": 2995,
      "ĠHaw": 2996,
      "ruff": 2997,
      "webElement": 2998,
      "ermi": 2999,
      "Tree": 3000,
      "inden": 3001,
      "Ġdev": 3002,
      "unct": 3003,
      "stat": 3004,
      "Ġmit": 3005,
      "ofar": 3006,
      "iser": 3007,
      "arin": 3008,
      "ongo": 3009,
      "ĠSur": 3010,
      "igan": 3011,
      "yloxy": 3012,
      "col": 3013,
      "Area": 3014,
      "align": 3015,
      "lands": 3016,
      "sun": 3017,
      "ibb": 3018,
      "phal": 3019,
      "YPE": 3020,
      "romo": 3021,
      "iko": 3022,
      "Each": 3023,
      "Unit": 3024,
      "write": 3025,
      "Kind": 3026,
      "ĠMal": 3027,
      "Core": 3028,
      "If": 3029,
      "VP": 3030,
      "ĠUl": 3031,
      "adam": 3032,
      "Ab": 3033,
      "ĠPet": 3034,
      "ells": 3035,
      "ky": 3036,
      "feit": 3037,
      "Ġart": 3038,
      "def": 3039,
      "iph": 3040,
      "ool": 3041,
      "ĠBrit": 3042,
      "Cap": 3043,
      "Ġoct": 3044,
      "atts": 3045,
      "ela": 3046,
      "rex": 3047,
      "nown": 3048,
      "Ġand": 3049,
      "lis": 3050,
      "Ġid": 3051,
      "rypt": 3052,
      "olid": 3053,
      "hens": 3054,
      "ĠFA": 3055,
      "list": 3056,
      "Grid": 3057,
      "ucleaires": 3058,
      "UE": 3059,
      "umble": 3060,
      "LAG": 3061,
      "Ap": 3062,
      "agger": 3063,
      "etz": 3064,
      "ysz": 3065,
      "posit": 3066,
      "Preview": 3067,
      "greg": 3068,
      "Pane": 3069,
      "ĠSL": 3070,
      "owe": 3071,
      "ubs": 3072,
      "urk": 3073,
      "angs": 3074,
      "rote": 3075,
      "oku": 3076,
      "Ġauto": 3077,
      "ising": 3078,
      "Ġrealiz": 3079,
      "Drop": 3080,
      "Ġmar": 3081,
      "0x": 3082,
      "<0x": 3083,
      "Ġcond": 3084,
      "ĠWill": 3085,
      "etic": 3086,
      "RGB": 3087,
      "IK": 3088,
      "resh": 3089,
      "ĠGab": 3090,
      "iffer": 3091,
      "Ġther": 3092,
      "Rx": 3093,
      "RxDocument": 3094,
      "Ġatt": 3095,
      "rict": 3096,
      "comstock": 3097,
      "ĠSRP": 3098,
      "Asp": 3099,
      "icle": 3100,
      "ahl": 3101,
      "ekt": 3102,
      "Support": 3103,
      "chn": 3104,
      "agon": 3105,
      "Ġbre": 3106,
      "ĠYam": 3107,
      "kinson": 3108,
      "ĠMaj": 3109,
      "Ġnov": 3110,
      "phenyl": 3111,
      "Ġbeg": 3112,
      "ĠAug": 3113,
      "thorax": 3114,
      "igation": 3115,
      "Events": 3116,
      "rane": 3117,
      "ToProps": 3118,
      "iddle": 3119,
      "ĠBal": 3120,
      "anes": 3121,
      "ĠFitz": 3122,
      "erial": 3123,
      "illus": 3124,
      "Concept": 3125,
      "YY": 3126,
      "Ġtw": 3127,
      "Ġmand": 3128,
      "Graph": 3129,
      "ĠPad": 3130,
      "beat": 3131,
      "ATIV": 3132,
      "Perm": 3133,
      "ophor": 3134,
      "xx": 3135,
      "http": 3136,
      "rington": 3137,
      "follow": 3138,
      "ĠBern": 3139,
      "Ġrev": 3140,
      "agin": 3141,
      "uana": 3142,
      "Ġla": 3143,
      "illon": 3144,
      "Ġneg": 3145,
      "aved": 3146,
      "isms": 3147,
      "Ent": 3148,
      "Ġhalf": 3149,
      "cup": 3150,
      "Ġped": 3151,
      "expr": 3152,
      "Ġcele": 3153,
      "Ġgacch": 3154,
      "oe": 3155,
      "onom": 3156,
      "Ġfast": 3157,
      "Compl": 3158,
      "ermin": 3159,
      "ĠLiv": 3160,
      "hook": 3161,
      "Edit": 3162,
      "She": 3163,
      "Choice": 3164,
      "Ġju": 3165,
      "Root": 3166,
      "acet": 3167,
      "Ġport": 3168,
      "iot": 3169,
      "anche": 3170,
      "Trans": 3171,
      "ĠKais": 3172,
      "imiz": 3173,
      "Br": 3174,
      "GT": 3175,
      "XYZ": 3176,
      "Ġsob": 3177,
      "wan": 3178,
      "exec": 3179,
      "irth": 3180,
      "Matrix": 3181,
      "Dispatch": 3182,
      "ommod": 3183,
      "SL": 3184,
      "ently": 3185,
      "Shape": 3186,
      "cul": 3187,
      "ĠCyr": 3188,
      "iat": 3189,
      "arded": 3190,
      "etr": 3191,
      "onna": 3192,
      "yer": 3193,
      "ikut": 3194,
      "iert": 3195,
      "Ġbas": 3196,
      "idget": 3197,
      "ĠBog": 3198,
      "offset": 3199,
      "uge": 3200,
      "ympt": 3201,
      "Lua": 3202,
      "plot": 3203,
      "method": 3204,
      "egu": 3205,
      "corr": 3206,
      "BU": 3207,
      "Ġinst": 3208,
      "thol": 3209,
      "iary": 3210,
      "rek": 3211,
      "esz": 3212,
      "ctivity": 3213,
      "sie": 3214,
      "bib": 3215,
      "Ġtro": 3216,
      "II": 3217,
      "SH": 3218,
      "Ġwa": 3219,
      "ĠLak": 3220,
      "quare": 3221,
      "ried": 3222,
      "icles": 3223,
      "ĠPe": 3224,
      "anvas": 3225,
      "obe": 3226,
      "BR": 3227,
      "ateral": 3228,
      "ĠPro": 3229,
      "nego": 3230,
      "ĠEug": 3231,
      "adal": 3232,
      "Ġfe": 3233,
      "rig": 3234,
      "Base": 3235,
      "Column": 3236,
      "ydro": 3237,
      "unes": 3238,
      "sor": 3239,
      "erecht": 3240,
      "iran": 3241,
      "Ġall": 3242,
      "ĠDown": 3243,
      "apsed": 3244,
      "jal": 3245,
      "urity": 3246,
      "DM": 3247,
      "Factory": 3248,
      "Ġbase": 3249,
      "okat": 3250,
      "etto": 3251,
      "ĠDod": 3252,
      "Before": 3253,
      "IZ": 3254,
      "param": 3255,
      "Platform": 3256,
      "iber": 3257,
      "asus": 3258,
      "Ġdep": 3259,
      "ĠDh": 3260,
      "Ġyath": 3261,
      "iven": 3262,
      "ĠAugust": 3263,
      "itten": 3264,
      "Ġnaj": 3265,
      "itim": 3266,
      "Arch": 3267,
      "hatu": 3268,
      "imet": 3269,
      "yb": 3270,
      "anne": 3271,
      "then": 3272,
      "namefont": 3273,
      "Canvas": 3274,
      "udan": 3275,
      "mund": 3276,
      "evel": 3277,
      "opy": 3278,
      "mont": 3279,
      "ullam": 3280,
      "post": 3281,
      "rade": 3282,
      "CTOR": 3283,
      "Background": 3284,
      "Sort": 3285,
      "Ġphot": 3286,
      "Enc": 3287,
      "ĠOl": 3288,
      "Space": 3289,
      "ĠlocalVar": 3290,
      "ottom": 3291,
      "ĠViv": 3292,
      "ublic": 3293,
      "game": 3294,
      "ĠNP": 3295,
      "oja": 3296,
      "ARR": 3297,
      "Folder": 3298,
      "cest": 3299,
      "Texture": 3300,
      "dd": 3301,
      "organ": 3302,
      "ivo": 3303,
      "Level": 3304,
      "erme": 3305,
      "adis": 3306,
      "Ġdob": 3307,
      "Activity": 3308,
      "engu": 3309,
      "encent": 3310,
      "ASE": 3311,
      "ĠPel": 3312,
      "ungan": 3313,
      "arbox": 3314,
      "ELE": 3315,
      "ĠBo": 3316,
      "ipe": 3317,
      "ĠIN": 3318,
      "ĠKey": 3319,
      "ousse": 3320,
      "Scale": 3321,
      "ELEASE": 3322,
      "Ġitem": 3323,
      "rech": 3324,
      "eben": 3325,
      "SrvGroup": 3326,
      "rij": 3327,
      "Tmp": 3328,
      "ĠSpring": 3329,
      "Ġconsequ": 3330,
      "ential": 3331,
      "cel": 3332,
      "ple": 3333,
      "odh": 3334,
      "time": 3335,
      "ept": 3336,
      "Ġaliqu": 3337,
      "www": 3338,
      "wwwpond": 3339,
      "ento": 3340,
      "Ġlib": 3341,
      "Ġdrag": 3342,
      "andl": 3343,
      "ctx": 3344,
      "Post": 3345,
      "Ġmultic": 3346,
      "iam": 3347,
      "Match": 3348,
      "CPP": 3349,
      "ĠInput": 3350,
      "ĠKish": 3351,
      "AI": 3352,
      "Ġlab": 3353,
      "ĠPap": 3354,
      "antile": 3355,
      "urry": 3356,
      "erton": 3357,
      "ĠMH": 3358,
      "gd": 3359,
      "RAM": 3360,
      "loud": 3361,
      "uses": 3362,
      "ARG": 3363,
      "max": 3364,
      "cos": 3365,
      "ĠJac": 3366,
      "dis": 3367,
      "Package": 3368,
      "Idle": 3369,
      "vm": 3370,
      "IdleSync": 3371,
      "Pkg": 3372,
      "ParaPkg": 3373,
      "lus": 3374,
      "ĠBrid": 3375,
      "Ġrh": 3376,
      "dam": 3377,
      "uman": 3378,
      "aras": 3379,
      "Ġlu": 3380,
      "Ġgah": 3381,
      "nah": 3382,
      "ALL": 3383,
      "otlin": 3384,
      "icture": 3385,
      "Ġsac": 3386,
      "henium": 3387,
      "iom": 3388,
      "buf": 3389,
      "ĠHeid": 3390,
      "fu": 3391,
      "Ġtran": 3392,
      "awks": 3393,
      "Take": 3394,
      "ship": 3395,
      "ĠWat": 3396,
      "feat": 3397,
      "ENUM": 3398,
      "NewUrl": 3399,
      "formed": 3400,
      "Ġgahet": 3401,
      "Ġmicro": 3402,
      "ĠhalfCanvas": 3403,
      "amos": 3404,
      "Ġmem": 3405,
      "omes": 3406,
      "ĠAv": 3407,
      "ershire": 3408,
      "usp": 3409,
      "ĠVen": 3410,
      "arlene": 3411,
      "MethodBeat": 3412,
      "mit": 3413,
      "coprote": 3414,
      "Ġanis": 3415,
      "gn": 3416,
      "Raw": 3417,
      "Ġneutral": 3418,
      "Ġgol": 3419,
      "ĠPat": 3420,
      "Ġmorph": 3421,
      "ĠMerc": 3422,
      "aric": 3423,
      "enny": 3424,
      "ĠAst": 3425,
      "job": 3426,
      "enia": 3427,
      "osin": 3428,
      "apped": 3429,
      "Do": 3430,
      "sten": 3431,
      "ĠMod": 3432,
      "ober": 3433,
      "OCC": 3434,
      "Point": 3435,
      "aniy": 3436,
      "uo": 3437,
      "rar": 3438,
      "NN": 3439,
      "alg": 3440,
      "size": 3441,
      "fill": 3442,
      "Ġsett": 3443,
      "Ġinterview": 3444,
      "Ġsle": 3445,
      "enth": 3446,
      "ĠBang": 3447,
      "abbo": 3448,
      "ĠPfe": 3449,
      "FER": 3450,
      "ago": 3451,
      "tin": 3452,
      "Ġus": 3453,
      "otherm": 3454,
      "esting": 3455,
      "WMN": 3456,
      "sz": 3457,
      "atory": 3458,
      "hed": 3459,
      "orman": 3460,
      "Put": 3461,
      "alaikum": 3462,
      "ĠPear": 3463,
      "orrent": 3464,
      "ehyde": 3465,
      "ordon": 3466,
      "EE": 3467,
      "ĠCov": 3468,
      "VOA": 3469,
      "lr": 3470,
      "ilian": 3471,
      "lef": 3472,
      "ungk": 3473,
      "StructOf": 3474,
      "ĠPay": 3475,
      "ycle": 3476,
      "iente": 3477,
      "jug": 3478,
      "ĠMcM": 3479,
      "Archive": 3480,
      "curs": 3481,
      "Left": 3482,
      "stm": 3483,
      "keit": 3484,
      "ified": 3485,
      "egen": 3486,
      "inter": 3487,
      "Pressed": 3488,
      "piece": 3489,
      "bed": 3490,
      "ĠLD": 3491,
      "ilon": 3492,
      "erat": 3493,
      "Ġrepet": 3494,
      "band": 3495,
      "ued": 3496,
      "utte": 3497,
      "LAN": 3498,
      "ohl": 3499,
      "burn": 3500,
      "ĠHod": 3501,
      "command": 3502,
      "imura": 3503,
      "Ġher": 3504,
      "DBOutput": 3505,
      "Ġcal": 3506,
      "river": 3507,
      "akam": 3508,
      "Ġprec": 3509,
      "Mapping": 3510,
      "rizz": 3511,
      "arts": 3512,
      "ongs": 3513,
      "ategory": 3514,
      "dal": 3515,
      "ummy": 3516,
      "ĠInd": 3517,
      "ivers": 3518,
      "Values": 3519,
      "Ġu": 3520,
      "ĠMcKin": 3521,
      "Ġtop": 3522,
      "aty": 3523,
      "amom": 3524,
      "Max": 3525,
      "itu": 3526,
      "ifier": 3527,
      "arshal": 3528,
      "exual": 3529,
      "ugo": 3530,
      "oxic": 3531,
      "EO": 3532,
      "estruct": 3533,
      "ĠLour": 3534,
      "slide": 3535,
      "BitCount": 3536,
      "Ġodb": 3537,
      "mic": 3538,
      "ĠDomin": 3539,
      "uration": 3540,
      "atal": 3541,
      "Ġdisc": 3542,
      "estro": 3543,
      "Ġsadd": 3544,
      "Findings": 3545,
      "idu": 3546,
      "ying": 3547,
      "ateMutability": 3548,
      "ously": 3549,
      "eps": 3550,
      "ĠGod": 3551,
      "ardin": 3552,
      "Ġaut": 3553,
      "ByURL": 3554,
      "ĠSa": 3555,
      "Ġausten": 3556,
      "ĠMend": 3557,
      "amanam": 3558,
      "edRight": 3559,
      "Ġit": 3560,
      "ĠLev": 3561,
      "aking": 3562,
      "hang": 3563,
      "setF": 3564,
      "border": 3565,
      "Ok": 3566,
      "Ġprimary": 3567,
      "phrine": 3568,
      "Ġselect": 3569,
      "Ġiz": 3570,
      "dev": 3571,
      "zhou": 3572,
      "ĠSlov": 3573,
      "ĠAri": 3574,
      "ature": 3575,
      "Ġtuberc": 3576,
      "Bib": 3577,
      "uncul": 3578,
      "ected": 3579,
      "este": 3580,
      "ariant": 3581,
      "Ġnam": 3582,
      "ATE": 3583,
      "Ant": 3584,
      "iesz": 3585,
      "iga": 3586,
      "Listener": 3587,
      "assing": 3588,
      "ĠEnd": 3589,
      "methyl": 3590,
      "mak": 3591,
      "uent": 3592,
      "egan": 3593,
      "Nam": 3594,
      "uje": 3595,
      "ĠGust": 3596,
      "Ġflav": 3597,
      "aldehyde": 3598,
      "ĠBos": 3599,
      "Rew": 3600,
      "Ġkon": 3601,
      "rained": 3602,
      "abin": 3603,
      "iao": 3604,
      "Ġbit": 3605,
      "ĠNor": 3606,
      "elia": 3607,
      "hatt": 3608,
      "ĠServ": 3609,
      "aq": 3610,
      "Delete": 3611,
      "olan": 3612,
      "Ġbes": 3613,
      "spec": 3614,
      "UND": 3615,
      "hut": 3616,
      "Ġpinch": 3617,
      "atholic": 3618,
      "Mat": 3619,
      "iance": 3620,
      "Ġpri": 3621,
      "ĠSil": 3622,
      "findBy": 3623,
      "ĠSomers": 3624,
      "calright": 3625,
      "erken": 3626,
      "Preference": 3627,
      "dPar": 3628,
      "flow": 3629,
      "ibility": 3630,
      "oza": 3631,
      "BUR": 3632,
      "anas": 3633,
      "ĠGen": 3634,
      "ĠObject": 3635,
      "overe": 3636,
      "Ġhomot": 3637,
      "eff": 3638,
      "mooth": 3639,
      "alBlock": 3640,
      "uzz": 3641,
      "Guid": 3642,
      "Ġnek": 3643,
      "utan": 3644,
      "election": 3645,
      "cell": 3646,
      "resc": 3647,
      "Fields": 3648,
      "unci": 3649,
      "ĠNo": 3650,
      "getR": 3651,
      "Selection": 3652,
      "arik": 3653,
      "adow": 3654,
      "arkar": 3655,
      "aily": 3656,
      "STR": 3657,
      "inger": 3658,
      "Ġfont": 3659,
      "Ġdiff": 3660,
      "qt": 3661,
      "utta": 3662,
      "Ġdek": 3663,
      "empor": 3664,
      "kes": 3665,
      "ymp": 3666,
      "cation": 3667,
      "sem": 3668,
      "Visual": 3669,
      "rival": 3670,
      "ird": 3671,
      "Ġparl": 3672,
      "abc": 3673,
      "ITH": 3674,
      "ĠIP": 3675,
      "Ġunb": 3676,
      "ĠEhn": 3677,
      "ĠEhnerg": 3678,
      "rident": 3679,
      "ĠSyl": 3680,
      "esti": 3681,
      "oving": 3682,
      "ĠData": 3683,
      "eled": 3684,
      "ĠPack": 3685,
      "wyn": 3686,
      "yar": 3687,
      "ĠDer": 3688,
      "Ġexceed": 3689,
      "thal": 3690,
      "Ġgo": 3691,
      "ueva": 3692,
      "enda": 3693,
      "idal": 3694,
      "mn": 3695,
      "Pen": 3696,
      "nail": 3697,
      "nique": 3698,
      "Password": 3699,
      "ored": 3700,
      "ointer": 3701,
      "ĠRam": 3702,
      "hole": 3703,
      "LOT": 3704,
      "enberg": 3705,
      "Unique": 3706,
      "CV": 3707,
      "Picker": 3708,
      "ulu": 3709,
      "VR": 3710,
      "ensch": 3711,
      "FieldContext": 3712,
      "owied": 3713,
      "ollo": 3714,
      "issions": 3715,
      "Owner": 3716,
      "thel": 3717,
      "Okno": 3718,
      "ORN": 3719,
      "Ġthrom": 3720,
      "ĠDon": 3721,
      "ĠHan": 3722,
      "build": 3723,
      "Ġaug": 3724,
      "etty": 3725,
      "ylate": 3726,
      "Ġline": 3727,
      "eca": 3728,
      "ĠTim": 3729,
      "Ġcheck": 3730,
      "lg": 3731,
      "Ġnucle": 3732,
      "vey": 3733,
      "wd": 3734,
      "hl": 3735,
      "gh": 3736,
      "acher": 3737,
      "ibul": 3738,
      "ahon": 3739,
      "assel": 3740,
      "Ġprob": 3741,
      "ceptron": 3742,
      "noc": 3743,
      "ĠMcGu": 3744,
      "Ġps": 3745,
      "non": 3746,
      "orbid": 3747,
      "ĠNau": 3748,
      "ĠLob": 3749,
      "agy": 3750,
      "Ġtend": 3751,
      "Cycle": 3752,
      "Ġsoft": 3753,
      "Spec": 3754,
      "EF": 3755,
      "Ġanth": 3756,
      "Ġcap": 3757,
      "ondition": 3758,
      "Ġhandle": 3759,
      "akespeare": 3760,
      "oration": 3761,
      "dec": 3762,
      "ogn": 3763,
      "ĠBru": 3764,
      "chester": 3765,
      "atherm": 3766,
      "args": 3767,
      "json": 3768,
      "handle": 3769,
      "ĠGold": 3770,
      "ĠSn": 3771,
      "arca": 3772,
      "Ġstock": 3773,
      "jac": 3774,
      "HE": 3775,
      "bro": 3776,
      "ĠNe": 3777,
      "erea": 3778,
      "orod": 3779,
      "assert": 3780,
      "Ġguz": 3781,
      "uden": 3782,
      "Ġpron": 3783,
      "ĠdSample": 3784,
      "Selector": 3785,
      "acles": 3786,
      "BD": 3787,
      "next": 3788,
      "adas": 3789,
      "No": 3790,
      "Te": 3791,
      "valid": 3792,
      "asmim": 3793,
      "rivalTime": 3794,
      "Order": 3795,
      "Ġprof": 3796,
      "igen": 3797,
      "heel": 3798,
      "lid": 3799,
      "ĠKar": 3800,
      "plication": 3801,
      "Ġmal": 3802,
      "Display": 3803,
      "BinBuf": 3804,
      "ahin": 3805,
      "attha": 3806,
      "itre": 3807,
      "cpHeader": 3808,
      "slate": 3809,
      "Ġuser": 3810,
      "Ġaw": 3811,
      "ban": 3812,
      "eln": 3813,
      "eo": 3814,
      "Ġdigest": 3815,
      "ĠCom": 3816,
      "Condition": 3817,
      "thorace": 3818,
      "used": 3819,
      "uted": 3820,
      "ught": 3821,
      "ican": 3822,
      "icher": 3823,
      "ims": 3824,
      "agi": 3825,
      "aid": 3826,
      "action": 3827,
      "bin": 3828,
      "Ġstri": 3829,
      "MVC": 3830,
      "epo": 3831,
      "occo": 3832,
      "swire": 3833,
      "Ġsig": 3834,
      "aldo": 3835,
      "ĠDav": 3836,
      "ĠBag": 3837,
      "astic": 3838,
      "bi": 3839,
      "ĠDun": 3840,
      "ozz": 3841,
      "Ġist": 3842,
      "ĠImm": 3843,
      "xim": 3844,
      "haman": 3845,
      "ĠBis": 3846,
      "oda": 3847,
      "Penis": 3848,
      "ERS": 3849,
      "ĠSy": 3850,
      "anguage": 3851,
      "aux": 3852,
      "BURTS": 3853,
      "addington": 3854,
      "foreground": 3855,
      "marshal": 3856,
      "Ġung": 3857,
      "pre": 3858,
      "Ġpon": 3859,
      "tik": 3860,
      "Accept": 3861,
      "ecode": 3862,
      "Ġwav": 3863,
      "Ġform": 3864,
      "ustomer": 3865,
      "dom": 3866,
      "arp": 3867,
      "ĠRen": 3868,
      "tf": 3869,
      "uba": 3870,
      "Ġpartur": 3871,
      "Ġadh": 3872,
      "Proxy": 3873,
      "iquid": 3874,
      "erche": 3875,
      "MO": 3876,
      "eming": 3877,
      "info": 3878,
      "ewise": 3879,
      "ĠText": 3880,
      "ided": 3881,
      "enumer": 3882,
      "Ġtet": 3883,
      "oper": 3884,
      "adig": 3885,
      "eronica": 3886,
      "omon": 3887,
      "vid": 3888,
      "JSON": 3889,
      "VCTarget": 3890,
      "ieben": 3891,
      "inds": 3892,
      "irs": 3893,
      "izer": 3894,
      "furt": 3895,
      "lass": 3896,
      "Ġanesthet": 3897,
      "hib": 3898,
      "ĠReich": 3899,
      "afa": 3900,
      "rave": 3901,
      "bracket": 3902,
      "ku": 3903,
      "ĠPrit": 3904,
      "ulpt": 3905,
      "riend": 3906,
      "Ġsmear": 3907,
      "leps": 3908,
      "usses": 3909,
      "ares": 3910,
      "braith": 3911,
      "select": 3912,
      "vationMap": 3913,
      "eas": 3914,
      "Pr": 3915,
      "ĠMcGr": 3916,
      "alde": 3917,
      "inz": 3918,
      "olut": 3919,
      "lyPlugin": 3920,
      "Ġri": 3921,
      "wait": 3922,
      "model": 3923,
      "oso": 3924,
      "astian": 3925,
      "ĠInt": 3926,
      "Options": 3927,
      "ipal": 3928,
      "odnik": 3929,
      "span": 3930,
      "ĠAF": 3931,
      "oring": 3932,
      "pg": 3933,
      "Face": 3934,
      "Ġvolt": 3935,
      "recht": 3936,
      "epin": 3937,
      "ECT": 3938,
      "opic": 3939,
      "obec": 3940,
      "ritz": 3941,
      "ĠRoan": 3942,
      "Ġnum": 3943,
      "Theme": 3944,
      "thar": 3945,
      "Dep": 3946,
      "recl": 3947,
      "CU": 3948,
      "ables": 3949,
      "LL": 3950,
      "ĠPand": 3951,
      "illian": 3952,
      "Math": 3953,
      "Ġlymph": 3954,
      "ply": 3955,
      "inander": 3956,
      "cm": 3957,
      "mid": 3958,
      "reten": 3959,
      "Ġfauc": 3960,
      "FO": 3961,
      "itro": 3962,
      "Enum": 3963,
      "adani": 3964,
      "Ġug": 3965,
      "eiro": 3966,
      "utor": 3967,
      "idunt": 3968,
      "rm": 3969,
      "anis": 3970,
      "isting": 3971,
      "ICK": 3972,
      "scale": 3973,
      "yz": 3974,
      "ĠPic": 3975,
      "enko": 3976,
      "Bad": 3977,
      "ĠAT": 3978,
      "athy": 3979,
      "ĠHait": 3980,
      "ICAL": 3981,
      "Cle": 3982,
      "ĠRUTARE": 3983,
      "ĠSales": 3984,
      "Ins": 3985,
      "ingan": 3986,
      "Ġmenjal": 3987,
      "ige": 3988,
      "VID": 3989,
      "Long": 3990,
      "ĠBST": 3991,
      "ĠNST": 3992,
      "return": 3993,
      "Ġmont": 3994,
      "inia": 3995,
      "Ġphotoc": 3996,
      "Ġmart": 3997,
      "zej": 3998,
      "nest": 3999,
      "VIC": 4000,
      "Ġperj": 4001,
      "lyph": 4002,
      "ĠSey": 4003,
      "ocz": 4004,
      "Ġcard": 4005,
      "apkan": 4006,
      "Active": 4007,
      "Ġunt": 4008,
      "irc": 4009,
      "INE": 4010,
      "apar": 4011,
      "Ġdeg": 4012,
      "ecz": 4013,
      "Ġdiv": 4014,
      "Ġkahel": 4015,
      "ollision": 4016,
      "warl": 4017,
      "ened": 4018,
      "acer": 4019,
      "Collision": 4020,
      "OSS": 4021,
      "Construct": 4022,
      "mington": 4023,
      "weatherm": 4024,
      "ĠHerm": 4025,
      "KR": 4026,
      "GFS": 4027,
      "ĠVerd": 4028,
      "Ġback": 4029,
      "ĠWarwick": 4030,
      "ĠGerr": 4031,
      "ocyan": 4032,
      "DialogOpen": 4033,
      "Art": 4034,
      "Integer": 4035,
      "ety": 4036,
      "obacter": 4037,
      "append": 4038,
      "ments": 4039,
      "orld": 4040,
      "usive": 4041,
      "amer": 4042,
      "hin": 4043,
      "vonne": 4044,
      "Ġvedit": 4045,
      "ITT": 4046,
      "ojo": 4047,
      "ĠTol": 4048,
      "uts": 4049,
      "Ġrib": 4050,
      "olyb": 4051,
      "Ġview": 4052,
      "ycler": 4053,
      "ĠDev": 4054,
      "ĠCur": 4055,
      "ublicKey": 4056,
      "omn": 4057,
      "brado": 4058,
      "Mutex": 4059,
      "Ġsat": 4060,
      "Ġhe": 4061,
      "nung": 4062,
      "yne": 4063,
      "olytic": 4064,
      "Extens": 4065,
      "Days": 4066,
      "oding": 4067,
      "ĠNich": 4068,
      "Ġplead": 4069,
      "NonUser": 4070,
      "MBT": 4071,
      "aine": 4072,
      "ĠVillar": 4073,
      "idas": 4074,
      "Modal": 4075,
      "inas": 4076,
      "onuclear": 4077,
      "anal": 4078,
      "ounc": 4079,
      "CON": 4080,
      "azz": 4081,
      "ns": 4082,
      "ĠHert": 4083,
      "ourg": 4084,
      "ĠRet": 4085,
      "property": 4086,
      "here": 4087,
      "ovi": 4088,
      "UV": 4089,
      "Ġot": 4090,
      "Ġsag": 4091,
      "ynth": 4092,
      "Ġerg": 4093,
      "UVW": 4094,
      "ancy": 4095,
      "Ġvolupt": 4096,
      "ĠChron": 4097,
      "esso": 4098,
      "nalia": 4099,
      "ĠMich": 4100,
      "Ġng": 4101,
      "jee": 4102,
      "child": 4103,
      "atat": 4104,
      "ocalObject": 4105,
      "issense": 4106,
      "ORD": 4107,
      "wall": 4108,
      "Ġbland": 4109,
      "Ġpunct": 4110,
      "aina": 4111,
      "ĠNA": 4112,
      "owski": 4113,
      "oughton": 4114,
      "irectory": 4115,
      "itoneal": 4116,
      "ĠMiy": 4117,
      "aje": 4118,
      "jiwarl": 4119,
      "umberland": 4120,
      "bark": 4121,
      "token": 4122,
      "ĠgetDate": 4123,
      "uster": 4124,
      "Ġho": 4125,
      "erog": 4126,
      "Ġdess": 4127,
      "ĠCap": 4128,
      "ĠBhag": 4129,
      "anje": 4130,
      "Ġsb": 4131,
      "ĠMin": 4132,
      "obic": 4133,
      "toch": 4134,
      "Letter": 4135,
      "thur": 4136,
      "ĠCant": 4137,
      "akar": 4138,
      "ĠCal": 4139,
      "aught": 4140,
      "ParamNum": 4141,
      "ortal": 4142,
      "YAN": 4143,
      "double": 4144,
      "ĠDord": 4145,
      "eri": 4146,
      "Part": 4147,
      "Files": 4148,
      "enean": 4149,
      "ringe": 4150,
      "ĠFo": 4151,
      "urul": 4152,
      "gress": 4153,
      "Ġspray": 4154,
      "loria": 4155,
      "untamento": 4156,
      "ĠAs": 4157,
      "ĠMN": 4158,
      "ĠIng": 4159,
      "UniqueID": 4160,
      "Async": 4161,
      "Ġok": 4162,
      "unay": 4163,
      "arras": 4164,
      "multi": 4165,
      "pat": 4166,
      "Ġcul": 4167,
      "etti": 4168,
      "was": 4169,
      "ullie": 4170,
      "Ġpen": 4171,
      "ĠVillan": 4172,
      "ession": 4173,
      "Ġhor": 4174,
      "CharCode": 4175,
      "permal": 4176,
      "Store": 4177,
      "Ġfort": 4178,
      "ieter": 4179,
      "quest": 4180,
      "Ġadjourn": 4181,
      "Ġsph": 4182,
      "Ġchamp": 4183,
      "ĠChong": 4184,
      "Strip": 4185,
      "akath": 4186,
      "ĠSql": 4187,
      "hile": 4188,
      "Mesh": 4189,
      "alph": 4190,
      "Ġmut": 4191,
      "ancho": 4192,
      "ĠBelle": 4193,
      "ĠBellev": 4194,
      "asuk": 4195,
      "ĠGunn": 4196,
      "oauth": 4197,
      "Reader": 4198,
      "esc": 4199,
      "Keep": 4200,
      "Cube": 4201,
      "ymplectic": 4202,
      "CubeSize": 4203,
      "prot": 4204,
      "ycin": 4205,
      "reas": 4206,
      "Ġold": 4207,
      "Ġquin": 4208,
      "attoo": 4209,
      "gramModel": 4210,
      "ourier": 4211,
      "ubro": 4212,
      "dig": 4213,
      "pec": 4214,
      "ousel": 4215,
      "yak": 4216,
      "ĠBow": 4217,
      "vec": 4218,
      "ront": 4219,
      "kut": 4220,
      "ymi": 4221,
      "Media": 4222,
      "ĠGood": 4223,
      "ker": 4224,
      "Spawn": 4225,
      "ayashi": 4226,
      "etering": 4227,
      "Ġsv": 4228,
      "gou": 4229,
      "iw": 4230,
      "ories": 4231,
      "paths": 4232,
      "Xpaths": 4233,
      "adt": 4234,
      "Ġvad": 4235,
      "Ġplayer": 4236,
      "ieurs": 4237,
      "erce": 4238,
      "tree": 4239,
      "apur": 4240,
      "Ġwax": 4241,
      "full": 4242,
      "StarSXml": 4243,
      "qttr": 4244,
      "coni": 4245,
      "Servlet": 4246,
      "Ġak": 4247,
      "ĠNad": 4248,
      "Choose": 4249,
      "ĠKra": 4250,
      "ruz": 4251,
      "DBG": 4252,
      "ATION": 4253,
      "ĠBhagav": 4254,
      "pay": 4255,
      "aver": 4256,
      "enner": 4257,
      "jav": 4258,
      "OUG": 4259,
      "ismar": 4260,
      "aucer": 4261,
      "WT": 4262,
      "estown": 4263,
      "acanam": 4264,
      "adiene": 4265,
      "ostrum": 4266,
      "Move": 4267,
      "utable": 4268,
      "ĠAngel": 4269,
      "Has": 4270,
      "ssex": 4271,
      "aked": 4272,
      "inity": 4273,
      "wer": 4274,
      "ĠHil": 4275,
      "ifolds": 4276,
      "ĠSam": 4277,
      "Ġhal": 4278,
      "rout": 4279,
      "LM": 4280,
      "ĠSylv": 4281,
      "atz": 4282,
      "ĠChrist": 4283,
      "oten": 4284,
      "lc": 4285,
      "ĠHen": 4286,
      "ately": 4287,
      "ĠRCL": 4288,
      "ĠNav": 4289,
      "exus": 4290,
      "ĠGren": 4291,
      "Ġlo": 4292,
      "ĠSad": 4293,
      "encia": 4294,
      "ittam": 4295,
      "LogRow": 4296,
      "Ġproced": 4297,
      "abat": 4298,
      "izz": 4299,
      "aunch": 4300,
      "tri": 4301,
      "ĠEuc": 4302,
      "urst": 4303,
      "azy": 4304,
      "onyl": 4305,
      "Writer": 4306,
      "aise": 4307,
      "cha": 4308,
      "ĠRUD": 4309,
      "Ġprinc": 4310,
      "MainNav": 4311,
      "esch": 4312,
      "yles": 4313,
      "etric": 4314,
      "apet": 4315,
      "ĠEdmond": 4316,
      "ĠLo": 4317,
      "Fold": 4318,
      "ĠDur": 4319,
      "Ġlepton": 4320,
      "ĠHab": 4321,
      "ĠDeep": 4322,
      "ahang": 4323,
      "ranche": 4324,
      "Sec": 4325,
      "URNIZ": 4326,
      "Ġgew": 4327,
      "ady": 4328,
      "umbnail": 4329,
      "ogs": 4330,
      "yw": 4331,
      "andt": 4332,
      "ynch": 4333,
      "idean": 4334,
      "Ġequ": 4335,
      "instr": 4336,
      "ĠStafford": 4337,
      "instrList": 4338,
      "ropy": 4339,
      "ĠCons": 4340,
      "ripper": 4341,
      "MDA": 4342,
      "ithdraw": 4343,
      "ards": 4344,
      "ota": 4345,
      "sum": 4346,
      "illColor": 4347,
      "ĠJordan": 4348,
      "ĠPer": 4349,
      "Preferred": 4350,
      "ansing": 4351,
      "ĠGuil": 4352,
      "ApiPath": 4353,
      "CharArray": 4354,
      "Muc": 4355,
      "endale": 4356,
      "Inset": 4357,
      "Ġfur": 4358,
      "inho": 4359,
      "Ġparthen": 4360,
      "Ġcro": 4361,
      "ancell": 4362,
      "arrow": 4363,
      "iale": 4364,
      "tochrome": 4365,
      "seur": 4366,
      "olare": 4367,
      "herent": 4368,
      "Min": 4369,
      "skii": 4370,
      "eq": 4371,
      "rait": 4372,
      "Mar": 4373,
      "Ġpower": 4374,
      "ĠPop": 4375,
      "Sdk": 4376,
      "olves": 4377,
      "arantad": 4378,
      "irg": 4379,
      "QR": 4380,
      "ĠHick": 4381,
      "detail": 4382,
      "Ġfield": 4383,
      "abic": 4384,
      "innie": 4385,
      "ĠDar": 4386,
      "ppo": 4387,
      "GM": 4388,
      "zan": 4389,
      "emon": 4390,
      "isR": 4391,
      "ĠPrab": 4392,
      "asan": 4393,
      "Glare": 4394,
      "ĠMerr": 4395,
      "lens": 4396,
      "tres": 4397,
      "AU": 4398,
      "cer": 4399,
      "oslav": 4400,
      "Ald": 4401,
      "unted": 4402,
      "Arr": 4403,
      "Bibitem": 4404,
      "itable": 4405,
      "ĠPa": 4406,
      "nst": 4407,
      "Ġfra": 4408,
      "Ġuns": 4409,
      "egi": 4410,
      "sent": 4411,
      "Ġec": 4412,
      "OrderFlight": 4413,
      "ĠWor": 4414,
      "ĠNiet": 4415,
      "Ġuit": 4416,
      "Security": 4417,
      "ĠJoh": 4418,
      "ĠOut": 4419,
      "ridge": 4420,
      "addassa": 4421,
      "andan": 4422,
      "auff": 4423,
      "ĠTr": 4424,
      "illing": 4425,
      "GoObject": 4426,
      "Default": 4427,
      "Seconds": 4428,
      "Ġtok": 4429,
      "Foldout": 4430,
      "ichen": 4431,
      "ĠHel": 4432,
      "Encoder": 4433,
      "tain": 4434,
      "Ġvan": 4435,
      "Ġinfl": 4436,
      "ĠRey": 4437,
      "ĠFern": 4438,
      "Ġunw": 4439,
      "tti": 4440,
      "lytres": 4441,
      "emi": 4442,
      "ĠPey": 4443,
      "waard": 4444,
      "ariable": 4445,
      "ingu": 4446,
      "ignore": 4447,
      "ema": 4448,
      "Ġhy": 4449,
      "Ġfac": 4450,
      "ĠList": 4451,
      "oton": 4452,
      "ridLayout": 4453,
      "lik": 4454,
      "Ġbed": 4455,
      "ĠDel": 4456,
      "ĠBeck": 4457,
      "Ġcall": 4458,
      "rvats": 4459,
      "icular": 4460,
      "show": 4461,
      "ĠLaksh": 4462,
      "convol": 4463,
      "onian": 4464,
      "ĠCarl": 4465,
      "iales": 4466,
      "AutoScale": 4467,
      "sprech": 4468,
      "Ġchem": 4469,
      "ipher": 4470,
      "ĠCorb": 4471,
      "ocs": 4472,
      "into": 4473,
      "ardo": 4474,
      "awar": 4475,
      "ĠMidd": 4476,
      "ived": 4477,
      "ĠAcc": 4478,
      "ĠPDP": 4479,
      "ĠActive": 4480,
      "iping": 4481,
      "atches": 4482,
      "nab": 4483,
      "houette": 4484,
      "ĠGog": 4485,
      "ĠUly": 4486,
      "ĠAS": 4487,
      "xin": 4488,
      "ĠMats": 4489,
      "entz": 4490,
      "ends": 4491,
      "Custom": 4492,
      "VA": 4493,
      "Fil": 4494,
      "phalodes": 4495,
      "ĠEle": 4496,
      "Grad": 4497,
      "ĠKier": 4498,
      "ranian": 4499,
      "olg": 4500,
      "riendo": 4501,
      "ufen": 4502,
      "ĠLorentz": 4503,
      "ifer": 4504,
      "asey": 4505,
      "Danh": 4506,
      "aused": 4507,
      "ips": 4508,
      "DanhMuc": 4509,
      "ismarck": 4510,
      "Ġrun": 4511,
      "zet": 4512,
      "uri": 4513,
      "Ġwyk": 4514,
      "DO": 4515,
      "PTV": 4516,
      "estin": 4517,
      "Ġalle": 4518,
      "titor": 4519,
      "ucid": 4520,
      "Ġforb": 4521,
      "nash": 4522,
      "Ġyoj": 4523,
      "mac": 4524,
      "rogen": 4525,
      "Ġlegal": 4526,
      "Ġtart": 4527,
      "ĠCCS": 4528,
      "urp": 4529,
      "Animation": 4530,
      "Ġiccad": 4531,
      "vrd": 4532,
      "unov": 4533,
      "constra": 4534,
      "dn": 4535,
      "uncan": 4536,
      "constraint": 4537,
      "Ġdesp": 4538,
      "atthav": 4539,
      "rystall": 4540,
      "Ġdisorder": 4541,
      "hold": 4542,
      "irra": 4543,
      "iggins": 4544,
      "Antae": 4545,
      "First": 4546,
      "Ġdred": 4547,
      "Ary": 4548,
      "iliated": 4549,
      "tone": 4550,
      "arking": 4551,
      "rial": 4552,
      "irtual": 4553,
      "smith": 4554,
      "isia": 4555,
      "Ġlist": 4556,
      "uatu": 4557,
      "ĠPlast": 4558,
      "ĠTul": 4559,
      "eland": 4560,
      "isa": 4561,
      "btn": 4562,
      "process": 4563,
      "artz": 4564,
      "heed": 4565,
      "Lint": 4566,
      "getString": 4567,
      "Exists": 4568,
      "Clr": 4569,
      "Ġpok": 4570,
      "Ġof": 4571,
      "ĠEver": 4572,
      "kov": 4573,
      "ĠMag": 4574,
      "rer": 4575,
      "dy": 4576,
      "QAry": 4577,
      "ĠVan": 4578,
      "ĠConstant": 4579,
      "ocr": 4580,
      "StateToProps": 4581,
      "ucker": 4582,
      "ylic": 4583,
      "onal": 4584,
      "Ġey": 4585,
      "leton": 4586,
      "toL": 4587,
      "index": 4588,
      "engk": 4589,
      "amin": 4590,
      "Title": 4591,
      "oter": 4592,
      "ikkh": 4593,
      "Ġcustom": 4594,
      "ĠDra": 4595,
      "ĠId": 4596,
      "ĠMed": 4597,
      "Ġton": 4598,
      "arma": 4599,
      "ounce": 4600,
      "NO": 4601,
      "ĠLomb": 4602,
      "ĠWolver": 4603,
      "ĠMcF": 4604,
      "asser": 4605,
      "Ġsab": 4606,
      "Ġmaneu": 4607,
      "Plus": 4608,
      "Ġchew": 4609,
      "Ġunim": 4610,
      "Ġhotsp": 4611,
      "DER": 4612,
      "XR": 4613,
      "ember": 4614,
      "erview": 4615,
      "ENC": 4616,
      "empl": 4617,
      "Ġdib": 4618,
      "urch": 4619,
      "ipped": 4620,
      "igence": 4621,
      "rung": 4622,
      "ipboard": 4623,
      "ĠSar": 4624,
      "ractor": 4625,
      "enian": 4626,
      "avor": 4627,
      "awatts": 4628,
      "ĠGra": 4629,
      "ĠShel": 4630,
      "orage": 4631,
      "ĠWest": 4632,
      "Ġdisappe": 4633,
      "ioc": 4634,
      "ished": 4635,
      "ielding": 4636,
      "otherap": 4637,
      "Ġrut": 4638,
      "acak": 4639,
      "ayette": 4640,
      "Ġbif": 4641,
      "abled": 4642,
      "ĠAlb": 4643,
      "Ver": 4644,
      "itya": 4645,
      "iu": 4646,
      "DKEY": 4647,
      "onese": 4648,
      "ExpNow": 4649,
      "Ġswe": 4650,
      "anos": 4651,
      "rough": 4652,
      "beit": 4653,
      "urkish": 4654,
      "agher": 4655,
      "chym": 4656,
      "ynucleaires": 4657,
      "usen": 4658,
      "emes": 4659,
      "Bsky": 4660,
      "lysis": 4661,
      "ĠBrook": 4662,
      "aal": 4663,
      "xt": 4664,
      "arkan": 4665,
      "ĠVol": 4666,
      "ires": 4667,
      "Ġbhikkh": 4668,
      "Ġemanc": 4669,
      "Cart": 4670,
      "arif": 4671,
      "ashing": 4672,
      "asta": 4673,
      "ailles": 4674,
      "illet": 4675,
      "wm": 4676,
      "rony": 4677,
      "TING": 4678,
      "Ġbu": 4679,
      "lobulin": 4680,
      "ryn": 4681,
      "Ġtab": 4682,
      "serv": 4683,
      "NAM": 4684,
      "PlusEvents": 4685,
      "Criter": 4686,
      "Ġtant": 4687,
      "ĠWord": 4688,
      "Ġullam": 4689,
      "ophen": 4690,
      "Ġauth": 4691,
      "lier": 4692,
      "Ġzoom": 4693,
      "inos": 4694,
      "ĠMil": 4695,
      "getMain": 4696,
      "IUN": 4697,
      "Ġbel": 4698,
      "ords": 4699,
      "rick": 4700,
      "graph": 4701,
      "inca": 4702,
      "ĠKeat": 4703,
      "ydraul": 4704,
      "Acc": 4705,
      "ĠPry": 4706,
      "uku": 4707,
      "ĠCly": 4708,
      "popup": 4709,
      "vc": 4710,
      "PEG": 4711,
      "issy": 4712,
      "jati": 4713,
      "Net": 4714,
      "ause": 4715,
      "ruc": 4716,
      "BUGFS": 4717,
      "atedBy": 4718,
      "gax": 4719,
      "MSFont": 4720,
      "Ġbook": 4721,
      "rank": 4722,
      "Ġme": 4723,
      "Alignment": 4724,
      "asa": 4725,
      "arius": 4726,
      "ĠUS": 4727,
      "roir": 4728,
      "ĠMann": 4729,
      "Ġmj": 4730,
      "onti": 4731,
      "Ġpabb": 4732,
      "ambra": 4733,
      "eneg": 4734,
      "Handle": 4735,
      "ĠFig": 4736,
      "Ġrepe": 4737,
      "ould": 4738,
      "ĠBrom": 4739,
      "ĠBrent": 4740,
      "IsNull": 4741,
      "acion": 4742,
      "Ġhorr": 4743,
      "olit": 4744,
      "ukannya": 4745,
      "ande": 4746,
      "akukannya": 4747,
      "ennes": 4748,
      "erta": 4749,
      "anca": 4750,
      "IGHT": 4751,
      "WI": 4752,
      "width": 4753,
      "left": 4754,
      "mar": 4755,
      "ycop": 4756,
      "otheli": 4757,
      "romed": 4758,
      "lep": 4759,
      "Tag": 4760,
      "ĠUSA": 4761,
      "Ġrad": 4762,
      "Ġtag": 4763,
      "eback": 4764,
      "ĠSI": 4765,
      "Ziel": 4766,
      "Ġzir": 4767,
      "gest": 4768,
      "ktCap": 4769,
      "idata": 4770,
      "Java": 4771,
      "Middle": 4772,
      "Ġplur": 4773,
      "zem": 4774,
      "Ġkeh": 4775,
      "ikidata": 4776,
      "trash": 4777,
      "amble": 4778,
      "ullo": 4779,
      "ĠSmack": 4780,
      "ĠMcCle": 4781,
      "Cache": 4782,
      "Na": 4783,
      "Ġbron": 4784,
      "mett": 4785,
      "ĠSH": 4786,
      "Ġindem": 4787,
      "Ġbronch": 4788,
      "Ġbip": 4789,
      "Ġtrit": 4790,
      "emat": 4791,
      "itian": 4792,
      "vors": 4793,
      "udy": 4794,
      "scroll": 4795,
      "getSt": 4796,
      "peng": 4797,
      "ensa": 4798,
      "Rest": 4799,
      "ĠGewer": 4800,
      "ĠAdri": 4801,
      "heim": 4802,
      "chiev": 4803,
      "gio": 4804,
      "ĠGret": 4805,
      "asper": 4806,
      "Ġprincipal": 4807,
      "gdock": 4808,
      "Statement": 4809,
      "NumConst": 4810,
      "KY": 4811,
      "ĠBere": 4812,
      "ĠUml": 4813,
      "anim": 4814,
      "Ġmo": 4815,
      "ihad": 4816,
      "acul": 4817,
      "FP": 4818,
      "Track": 4819,
      "zia": 4820,
      "ikk": 4821,
      "iejsc": 4822,
      "TM": 4823,
      "ĠCheck": 4824,
      "Ġyl": 4825,
      "location": 4826,
      "anya": 4827,
      "Reference": 4828,
      "olean": 4829,
      "ĠThess": 4830,
      "ekar": 4831,
      "enched": 4832,
      "Ġgri": 4833,
      "ĠService": 4834,
      "ĠTob": 4835,
      "abr": 4836,
      "Ġoverd": 4837,
      "ILLI": 4838,
      "Cleared": 4839,
      "ĠObit": 4840,
      "ClearedBy": 4841,
      "arod": 4842,
      "olocation": 4843,
      "Obj": 4844,
      "ĠCG": 4845,
      "achen": 4846,
      "xis": 4847,
      "Need": 4848,
      "setKeep": 4849,
      "undle": 4850,
      "EOUS": 4851,
      "acon": 4852,
      "ighton": 4853,
      "ĠChin": 4854,
      "Movie": 4855,
      "ĠTij": 4856,
      "acao": 4857,
      "ĠRev": 4858,
      "zat": 4859,
      "Ġhas": 4860,
      "COc": 4861,
      "ictureBox": 4862,
      "abri": 4863,
      "ramp": 4864,
      "Ġprecinct": 4865,
      "Ġdesc": 4866,
      "azon": 4867,
      "orough": 4868,
      "UTH": 4869,
      "wyd": 4870,
      "edTest": 4871,
      "Category": 4872,
      "elijk": 4873,
      "DropDown": 4874,
      "Ġnag": 4875,
      "renzia": 4876,
      "Read": 4877,
      "neider": 4878,
      "otrex": 4879,
      "socket": 4880,
      "uffy": 4881,
      "SFER": 4882,
      "ĠTN": 4883,
      "aio": 4884,
      "onka": 4885,
      "itud": 4886,
      "ĠBrug": 4887,
      "witz": 4888,
      "itin": 4889,
      "Ġinform": 4890,
      "Mont": 4891,
      "ĠVers": 4892,
      "margin": 4893,
      "ĠShah": 4894,
      "ouri": 4895,
      "angzhou": 4896,
      "Launch": 4897,
      "Ġpav": 4898,
      "TakeVideo": 4899,
      "ĠGreens": 4900,
      "Stream": 4901,
      "yped": 4902,
      "part": 4903,
      "ertools": 4904,
      "athed": 4905,
      "low": 4906,
      "borough": 4907,
      "OUR": 4908,
      "Prz": 4909,
      "Dom": 4910,
      "Ġpadam": 4911,
      "instag": 4912,
      "arrer": 4913,
      "Ġindemn": 4914,
      "ACTOR": 4915,
      "IH": 4916,
      "nder": 4917,
      "iram": 4918,
      "mous": 4919,
      "Scaler": 4920,
      "Ġvisc": 4921,
      "elon": 4922,
      "vind": 4923,
      "arted": 4924,
      "poetry": 4925,
      "ĠHaz": 4926,
      "Missense": 4927,
      "Check": 4928,
      "ieder": 4929,
      "ĠISP": 4930,
      "Ġmez": 4931,
      "ĠTRAN": 4932,
      "esehen": 4933,
      "Ġsim": 4934,
      "Ġrandom": 4935,
      "button": 4936,
      "Ġpel": 4937,
      "ilig": 4938,
      "Ġrecept": 4939,
      "Ġbez": 4940,
      "ĠBon": 4941,
      "entry": 4942,
      "hir": 4943,
      "Ġsequest": 4944,
      "schl": 4945,
      "ĠSN": 4946,
      "Ġincub": 4947,
      "rast": 4948,
      "onitrile": 4949,
      "isor": 4950,
      "Ġalter": 4951,
      "esthetics": 4952,
      "arlton": 4953,
      "ĠFal": 4954,
      "ĠFull": 4955,
      "utup": 4956,
      "ĠMSC": 4957,
      "script": 4958,
      "Ġdefault": 4959,
      "Fullscreen": 4960,
      "JECT": 4961,
      "annie": 4962,
      "ĠGiul": 4963,
      "Entry": 4964,
      "CCCC": 4965,
      "icon": 4966,
      "Audio": 4967,
      "ĠGuild": 4968,
      "ysis": 4969,
      "gue": 4970,
      "ĠBenn": 4971,
      "ĠAk": 4972,
      "icio": 4973,
      "iyesi": 4974,
      "Kill": 4975,
      "addKill": 4976,
      "Ġdik": 4977,
      "HTree": 4978,
      "IndexOf": 4979,
      "aruh": 4980,
      "fter": 4981,
      "Ġsev": 4982,
      "lal": 4983,
      "upu": 4984,
      "ĠCO": 4985,
      "Bottom": 4986,
      "rya": 4987,
      "Ġgrant": 4988,
      "Constants": 4989,
      "ython": 4990,
      "inite": 4991,
      "Ġml": 4992,
      "iels": 4993,
      "Ġbifur": 4994,
      "attu": 4995,
      "Ġenj": 4996,
      "itattu": 4997,
      "ĠWalth": 4998,
      "peg": 4999,
      "STM": 5000,
      "StarObject": 5001,
      "Ġsuper": 5002,
      "inuous": 5003,
      "itas": 5004,
      "ĠMey": 5005,
      "UIA": 5006,
      "olls": 5007,
      "InCM": 5008,
      "rass": 5009,
      "ients": 5010,
      "ĠEt": 5011,
      "ĠBarang": 5012,
      "unken": 5013,
      "Ġtherm": 5014,
      "ĠString": 5015,
      "asu": 5016,
      "ieron": 5017,
      "ĠDi": 5018,
      "Return": 5019,
      "Ġtransf": 5020,
      "Ġeyel": 5021,
      "AspNet": 5022,
      "LOR": 5023,
      "iffe": 5024,
      "orie": 5025,
      "ObjectID": 5026,
      "ascular": 5027,
      "agg": 5028,
      "unton": 5029,
      "existing": 5030,
      "fx": 5031,
      "Ġrecomb": 5032,
      "ĠMedia": 5033,
      "ĠBurg": 5034,
      "Ġvij": 5035,
      "Ġpengu": 5036,
      "estroy": 5037,
      "Ġovip": 5038,
      "aia": 5039,
      "ended": 5040,
      "Ġtep": 5041,
      "ainer": 5042,
      "onnie": 5043,
      "Ġtool": 5044,
      "ably": 5045,
      "Ġcongen": 5046,
      "obacz": 5047,
      "Ġnozz": 5048,
      "aper": 5049,
      "ĠTah": 5050,
      "ĠBernad": 5051,
      "sia": 5052,
      "ersen": 5053,
      "Alert": 5054,
      "zok": 5055,
      "Ġadjud": 5056,
      "astan": 5057,
      "NewUrlParser": 5058,
      "bai": 5059,
      "Hash": 5060,
      "genstein": 5061,
      "PTMR": 5062,
      "DidLoad": 5063,
      "can": 5064,
      "De": 5065,
      "ĠJama": 5066,
      "utsch": 5067,
      "udi": 5068,
      "Ġoffset": 5069,
      "ocity": 5070,
      "atakan": 5071,
      "agles": 5072,
      "Op": 5073,
      "Leg": 5074,
      "camera": 5075,
      "Ġfind": 5076,
      "NA": 5077,
      "Ġkap": 5078,
      "ĠBey": 5079,
      "ZielPanel": 5080,
      "ĠSher": 5081,
      "ĠPo": 5082,
      "Ġmasc": 5083,
      "olph": 5084,
      "ĠWel": 5085,
      "ĠRw": 5086,
      "Ġig": 5087,
      "ibals": 5088,
      "radio": 5089,
      "rlen": 5090,
      "Ġpern": 5091,
      "ĠKeen": 5092,
      "ĠDIC": 5093,
      "ural": 5094,
      "Ġhed": 5095,
      "uity": 5096,
      "uffered": 5097,
      "omyc": 5098,
      "Ġtes": 5099,
      "itted": 5100,
      "ĠCoch": 5101,
      "yllium": 5102,
      "otia": 5103,
      "elius": 5104,
      "oking": 5105,
      "OnInit": 5106,
      "Bundle": 5107,
      "ALT": 5108,
      "centaje": 5109,
      "Ġbhav": 5110,
      "oblast": 5111,
      "ellular": 5112,
      "ikian": 5113,
      "aliana": 5114,
      "ĠHu": 5115,
      "ĠMuk": 5116,
      "mey": 5117,
      "ĠPatt": 5118,
      "IAN": 5119,
      "ĠMos": 5120,
      "Ġgreen": 5121,
      "LOTRE": 5122,
      "Ġpotenc": 5123,
      "ollah": 5124,
      "egal": 5125,
      "Ġlug": 5126,
      "URNIZOR": 5127,
      "olf": 5128,
      "Changed": 5129,
      "usBar": 5130,
      "Ġferm": 5131,
      "rafo": 5132,
      "aksan": 5133,
      "ĠJez": 5134,
      "Copy": 5135,
      "AtIndex": 5136,
      "osto": 5137,
      "EqualTo": 5138,
      "illings": 5139,
      "Ġverteb": 5140,
      "kup": 5141,
      "yre": 5142,
      "eline": 5143,
      "WallArray": 5144,
      "imens": 5145,
      "Img": 5146,
      "omo": 5147,
      "iox": 5148,
      "Ġlau": 5149,
      "niOkno": 5150,
      "ĠmorphOutput": 5151,
      "reek": 5152,
      "Ġafter": 5153,
      "hots": 5154,
      "Ġcoll": 5155,
      "haya": 5156,
      "Ġperi": 5157,
      "regor": 5158,
      "adoc": 5159,
      "ĠDy": 5160,
      "square": 5161,
      "ohVP": 5162,
      "ecek": 5163,
      "ĠBarn": 5164,
      "avage": 5165,
      "inces": 5166,
      "weight": 5167,
      "ĠOrr": 5168,
      "Ġsho": 5169,
      "onduct": 5170,
      "ococ": 5171,
      "slateg": 5172,
      "Ġfenc": 5173,
      "img": 5174,
      "ĠNai": 5175,
      "ornare": 5176,
      "ĠBrown": 5177,
      "ggbb": 5178,
      "ĠLock": 5179,
      "Pherson": 5180,
      "uple": 5181,
      "ĠGl": 5182,
      "CUR": 5183,
      "ĠNa": 5184,
      "ĠSpart": 5185,
      "oni": 5186,
      "ption": 5187,
      "Over": 5188,
      "orges": 5189,
      "oplas": 5190,
      "hta": 5191,
      "BeforeText": 5192,
      "ariate": 5193,
      "orne": 5194,
      "fit": 5195,
      "ĠCumm": 5196,
      "Ġpushed": 5197,
      "plement": 5198,
      "ĠVall": 5199,
      "fromRGB": 5200,
      "Ġhib": 5201,
      "ĠCoron": 5202,
      "ixed": 5203,
      "mus": 5204,
      "iav": 5205,
      "Ġlob": 5206,
      "eville": 5207,
      "Ġspe": 5208,
      "unp": 5209,
      "apole": 5210,
      "ĠRech": 5211,
      "Cmd": 5212,
      "ukawa": 5213,
      "bank": 5214,
      "ibt": 5215,
      "iax": 5216,
      "orate": 5217,
      "Ġdv": 5218,
      "ĠIO": 5219,
      "idos": 5220,
      "ĠGriff": 5221,
      "oxal": 5222,
      "Ġramp": 5223,
      "iliar": 5224,
      "cien": 5225,
      "anesulf": 5226,
      "calup": 5227,
      "zcz": 5228,
      "abbat": 5229,
      "ĠAle": 5230,
      "ĠHS": 5231,
      "sci": 5232,
      "abad": 5233,
      "ushing": 5234,
      "df": 5235,
      "Ġeff": 5236,
      "Emoji": 5237,
      "ĠCec": 5238,
      "ĠPercent": 5239,
      "king": 5240,
      "ĠRom": 5241,
      "IServer": 5242,
      "squarePos": 5243,
      "auth": 5244,
      "otts": 5245,
      "yin": 5246,
      "adast": 5247,
      "ĠMill": 5248,
      "ĠEmil": 5249,
      "click": 5250,
      "roqu": 5251,
      "Tran": 5252,
      "ilic": 5253,
      "aisi": 5254,
      "andel": 5255,
      "ĠRef": 5256,
      "comp": 5257,
      "Ġprotot": 5258,
      "Ġburl": 5259,
      "ĠPanth": 5260,
      "roud": 5261,
      "UCLE": 5262,
      "userd": 5263,
      "Ġsting": 5264,
      "Ġlac": 5265,
      "kte": 5266,
      "eckt": 5267,
      "ActionBar": 5268,
      "HTTP": 5269,
      "bpm": 5270,
      "bpmOb": 5271,
      "asz": 5272,
      "Ġprototyp": 5273,
      "Ġno": 5274,
      "Water": 5275,
      "havam": 5276,
      "Ġgra": 5277,
      "ozer": 5278,
      "aluronic": 5279,
      "Ġpih": 5280,
      "ĠDu": 5281,
      "kat": 5282,
      "gett": 5283,
      "itos": 5284,
      "ugia": 5285,
      "iad": 5286,
      "ylinder": 5287,
      "ĠLib": 5288,
      "opt": 5289,
      "ount": 5290,
      "ipot": 5291,
      "ĠHU": 5292,
      "urit": 5293,
      "webtoken": 5294,
      "Npm": 5295,
      "uation": 5296,
      "loadNpm": 5297,
      "IFORN": 5298,
      "Binding": 5299,
      "iton": 5300,
      "ĠHub": 5301,
      "ĠSait": 5302,
      "Ġmac": 5303,
      "LLO": 5304,
      "Ġsudd": 5305,
      "Ġesp": 5306,
      "nie": 5307,
      "untime": 5308,
      "Ġsor": 5309,
      "ĠNakam": 5310,
      "omial": 5311,
      "InOut": 5312,
      "Report": 5313,
      "weathermap": 5314,
      "KK": 5315,
      "sPath": 5316,
      "ByteArray": 5317,
      "KAKK": 5318,
      "KAKKIA": 5319,
      "AYLOR": 5320,
      "Fcm": 5321,
      "Ang": 5322,
      "Cel": 5323,
      "Ġbod": 5324,
      "ziem": 5325,
      "clare": 5326,
      "iots": 5327,
      "rier": 5328,
      "rops": 5329,
      "Ġsubsid": 5330,
      "sorb": 5331,
      "Ġoverr": 5332,
      "OSE": 5333,
      "Ġger": 5334,
      "ittal": 5335,
      "ĠParr": 5336,
      "amilton": 5337,
      "oret": 5338,
      "lash": 5339,
      "zuk": 5340,
      "Ġoutper": 5341,
      "Ġgele": 5342,
      "sciutto": 5343,
      "usst": 5344,
      "udar": 5345,
      "gal": 5346,
      "ithin": 5347,
      "jorie": 5348,
      "ĠLa": 5349,
      "Ġya": 5350,
      "Team": 5351,
      "ĠBian": 5352,
      "inks": 5353,
      "Zaw": 5354,
      "Ġalk": 5355,
      "ĠMaul": 5356,
      "Ġpref": 5357,
      "enam": 5358,
      "Ġsurp": 5359,
      "Ġmargin": 5360,
      "Operand": 5361,
      "annten": 5362,
      "ahkan": 5363,
      "ised": 5364,
      "ding": 5365,
      "ĠLanc": 5366,
      "ril": 5367,
      "fetch": 5368,
      "Ġreset": 5369,
      "ivalent": 5370,
      "IRE": 5371,
      "asone": 5372,
      "kins": 5373,
      "ĠUIF": 5374,
      "Ġtari": 5375,
      "RouteChange": 5376,
      "ede": 5377,
      "ĠOm": 5378,
      "Ġsa": 5379,
      "ipi": 5380,
      "UAG": 5381,
      "Ġcam": 5382,
      "orf": 5383,
      "Bitmap": 5384,
      "elho": 5385,
      "weise": 5386,
      "iejs": 5387,
      "acerItem": 5388,
      "ening": 5389,
      "egir": 5390,
      "real": 5391,
      "gerufen": 5392,
      "Me": 5393,
      "Signed": 5394,
      "SelectList": 5395,
      "ImgBoard": 5396,
      "enamefont": 5397,
      "orem": 5398,
      "Ġmenget": 5399,
      "elope": 5400,
      "iliy": 5401,
      "avkh": 5402,
      "ĠPog": 5403,
      "ĠOld": 5404,
      "Send": 5405,
      "CTime": 5406,
      "Ġouts": 5407,
      "ĠBridg": 5408,
      "ĠMO": 5409,
      "ĠFile": 5410,
      "Ġmatch": 5411,
      "Container": 5412,
      "iste": 5413,
      "affold": 5414,
      "uropean": 5415,
      "asley": 5416,
      "brakk": 5417,
      "Pay": 5418,
      "embran": 5419,
      "Ġdiscret": 5420,
      "reath": 5421,
      "Ġprom": 5422,
      "naud": 5423,
      "inda": 5424,
      "localVar": 5425,
      "Ġdici": 5426,
      "ĠProb": 5427,
      "Ġobsc": 5428,
      "irection": 5429,
      "Sched": 5430,
      "aksanakan": 5431,
      "inth": 5432,
      "etics": 5433,
      "Ġmap": 5434,
      "ĠDI": 5435,
      "enom": 5436,
      "agne": 5437,
      "alda": 5438,
      "lefthar": 5439,
      "nj": 5440,
      "ylmethyl": 5441,
      "aming": 5442,
      "Fe": 5443,
      "Ġcas": 5444,
      "ctions": 5445,
      "Ġarrog": 5446,
      "alance": 5447,
      "ustus": 5448,
      "edDevice": 5449,
      "ayo": 5450,
      "dued": 5451,
      "ĠHorn": 5452,
      "Ble": 5453,
      "BleStatus": 5454,
      "Profile": 5455,
      "Ġplay": 5456,
      "Ġconstit": 5457,
      "ILLER": 5458,
      "agre": 5459,
      "kten": 5460,
      "Ġemph": 5461,
      "lexstr": 5462,
      "Flo": 5463,
      "ĠSol": 5464,
      "ualaikum": 5465,
      "oare": 5466,
      "nios": 5467,
      "atab": 5468,
      "Ġtry": 5469,
      "etest": 5470,
      "ĠSer": 5471,
      "gener": 5472,
      "Ġah": 5473,
      "asaki": 5474,
      "opa": 5475,
      "Ġruf": 5476,
      "browser": 5477,
      "Colour": 5478,
      "ĠGet": 5479,
      "getDo": 5480,
      "ĠCAG": 5481,
      "ĠSRPGo": 5482,
      "etrieb": 5483,
      "elit": 5484,
      "Ġasympt": 5485,
      "Last": 5486,
      "ogenic": 5487,
      "mente": 5488,
      "ĠHerr": 5489,
      "ioid": 5490,
      "ĠWhit": 5491,
      "Ġtol": 5492,
      "Parent": 5493,
      "ahanga": 5494,
      "oker": 5495,
      "ĠSchwar": 5496,
      "pret": 5497,
      "erse": 5498,
      "olin": 5499,
      "Ġmath": 5500,
      "Ġpour": 5501,
      "Ġprotr": 5502,
      "Ġjal": 5503,
      "delay": 5504,
      "urz": 5505,
      "ography": 5506,
      "ixin": 5507,
      "anyu": 5508,
      "cliffe": 5509,
      "SCH": 5510,
      "hte": 5511,
      "ellow": 5512,
      "ommerce": 5513,
      "abwe": 5514,
      "ĠEdmund": 5515,
      "Ġnir": 5516,
      "sru": 5517,
      "spring": 5518,
      "sruhe": 5519,
      "oxid": 5520,
      "uGet": 5521,
      "atom": 5522,
      "rement": 5523,
      "ĠArist": 5524,
      "erville": 5525,
      "imest": 5526,
      "perg": 5527,
      "Ġendow": 5528,
      "Ġhandc": 5529,
      "inary": 5530,
      "ackbar": 5531,
      "ĠTrou": 5532,
      "ullen": 5533,
      "pc": 5534,
      "ĠMTL": 5535,
      "Ġnon": 5536,
      "NG": 5537,
      "acchar": 5538,
      "dul": 5539,
      "Ġwir": 5540,
      "base": 5541,
      "chnen": 5542,
      "IntValue": 5543,
      "eping": 5544,
      "apia": 5545,
      "ĠNx": 5546,
      "Ġruh": 5547,
      "ertown": 5548,
      "ibar": 5549,
      "Ht": 5550,
      "ĠGlo": 5551,
      "ĠGlouc": 5552,
      "unger": 5553,
      "arga": 5554,
      "ĠBens": 5555,
      "setImage": 5556,
      "ehr": 5557,
      "asmine": 5558,
      "Ġprobation": 5559,
      "Ġsign": 5560,
      "erein": 5561,
      "ĠTs": 5562,
      "Ġfoll": 5563,
      "Ġben": 5564,
      "Serial": 5565,
      "ogle": 5566,
      "avre": 5567,
      "ashed": 5568,
      "kowicz": 5569,
      "rances": 5570,
      "Death": 5571,
      "Ġbic": 5572,
      "iard": 5573,
      "MessageBox": 5574,
      "Ġscreen": 5575,
      "RN": 5576,
      "DetailUI": 5577,
      "gesch": 5578,
      "EK": 5579,
      "ayle": 5580,
      "slam": 5581,
      "ospor": 5582,
      "thena": 5583,
      "ĠOsb": 5584,
      "Ag": 5585,
      "quar": 5586,
      "ĠSrin": 5587,
      "ENCE": 5588,
      "ToJava": 5589,
      "uyu": 5590,
      "abella": 5591,
      "Mouse": 5592,
      "Loader": 5593,
      "angkat": 5594,
      "ĠJes": 5595,
      "ĠJesuit": 5596,
      "usin": 5597,
      "files": 5598,
      "stack": 5599,
      "PlatformImage": 5600,
      "jet": 5601,
      "adeh": 5602,
      "Ġpavatt": 5603,
      "isan": 5604,
      "Offsets": 5605,
      "OfDeath": 5606,
      "ĠDais": 5607,
      "ocarp": 5608,
      "ĠGile": 5609,
      "Templ": 5610,
      "Ġfles": 5611,
      "eja": 5612,
      "Ġsak": 5613,
      "Ġdhat": 5614,
      "indon": 5615,
      "hanahu": 5616,
      "ints": 5617,
      "inqu": 5618,
      "anesh": 5619,
      "Win": 5620,
      "WinCounter": 5621,
      "phant": 5622,
      "check": 5623,
      "Ġtransfer": 5624,
      "Annot": 5625,
      "heit": 5626,
      "ersive": 5627,
      "ĠRash": 5628,
      "iac": 5629,
      "ĠLE": 5630,
      "ĠRosh": 5631,
      "adip": 5632,
      "ĠCV": 5633,
      "oped": 5634,
      "enga": 5635,
      "tnie": 5636,
      "incl": 5637,
      "chievement": 5638,
      "Hot": 5639,
      "olen": 5640,
      "uously": 5641,
      "antiate": 5642,
      "ĠOsw": 5643,
      "rir": 5644,
      "amoto": 5645,
      "MM": 5646,
      "Scripts": 5647,
      "Tint": 5648,
      "uleiro": 5649,
      "INK": 5650,
      "seek": 5651,
      "eches": 5652,
      "ĠKec": 5653,
      "atim": 5654,
      "edown": 5655,
      "Translate": 5656,
      "Translatef": 5657,
      "Ġlag": 5658,
      "Ġmengg": 5659,
      "yel": 5660,
      "GRAM": 5661,
      "Complete": 5662,
      "sg": 5663,
      "ĠGlad": 5664,
      "Ġarter": 5665,
      "bound": 5666,
      "xcsch": 5667,
      "othermic": 5668,
      "imony": 5669,
      "zent": 5670,
      "Ġdehyd": 5671,
      "asy": 5672,
      "aner": 5673,
      "9>": 5674,
      "endum": 5675,
      "Ġphosph": 5676,
      "PushButton": 5677,
      "ethe": 5678,
      "orde": 5679,
      "ĠBanglad": 5680,
      "Ġdolor": 5681,
      "Ġleicht": 5682,
      "getS": 5683,
      "Ġkarot": 5684,
      "Range": 5685,
      "Infl": 5686,
      "uma": 5687,
      "Head": 5688,
      "Ġnirvach": 5689,
      "ĠNapole": 5690,
      "Ġmagnet": 5691,
      "ĠMenz": 5692,
      "Inflater": 5693,
      "nos": 5694,
      "ĠKab": 5695,
      "arlow": 5696,
      "onica": 5697,
      "Ġenroll": 5698,
      "aceut": 5699,
      "perBound": 5700,
      "iscilla": 5701,
      "Ġrag": 5702,
      "Ġmock": 5703,
      "Score": 5704,
      "elson": 5705,
      "Frame": 5706,
      "ritic": 5707,
      "uxt": 5708,
      "iding": 5709,
      "inguish": 5710,
      "adrup": 5711,
      "ĠRein": 5712,
      "agna": 5713,
      "ensity": 5714,
      "spective": 5715,
      "GTBase": 5716,
      "typ": 5717,
      "foam": 5718,
      "SignedIn": 5719,
      "actone": 5720,
      "emen": 5721,
      "Ġmadr": 5722,
      "HDROffsets": 5723,
      "Ġtariff": 5724,
      "Ġku": 5725,
      "anoe": 5726,
      "umlahan": 5727,
      "Found": 5728,
      "ĠLou": 5729,
      "tolower": 5730,
      "Ġbut": 5731,
      "INF": 5732,
      "inha": 5733,
      "uerite": 5734,
      "enum": 5735,
      "Ġmanoe": 5736,
      "ĠKauf": 5737,
      "ĠBra": 5738,
      "ĠLau": 5739,
      "icked": 5740,
      "Bride": 5741,
      "Compos": 5742,
      "ereo": 5743,
      "CIS": 5744,
      "binicons": 5745,
      "ormed": 5746,
      "Ġhepin": 5747,
      "car": 5748,
      "Flare": 5749,
      "arcin": 5750,
      "fried": 5751,
      "onies": 5752,
      "ingles": 5753,
      "othe": 5754,
      "py": 5755,
      "ichten": 5756,
      "orge": 5757,
      "wati": 5758,
      "ĠRow": 5759,
      "inear": 5760,
      "ĠMour": 5761,
      "Ġsplen": 5762,
      "Ġhom": 5763,
      "SCE": 5764,
      "Ġpoz": 5765,
      "CHAR": 5766,
      "Ġdigniss": 5767,
      "Ġfing": 5768,
      "pack": 5769,
      "ĠKy": 5770,
      "bd": 5771,
      "abil": 5772,
      "aching": 5773,
      "PhotoButton": 5774,
      "yip": 5775,
      "andae": 5776,
      "ĠAc": 5777,
      "Ġpropag": 5778,
      "unker": 5779,
      "Argument": 5780,
      "feld": 5781,
      "plained": 5782,
      "ingSt": 5783,
      "ĠRav": 5784,
      "Design": 5785,
      "ompar": 5786,
      "ĠVic": 5787,
      "ĠOk": 5788,
      "orral": 5789,
      "ibia": 5790,
      "theb": 5791,
      "idalgo": 5792,
      "peed": 5793,
      "inton": 5794,
      "Ġze": 5795,
      "day": 5796,
      "sig": 5797,
      "Ġimage": 5798,
      "ERV": 5799,
      "Ġdescon": 5800,
      "yste": 5801,
      "ĠCop": 5802,
      "oust": 5803,
      "aas": 5804,
      "zyst": 5805,
      "aspid": 5806,
      "kaar": 5807,
      "bell": 5808,
      "lems": 5809,
      "revista": 5810,
      "corper": 5811,
      "ethane": 5812,
      "BadRequest": 5813,
      "Ġzeb": 5814,
      "OD": 5815,
      "inak": 5816,
      "Ġsolen": 5817,
      "olk": 5818,
      "uza": 5819,
      "CharAt": 5820,
      "inin": 5821,
      "inters": 5822,
      "otient": 5823,
      "chau": 5824,
      "Idx": 5825,
      "HtIdx": 5826,
      "ophorus": 5827,
      "ĠTink": 5828,
      "Ġanisotrop": 5829,
      "Ġner": 5830,
      "ombe": 5831,
      "default": 5832,
      "TEST": 5833,
      "ĠSS": 5834,
      "Ġhyp": 5835,
      "azaki": 5836,
      "ĠOS": 5837,
      "ĠPen": 5838,
      "ermat": 5839,
      "ksam": 5840,
      "SaveFolder": 5841,
      "Ġconjug": 5842,
      "akra": 5843,
      "betrieb": 5844,
      "merksam": 5845,
      "ĠZus": 5846,
      "eban": 5847,
      "Ġsuit": 5848,
      "UST": 5849,
      "salary": 5850,
      "capt": 5851,
      "enger": 5852,
      "iso": 5853,
      "lyl": 5854,
      "iput": 5855,
      "ĠFeder": 5856,
      "Ġpositiv": 5857,
      "Ġrod": 5858,
      "othp": 5859,
      "ĠSac": 5860,
      "gbo": 5861,
      "ifix": 5862,
      "ypass": 5863,
      "ĠPaul": 5864,
      "osed": 5865,
      "outi": 5866,
      "amata": 5867,
      "ansson": 5868,
      "ĠBrun": 5869,
      "zie": 5870,
      "Speed": 5871,
      "ĠCF": 5872,
      "gebra": 5873,
      "Lens": 5874,
      "Ġdos": 5875,
      "hiy": 5876,
      "ĠSIINF": 5877,
      "ĠMoh": 5878,
      "value": 5879,
      "aguchi": 5880,
      "rific": 5881,
      "UNG": 5882,
      "adar": 5883,
      "Sant": 5884,
      "ULD": 5885,
      "pergillus": 5886,
      "ĠPeg": 5887,
      "ulose": 5888,
      "Local": 5889,
      "rc": 5890,
      "imid": 5891,
      "Ġboast": 5892,
      "onio": 5893,
      "Ġlance": 5894,
      "nemid": 5895,
      "itius": 5896,
      "annel": 5897,
      "Ġtap": 5898,
      "istan": 5899,
      "Decoration": 5900,
      "Ġimmun": 5901,
      "ERCENT": 5902,
      "mad": 5903,
      "metry": 5904,
      "cek": 5905,
      "Ġlay": 5906,
      "ĠBlanch": 5907,
      "breviation": 5908,
      "ĠtotalBlock": 5909,
      "ĠtotalBlockUsed": 5910,
      "Ġfact": 5911,
      "AMS": 5912,
      "hea": 5913,
      "ĠAK": 5914,
      "ĠSarat": 5915,
      "SSI": 5916,
      "Ġdraw": 5917,
      "ynh": 5918,
      "ĠMcCorm": 5919,
      "positroid": 5920,
      "Ġfug": 5921,
      "umped": 5922,
      "Ġclear": 5923,
      "vency": 5924,
      "Clazz": 5925,
      "ĠBarthol": 5926,
      "ĠBartholom": 5927,
      "ueprint": 5928,
      "ĠKam": 5929,
      "rameN": 5930,
      "ongrass": 5931,
      "BM": 5932,
      "aju": 5933,
      "Ġeu": 5934,
      "ourne": 5935,
      "errer": 5936,
      "lessis": 5937,
      "orp": 5938,
      "Ġdisf": 5939,
      "angen": 5940,
      "Ġmaneuver": 5941,
      "Ġvalid": 5942,
      "atar": 5943,
      "lan": 5944,
      "Us": 5945,
      "addies": 5946,
      "LA": 5947,
      "ossible": 5948,
      "Rt": 5949,
      "xRt": 5950,
      "ierra": 5951,
      "Ġsecond": 5952,
      "Ġdox": 5953,
      "eted": 5954,
      "isInt": 5955,
      "Ġvii": 5956,
      "Ġjob": 5957,
      "aders": 5958,
      "TypeCode": 5959,
      "TOR": 5960,
      "thorne": 5961,
      "Ġprost": 5962,
      "Ġuro": 5963,
      "<0x6": 5964,
      "ecido": 5965,
      "ĠSach": 5966,
      "orphisms": 5967,
      "ĠKait": 5968,
      "aust": 5969,
      "QT": 5970,
      "Weight": 5971,
      "ikh": 5972,
      "athe": 5973,
      "ration": 5974,
      "QTTR": 5975,
      "staw": 5976,
      "onia": 5977,
      "Ġbrib": 5978,
      "Pre": 5979,
      "ĠCart": 5980,
      "Ġbaj": 5981,
      "aldi": 5982,
      "std": 5983,
      "ĠSub": 5984,
      "RESS": 5985,
      "Ġunbel": 5986,
      "orov": 5987,
      "ĠStrick": 5988,
      "Eff": 5989,
      "aso": 5990,
      "getPackage": 5991,
      "label": 5992,
      "ĠPW": 5993,
      "ercicio": 5994,
      "Effect": 5995,
      "small": 5996,
      "elve": 5997,
      "aient": 5998,
      "ushrooms": 5999,
      "ivariate": 6000,
      "Ġcomment": 6001,
      "itorG": 6002,
      "idazol": 6003,
      "arty": 6004,
      "bol": 6005,
      "ĠPir": 6006,
      "aes": 6007,
      "LAGS": 6008,
      "ohar": 6009,
      "ĠKow": 6010,
      "acyj": 6011,
      "ople": 6012,
      "ositol": 6013,
      "atto": 6014,
      "itva": 6015,
      "ĠLamp": 6016,
      "eker": 6017,
      "ĠPick": 6018,
      "efinite": 6019,
      "idefinite": 6020,
      "Ġty": 6021,
      "ĠEg": 6022,
      "My": 6023,
      "ĠRec": 6024,
      "ancel": 6025,
      "Pham": 6026,
      "Ġdiarr": 6027,
      "Ġcanal": 6028,
      "Mob": 6029,
      "ellik": 6030,
      "itzer": 6031,
      "angka": 6032,
      "Ġcanalicul": 6033,
      "Border": 6034,
      "Ġnah": 6035,
      "Ġdukk": 6036,
      "riendly": 6037,
      "Ġasc": 6038,
      "Ġwc": 6039,
      "Ġpej": 6040,
      "rock": 6041,
      "KindOf": 6042,
      "ĠFate": 6043,
      "ĠOt": 6044,
      "ĠNE": 6045,
      "Ġbulund": 6046,
      "Ġaggreg": 6047,
      "imbabwe": 6048,
      "ĠRa": 6049,
      "uir": 6050,
      "ĠUnwrap": 6051,
      "LAND": 6052,
      "getMetering": 6053,
      "Qt": 6054,
      "ĠnewInput": 6055,
      "ĠMel": 6056,
      "ioxid": 6057,
      "Ġmes": 6058,
      "Overlay": 6059,
      "ITY": 6060,
      "esis": 6061,
      "ajun": 6062,
      "Ġload": 6063,
      "ĠWnd": 6064,
      "iland": 6065,
      "valho": 6066,
      "nod": 6067,
      "ojana": 6068,
      "eus": 6069,
      "Ġgac": 6070,
      "ĠAnt": 6071,
      "Ġmandib": 6072,
      "display": 6073,
      "rem": 6074,
      "Ġencaps": 6075,
      "ĠTak": 6076,
      "aec": 6077,
      "Ġforg": 6078,
      "ropriate": 6079,
      "llr": 6080,
      "arrell": 6081,
      "Ġzircon": 6082,
      "Attr": 6083,
      "Ġresult": 6084,
      "estand": 6085,
      "iant": 6086,
      "inaire": 6087,
      "usun": 6088,
      "inuation": 6089,
      "Enabled": 6090,
      "ĠDM": 6091,
      "fek": 6092,
      "ĠMay": 6093,
      "opia": 6094,
      "GPIO": 6095,
      "iniz": 6096,
      "ycz": 6097,
      "adden": 6098,
      "Ġbush": 6099,
      "ĠMIM": 6100,
      "Ġconcur": 6101,
      "umpa": 6102,
      "ongol": 6103,
      "rous": 6104,
      "ĠHend": 6105,
      "Directory": 6106,
      "angleOf": 6107,
      "reeks": 6108,
      "ucz": 6109,
      "onductor": 6110,
      "ĠChau": 6111,
      "nehm": 6112,
      "gul": 6113,
      "nak": 6114,
      "Swift": 6115,
      "upy": 6116,
      "ĠMahm": 6117,
      "vate": 6118,
      "Ġadsorb": 6119,
      "inam": 6120,
      "Ġaccus": 6121,
      "Ġfam": 6122,
      "Ġperk": 6123,
      "DidChange": 6124,
      "KeyCode": 6125,
      "iques": 6126,
      "Calls": 6127,
      "ApiCalls": 6128,
      "ijke": 6129,
      "indelijk": 6130,
      "Iam": 6131,
      "ebastian": 6132,
      "osecond": 6133,
      "Ġcoment": 6134,
      "upani": 6135,
      "LuaPush": 6136,
      "reon": 6137,
      "ableConcept": 6138,
      "rawler": 6139,
      "ustellen": 6140,
      "vania": 6141,
      "fik": 6142,
      "cover": 6143,
      "ourke": 6144,
      "othy": 6145,
      "MaxScaler": 6146,
      "embranes": 6147,
      "eney": 6148,
      "ĠChester": 6149,
      "apiro": 6150,
      "Ġeng": 6151,
      "Hein": 6152,
      "uben": 6153,
      "sworth": 6154,
      "Ġul": 6155,
      "iges": 6156,
      "ardino": 6157,
      "ofield": 6158,
      "Ġwild": 6159,
      "jek": 6160,
      "ritable": 6161,
      "ropical": 6162,
      "ensor": 6163,
      "aknya": 6164,
      "hoff": 6165,
      "akur": 6166,
      "HLIGHT": 6167,
      "egs": 6168,
      "ueDate": 6169,
      "chelon": 6170,
      "Ġens": 6171,
      "PASD": 6172,
      "PASDW": 6173,
      "PAss": 6174,
      "upload": 6175,
      "obson": 6176,
      "iname": 6177,
      "ssf": 6178,
      "acan": 6179,
      "Ġarr": 6180,
      "Ġsubl": 6181,
      "Ġterm": 6182,
      "ATEC": 6183,
      "MDE": 6184,
      "hak": 6185,
      "ortis": 6186,
      "Ġscr": 6187,
      "stmt": 6188,
      "oco": 6189,
      "ermott": 6190,
      "Ġsyn": 6191,
      "wal": 6192,
      "ĠTun": 6193,
      "Ġlocomot": 6194,
      "ETA": 6195,
      "Ġdismiss": 6196,
      "inture": 6197,
      "Msg": 6198,
      "Ġszy": 6199,
      "ucumber": 6200,
      "angers": 6201,
      "mip": 6202,
      "ĠSacram": 6203,
      "aterial": 6204,
      "rb": 6205,
      "uchar": 6206,
      "phine": 6207,
      "ĠSimp": 6208,
      "ĠSimpson": 6209,
      "ctrine": 6210,
      "uche": 6211,
      "REIB": 6212,
      "BB": 6213,
      "Thread": 6214,
      "Ġwithdraw": 6215,
      "usi": 6216,
      "nahme": 6217,
      "Ġcert": 6218,
      "umbs": 6219,
      "OAVOA": 6220,
      "HAOAVOA": 6221,
      "Nil": 6222,
      "Ġdap": 6223,
      "ĠnChar": 6224,
      "jay": 6225,
      "Namara": 6226,
      "chard": 6227,
      "Ġjun": 6228,
      "Ġverw": 6229,
      "Ġspring": 6230,
      "archar": 6231,
      "Ġnig": 6232,
      "Ġferrug": 6233,
      "efer": 6234,
      "ToJavaResult": 6235,
      "newswire": 6236,
      "opsis": 6237,
      "Ġcomput": 6238,
      "Ġstup": 6239,
      "ĠElev": 6240,
      "ĠHez": 6241,
      "sein": 6242,
      "urtis": 6243,
      "irling": 6244,
      "Ġsqu": 6245,
      "ottl": 6246,
      "Ġcit": 6247,
      "ĠHttp": 6248,
      "Ġodnos": 6249,
      "aue": 6250,
      "CallBack": 6251,
      "antium": 6252,
      "ĠBox": 6253,
      "icin": 6254,
      "amag": 6255,
      "Ġpred": 6256,
      "Ġdid": 6257,
      "kre": 6258,
      "Ġbah": 6259,
      "ĠBull": 6260,
      "ifstream": 6261,
      "ruch": 6262,
      "cimento": 6263,
      "Ġmolyb": 6264,
      "ORE": 6265,
      "Use": 6266,
      "ACY": 6267,
      "unte": 6268,
      "straction": 6269,
      "pped": 6270,
      "IVER": 6271,
      "Ġdic": 6272,
      "ulner": 6273,
      "osil": 6274,
      "fNil": 6275,
      "rio": 6276,
      "Ġfingert": 6277,
      "ommodity": 6278,
      "oform": 6279,
      "Ġmed": 6280,
      "Ġisoform": 6281,
      "ĠDr": 6282,
      "ismod": 6283,
      "ĠGuang": 6284,
      "rison": 6285,
      "aney": 6286,
      "rien": 6287,
      "lying": 6288,
      "arantadhatu": 6289,
      "Black": 6290,
      "Ġrame": 6291,
      "anjutan": 6292,
      "urno": 6293,
      "Ġundist": 6294,
      "Ġopioid": 6295,
      "EnCPP": 6296,
      "Pointer": 6297,
      "ĠVern": 6298,
      "recation": 6299,
      "Ġtext": 6300,
      "Ġregener": 6301,
      "methods": 6302,
      "esses": 6303,
      "ipotent": 6304,
      "Ġrot": 6305,
      "noop": 6306,
      "Ġtow": 6307,
      "cons": 6308,
      "Icon": 6309,
      "hagen": 6310,
      "ĠRem": 6311,
      "Raz": 6312,
      "tl": 6313,
      "ĠKel": 6314,
      "anian": 6315,
      "ulates": 6316,
      "Kit": 6317,
      "Ġplast": 6318,
      "waitFor": 6319,
      "Ġtinc": 6320,
      "ĠCrow": 6321,
      "assan": 6322,
      "ĠWith": 6323,
      "ĠWithers": 6324,
      "ĠUm": 6325,
      "ongy": 6326,
      "pher": 6327,
      "Ġfert": 6328,
      "Ġmanif": 6329,
      "renn": 6330,
      "ĠIm": 6331,
      "ĠVie": 6332,
      "Ġwal": 6333,
      "ĠMe": 6334,
      "Rewarded": 6335,
      "Ġacryl": 6336,
      "error": 6337,
      "forder": 6338,
      "TextBox": 6339,
      "ModelGrid": 6340,
      "Ġcristian": 6341,
      "Hours": 6342,
      "itiis": 6343,
      "ĠKhal": 6344,
      "araham": 6345,
      "ĠVog": 6346,
      "ĠUIA": 6347,
      "ĠBent": 6348,
      "drag": 6349,
      "foot": 6350,
      "ĠHSP": 6351,
      "ĠTom": 6352,
      "antation": 6353,
      "ege": 6354,
      "ĠSudan": 6355,
      "hmen": 6356,
      "ĠTanj": 6357,
      "anded": 6358,
      "Jpeg": 6359,
      "sko": 6360,
      "ecoexpr": 6361,
      "Contact": 6362,
      "pool": 6363,
      "Ġproduct": 6364,
      "adakan": 6365,
      "AGEmoji": 6366,
      "lare": 6367,
      "Manus": 6368,
      "Ġexfol": 6369,
      "ĠJohn": 6370,
      "CTION": 6371,
      "abe": 6372,
      "GBT": 6373,
      "Results": 6374,
      "aits": 6375,
      "Ġheter": 6376,
      "ĠWelles": 6377,
      "ollip": 6378,
      "orini": 6379,
      "Len": 6380,
      "afHandle": 6381,
      "cov": 6382,
      "ubei": 6383,
      "ellite": 6384,
      "Ġthuring": 6385,
      "inston": 6386,
      "ĠChev": 6387,
      "estructive": 6388,
      "irectional": 6389,
      "onnell": 6390,
      "dict": 6391,
      "utti": 6392,
      "ĠNass": 6393,
      "owane": 6394,
      "usz": 6395,
      "anie": 6396,
      "execute": 6397,
      "cie": 6398,
      "Actions": 6399,
      "enio": 6400,
      "Sn": 6401,
      "Configure": 6402,
      "cho": 6403,
      "xyz": 6404,
      "Ġcomorbid": 6405,
      "snow": 6406,
      "wxyz": 6407,
      "sett": 6408,
      "Ġbi": 6409,
      "Socket": 6410,
      "onym": 6411,
      "ĠSR": 6412,
      "iveness": 6413,
      "ukh": 6414,
      "yman": 6415,
      "ĠLith": 6416,
      "upyter": 6417,
      "ikis": 6418,
      "ulture": 6419,
      "ĠBron": 6420,
      "chini": 6421,
      "Ġbetray": 6422,
      "ietic": 6423,
      "ĠClem": 6424,
      "ĠArchiv": 6425,
      "ylem": 6426,
      "OS": 6427,
      "Eng": 6428,
      "ĠAmit": 6429,
      "osch": 6430,
      "ILayout": 6431,
      "Ġyojet": 6432,
      "itability": 6433,
      "ĠSDL": 6434,
      "atthakath": 6435,
      "ĠLithuan": 6436,
      "agam": 6437,
      "ĠVand": 6438,
      "ĠDMS": 6439,
      "omone": 6440,
      "reat": 6441,
      "ĠBorder": 6442,
      "esley": 6443,
      "InitFlag": 6444,
      "ttps": 6445,
      "ollipop": 6446,
[...]
