{
  "version": "1.0",
  "truncation": null,
  "padding": null,
  "added_tokens": [
    {
      "id": 1495,
      "content": "<UNK>",
      "single_word": false,
      "lstrip": false,
      "rstrip": false,
      "normalized": true,
      "special": true
    },
    {
      "id": 1496,
      "content": "<｜end▁of▁sentence｜>",
      "single_word": false,
      "lstrip": false,
      "rstrip": false,
      "normalized": true,
      "special": true
    },
    {
      "id": 1497,
      "content": "<｜pad｜>",
      "single_word": false,
      "lstrip": false,
      "rstrip": false,
      "normalized": true,
      "special": true
    },
    {
      "id": 1498,
      "content": "<｜begin▁of▁sentence｜>",
      "single_word": false,
      "lstrip": false,
      "rstrip": false,
      "normalized": true,
      "special": true
    }
  ],
  "normalizer": {
    "type": "Sequence",
    "normalizers": []
  },
  "pre_tokenizer": {
    "type": "Sequence",
    "pretokenizers": [
      {
        "type": "Split",
        "pattern": {
          "Regex": "[\\r\\n]"
        },
        "behavior": "Isolated",
        "invert": false
      },
      {
        "type": "Split",
        "pattern": {
          "Regex": "\\s?[A-Za-zµÀ-ÖØ-öø-ƺƼ-ƿǄ-ʓʕ-ʯͰ-ͳͶͷͻ-ͽͿΆΈ-ΊΌΎ-ΡΣ-ϵϷ-ҁҊ-ԯԱ-ՖႠ-ჅᎠ-Ᏽᏸ-ᏽᲐ-ᲺᲽ-Ჿᴀ-ᴫᵫ-ᵷᵹ-ᶚḀ-ἕἘ-Ἕἠ-ὅὈ-Ὅὐ-ὗὙὛὝὟ-ώᾀ-ᾴᾶ-ᾼιῂ-ῄῆ-ῌῐ-ΐῖ-Ίῠ-Ῥῲ-ῴῶ-ῼℂℇℊ-ℓℕℙ-ℝℤΩℨK-ℭℯ-ℴℹℼ-ℿⅅ-ⅉⅎↃↄⰀ-ⱻⱾ-ⳤⳫ-ⳮⳲⳳꙀ-ꙭꚀ-ꚛꜢ-ꝯꝱ-ꞇꞋ-ꞎꭰ-ꮿﬀ-ﬆﬓ-ﬗＡ-Ｚａ-ｚ𐐀-𐑏𐒰-𐓓𐓘-𐓻𐲀-𐲲𐳀-𐳲𑢠-𑣟𞤀-𞥃]+"
        },
        "behavior": "Isolated",
        "invert": false
      },
      {
        "type": "Split",
        "pattern": {
          "Regex": "\\s?[!-/:-~！-／：-～‘-‟　-。]+"
        },
        "behavior": "Isolated",
        "invert": false
      },
      {
        "type": "Split",
        "pattern": {
          "Regex": "\\s+$"
        },
        "behavior": "Isolated",
        "invert": false
      },
      {
        "type": "Split",
        "pattern": {
          "Regex": "[一-龥ࠀ-一가-퟿]+"
        },
        "behavior": "Isolated",
        "invert": false
      },
      {
        "type": "Digits",
        "individual_digits": true
      },
      {
        "type": "ByteLevel",
        "add_prefix_space": false,
        "trim_offsets": true,
        "use_regex": false
      }
    ]
  },
  "post_processor": {
    "type": "ByteLevel",
    "add_prefix_space": true,
    "trim_offsets": false,
    "use_regex": true
  },
  "decoder": {
    "type": "ByteLevel",
    "add_prefix_space": true,
    "trim_offsets": true,
    "use_regex": true
  },
  "model": {
    "type": "BPE",
    "dropout": null,
    "unk_token": "<UNK>",
    "continuing_subword_prefix": null,
    "end_of_word_suffix": null,
    "fuse_unk": false,
    "byte_fallback": false,
    "ignore_merges": false,
    "bMax_frequency": true,
    "max_frequency": 63649887,
    "vocab": {
      "ades": 0,
      "Ġval": 1,
      "ulfanyl": 2,
      "Ġq": 3,
      "space": 4,
      "ared": 5,
      "hel": 6,
      "Builder": 7,
      "sulfanyl": 8,
      "Ġacc": 9,
      "pie": 10,
      "sal": 11,
      "arat": 12,
      "phen": 13,
      "Full": 14,
      "URN": 15,
      "ense": 16,
      "ĠEll": 17,
      "ĠBlack": 18,
      "len": 19,
      "lov": 20,
      "esthet": 21,
      "Ġhum": 22,
      "ives": 23,
      "inst": 24,
      "vel": 25,
      "bu": 26,
      "Cent": 27,
      "Add": 28,
      "esi": 29,
      "perm": 30,
      "Sprite": 31,
      "Ġsn": 32,
      "aat": 33,
      "GR": 34,
      "ijk": 35,
      "onc": 36,
      "api": 37,
      "ourn": 38,
      "ites": 39,
      "Ġtri": 40,
      "inding": 41,
      "ungen": 42,
      "ceed": 43,
      "ote": 44,
      "ents": 45,
      "eton": 46,
      "iego": 47,
      "aires": 48,
      "onne": 49,
      "opp": 50,
      "acute": 51,
      "Ġfre": 52,
      "irect": 53,
      "Components": 54,
      "ĠMor": 55,
      "rone": 56,
      "har": 57,
      "angk": 58,
      "Offset": 59,
      "agen": 60,
      "rog": 61,
      "Ġtra": 62,
      "itar": 63,
      "enna": 64,
      "cs": 65,
      "Vertex": 66,
      "view": 67,
      "rie": 68,
      "bb": 69,
      "ĠWal": 70,
      "war": 71,
      "Now": 72,
      "Ġcar": 73,
      "bor": 74,
      "link": 75,
      "Th": 76,
      "ugin": 77,
      "OC": 78,
      "prop": 79,
      "sky": 80,
      "sis": 81,
      "aph": 82,
      "ito": 83,
      "EG": 84,
      "test": 85,
      "class": 86,
      "Ġwh": 87,
      "esto": 88,
      "pton": 89,
      "arsh": 90,
      "eller": 91,
      "itis": 92,
      "ams": 93,
      "SF": 94,
      "Source": 95,
      "Ġpres": 96,
      "ucc": 97,
      "iento": 98,
      "eil": 99,
      "iler": 100,
      "ĠGal": 101,
      "LP": 102,
      "pos": 103,
      "string": 104,
      "isi": 105,
      "ries": 106,
      "ital": 107,
      "sen": 108,
      "oom": 109,
      "ĠRaj": 110,
      "ĠKe": 111,
      "ĠMo": 112,
      "ution": 113,
      "Ġpret": 114,
      "Port": 115,
      "ohn": 116,
      "ique": 117,
      "Record": 118,
      "uring": 119,
      "Non": 120,
      "rite": 121,
      "CR": 122,
      "ERN": 123,
      "log": 124,
      "hn": 125,
      "Body": 126,
      "Keys": 127,
      "so": 128,
      "Sett": 129,
      "ĠRUT": 130,
      "umn": 131,
      "ranch": 132,
      "Pos": 133,
      "ĠUI": 134,
      "ours": 135,
      "ĠPol": 136,
      "hab": 137,
      "ĠHo": 138,
      "Ġdist": 139,
      "aker": 140,
      "ilt": 141,
      "Login": 142,
      "akukan": 143,
      "ideo": 144,
      "emy": 145,
      "El": 146,
      "Video": 147,
      "ueue": 148,
      "inct": 149,
      "Ġmy": 150,
      "Marks": 151,
      "review": 152,
      "ymbol": 153,
      "Ġpop": 154,
      "lig": 155,
      "eler": 156,
      "ĠHe": 157,
      "efont": 158,
      "ĠGar": 159,
      "eport": 160,
      "elli": 161,
      "Ġhab": 162,
      "mond": 163,
      "ocket": 164,
      "Settings": 165,
      "eft": 166,
      "ĠEp": 167,
      "ocalVar": 168,
      "gg": 169,
      "other": 170,
      "TI": 171,
      "Ġple": 172,
      "bert": 173,
      "page": 174,
      "Sup": 175,
      "yo": 176,
      "atu": 177,
      "etter": 178,
      "ĠCav": 179,
      "zn": 180,
      "Script": 181,
      "ahi": 182,
      "annya": 183,
      "Sal": 184,
      "Did": 185,
      "HL": 186,
      "itle": 187,
      "big": 188,
      "ingen": 189,
      "cher": 190,
      "rel": 191,
      "TO": 192,
      "vo": 193,
      "ĠCro": 194,
      "uda": 195,
      "Ġsur": 196,
      "Screen": 197,
      "Player": 198,
      "Temp": 199,
      "Ġmel": 200,
      "ĠCont": 201,
      "Rad": 202,
      "FS": 203,
      "ves": 204,
      "Counter": 205,
      "lich": 206,
      "eston": 207,
      "eva": 208,
      "Types": 209,
      "HS": 210,
      "Show": 211,
      "Ġvatt": 212,
      "ĠIr": 213,
      "Sql": 214,
      "OU": 215,
      "zin": 216,
      "rvGroup": 217,
      "ista": 218,
      "MT": 219,
      "Ġcyt": 220,
      "ĠRh": 221,
      "Queue": 222,
      "Load": 223,
      "ilde": 224,
      "upt": 225,
      "Ġaus": 226,
      "count": 227,
      "Para": 228,
      "ĠHor": 229,
      "right": 230,
      "Ġcomp": 231,
      "imi": 232,
      "ude": 233,
      "tils": 234,
      "Items": 235,
      "BE": 236,
      "reens": 237,
      "Dict": 238,
      "ĠSom": 239,
      "hd": 240,
      "ashi": 241,
      "Parameter": 242,
      "lish": 243,
      "Parser": 244,
      "dl": 245,
      "Ġstat": 246,
      "ists": 247,
      "yg": 248,
      "RS": 249,
      "ehyd": 250,
      "illy": 251,
      "nc": 252,
      "ocument": 253,
      "Compat": 254,
      "yll": 255,
      "htt": 256,
      "vider": 257,
      "Ġbr": 258,
      "Ġconc": 259,
      "ece": 260,
      "omy": 261,
      "Com": 262,
      "Ġhot": 263,
      "getC": 264,
      "ystem": 265,
      "aten": 266,
      "osis": 267,
      "rome": 268,
      "gram": 269,
      "iendo": 270,
      "efore": 271,
      "ones": 272,
      "mouse": 273,
      "ollis": 274,
      "FT": 275,
      "istic": 276,
      "eed": 277,
      "AB": 278,
      "Ġins": 279,
      "PL": 280,
      "ki": 281,
      "augh": 282,
      "itte": 283,
      "Ġtre": 284,
      "atter": 285,
      "Module": 286,
      "ymph": 287,
      "ĠGo": 288,
      "Btn": 289,
      "otrop": 290,
      "ĠBerg": 291,
      "ĠEst": 292,
      "Ġele": 293,
      "Bound": 294,
      "FF": 295,
      "create": 296,
      "wick": 297,
      "ika": 298,
      "Wait": 299,
      "Ġmin": 300,
      "ĠPA": 301,
      "Ġcontent": 302,
      "URL": 303,
      "irm": 304,
      "ony": 305,
      "ativ": 306,
      "BL": 307,
      "math": 308,
      "aria": 309,
      "une": 310,
      "rine": 311,
      "owan": 312,
      "ĠPl": 313,
      "aret": 314,
      "Ġmast": 315,
      "ici": 316,
      "Plugin": 317,
      "etta": 318,
      "nej": 319,
      "OL": 320,
      "Ġpur": 321,
      "imer": 322,
      "icons": 323,
      "BI": 324,
      "ilit": 325,
      "iley": 326,
      "Ġmag": 327,
      "ytes": 328,
      "Ġenc": 329,
      "iled": 330,
      "hot": 331,
      "AA": 332,
      "hm": 333,
      "ther": 334,
      "GP": 335,
      "ival": 336,
      "ĠSte": 337,
      "elet": 338,
      "Ġconse": 339,
      "obac": 340,
      "aran": 341,
      "Ġass": 342,
      "SU": 343,
      "ĠAy": 344,
      "ache": 345,
      "oen": 346,
      "Struct": 347,
      "allback": 348,
      "andom": 349,
      "ogen": 350,
      "Ġcre": 351,
      "Pk": 352,
      "aint": 353,
      "aler": 354,
      "Operation": 355,
      "Command": 356,
      "Dev": 357,
      "uml": 358,
      "eek": 359,
      "ĠAsh": 360,
      "Ġtor": 361,
      "zen": 362,
      "bs": 363,
      "Scroll": 364,
      "atham": 365,
      "uble": 366,
      "iye": 367,
      "bury": 368,
      "Ġdham": 369,
      "Ret": 370,
      "Avg": 371,
      "ited": 372,
      "Sch": 373,
      "ĠArch": 374,
      "Ġpos": 375,
      "Ġor": 376,
      "imo": 377,
      "osc": 378,
      "Vis": 379,
      "stock": 380,
      "ayam": 381,
      "Ġinv": 382,
      "Font": 383,
      "ample": 384,
      "rou": 385,
      "AE": 386,
      "rug": 387,
      "ether": 388,
      "ĠPL": 389,
      "eon": 390,
      "Rout": 391,
      "inf": 392,
      "hal": 393,
      "rown": 394,
      "anja": 395,
      "erto": 396,
      "amo": 397,
      "ulation": 398,
      "Ġstr": 399,
      "Ġpe": 400,
      "mas": 401,
      "roller": 402,
      "tim": 403,
      "opl": 404,
      "Right": 405,
      "ike": 406,
      "tered": 407,
      "Ġreg": 408,
      "kit": 409,
      "osph": 410,
      "ristian": 411,
      "rowser": 412,
      "Ġvel": 413,
      "ga": 414,
      "ĠNag": 415,
      "ogram": 416,
      "ework": 417,
      "Pack": 418,
      "Top": 419,
      "eco": 420,
      "ogo": 421,
      "ness": 422,
      "olson": 423,
      "vation": 424,
      "ND": 425,
      "Ptr": 426,
      "ĠReg": 427,
      "ĠRos": 428,
      "outs": 429,
      "Ġpers": 430,
      "etch": 431,
      "ono": 432,
      "ados": 433,
      "unsch": 434,
      "GS": 435,
      "asis": 436,
      "CF": 437,
      "Press": 438,
      "face": 439,
      "olicy": 440,
      "nem": 441,
      "Ġsil": 442,
      "Task": 443,
      "Ġduk": 444,
      "lav": 445,
      "oggle": 446,
      "Ġmer": 447,
      "ania": 448,
      "ĠGir": 449,
      "iol": 450,
      "SXml": 451,
      "Version": 452,
      "ĠEM": 453,
      "image": 454,
      "assa": 455,
      "umph": 456,
      "czn": 457,
      "oup": 458,
      "Ġloc": 459,
      "lj": 460,
      "Search": 461,
      "hes": 462,
      "obb": 463,
      "UID": 464,
      "ĠMcInt": 465,
      "Navig": 466,
      "Http": 467,
      "Equal": 468,
      "Gl": 469,
      "Ġsput": 470,
      "Instance": 471,
      "edit": 472,
      "akes": 473,
      "oji": 474,
      "Character": 475,
      "Ġinput": 476,
      "Connection": 477,
      "Unary": 478,
      "olm": 479,
      "illes": 480,
      "lio": 481,
      "Ġrect": 482,
      "ilda": 483,
      "Ġdo": 484,
      "rame": 485,
      "ĠDom": 486,
      "atform": 487,
      "angu": 488,
      "asena": 489,
      "ĠBer": 490,
      "onucle": 491,
      "Ġaf": 492,
      "Props": 493,
      "ĠEx": 494,
      "aton": 495,
      "Ġbul": 496,
      "icker": 497,
      "Ġext": 498,
      "SON": 499,
      "ĠMcL": 500,
      "atas": 501,
      "ART": 502,
      "aron": 503,
      "erred": 504,
      "Ġing": 505,
      "cre": 506,
      "racket": 507,
      "asal": 508,
      "Pix": 509,
      "uced": 510,
      "getM": 511,
      "Camera": 512,
      "ology": 513,
      "rew": 514,
      "irl": 515,
      "Ġparab": 516,
      "Empty": 517,
      "OW": 518,
      "Ġsam": 519,
      "ify": 520,
      "screen": 521,
      "Ġlle": 522,
      "Mutability": 523,
      "Ġsymbol": 524,
      "head": 525,
      "econds": 526,
      "PD": 527,
      "idden": 528,
      "aliz": 529,
      "idazole": 530,
      "Ġmic": 531,
      "Interface": 532,
      "isTrack": 533,
      "ador": 534,
      "Ġgi": 535,
      "ori": 536,
      "ained": 537,
      "alan": 538,
      "rep": 539,
      "arant": 540,
      "cy": 541,
      "ILL": 542,
      "hy": 543,
      "Ow": 544,
      "apping": 545,
      "ĠHay": 546,
      "DL": 547,
      "Fit": 548,
      "ground": 549,
      "Push": 550,
      "azar": 551,
      "Ġred": 552,
      "rod": 553,
      "ective": 554,
      "Policy": 555,
      "miss": 556,
      "EP": 557,
      "ury": 558,
      "ikt": 559,
      "Ġkar": 560,
      "ĠLuc": 561,
      "ials": 562,
      "Target": 563,
      "pm": 564,
      "VCT": 565,
      "Ġte": 566,
      "ske": 567,
      "lectic": 568,
      "BP": 569,
      "Ġfo": 570,
      "Ġde": 571,
      "ief": 572,
      "ORT": 573,
      "enden": 574,
      "ĠCH": 575,
      "osk": 576,
      "nav": 577,
      "FC": 578,
      "raven": 579,
      "Board": 580,
      "eros": 581,
      "Bl": 582,
      "Callback": 583,
      "bad": 584,
      "RA": 585,
      "oor": 586,
      "Project": 587,
      "iana": 588,
      "vr": 589,
      "Ġcol": 590,
      "Handler": 591,
      "rows": 592,
      "ĠGi": 593,
      "ister": 594,
      "amily": 595,
      "appe": 596,
      "PO": 597,
      "Device": 598,
      "Sample": 599,
      "ingham": 600,
      "ĠSk": 601,
      "race": 602,
      "ytic": 603,
      "inde": 604,
      "ondo": 605,
      "idin": 606,
      "Ġpercent": 607,
      "erno": 608,
      "ardi": 609,
      "char": 610,
      "Ġviv": 611,
      "Fact": 612,
      "Flight": 613,
      "arker": 614,
      "eground": 615,
      "esus": 616,
      "ife": 617,
      "Used": 618,
      "Ġvutt": 619,
      "ĠKx": 620,
      "Ġmeg": 621,
      "atiti": 622,
      "ersch": 623,
      "ĠBad": 624,
      "code": 625,
      "esse": 626,
      "umann": 627,
      "Ġbet": 628,
      "Ġsu": 629,
      "search": 630,
      "oney": 631,
      "ĠMax": 632,
      "peat": 633,
      "PI": 634,
      "imple": 635,
      "Ġmost": 636,
      "ungs": 637,
      "itone": 638,
      "Ġferr": 639,
      "Ġren": 640,
      "Ġgel": 641,
      "ilis": 642,
      "wise": 643,
      "ired": 644,
      "pear": 645,
      "inner": 646,
      "Ġfamil": 647,
      "ordan": 648,
      "Ġdiss": 649,
      "rift": 650,
      "Ġknock": 651,
      "rish": 652,
      "Details": 653,
      "ĠMaur": 654,
      "ursor": 655,
      "ushroom": 656,
      "ergic": 657,
      "ĠAll": 658,
      "osi": 659,
      "oon": 660,
      "ĠGall": 661,
      "eza": 662,
      "Ġic": 663,
      "outh": 664,
      "Ġdata": 665,
      "ĠBeat": 666,
      "aze": 667,
      "burg": 668,
      "angle": 669,
      "ahu": 670,
      "aim": 671,
      "anny": 672,
      "DT": 673,
      "zi": 674,
      "ilm": 675,
      "ĠRUTAR": 676,
      "Save": 677,
      "url": 678,
      "ĠOb": 679,
      "FR": 680,
      "sid": 681,
      "ahul": 682,
      "ague": 683,
      "rot": 684,
      "ida": 685,
      "Ġsubt": 686,
      "urope": 687,
      "roke": 688,
      "lyn": 689,
      "Ġphen": 690,
      "tha": 691,
      "ebra": 692,
      "Bin": 693,
      "eres": 694,
      "stream": 695,
      "OH": 696,
      "Ġcle": 697,
      "UD": 698,
      "Ġbro": 699,
      "ures": 700,
      "ikan": 701,
      "yatt": 702,
      "stone": 703,
      "Ext": 704,
      "ĠBuk": 705,
      "Provider": 706,
      "Ġax": 707,
      "Ġhead": 708,
      "owell": 709,
      "had": 710,
      "ĠGh": 711,
      "Wall": 712,
      "ĠShe": 713,
      "Adapter": 714,
      "ĠBoy": 715,
      "amine": 716,
      "abbam": 717,
      "Ġdign": 718,
      "rust": 719,
      "Args": 720,
      "igo": 721,
      "Ġposit": 722,
      "amento": 723,
      "ĠDal": 724,
      "ĠAnd": 725,
      "olver": 726,
      "Des": 727,
      "Ġmot": 728,
      "ĠHumph": 729,
      "tb": 730,
      "mult": 731,
      "Flag": 732,
      "him": 733,
      "odor": 734,
      "rant": 735,
      "ward": 736,
      "uls": 737,
      "NS": 738,
      "Center": 739,
      "iers": 740,
      "arah": 741,
      "Ġvert": 742,
      "ĠCR": 743,
      "sad": 744,
      "ERC": 745,
      "Ġhand": 746,
      "Utils": 747,
      "Ġprop": 748,
      "Ġcr": 749,
      "alam": 750,
      "ffen": 751,
      "EY": 752,
      "raul": 753,
      "Ġtot": 754,
      "alar": 755,
      "allel": 756,
      "stant": 757,
      "ational": 758,
      "ĠMarg": 759,
      "ranc": 760,
      "urd": 761,
      "aye": 762,
      "umm": 763,
      "VER": 764,
      "ieg": 765,
      "Ġmill": 766,
      "ĠGr": 767,
      "Controller": 768,
      "Tab": 769,
      "alm": 770,
      "eno": 771,
      "eless": 772,
      "tol": 773,
      "edd": 774,
      "Ġabh": 775,
      "ĠCorn": 776,
      "Ġdil": 777,
      "Str": 778,
      "Ass": 779,
      "ĠNorth": 780,
      "ĠUt": 781,
      "ello": 782,
      "Ġkey": 783,
      "Dto": 784,
      "Ġexc": 785,
      "por": 786,
      "ĠNL": 787,
      "uest": 788,
      "Del": 789,
      "Opt": 790,
      "Ġten": 791,
      "BT": 792,
      "bre": 793,
      "revi": 794,
      "akespe": 795,
      "wrap": 796,
      "kar": 797,
      "itrile": 798,
      "Current": 799,
      "Ġvucc": 800,
      "aad": 801,
      "ĠBa": 802,
      "dk": 803,
      "Ġat": 804,
      "Ġkah": 805,
      "Radius": 806,
      "auer": 807,
      "pop": 808,
      "Ġmyc": 809,
      "sche": 810,
      "Ġprim": 811,
      "ĠUIC": 812,
      "inder": 813,
      "Ġunder": 814,
      "itting": 815,
      "endez": 816,
      "sy": 817,
      "reet": 818,
      "ryst": 819,
      "fordshire": 820,
      "VS": 821,
      "anger": 822,
      "trl": 823,
      "esu": 824,
      "idad": 825,
      "ĠMull": 826,
      "oster": 827,
      "si": 828,
      "ĠCan": 829,
      "ily": 830,
      "Beat": 831,
      "ĠGreen": 832,
      "Vector": 833,
      "ches": 834,
      "imation": 835,
      "ommon": 836,
      "sn": 837,
      "iaz": 838,
      "sec": 839,
      "eder": 840,
      "Ġven": 841,
      "Ġsem": 842,
      "house": 843,
      "Dir": 844,
      "Child": 845,
      "aird": 846,
      "Re": 847,
      "atir": 848,
      "Chang": 849,
      "icate": 850,
      "obil": 851,
      "Popup": 852,
      "andal": 853,
      "eze": 854,
      "struct": 855,
      "ĠComp": 856,
      "ĠTon": 857,
      "Photo": 858,
      "ĠStaff": 859,
      "Stack": 860,
      "ĠStr": 861,
      "One": 862,
      "Ġtub": 863,
      "ences": 864,
      "ging": 865,
      "acht": 866,
      "ĠWeb": 867,
      "quier": 868,
      "System": 869,
      "nes": 870,
      "drop": 871,
      "fol": 872,
      "ypt": 873,
      "bum": 874,
      "Byte": 875,
      "alur": 876,
      "ĠBarcl": 877,
      "ĠSab": 878,
      "ilib": 879,
      "enie": 880,
      "INT": 881,
      "lia": 882,
      "ĠAp": 883,
      "ije": 884,
      "Keyboard": 885,
      "brevi": 886,
      "Ġwarm": 887,
      "ĠFerr": 888,
      "Ġconf": 889,
      "Ġest": 890,
      "cor": 891,
      "quam": 892,
      "ayan": 893,
      "ska": 894,
      "ĠHer": 895,
      "ulin": 896,
      "Mov": 897,
      "iros": 898,
      "orum": 899,
      "Route": 900,
      "iyet": 901,
      "has": 902,
      "iller": 903,
      "azi": 904,
      "sql": 905,
      "Ġet": 906,
      "abs": 907,
      "sman": 908,
      "ME": 909,
      "Aud": 910,
      "Case": 911,
      "eman": 912,
      "ĠMain": 913,
      "Ġbe": 914,
      "uchi": 915,
      "zym": 916,
      "orrh": 917,
      "ikum": 918,
      "Ġfile": 919,
      "jel": 920,
      "ĠsubTest": 921,
      "olds": 922,
      "elf": 923,
      "RAN": 924,
      "ĠMa": 925,
      "Ġrup": 926,
      "ements": 927,
      "Ġeg": 928,
      "Percent": 929,
      "lt": 930,
      "QL": 931,
      "uang": 932,
      "Document": 933,
      "Product": 934,
      "ĠFair": 935,
      "Ġatth": 936,
      "ewer": 937,
      "Ġodp": 938,
      "Ġcin": 939,
      "Ac": 940,
      "Ġtem": 941,
      "iner": 942,
      "ators": 943,
      "asp": 944,
      "Ġmet": 945,
      "Ġbo": 946,
      "GA": 947,
      "ĠHein": 948,
      "ube": 949,
      "ĠGer": 950,
      "Ġmod": 951,
      "ehen": 952,
      "wen": 953,
      "erre": 954,
      "Ġaff": 955,
      "kk": 956,
      "arra": 957,
      "ĠGro": 958,
      "cd": 959,
      "inh": 960,
      "ĠLut": 961,
      "aste": 962,
      "aries": 963,
      "ograph": 964,
      "spl": 965,
      "DF": 966,
      "onda": 967,
      "aris": 968,
      "vach": 969,
      "wt": 970,
      "iper": 971,
      "olt": 972,
      "Pass": 973,
      "ieht": 974,
      "atin": 975,
      "elo": 976,
      "ĠCam": 977,
      "aneu": 978,
      "ramework": 979,
      "ission": 980,
      "ryl": 981,
      "XY": 982,
      "ĠAss": 983,
      "We": 984,
      "ĠRad": 985,
      "rach": 986,
      "ĠEng": 987,
      "rik": 988,
      "Navigator": 989,
      "ĠHaw": 990,
      "ruff": 991,
      "webElement": 992,
      "ermi": 993,
      "Tree": 994,
      "inden": 995,
      "Ġdev": 996,
      "unct": 997,
      "stat": 998,
      "Ġmit": 999,
      "ofar": 1000,
      "iser": 1001,
      "arin": 1002,
      "ongo": 1003,
      "ĠSur": 1004,
      "igan": 1005,
      "yloxy": 1006,
      "col": 1007,
      "Area": 1008,
      "align": 1009,
      "lands": 1010,
      "sun": 1011,
      "ibb": 1012,
      "phal": 1013,
      "YPE": 1014,
      "romo": 1015,
      "iko": 1016,
      "Each": 1017,
      "Unit": 1018,
      "write": 1019,
      "Kind": 1020,
      "ĠMal": 1021,
      "Core": 1022,
      "If": 1023,
      "VP": 1024,
      "ĠUl": 1025,
      "adam": 1026,
      "Ab": 1027,
      "ĠPet": 1028,
      "ells": 1029,
      "ky": 1030,
      "feit": 1031,
      "Ġart": 1032,
      "def": 1033,
      "iph": 1034,
      "ool": 1035,
      "ĠBrit": 1036,
      "Cap": 1037,
      "Ġoct": 1038,
      "atts": 1039,
      "ela": 1040,
      "rex": 1041,
      "nown": 1042,
      "Ġand": 1043,
      "lis": 1044,
      "Ġid": 1045,
      "rypt": 1046,
      "olid": 1047,
      "hens": 1048,
      "ĠFA": 1049,
      "list": 1050,
      "Grid": 1051,
      "ucleaires": 1052,
      "UE": 1053,
      "umble": 1054,
      "LAG": 1055,
      "Ap": 1056,
      "agger": 1057,
      "etz": 1058,
      "ysz": 1059,
      "posit": 1060,
      "Preview": 1061,
      "greg": 1062,
      "Pane": 1063,
      "ĠSL": 1064,
      "owe": 1065,
      "ubs": 1066,
      "urk": 1067,
      "angs": 1068,
      "rote": 1069,
      "oku": 1070,
      "Ġauto": 1071,
      "ising": 1072,
      "Ġrealiz": 1073,
      "Drop": 1074,
      "Ġmar": 1075,
      "0x": 1076,
      "<0x": 1077,
      "Ġcond": 1078,
      "ĠWill": 1079,
      "etic": 1080,
      "RGB": 1081,
      "IK": 1082,
      "resh": 1083,
      "ĠGab": 1084,
      "iffer": 1085,
      "Ġther": 1086,
      "Rx": 1087,
      "RxDocument": 1088,
      "Ġatt": 1089,
      "rict": 1090,
      "comstock": 1091,
      "ĠSRP": 1092,
      "Asp": 1093,
      "icle": 1094,
      "ahl": 1095,
      "ekt": 1096,
      "Support": 1097,
      "chn": 1098,
      "agon": 1099,
      "Ġbre": 1100,
      "ĠYam": 1101,
      "kinson": 1102,
      "ĠMaj": 1103,
      "Ġnov": 1104,
      "phenyl": 1105,
      "Ġbeg": 1106,
      "ĠAug": 1107,
      "thorax": 1108,
      "igation": 1109,
      "Events": 1110,
      "rane": 1111,
      "ToProps": 1112,
      "iddle": 1113,
      "ĠBal": 1114,
      "anes": 1115,
      "ĠFitz": 1116,
      "erial": 1117,
      "illus": 1118,
      "Concept": 1119,
      "YY": 1120,
      "Ġtw": 1121,
      "Ġmand": 1122,
      "Graph": 1123,
      "ĠPad": 1124,
      "beat": 1125,
      "ATIV": 1126,
      "Perm": 1127,
      "ophor": 1128,
      "xx": 1129,
      "http": 1130,
      "rington": 1131,
      "follow": 1132,
      "ĠBern": 1133,
      "Ġrev": 1134,
      "agin": 1135,
      "uana": 1136,
      "Ġla": 1137,
      "illon": 1138,
      "Ġneg": 1139,
      "aved": 1140,
      "isms": 1141,
      "Ent": 1142,
      "Ġhalf": 1143,
      "cup": 1144,
      "Ġped": 1145,
      "expr": 1146,
      "Ġcele": 1147,
      "Ġgacch": 1148,
      "oe": 1149,
      "onom": 1150,
      "Ġfast": 1151,
      "Compl": 1152,
      "ermin": 1153,
      "ĠLiv": 1154,
      "hook": 1155,
      "Edit": 1156,
      "She": 1157,
      "Choice": 1158,
      "Ġju": 1159,
      "Root": 1160,
      "acet": 1161,
      "Ġport": 1162,
      "iot": 1163,
      "anche": 1164,
      "Trans": 1165,
      "ĠKais": 1166,
      "imiz": 1167,
      "Br": 1168,
      "GT": 1169,
      "XYZ": 1170,
      "Ġsob": 1171,
      "wan": 1172,
      "exec": 1173,
      "irth": 1174,
      "Matrix": 1175,
      "Dispatch": 1176,
      "ommod": 1177,
      "SL": 1178,
      "ently": 1179,
      "Shape": 1180,
      "cul": 1181,
      "ĠCyr": 1182,
      "iat": 1183,
      "arded": 1184,
      "etr": 1185,
      "onna": 1186,
      "yer": 1187,
      "ikut": 1188,
      "iert": 1189,
      "Ġbas": 1190,
      "idget": 1191,
      "ĠBog": 1192,
      "offset": 1193,
      "uge": 1194,
      "ympt": 1195,
      "Lua": 1196,
      "plot": 1197,
      "method": 1198,
      "egu": 1199,
      "corr": 1200,
      "BU": 1201,
      "Ġinst": 1202,
      "thol": 1203,
      "iary": 1204,
      "rek": 1205,
      "esz": 1206,
      "ctivity": 1207,
      "sie": 1208,
      "bib": 1209,
      "Ġtro": 1210,
      "II": 1211,
      "SH": 1212,
      "Ġwa": 1213,
      "ĠLak": 1214,
      "quare": 1215,
      "ried": 1216,
      "icles": 1217,
      "ĠPe": 1218,
      "anvas": 1219,
      "obe": 1220,
      "BR": 1221,
      "ateral": 1222,
      "ĠPro": 1223,
      "nego": 1224,
      "ĠEug": 1225,
      "adal": 1226,
      "Ġfe": 1227,
      "rig": 1228,
      "Base": 1229,
      "Column": 1230,
      "ydro": 1231,
      "unes": 1232,
      "sor": 1233,
      "erecht": 1234,
      "iran": 1235,
      "Ġall": 1236,
      "ĠDown": 1237,
      "apsed": 1238,
      "jal": 1239,
      "urity": 1240,
      "DM": 1241,
      "Factory": 1242,
      "Ġbase": 1243,
      "okat": 1244,
      "etto": 1245,
      "ĠDod": 1246,
      "Before": 1247,
      "IZ": 1248,
      "param": 1249,
      "Platform": 1250,
      "iber": 1251,
      "asus": 1252,
      "Ġdep": 1253,
      "ĠDh": 1254,
      "Ġyath": 1255,
      "iven": 1256,
      "ĠAugust": 1257,
      "itten": 1258,
      "Ġnaj": 1259,
      "itim": 1260,
      "Arch": 1261,
      "hatu": 1262,
      "imet": 1263,
      "yb": 1264,
      "anne": 1265,
      "then": 1266,
      "namefont": 1267,
      "Canvas": 1268,
      "udan": 1269,
      "mund": 1270,
      "evel": 1271,
      "opy": 1272,
      "mont": 1273,
      "ullam": 1274,
      "post": 1275,
      "rade": 1276,
      "CTOR": 1277,
      "Background": 1278,
      "Sort": 1279,
      "Ġphot": 1280,
      "Enc": 1281,
      "ĠOl": 1282,
      "Space": 1283,
      "ĠlocalVar": 1284,
      "ottom": 1285,
      "ĠViv": 1286,
      "ublic": 1287,
      "game": 1288,
      "ĠNP": 1289,
      "oja": 1290,
      "ARR": 1291,
      "Folder": 1292,
      "cest": 1293,
      "Texture": 1294,
      "dd": 1295,
      "organ": 1296,
      "ivo": 1297,
      "Level": 1298,
      "erme": 1299,
      "adis": 1300,
      "Ġdob": 1301,
      "Activity": 1302,
      "engu": 1303,
      "encent": 1304,
      "ASE": 1305,
      "ĠPel": 1306,
      "ungan": 1307,
      "arbox": 1308,
      "ELE": 1309,
      "ĠBo": 1310,
      "ipe": 1311,
      "ĠIN": 1312,
      "ĠKey": 1313,
      "ousse": 1314,
      "Scale": 1315,
      "ELEASE": 1316,
      "Ġitem": 1317,
      "rech": 1318,
      "eben": 1319,
      "SrvGroup": 1320,
      "rij": 1321,
      "Tmp": 1322,
      "ĠSpring": 1323,
      "Ġconsequ": 1324,
      "ential": 1325,
      "cel": 1326,
      "ple": 1327,
      "odh": 1328,
      "time": 1329,
      "ept": 1330,
      "Ġaliqu": 1331,
      "www": 1332,
      "wwwpond": 1333,
      "ento": 1334,
      "Ġlib": 1335,
      "Ġdrag": 1336,
      "andl": 1337,
      "ctx": 1338,
      "Post": 1339,
      "Ġmultic": 1340,
      "iam": 1341,
      "Match": 1342,
      "CPP": 1343,
      "ĠInput": 1344,
      "ĠKish": 1345,
      "AI": 1346,
      "Ġlab": 1347,
      "ĠPap": 1348,
      "antile": 1349,
      "urry": 1350,
      "erton": 1351,
      "ĠMH": 1352,
      "gd": 1353,
      "RAM": 1354,
      "loud": 1355,
      "uses": 1356,
      "ARG": 1357,
      "max": 1358,
      "cos": 1359,
      "ĠJac": 1360,
      "dis": 1361,
      "Package": 1362,
      "Idle": 1363,
      "vm": 1364,
      "IdleSync": 1365,
      "Pkg": 1366,
      "ParaPkg": 1367,
      "lus": 1368,
      "ĠBrid": 1369,
      "Ġrh": 1370,
      "dam": 1371,
      "uman": 1372,
      "aras": 1373,
      "Ġlu": 1374,
      "Ġgah": 1375,
      "nah": 1376,
      "ALL": 1377,
      "otlin": 1378,
      "icture": 1379,
      "Ġsac": 1380,
      "henium": 1381,
      "iom": 1382,
      "buf": 1383,
      "ĠHeid": 1384,
      "fu": 1385,
      "Ġtran": 1386,
      "awks": 1387,
      "Take": 1388,
      "ship": 1389,
      "ĠWat": 1390,
      "feat": 1391,
      "ENUM": 1392,
      "NewUrl": 1393,
      "formed": 1394,
      "Ġgahet": 1395,
      "Ġmicro": 1396,
      "ĠhalfCanvas": 1397,
      "amos": 1398,
      "Ġmem": 1399,
      "omes": 1400,
      "ĠAv": 1401,
      "ershire": 1402,
      "usp": 1403,
      "ĠVen": 1404,
      "arlene": 1405,
      "MethodBeat": 1406,
      "mit": 1407,
      "coprote": 1408,
      "Ġanis": 1409,
      "gn": 1410,
      "Raw": 1411,
      "Ġneutral": 1412,
      "Ġgol": 1413,
      "ĠPat": 1414,
      "Ġmorph": 1415,
      "ĠMerc": 1416,
      "aric": 1417,
      "enny": 1418,
      "ĠAst": 1419,
      "job": 1420,
      "enia": 1421,
      "osin": 1422,
      "apped": 1423,
      "Do": 1424,
      "sten": 1425,
      "ĠMod": 1426,
      "ober": 1427,
      "OCC": 1428,
      "Point": 1429,
      "aniy": 1430,
      "uo": 1431,
      "rar": 1432,
      "NN": 1433,
      "alg": 1434,
      "size": 1435,
      "fill": 1436,
      "Ġsett": 1437,
      "Ġinterview": 1438,
      "Ġsle": 1439,
      "enth": 1440,
      "ĠBang": 1441,
      "abbo": 1442,
      "ĠPfe": 1443,
      "FER": 1444,
      "ago": 1445,
      "tin": 1446,
      "Ġus": 1447,
      "otherm": 1448,
      "esting": 1449,
      "WMN": 1450,
      "sz": 1451,
      "atory": 1452,
      "hed": 1453,
      "orman": 1454,
      "Put": 1455,
      "alaikum": 1456,
      "ĠPear": 1457,
      "orrent": 1458,
      "ehyde": 1459,
      "ordon": 1460,
      "EE": 1461,
      "ĠCov": 1462,
      "VOA": 1463,
      "lr": 1464,
      "ilian": 1465,
      "lef": 1466,
      "ungk": 1467,
      "StructOf": 1468,
      "ĠPay": 1469,
      "ycle": 1470,
      "iente": 1471,
      "jug": 1472,
      "ĠMcM": 1473,
      "Archive": 1474,
      "curs": 1475,
      "Left": 1476,
      "stm": 1477,
      "keit": 1478,
      "ified": 1479,
      "egen": 1480,
      "inter": 1481,
      "Pressed": 1482,
      "piece": 1483,
      "bed": 1484,
      "ĠLD": 1485,
      "ilon": 1486,
      "erat": 1487,
      "Ġrepet": 1488,
      "band": 1489,
      "ued": 1490,
      "utte": 1491,
      "LAN": 1492,
      "ohl": 1493,
      "burn": 1494,
      "<UNK>": 1495
    },
    "old_vocab": {
      "!": 0,
      "\"": 1,
      "#": 2,
      "$": 3,
      "%": 4,
      "&": 5,
      "'": 6,
      "(": 7,
      ")": 8,
      "*": 9,
      "+": 10,
      ",": 11,
      "-": 12,
      ".": 13,
      "/": 14,
      "0": 15,
      "1": 16,
      "2": 17,
      "3": 18,
      "4": 19,
      "5": 20,
      "6": 21,
      "7": 22,
      "8": 23,
      "9": 24,
      ":": 25,
      ";": 26,
      "<": 27,
      "=": 28,
      ">": 29,
      "?": 30,
      "@": 31,
      "A": 32,
      "B": 33,
      "C": 34,
      "D": 35,
      "E": 36,
      "F": 37,
      "G": 38,
      "H": 39,
      "I": 40,
      "J": 41,
      "K": 42,
      "L": 43,
      "M": 44,
      "N": 45,
      "O": 46,
      "P": 47,
      "Q": 48,
      "R": 49,
      "S": 50,
      "T": 51,
      "U": 52,
      "V": 53,
      "W": 54,
      "X": 55,
      "Y": 56,
      "Z": 57,
      "[": 58,
      "\\": 59,
      "]": 60,
      "^": 61,
      "_": 62,
      "`": 63,
      "a": 64,
      "b": 65,
      "c": 66,
      "d": 67,
      "e": 68,
      "f": 69,
      "g": 70,
      "h": 71,
      "i": 72,
      "j": 73,
      "k": 74,
      "l": 75,
      "m": 76,
      "n": 77,
      "o": 78,
      "p": 79,
      "q": 80,
      "r": 81,
      "s": 82,
      "t": 83,
      "u": 84,
      "v": 85,
      "w": 86,
      "x": 87,
      "y": 88,
      "z": 89,
      "{": 90,
      "|": 91,
      "}": 92,
      "~": 93,
      "¡": 94,
      "¢": 95,
      "£": 96,
      "¤": 97,
      "¥": 98,
      "¦": 99,
      "§": 100,
      "¨": 101,
      "©": 102,
      "ª": 103,
      "«": 104,
      "¬": 105,
      "®": 106,
      "¯": 107,
      "°": 108,
      "±": 109,
      "²": 110,
      "³": 111,
      "´": 112,
      "µ": 113,
      "¶": 114,
      "·": 115,
      "¸": 116,
      "¹": 117,
      "º": 118,
      "»": 119,
      "¼": 120,
      "½": 121,
      "¾": 122,
      "¿": 123,
      "À": 124,
      "Á": 125,
      "Â": 126,
      "Ã": 127,
      "Ä": 128,
      "Å": 129,
      "Æ": 130,
      "Ç": 131,
      "È": 132,
      "É": 133,
      "Ê": 134,
      "Ë": 135,
      "Ì": 136,
      "Í": 137,
      "Î": 138,
      "Ï": 139,
      "Ð": 140,
      "Ñ": 141,
      "Ò": 142,
      "Ó": 143,
      "Ô": 144,
      "Õ": 145,
      "Ö": 146,
      "×": 147,
      "Ø": 148,
      "Ù": 149,
      "Ú": 150,
      "Û": 151,
      "Ü": 152,
      "Ý": 153,
      "Þ": 154,
      "ß": 155,
      "à": 156,
      "á": 157,
      "â": 158,
      "ã": 159,
      "ä": 160,
      "å": 161,
      "æ": 162,
      "ç": 163,
      "è": 164,
      "é": 165,
      "ê": 166,
      "ë": 167,
      "ì": 168,
      "í": 169,
      "î": 170,
      "ï": 171,
      "ð": 172,
      "ñ": 173,
      "ò": 174,
      "ó": 175,
      "ô": 176,
      "õ": 177,
      "ö": 178,
      "÷": 179,
      "ø": 180,
      "ù": 181,
      "ú": 182,
      "û": 183,
      "ü": 184,
      "ý": 185,
      "þ": 186,
      "ÿ": 187,
      "Ā": 188,
      "ā": 189,
      "Ă": 190,
      "ă": 191,
      "Ą": 192,
      "ą": 193,
      "Ć": 194,
      "ć": 195,
      "Ĉ": 196,
      "ĉ": 197,
      "Ċ": 198,
      "ċ": 199,
      "Č": 200,
      "č": 201,
      "Ď": 202,
      "ď": 203,
      "Đ": 204,
      "đ": 205,
      "Ē": 206,
      "ē": 207,
      "Ĕ": 208,
      "ĕ": 209,
      "Ė": 210,
      "ė": 211,
      "Ę": 212,
      "ę": 213,
      "Ě": 214,
      "ě": 215,
      "Ĝ": 216,
      "ĝ": 217,
      "Ğ": 218,
      "ğ": 219,
      "Ġ": 220,
      "ġ": 221,
      "Ģ": 222,
      "ģ": 223,
      "Ĥ": 224,
      "ĥ": 225,
      "Ħ": 226,
      "ħ": 227,
      "Ĩ": 228,
      "ĩ": 229,
      "Ī": 230,
      "ī": 231,
      "Ĭ": 232,
      "ĭ": 233,
      "Į": 234,
      "į": 235,
      "İ": 236,
      "ı": 237,
      "Ĳ": 238,
      "ĳ": 239,
      "Ĵ": 240,
      "ĵ": 241,
      "Ķ": 242,
      "ķ": 243,
      "ĸ": 244,
      "Ĺ": 245,
      "ĺ": 246,
      "Ļ": 247,
      "ļ": 248,
      "Ľ": 249,
      "ľ": 250,
      "Ŀ": 251,
      "ŀ": 252,
      "Ł": 253,
      "ł": 254,
      "Ń": 255,
      "er": 256,
      "an": 257,
      "in": 258,
      "en": 259,
      "on": 260,
      "ar": 261,
      "at": 262,
      "es": 263,
      "al": 264,
      "or": 265,
      "et": 266,
      "it": 267,
      "st": 268,
      "le": 269,
      "ic": 270,
      "el": 271,
      "ed": 272,
      "ch": 273,
      "am": 274,
      "ro": 275,
      "is": 276,
      "re": 277,
      "ad": 278,
      "Ġs": 279,
      "Ġp": 280,
      "un": 281,
      "il": 282,
      "ĠS": 283,
      "as": 284,
      "ing": 285,
      "ut": 286,
      "ĠC": 287,
      "ent": 288,
      "ol": 289,
      "ur": 290,
      "ĠM": 291,
      "us": 292,
      "ĠB": 293,
      "ra": 294,
      "ion": 295,
      "Ġc": 296,
      "id": 297,
      "Ġd": 298,
      "ĠP": 299,
      "ul": 300,
      "im": 301,
      "Ġt": 302,
      "Ġm": 303,
      "om": 304,
      "ĠA": 305,
      "ac": 306,
      "ag": 307,
      "em": 308,
      "ab": 309,
      "ĠD": 310,
      "os": 311,
      "ot": 312,
      "um": 313,
      "ig": 314,
      "ct": 315,
      "od": 316,
      "Ġb": 317,
      "ri": 318,
      "ĠT": 319,
      "ĠG": 320,
      "ĠR": 321,
      "ĠH": 322,
      "ap": 323,
      "ie": 324,
      "ak": 325,
      "oc": 326,
      "ir": 327,
      "ĠN": 328,
      "est": 329,
      "ĠL": 330,
      "ay": 331,
      "ow": 332,
      "Ġf": 333,
      "ĠE": 334,
      "Ġg": 335,
      "ex": 336,
      "op": 337,
      "Ġv": 338,
      "Ġh": 339,
      "and": 340,
      "th": 341,
      "ia": 342,
      "ĠK": 343,
      "ce": 344,
      "qu": 345,
      "Ġn": 346,
      "iv": 347,
      "ĠF": 348,
      "ate": 349,
      "av": 350,
      "ers": 351,
      "ĠW": 352,
      "ang": 353,
      "ation": 354,
      "og": 355,
      "Ġl": 356,
      "ant": 357,
      "In": 358,
      "ik": 359,
      "ov": 360,
      "ah": 361,
      "ec": 362,
      "eg": 363,
      "Ġk": 364,
      "ist": 365,
      "end": 366,
      "ub": 367,
      "ud": 368,
      "ter": 369,
      "ff": 370,
      "ine": 371,
      "ont": 372,
      "St": 373,
      "ob": 374,
      "ib": 375,
      "Ġr": 376,
      "up": 377,
      "ip": 378,
      "ton": 379,
      "ess": 380,
      "ath": 381,
      "iz": 382,
      "ian": 383,
      "ey": 384,
      "ell": 385,
      "ug": 386,
      "ect": 387,
      "ĠV": 388,
      "ĠI": 389,
      "ind": 390,
      "ard": 391,
      "ly": 392,
      "ert": 393,
      "ast": 394,
      "ĠJ": 395,
      "pe": 396,
      "ord": 397,
      "ph": 398,
      "ok": 399,
      "get": 400,
      "ill": 401,
      "Ġw": 402,
      "pt": 403,
      "art": 404,
      "ue": 405,
      "Ġre": 406,
      "uc": 407,
      "ne": 408,
      "ht": 409,
      "yl": 410,
      "age": 411,
      "Ġin": 412,
      "ĠU": 413,
      "ĠO": 414,
      "if": 415,
      "eb": 416,
      "te": 417,
      "ass": 418,
      "io": 419,
      "se": 420,
      "au": 421,
      "ung": 422,
      "all": 423,
      "ev": 424,
      "und": 425,
      "ek": 426,
      "ef": 427,
      "ep": 428,
      "ox": 429,
      "able": 430,
      "ile": 431,
      "ens": 432,
      "uk": 433,
      "aw": 434,
      "Ġst": 435,
      "Ġj": 436,
      "ext": 437,
      "ata": 438,
      "erm": 439,
      "ack": 440,
      "he": 441,
      "ult": 442,
      "out": 443,
      "ĠCh": 444,
      "set": 445,
      "int": 446,
      "ity": 447,
      "az": 448,
      "ew": 449,
      "ial": 450,
      "pl": 451,
      "ach": 452,
      "our": 453,
      "ies": 454,
      "ym": 455,
      "rop": 456,
      "ran": 457,
      "ou": 458,
      "sk": 459,
      "aj": 460,
      "ort": 461,
      "Ġch": 462,
      "ick": 463,
      "ame": 464,
      "ock": 465,
      "Ġa": 466,
      "ry": 467,
      "ann": 468,
      "Ġun": 469,
      "ost": 470,
      "ai": 471,
      "cl": 472,
      "Ġcon": 473,
      "sh": 474,
      "son": 475,
      "ĠMc": 476,
      "att": 477,
      "ive": 478,
      "pr": 479,
      "ust": 480,
      "ject": 481,
      "ment": 482,
      "iew": 483,
      "her": 484,
      "iel": 485,
      "yn": 486,
      "ll": 487,
      "ous": 488,
      "per": 489,
      "ele": 490,
      "ya": 491,
      "ier": 492,
      "ode": 493,
      "ype": 494,
      "ain": 495,
      "add": 496,
      "unt": 497,
      "erv": 498,
      "are": 499,
      "put": 500,
      "to": 501,
      "na": 502,
      "ich": 503,
      "ij": 504,
      "ish": 505,
      "ER": 506,
      "ong": 507,
      "eng": 508,
      "ite": 509,
      "lo": 510,
      "ax": 511,
      "ign": 512,
      "ond": 513,
      "Cont": 514,
      "sp": 515,
      "ring": 516,
      "pp": 517,
      "ber": 518,
      "ane": 519,
      "ull": 520,
      "ati": 521,
      "ore": 522,
      "ice": 523,
      "Val": 524,
      "ez": 525,
      "Ar": 526,
      "ire": 527,
      "ure": 528,
      "Ch": 529,
      "Ob": 530,
      "rom": 531,
      "ary": 532,
      "ild": 533,
      "ide": 534,
      "omp": 535,
      "To": 536,
      "man": 537,
      "ron": 538,
      "ash": 539,
      "ated": 540,
      "ST": 541,
      "oh": 542,
      "ru": 543,
      "ft": 544,
      "res": 545,
      "ime": 546,
      "ink": 547,
      "ett": 548,
      "Ġz": 549,
      "sc": 550,
      "ĠSh": 551,
      "iss": 552,
      "ight": 553,
      "nd": 554,
      "ana": 555,
      "err": 556,
      "ield": 557,
      "Ġpro": 558,
      "ark": 559,
      "enc": 560,
      "Object": 561,
      "Type": 562,
      "ge": 563,
      "ith": 564,
      "Con": 565,
      "ern": 566,
      "ize": 567,
      "Ġsp": 568,
      "eth": 569,
      "ere": 570,
      "own": 571,
      "ID": 572,
      "les": 573,
      "eh": 574,
      "Par": 575,
      "iy": 576,
      "tr": 577,
      "Cl": 578,
      "Ġe": 579,
      "orm": 580,
      "itt": 581,
      "ins": 582,
      "ene": 583,
      "View": 584,
      "ray": 585,
      "OR": 586,
      "Value": 587,
      "erc": 588,
      "oll": 589,
      "ley": 590,
      "oy": 591,
      "ON": 592,
      "ham": 593,
      "Ġle": 594,
      "Ġpr": 595,
      "ors": 596,
      "ale": 597,
      "AR": 598,
      "Res": 599,
      "ons": 600,
      "ma": 601,
      "co": 602,
      "EN": 603,
      "ium": 604,
      "UR": 605,
      "rr": 606,
      "Ġim": 607,
      "List": 608,
      "ka": 609,
      "IC": 610,
      "oj": 611,
      "ace": 612,
      "ient": 613,
      "Ex": 614,
      "ho": 615,
      "ss": 616,
      "ical": 617,
      "row": 618,
      "ction": 619,
      "tt": 620,
      "ina": 621,
      "ĠY": 622,
      "IN": 623,
      "Ġth": 624,
      "Path": 625,
      "old": 626,
      "ver": 627,
      "we": 628,
      "AN": 629,
      "ĠAr": 630,
      "act": 631,
      "ence": 632,
      "Pro": 633,
      "olor": 634,
      "ys": 635,
      "que": 636,
      "rit": 637,
      "SC": 638,
      "utton": 639,
      "ase": 640,
      "enn": 641,
      "ato": 642,
      "no": 643,
      "arg": 644,
      "ler": 645,
      "ram": 646,
      "Err": 647,
      "ĠSt": 648,
      "cept": 649,
      "ead": 650,
      "ni": 651,
      "one": 652,
      "ĠZ": 653,
      "atch": 654,
      "Ġqu": 655,
      "Ġex": 656,
      "Ġab": 657,
      "ald": 658,
      "Ġsc": 659,
      "ck": 660,
      "ole": 661,
      "tem": 662,
      "CC": 663,
      "Id": 664,
      "ood": 665,
      "ush": 666,
      "omm": 667,
      "sch": 668,
      "LE": 669,
      "Ġpl": 670,
      "Name": 671,
      "ans": 672,
      "ĠQ": 673,
      "Error": 674,
      "ee": 675,
      "oz": 676,
      "rent": 677,
      "bo": 678,
      "ric": 679,
      "ser": 680,
      "ance": 681,
      "of": 682,
      "ix": 683,
      "erg": 684,
      "ail": 685,
      "Data": 686,
      "Im": 687,
      "ari": 688,
      "Ġdis": 689,
      "ank": 690,
      "AL": 691,
      "app": 692,
      "Ġad": 693,
      "arl": 694,
      "CT": 695,
      "Sc": 696,
      "yd": 697,
      "anc": 698,
      "ado": 699,
      "ini": 700,
      "AT": 701,
      "Key": 702,
      "Ġal": 703,
      "uf": 704,
      "amp": 705,
      "Ġsub": 706,
      "yt": 707,
      "Comp": 708,
      "rid": 709,
      "uff": 710,
      "ĠSch": 711,
      "led": 712,
      "Serv": 713,
      "ĠAl": 714,
      "Button": 715,
      "ement": 716,
      "emb": 717,
      "SE": 718,
      "ret": 719,
      "ani": 720,
      "ait": 721,
      "Text": 722,
      "sl": 723,
      "ĠIn": 724,
      "af": 725,
      "orn": 726,
      "rav": 727,
      "arr": 728,
      "gen": 729,
      "AM": 730,
      "ator": 731,
      "fo": 732,
      "Ġy": 733,
      "equ": 734,
      "hen": 735,
      "ais": 736,
      "land": 737,
      "amb": 738,
      "SP": 739,
      "ings": 740,
      "val": 741,
      "IT": 742,
      "Size": 743,
      "yp": 744,
      "ear": 745,
      "eter": 746,
      "Array": 747,
      "String": 748,
      "ada": 749,
      "ford": 750,
      "air": 751,
      "RE": 752,
      "inn": 753,
      "iti": 754,
      "Item": 755,
      "ien": 756,
      "ions": 757,
      "esh": 758,
      "Co": 759,
      "SA": 760,
      "ren": 761,
      "Param": 762,
      "By": 763,
      "Of": 764,
      "ugh": 765,
      "ade": 766,
      "ott": 767,
      "Ġget": 768,
      "con": 769,
      "Ġsh": 770,
      "RP": 771,
      "kan": 772,
      "eck": 773,
      "inc": 774,
      "ein": 775,
      "cc": 776,
      "uj": 777,
      "utt": 778,
      "BS": 779,
      "ict": 780,
      "era": 781,
      "ica": 782,
      "over": 783,
      "Context": 784,
      "CS": 785,
      "ĠBl": 786,
      "ng": 787,
      "uss": 788,
      "yc": 789,
      "eat": 790,
      "vent": 791,
      "Ġpar": 792,
      "nt": 793,
      "ps": 794,
      "ory": 795,
      "rib": 796,
      "unc": 797,
      "ara": 798,
      "umb": 799,
      "oth": 800,
      "ke": 801,
      "Int": 802,
      "ics": 803,
      "onent": 804,
      "uth": 805,
      "urrent": 806,
      "arm": 807,
      "urs": 808,
      "ql": 809,
      "ena": 810,
      "uch": 811,
      "ger": 812,
      "lement": 813,
      "Pl": 814,
      "yst": 815,
      "ego": 816,
      "Field": 817,
      "Ġan": 818,
      "Ġen": 819,
      "Image": 820,
      "iro": 821,
      "ora": 822,
      "isc": 823,
      "osit": 824,
      "File": 825,
      "AC": 826,
      "ute": 827,
      "PS": 828,
      "ira": 829,
      "App": 830,
      "reate": 831,
      "reen": 832,
      "ih": 833,
      "roup": 834,
      "ama": 835,
      "Ġac": 836,
      "ze": 837,
      "ĠGu": 838,
      "ager": 839,
      "use": 840,
      "ater": 841,
      "CP": 842,
      "va": 843,
      "ala": 844,
      "Ġdes": 845,
      "str": 846,
      "Mod": 847,
      "Ġsl": 848,
      "ve": 849,
      "uto": 850,
      "umber": 851,
      "fl": 852,
      "Ġar": 853,
      "off": 854,
      "Ġap": 855,
      "Get": 856,
      "che": 857,
      "DA": 858,
      "uy": 859,
      "Ġset": 860,
      "ism": 861,
      "den": 862,
      "atth": 863,
      "ery": 864,
      "ĠX": 865,
      "Ġrec": 866,
      "Time": 867,
      "als": 868,
      "me": 869,
      "equest": 870,
      "Man": 871,
      "kh": 872,
      "roll": 873,
      "ress": 874,
      "IA": 875,
      "ise": 876,
      "State": 877,
      "par": 878,
      "ament": 879,
      "Ġper": 880,
      "dex": 881,
      "IS": 882,
      "po": 883,
      "ner": 884,
      "ille": 885,
      "urn": 886,
      "PC": 887,
      "itz": 888,
      "arc": 889,
      "uz": 890,
      "ates": 891,
      "Ġro": 892,
      "ular": 893,
      "orr": 894,
      "ech": 895,
      "let": 896,
      "ius": 897,
      "rad": 898,
      "order": 899,
      "ave": 900,
      "alt": 901,
      "raw": 902,
      "anj": 903,
      "ha": 904,
      "Color": 905,
      "fe": 906,
      "Sh": 907,
      "ets": 908,
      "arb": 909,
      "orb": 910,
      "du": 911,
      "Code": 912,
      "IL": 913,
      "iff": 914,
      "oph": 915,
      "ref": 916,
      "rev": 917,
      "ose": 918,
      "Index": 919,
      "lock": 920,
      "uv": 921,
      "Char": 922,
      "ource": 923,
      "DP": 924,
      "Fl": 925,
      "ES": 926,
      "ili": 927,
      "UT": 928,
      "rist": 929,
      "Ġres": 930,
      "Ġis": 931,
      "uh": 932,
      "gl": 933,
      "bar": 934,
      "pi": 935,
      "ml": 936,
      "iter": 937,
      "Component": 938,
      "MS": 939,
      "ks": 940,
      "kt": 941,
      "ied": 942,
      "ians": 943,
      "ruct": 944,
      "ych": 945,
      "ayout": 946,
      "ree": 947,
      "IP": 948,
      "Request": 949,
      "uan": 950,
      "ld": 951,
      "Ġmen": 952,
      "yr": 953,
      "ĠTh": 954,
      "ington": 955,
      "rack": 956,
      "CH": 957,
      "ii": 958,
      "omb": 959,
      "och": 960,
      "elect": 961,
      "sub": 962,
      "Out": 963,
      "rag": 964,
      "eme": 965,
      "ux": 966,
      "Set": 967,
      "All": 968,
      "ĠAm": 969,
      "ete": 970,
      "SI": 971,
      "rim": 972,
      "Call": 973,
      "MA": 974,
      "cz": 975,
      "CA": 976,
      "fig": 977,
      "ano": 978,
      "ae": 979,
      "abb": 980,
      "ao": 981,
      "rol": 982,
      "form": 983,
      "sw": 984,
      "Ġcont": 985,
      "ely": 986,
      "En": 987,
      "Event": 988,
      "Ref": 989,
      "ĠSc": 990,
      "Group": 991,
      "TR": 992,
      "ays": 993,
      "rans": 994,
      "go": 995,
      "ake": 996,
      "za": 997,
      "asc": 998,
      "ET": 999,
      "erd": 1000,
      "oxy": 1001,
      "Ġjed": 1002,
      "Box": 1003,
      "Ġod": 1004,
      "Action": 1005,
      "oid": 1006,
      "back": 1007,
      "yle": 1008,
      "Ġam": 1009,
      "red": 1010,
      "ros": 1011,
      "ĠLe": 1012,
      "riv": 1013,
      "ese": 1014,
      "oa": 1015,
      "ots": 1016,
      "la": 1017,
      "ork": 1018,
      "oo": 1019,
      "line": 1020,
      "Ġret": 1021,
      "Ġund": 1022,
      "aff": 1023,
      "Result": 1024,
      "UN": 1025,
      "atur": 1026,
      "Sp": 1027,
      "rt": 1028,
      "ĠCon": 1029,
      "ered": 1030,
      "Ġind": 1031,
      "indow": 1032,
      "ception": 1033,
      "Prop": 1034,
      "endo": 1035,
      "Input": 1036,
      "Manager": 1037,
      "Ġcom": 1038,
      "ĠBar": 1039,
      "Up": 1040,
      "MP": 1041,
      "Ġob": 1042,
      "rec": 1043,
      "Exception": 1044,
      "Ġant": 1045,
      "Service": 1046,
      "men": 1047,
      "ling": 1048,
      "ĠAd": 1049,
      "ump": 1050,
      "Count": 1051,
      "AG": 1052,
      "ester": 1053,
      "shire": 1054,
      "ĠEd": 1055,
      "unter": 1056,
      "uild": 1057,
      "ej": 1058,
      "Ad": 1059,
      "aya": 1060,
      "anam": 1061,
      "ios": 1062,
      "rl": 1063,
      "ĠEm": 1064,
      "Class": 1065,
      "els": 1066,
      "Ġimp": 1067,
      "ten": 1068,
      "ocal": 1069,
      "PA": 1070,
      "mer": 1071,
      "eut": 1072,
      "ower": 1073,
      "ats": 1074,
      "Layout": 1075,
      "Table": 1076,
      "ask": 1077,
      "ener": 1078,
      "uit": 1079,
      "ĠRe": 1080,
      "ars": 1081,
      "bur": 1082,
      "ĠAn": 1083,
      "TS": 1084,
      "For": 1085,
      "ocation": 1086,
      "amil": 1087,
      "Ġem": 1088,
      "idd": 1089,
      "my": 1090,
      "ione": 1091,
      "oss": 1092,
      "iqu": 1093,
      "As": 1094,
      "uck": 1095,
      "port": 1096,
      "elle": 1097,
      "ized": 1098,
      "ucle": 1099,
      "ange": 1100,
      "ule": 1101,
      "nik": 1102,
      "SM": 1103,
      "ound": 1104,
      "Ġtr": 1105,
      "ogg": 1106,
      "atic": 1107,
      "ual": 1108,
      "ility": 1109,
      "raph": 1110,
      "org": 1111,
      "ract": 1112,
      "Element": 1113,
      "ouse": 1114,
      "ette": 1115,
      "ED": 1116,
      "last": 1117,
      "pro": 1118,
      "With": 1119,
      "las": 1120,
      "Info": 1121,
      "Config": 1122,
      "DR": 1123,
      "pon": 1124,
      "ayer": 1125,
      "User": 1126,
      "anel": 1127,
      "AD": 1128,
      "lad": 1129,
      "AP": 1130,
      "Api": 1131,
      "berg": 1132,
      "iej": 1133,
      "Ġco": 1134,
      "Ġov": 1135,
      "Ġel": 1136,
      "BC": 1137,
      "Ġph": 1138,
      "ui": 1139,
      "ĠEl": 1140,
      "edi": 1141,
      "idth": 1142,
      "ino": 1143,
      "SS": 1144,
      "be": 1145,
      "icht": 1146,
      "ĠBr": 1147,
      "eader": 1148,
      "reg": 1149,
      "oto": 1150,
      "olic": 1151,
      "hi": 1152,
      "Al": 1153,
      "ome": 1154,
      "IM": 1155,
      "bit": 1156,
      "br": 1157,
      "Is": 1158,
      "unk": 1159,
      "map": 1160,
      "load": 1161,
      "cent": 1162,
      "Ġfl": 1163,
      "inal": 1164,
      "ral": 1165,
      "aut": 1166,
      "Window": 1167,
      "web": 1168,
      "iet": 1169,
      "lect": 1170,
      "CO": 1171,
      "ough": 1172,
      "EC": 1173,
      "ura": 1174,
      "ating": 1175,
      "Ġinc": 1176,
      "Ġent": 1177,
      "Ġon": 1178,
      "Ġx": 1179,
      "Ġed": 1180,
      "Ġsk": 1181,
      "wood": 1182,
      "path": 1183,
      "any": 1184,
      "SRP": 1185,
      "tn": 1186,
      "ali": 1187,
      "Ġang": 1188,
      "ior": 1189,
      "cht": 1190,
      "ski": 1191,
      "abel": 1192,
      "new": 1193,
      "IV": 1194,
      "DK": 1195,
      "Model": 1196,
      "erk": 1197,
      "Ġop": 1198,
      "ĠSal": 1199,
      "arn": 1200,
      "Test": 1201,
      "da": 1202,
      "anti": 1203,
      "PM": 1204,
      "eep": 1205,
      "uid": 1206,
      "rv": 1207,
      "ional": 1208,
      "rab": 1209,
      "Ġgr": 1210,
      "arch": 1211,
      "ENT": 1212,
      "aan": 1213,
      "ider": 1214,
      "Ġmult": 1215,
      "field": 1216,
      "ript": 1217,
      "board": 1218,
      "Ġuse": 1219,
      "aur": 1220,
      "Ph": 1221,
      "Log": 1222,
      "ulf": 1223,
      "fer": 1224,
      "ection": 1225,
      "iment": 1226,
      "Params": 1227,
      "ts": 1228,
      "ima": 1229,
      "BA": 1230,
      "oad": 1231,
      "ega": 1232,
      "ris": 1233,
      "MC": 1234,
      "udd": 1235,
      "lic": 1236,
      "ĠSp": 1237,
      "GF": 1238,
      "igh": 1239,
      "Ġint": 1240,
      "item": 1241,
      "etail": 1242,
      "erty": 1243,
      "US": 1244,
      "oke": 1245,
      "UM": 1246,
      "cal": 1247,
      "Node": 1248,
      "ible": 1249,
      "Ġdi": 1250,
      "Ġcl": 1251,
      "key": 1252,
      "ĠWil": 1253,
      "Panel": 1254,
      "enu": 1255,
      "ations": 1256,
      "olog": 1257,
      "anth": 1258,
      "OA": 1259,
      "ody": 1260,
      "ync": 1261,
      "by": 1262,
      "Ġout": 1263,
      "acter": 1264,
      "Stat": 1265,
      "kow": 1266,
      "HT": 1267,
      "leg": 1268,
      "At": 1269,
      "Map": 1270,
      "PT": 1271,
      "MD": 1272,
      "akan": 1273,
      "Ġra": 1274,
      "vert": 1275,
      "Bar": 1276,
      "sed": 1277,
      "ores": 1278,
      "emp": 1279,
      "Col": 1280,
      "bra": 1281,
      "oken": 1282,
      "je": 1283,
      "Ġbl": 1284,
      "for": 1285,
      "ĠSw": 1286,
      "ĠCl": 1287,
      "adi": 1288,
      "ĠCo": 1289,
      "CM": 1290,
      "hat": 1291,
      "iem": 1292,
      "Number": 1293,
      "ched": 1294,
      "ita": 1295,
      "mo": 1296,
      "Ġau": 1297,
      "Un": 1298,
      "icul": 1299,
      "Ġol": 1300,
      "date": 1301,
      "Start": 1302,
      "eron": 1303,
      "zy": 1304,
      "aud": 1305,
      "ny": 1306,
      "ethod": 1307,
      "ĠMcC": 1308,
      "atri": 1309,
      "CI": 1310,
      "Ġconv": 1311,
      "Or": 1312,
      "aro": 1313,
      "iri": 1314,
      "Ġmax": 1315,
      "Ġpost": 1316,
      "ils": 1317,
      "Content": 1318,
      "TE": 1319,
      "lin": 1320,
      "aa": 1321,
      "Const": 1322,
      "ercent": 1323,
      "Em": 1324,
      "IB": 1325,
      "onic": 1326,
      "ĠBur": 1327,
      "ument": 1328,
      "ponse": 1329,
      "Width": 1330,
      "ĠBh": 1331,
      "omer": 1332,
      "Ġult": 1333,
      "zt": 1334,
      "rich": 1335,
      "alk": 1336,
      "net": 1337,
      "ook": 1338,
      "aus": 1339,
      "Arg": 1340,
      "ua": 1341,
      "CE": 1342,
      "Block": 1343,
      "Date": 1344,
      "SR": 1345,
      "ms": 1346,
      "eer": 1347,
      "ido": 1348,
      "amente": 1349,
      "Ġtrans": 1350,
      "ero": 1351,
      "ona": 1352,
      "On": 1353,
      "etri": 1354,
      "Line": 1355,
      "hr": 1356,
      "Header": 1357,
      "FA": 1358,
      "ender": 1359,
      "Ġas": 1360,
      "OM": 1361,
      "Star": 1362,
      "ommand": 1363,
      "het": 1364,
      "jsk": 1365,
      "Auto": 1366,
      "Ġinter": 1367,
      "lor": 1368,
      "ĠPal": 1369,
      "its": 1370,
      "ois": 1371,
      "AS": 1372,
      "IR": 1373,
      "win": 1374,
      "Ġvol": 1375,
      "Ġer": 1376,
      "Off": 1377,
      "ative": 1378,
      "read": 1379,
      "Server": 1380,
      "imp": 1381,
      "EL": 1382,
      "Ġpot": 1383,
      "DC": 1384,
      "ialog": 1385,
      "ethyl": 1386,
      "stra": 1387,
      "IF": 1388,
      "essage": 1389,
      "Mode": 1390,
      "Output": 1391,
      "js": 1392,
      "UI": 1393,
      "osh": 1394,
      "de": 1395,
      "db": 1396,
      "utter": 1397,
      "aster": 1398,
      "CL": 1399,
      "Ġsw": 1400,
      "urt": 1401,
      "orth": 1402,
      "xc": 1403,
      "rob": 1404,
      "An": 1405,
      "Menu": 1406,
      "itor": 1407,
      "less": 1408,
      "iles": 1409,
      "aks": 1410,
      "ipp": 1411,
      "Mut": 1412,
      "Ġdec": 1413,
      "acch": 1414,
      "Ġto": 1415,
      "LO": 1416,
      "li": 1417,
      "round": 1418,
      "Ġadd": 1419,
      "ouch": 1420,
      "thor": 1421,
      "erson": 1422,
      "aki": 1423,
      "DB": 1424,
      "Pop": 1425,
      "Ġep": 1426,
      "Ġber": 1427,
      "lex": 1428,
      "Ġtest": 1429,
      "ven": 1430,
      "pen": 1431,
      "lar": 1432,
      "Ġjedn": 1433,
      "uffer": 1434,
      "ocus": 1435,
      "Ġbh": 1436,
      "der": 1437,
      "ycl": 1438,
      "ition": 1439,
      "orph": 1440,
      "icz": 1441,
      "MB": 1442,
      "box": 1443,
      "asi": 1444,
      "esp": 1445,
      "Go": 1446,
      "illa": 1447,
      "Ġsal": 1448,
      "ency": 1449,
      "atan": 1450,
      "ols": 1451,
      "ength": 1452,
      "vi": 1453,
      "Ġdef": 1454,
      "raz": 1455,
      "TA": 1456,
      "PE": 1457,
      "ami": 1458,
      "Ġag": 1459,
      "roph": 1460,
      "zo": 1461,
      "PR": 1462,
      "Url": 1463,
      "arth": 1464,
      "ING": 1465,
      "min": 1466,
      "KA": 1467,
      "edia": 1468,
      "eight": 1469,
      "TC": 1470,
      "ious": 1471,
      "aire": 1472,
      "udent": 1473,
      "ola": 1474,
      "met": 1475,
      "ities": 1476,
      "com": 1477,
      "aul": 1478,
      "Conn": 1479,
      "Nav": 1480,
      "bl": 1481,
      "ĠWh": 1482,
      "econd": 1483,
      "amera": 1484,
      "ault": 1485,
      "Av": 1486,
      "cess": 1487,
      "ymb": 1488,
      "ĠQu": 1489,
      "input": 1490,
      "Dialog": 1491,
      "Ġsm": 1492,
      "Ġsch": 1493,
      "ĠPr": 1494,
      "ĠMah": 1495,
      "Control": 1496,
      "ĠAg": 1497,
      "plic": 1498,
      "SO": 1499,
      "eli": 1500,
      "rey": 1501,
      "ĠDor": 1502,
      "ML": 1503,
      "eld": 1504,
      "well": 1505,
      "rain": 1506,
      "rap": 1507,
      "ca": 1508,
      "Ġrem": 1509,
      "ĠMcG": 1510,
      "Ġoc": 1511,
      "Qu": 1512,
      "amm": 1513,
      "IG": 1514,
      "rum": 1515,
      "Ġpal": 1516,
      "oot": 1517,
      "find": 1518,
      "ebug": 1519,
      "Bit": 1520,
      "ĠCB": 1521,
      "Ġrep": 1522,
      "Ġcurrent": 1523,
      "wa": 1524,
      "ĠKn": 1525,
      "ically": 1526,
      "ias": 1527,
      "onn": 1528,
      "Ġmil": 1529,
      "Resource": 1530,
      "uro": 1531,
      "ope": 1532,
      "raft": 1533,
      "Ġpre": 1534,
      "Response": 1535,
      "Init": 1536,
      "lu": 1537,
      "alle": 1538,
      "nya": 1539,
      "Ġapp": 1540,
      "New": 1541,
      "oi": 1542,
      "ability": 1543,
      "awa": 1544,
      "Ġnew": 1545,
      "ĠEr": 1546,
      "ĠWood": 1547,
      "ove": 1548,
      "Ġdel": 1549,
      "ukan": 1550,
      "FBS": 1551,
      "Buffer": 1552,
      "andle": 1553,
      "anz": 1554,
      "user": 1555,
      "Def": 1556,
      "eral": 1557,
      "ropri": 1558,
      "FBSDK": 1559,
      "Inter": 1560,
      "atis": 1561,
      "ream": 1562,
      "itri": 1563,
      "arget": 1564,
      "uer": 1565,
      "ava": 1566,
      "Focus": 1567,
      "van": 1568,
      "Ġsup": 1569,
      "angan": 1570,
      "Var": 1571,
      "aka": 1572,
      "ji": 1573,
      "Oper": 1574,
      "stein": 1575,
      "ĠApp": 1576,
      "ateg": 1577,
      "vis": 1578,
      "ĠBx": 1579,
      "ift": 1580,
      "imm": 1581,
      "OP": 1582,
      "Change": 1583,
      "SD": 1584,
      "Ġup": 1585,
      "ras": 1586,
      "anh": 1587,
      "apt": 1588,
      "oun": 1589,
      "Select": 1590,
      "ante": 1591,
      "Ġcreate": 1592,
      "rz": 1593,
      "cp": 1594,
      "pring": 1595,
      "acy": 1596,
      "ĠWar": 1597,
      "ever": 1598,
      "Ġmeng": 1599,
      "ĠCor": 1600,
      "ĠPh": 1601,
      "ization": 1602,
      "Ġter": 1603,
      "not": 1604,
      "ific": 1605,
      "ĠBro": 1606,
      "ector": 1607,
      "Client": 1608,
      "akt": 1609,
      "iki": 1610,
      "ila": 1611,
      "ste": 1612,
      "Ġleg": 1613,
      "Rec": 1614,
      "Page": 1615,
      "Message": 1616,
      "from": 1617,
      "AF": 1618,
      "type": 1619,
      "Ġgl": 1620,
      "ĠMan": 1621,
      "DI": 1622,
      "akkh": 1623,
      "Ġo": 1624,
      "aga": 1625,
      "Property": 1626,
      "ĠQx": 1627,
      "data": 1628,
      "Down": 1629,
      "current": 1630,
      "nal": 1631,
      "send": 1632,
      "oul": 1633,
      "TP": 1634,
      "do": 1635,
      "Ġact": 1636,
      "erence": 1637,
      "ges": 1638,
      "Ġinf": 1639,
      "vol": 1640,
      "IO": 1641,
      "alf": 1642,
      "eger": 1643,
      "igg": 1644,
      "cont": 1645,
      "ben": 1646,
      "End": 1647,
      "ster": 1648,
      "ION": 1649,
      "anyl": 1650,
      "isT": 1651,
      "erman": 1652,
      "eda": 1653,
      "ean": 1654,
      "CB": 1655,
      "ula": 1656,
      "AY": 1657,
      "uct": 1658,
      "open": 1659,
      "oma": 1660,
      "Detail": 1661,
      "ander": 1662,
      "gar": 1663,
      "Sw": 1664,
      "stit": 1665,
      "ibus": 1666,
      "ĠBe": 1667,
      "Cell": 1668,
      "aft": 1669,
      "ĠAt": 1670,
      "atha": 1671,
      "Sub": 1672,
      "kin": 1673,
      "ypes": 1674,
      "ersion": 1675,
      "DE": 1676,
      "itch": 1677,
      "cad": 1678,
      "ertex": 1679,
      "andler": 1680,
      "elly": 1681,
      "itth": 1682,
      "ages": 1683,
      "And": 1684,
      "RG": 1685,
      "ko": 1686,
      "arks": 1687,
      "oles": 1688,
      "CD": 1689,
      "tot": 1690,
      "ignment": 1691,
      "Ġev": 1692,
      "rat": 1693,
      "ww": 1694,
      "EM": 1695,
      "ĠVill": 1696,
      "down": 1697,
      "Ġcor": 1698,
      "rin": 1699,
      "ney": 1700,
      "ged": 1701,
      "yan": 1702,
      "ced": 1703,
      "MR": 1704,
      "uel": 1705,
      "ants": 1706,
      "Ġir": 1707,
      "ĠMar": 1708,
      "Ġpor": 1709,
      "sm": 1710,
      "Location": 1711,
      "ĠEn": 1712,
      "inch": 1713,
      "imb": 1714,
      "Web": 1715,
      "start": 1716,
      "older": 1717,
      "Main": 1718,
      "ando": 1719,
      "ico": 1720,
      "Att": 1721,
      "inate": 1722,
      "Ġman": 1723,
      "Ġhem": 1724,
      "Ġpat": 1725,
      "imento": 1726,
      "oder": 1727,
      "odes": 1728,
      "asm": 1729,
      "Null": 1730,
      "Ġend": 1731,
      "PP": 1732,
      "Back": 1733,
      "ues": 1734,
      "ĠAb": 1735,
      "roc": 1736,
      "yte": 1737,
      "ken": 1738,
      "TT": 1739,
      "ttp": 1740,
      "Buf": 1741,
      "nam": 1742,
      "patch": 1743,
      "Link": 1744,
      "oint": 1745,
      "ĠRock": 1746,
      "Dis": 1747,
      "ices": 1748,
      "Spr": 1749,
      "ye": 1750,
      "Ġav": 1751,
      "acc": 1752,
      "Status": 1753,
      "ĠSm": 1754,
      "ova": 1755,
      "Form": 1756,
      "ved": 1757,
      "GC": 1758,
      "icks": 1759,
      "Json": 1760,
      "LU": 1761,
      "Card": 1762,
      "enz": 1763,
      "HP": 1764,
      "ja": 1765,
      "Ġexp": 1766,
      "ĠMcK": 1767,
      "Ġmon": 1768,
      "riff": 1769,
      "ĠMon": 1770,
      "Height": 1771,
      "auc": 1772,
      "uen": 1773,
      "rip": 1774,
      "yth": 1775,
      "fs": 1776,
      "Pref": 1777,
      "earch": 1778,
      "ĠRo": 1779,
      "MN": 1780,
      "Posit": 1781,
      "qual": 1782,
      "Debug": 1783,
      "Rect": 1784,
      "rac": 1785,
      "Ed": 1786,
      "umer": 1787,
      "ĠMcD": 1788,
      "var": 1789,
      "mm": 1790,
      "Ġpay": 1791,
      "ather": 1792,
      "irt": 1793,
      "Ġkn": 1794,
      "stance": 1795,
      "Ġrel": 1796,
      "oft": 1797,
      "Ġne": 1798,
      "Ġip": 1799,
      "ally": 1800,
      "Row": 1801,
      "ella": 1802,
      "ente": 1803,
      "sb": 1804,
      "rif": 1805,
      "mp": 1806,
      "iev": 1807,
      "Ġur": 1808,
      "aps": 1809,
      "name": 1810,
      "etry": 1811,
      "text": 1812,
      "Build": 1813,
      "ĠMad": 1814,
      "ahan": 1815,
      "Ġsol": 1816,
      "Ġut": 1817,
      "oin": 1818,
      "elt": 1819,
      "TL": 1820,
      "Exp": 1821,
      "play": 1822,
      "Ġadj": 1823,
      "Find": 1824,
      "ci": 1825,
      "Ġver": 1826,
      "eta": 1827,
      "omen": 1828,
      "Sync": 1829,
      "point": 1830,
      "ison": 1831,
      "ivity": 1832,
      "awn": 1833,
      "ĠCar": 1834,
      "pty": 1835,
      "adr": 1836,
      "yk": 1837,
      "pond": 1838,
      "lay": 1839,
      "igest": 1840,
      "HDR": 1841,
      "ĠVer": 1842,
      "Ġcons": 1843,
      "itter": 1844,
      "ination": 1845,
      "Open": 1846,
      "eni": 1847,
      "From": 1848,
      "usc": 1849,
      "ĠAng": 1850,
      "ĠRx": 1851,
      "unch": 1852,
      "urb": 1853,
      "aug": 1854,
      "lob": 1855,
      "ted": 1856,
      "inu": 1857,
      "han": 1858,
      "Length": 1859,
      "ĠNew": 1860,
      "eit": 1861,
      "ĠMont": 1862,
      "ader": 1863,
      "getB": 1864,
      "ushed": 1865,
      "Method": 1866,
      "utto": 1867,
      "odel": 1868,
      "UC": 1869,
      "RC": 1870,
      "print": 1871,
      "Dec": 1872,
      "anda": 1873,
      "file": 1874,
      "ape": 1875,
      "chen": 1876,
      "ĠFl": 1877,
      "lection": 1878,
      "agn": 1879,
      "Create": 1880,
      "init": 1881,
      "HA": 1882,
      "ctive": 1883,
      "Ġcur": 1884,
      "Ġes": 1885,
      "Query": 1886,
      "Cho": 1887,
      "idaz": 1888,
      "ĠRed": 1889,
      "Ġnot": 1890,
      "igned": 1891,
      "ville": 1892,
      "Num": 1893,
      "Auth": 1894,
      "ersh": 1895,
      "hou": 1896,
      "ustom": 1897,
      "Ġimm": 1898,
      "iya": 1899,
      "sel": 1900,
      "omot": 1901,
      "lem": 1902,
      "mat": 1903,
      "Student": 1904,
      "md": 1905,
      "Ġprz": 1906,
      "way": 1907,
      "ĠOr": 1908,
      "apter": 1909,
      "Update": 1910,
      "mann": 1911,
      "ĠPar": 1912,
      "ĠUn": 1913,
      "oard": 1914,
      "iver": 1915,
      "eto": 1916,
      "Ġemb": 1917,
      "Ġpart": 1918,
      "ei": 1919,
      "SX": 1920,
      "word": 1921,
      "gu": 1922,
      "raf": 1923,
      "ollow": 1924,
      "des": 1925,
      "xy": 1926,
      "riz": 1927,
      "UL": 1928,
      "room": 1929,
      "auf": 1930,
      "Per": 1931,
      "Ġover": 1932,
      "osa": 1933,
      "Ġoff": 1934,
      "GE": 1935,
      "mi": 1936,
      "LC": 1937,
      "del": 1938,
      "rea": 1939,
      "IST": 1940,
      "cop": 1941,
      "Game": 1942,
      "riter": 1943,
      "ines": 1944,
      "allow": 1945,
      "duct": 1946,
      "VC": 1947,
      "Ġfor": 1948,
      "ĠLor": 1949,
      "ful": 1950,
      "Label": 1951,
      "ĠMart": 1952,
      "roid": 1953,
      "ĠBel": 1954,
      "una": 1955,
      "olo": 1956,
      "Ġann": 1957,
      "eal": 1958,
      "Ġbil": 1959,
      "anch": 1960,
      "draw": 1961,
      "sa": 1962,
      "press": 1963,
      "Token": 1964,
      "ume": 1965,
      "irst": 1966,
      "Ġdem": 1967,
      "under": 1968,
      "ĠHar": 1969,
      "argin": 1970,
      "Asset": 1971,
      "Ġref": 1972,
      "ĠCol": 1973,
      "elles": 1974,
      "TH": 1975,
      "obj": 1976,
      "ellen": 1977,
      "vas": 1978,
      "ribute": 1979,
      "Not": 1980,
      "Sl": 1981,
      "Tool": 1982,
      "eks": 1983,
      "Ġneut": 1984,
      "vers": 1985,
      "DS": 1986,
      "atrix": 1987,
      "Style": 1988,
      "ĠSe": 1989,
      "Attribute": 1990,
      "hav": 1991,
      "counter": 1992,
      "Ġpol": 1993,
      "emia": 1994,
      "Ġspl": 1995,
      "ains": 1996,
      "ende": 1997,
      "unn": 1998,
      "gi": 1999,
      "ides": 2000,
      "color": 2001,
      "ba": 2002,
      "ĠFre": 2003,
      "embre": 2004,
      "Position": 2005,
      "ades": 2006,
      "Ġval": 2007,
      "ulfanyl": 2008,
      "Ġq": 2009,
      "space": 2010,
      "ared": 2011,
      "hel": 2012,
      "Builder": 2013,
      "sulfanyl": 2014,
      "Ġacc": 2015,
      "pie": 2016,
      "sal": 2017,
      "arat": 2018,
      "phen": 2019,
      "Full": 2020,
      "URN": 2021,
      "ense": 2022,
      "ĠEll": 2023,
      "ĠBlack": 2024,
      "len": 2025,
      "lov": 2026,
      "esthet": 2027,
      "Ġhum": 2028,
      "ives": 2029,
      "inst": 2030,
      "vel": 2031,
      "bu": 2032,
      "Cent": 2033,
      "Add": 2034,
      "esi": 2035,
      "perm": 2036,
      "Sprite": 2037,
      "Ġsn": 2038,
      "aat": 2039,
      "GR": 2040,
      "ijk": 2041,
      "onc": 2042,
      "api": 2043,
      "ourn": 2044,
      "ites": 2045,
      "Ġtri": 2046,
      "inding": 2047,
      "ungen": 2048,
      "ceed": 2049,
      "ote": 2050,
      "ents": 2051,
      "eton": 2052,
      "iego": 2053,
      "aires": 2054,
      "onne": 2055,
      "opp": 2056,
      "acute": 2057,
      "Ġfre": 2058,
      "irect": 2059,
      "Components": 2060,
      "ĠMor": 2061,
      "rone": 2062,
      "har": 2063,
      "angk": 2064,
      "Offset": 2065,
      "agen": 2066,
      "rog": 2067,
      "Ġtra": 2068,
      "itar": 2069,
      "enna": 2070,
      "cs": 2071,
      "Vertex": 2072,
      "view": 2073,
      "rie": 2074,
      "bb": 2075,
      "ĠWal": 2076,
      "war": 2077,
      "Now": 2078,
      "Ġcar": 2079,
      "bor": 2080,
      "link": 2081,
      "Th": 2082,
      "ugin": 2083,
      "OC": 2084,
      "prop": 2085,
      "sky": 2086,
      "sis": 2087,
      "aph": 2088,
      "ito": 2089,
      "EG": 2090,
      "test": 2091,
      "class": 2092,
      "Ġwh": 2093,
      "esto": 2094,
      "pton": 2095,
      "arsh": 2096,
      "eller": 2097,
      "itis": 2098,
      "ams": 2099,
      "SF": 2100,
      "Source": 2101,
      "Ġpres": 2102,
      "ucc": 2103,
      "iento": 2104,
      "eil": 2105,
      "iler": 2106,
      "ĠGal": 2107,
      "LP": 2108,
      "pos": 2109,
      "string": 2110,
      "isi": 2111,
      "ries": 2112,
      "ital": 2113,
      "sen": 2114,
      "oom": 2115,
      "ĠRaj": 2116,
      "ĠKe": 2117,
      "ĠMo": 2118,
      "ution": 2119,
      "Ġpret": 2120,
      "Port": 2121,
      "ohn": 2122,
      "ique": 2123,
      "Record": 2124,
      "uring": 2125,
      "Non": 2126,
      "rite": 2127,
      "CR": 2128,
      "ERN": 2129,
      "log": 2130,
      "hn": 2131,
      "Body": 2132,
      "Keys": 2133,
      "so": 2134,
      "Sett": 2135,
      "ĠRUT": 2136,
      "umn": 2137,
      "ranch": 2138,
      "Pos": 2139,
      "ĠUI": 2140,
      "ours": 2141,
      "ĠPol": 2142,
      "hab": 2143,
      "ĠHo": 2144,
      "Ġdist": 2145,
      "aker": 2146,
      "ilt": 2147,
      "Login": 2148,
      "akukan": 2149,
      "ideo": 2150,
      "emy": 2151,
      "El": 2152,
      "Video": 2153,
      "ueue": 2154,
      "inct": 2155,
      "Ġmy": 2156,
      "Marks": 2157,
      "review": 2158,
      "ymbol": 2159,
      "Ġpop": 2160,
      "lig": 2161,
      "eler": 2162,
      "ĠHe": 2163,
      "efont": 2164,
      "ĠGar": 2165,
      "eport": 2166,
      "elli": 2167,
      "Ġhab": 2168,
      "mond": 2169,
      "ocket": 2170,
      "Settings": 2171,
      "eft": 2172,
      "ĠEp": 2173,
      "ocalVar": 2174,
      "gg": 2175,
      "other": 2176,
      "TI": 2177,
      "Ġple": 2178,
      "bert": 2179,
      "page": 2180,
      "Sup": 2181,
      "yo": 2182,
      "atu": 2183,
      "etter": 2184,
      "ĠCav": 2185,
      "zn": 2186,
      "Script": 2187,
      "ahi": 2188,
      "annya": 2189,
      "Sal": 2190,
      "Did": 2191,
      "HL": 2192,
      "itle": 2193,
      "big": 2194,
      "ingen": 2195,
      "cher": 2196,
      "rel": 2197,
      "TO": 2198,
      "vo": 2199,
      "ĠCro": 2200,
      "uda": 2201,
      "Ġsur": 2202,
      "Screen": 2203,
      "Player": 2204,
      "Temp": 2205,
      "Ġmel": 2206,
      "ĠCont": 2207,
      "Rad": 2208,
      "FS": 2209,
      "ves": 2210,
      "Counter": 2211,
      "lich": 2212,
      "eston": 2213,
      "eva": 2214,
      "Types": 2215,
      "HS": 2216,
      "Show": 2217,
      "Ġvatt": 2218,
      "ĠIr": 2219,
      "Sql": 2220,
      "OU": 2221,
      "zin": 2222,
      "rvGroup": 2223,
      "ista": 2224,
      "MT": 2225,
      "Ġcyt": 2226,
      "ĠRh": 2227,
      "Queue": 2228,
      "Load": 2229,
      "ilde": 2230,
      "upt": 2231,
      "Ġaus": 2232,
      "count": 2233,
      "Para": 2234,
      "ĠHor": 2235,
      "right": 2236,
      "Ġcomp": 2237,
      "imi": 2238,
      "ude": 2239,
      "tils": 2240,
      "Items": 2241,
      "BE": 2242,
      "reens": 2243,
      "Dict": 2244,
      "ĠSom": 2245,
      "hd": 2246,
      "ashi": 2247,
      "Parameter": 2248,
      "lish": 2249,
      "Parser": 2250,
      "dl": 2251,
      "Ġstat": 2252,
      "ists": 2253,
      "yg": 2254,
      "RS": 2255,
      "ehyd": 2256,
      "illy": 2257,
      "nc": 2258,
      "ocument": 2259,
      "Compat": 2260,
      "yll": 2261,
      "htt": 2262,
      "vider": 2263,
      "Ġbr": 2264,
      "Ġconc": 2265,
      "ece": 2266,
      "omy": 2267,
      "Com": 2268,
      "Ġhot": 2269,
      "getC": 2270,
      "ystem": 2271,
      "aten": 2272,
      "osis": 2273,
      "rome": 2274,
      "gram": 2275,
      "iendo": 2276,
      "efore": 2277,
      "ones": 2278,
      "mouse": 2279,
      "ollis": 2280,
      "FT": 2281,
      "istic": 2282,
      "eed": 2283,
      "AB": 2284,
      "Ġins": 2285,
      "PL": 2286,
      "ki": 2287,
      "augh": 2288,
      "itte": 2289,
      "Ġtre": 2290,
      "atter": 2291,
      "Module": 2292,
      "ymph": 2293,
      "ĠGo": 2294,
      "Btn": 2295,
      "otrop": 2296,
      "ĠBerg": 2297,
      "ĠEst": 2298,
      "Ġele": 2299,
      "Bound": 2300,
      "FF": 2301,
      "create": 2302,
      "wick": 2303,
      "ika": 2304,
      "Wait": 2305,
      "Ġmin": 2306,
      "ĠPA": 2307,
      "Ġcontent": 2308,
      "URL": 2309,
      "irm": 2310,
      "ony": 2311,
      "ativ": 2312,
      "BL": 2313,
      "math": 2314,
      "aria": 2315,
      "une": 2316,
      "rine": 2317,
      "owan": 2318,
      "ĠPl": 2319,
      "aret": 2320,
      "Ġmast": 2321,
      "ici": 2322,
      "Plugin": 2323,
      "etta": 2324,
      "nej": 2325,
      "OL": 2326,
      "Ġpur": 2327,
      "imer": 2328,
      "icons": 2329,
      "BI": 2330,
      "ilit": 2331,
      "iley": 2332,
      "Ġmag": 2333,
      "ytes": 2334,
      "Ġenc": 2335,
      "iled": 2336,
      "hot": 2337,
      "AA": 2338,
      "hm": 2339,
      "ther": 2340,
      "GP": 2341,
      "ival": 2342,
      "ĠSte": 2343,
      "elet": 2344,
      "Ġconse": 2345,
      "obac": 2346,
      "aran": 2347,
      "Ġass": 2348,
      "SU": 2349,
      "ĠAy": 2350,
      "ache": 2351,
      "oen": 2352,
      "Struct": 2353,
      "allback": 2354,
      "andom": 2355,
      "ogen": 2356,
      "Ġcre": 2357,
      "Pk": 2358,
      "aint": 2359,
      "aler": 2360,
      "Operation": 2361,
      "Command": 2362,
      "Dev": 2363,
      "uml": 2364,
      "eek": 2365,
      "ĠAsh": 2366,
      "Ġtor": 2367,
      "zen": 2368,
      "bs": 2369,
      "Scroll": 2370,
      "atham": 2371,
      "uble": 2372,
      "iye": 2373,
      "bury": 2374,
      "Ġdham": 2375,
      "Ret": 2376,
      "Avg": 2377,
      "ited": 2378,
      "Sch": 2379,
      "ĠArch": 2380,
      "Ġpos": 2381,
      "Ġor": 2382,
      "imo": 2383,
      "osc": 2384,
      "Vis": 2385,
      "stock": 2386,
      "ayam": 2387,
      "Ġinv": 2388,
      "Font": 2389,
      "ample": 2390,
      "rou": 2391,
      "AE": 2392,
      "rug": 2393,
      "ether": 2394,
      "ĠPL": 2395,
      "eon": 2396,
      "Rout": 2397,
      "inf": 2398,
      "hal": 2399,
      "rown": 2400,
      "anja": 2401,
      "erto": 2402,
      "amo": 2403,
      "ulation": 2404,
      "Ġstr": 2405,
      "Ġpe": 2406,
      "mas": 2407,
      "roller": 2408,
      "tim": 2409,
      "opl": 2410,
      "Right": 2411,
      "ike": 2412,
      "tered": 2413,
      "Ġreg": 2414,
      "kit": 2415,
      "osph": 2416,
      "ristian": 2417,
      "rowser": 2418,
      "Ġvel": 2419,
      "ga": 2420,
      "ĠNag": 2421,
      "ogram": 2422,
      "ework": 2423,
      "Pack": 2424,
      "Top": 2425,
      "eco": 2426,
      "ogo": 2427,
      "ness": 2428,
      "olson": 2429,
      "vation": 2430,
      "ND": 2431,
      "Ptr": 2432,
      "ĠReg": 2433,
      "ĠRos": 2434,
      "outs": 2435,
      "Ġpers": 2436,
      "etch": 2437,
      "ono": 2438,
      "ados": 2439,
      "unsch": 2440,
      "GS": 2441,
      "asis": 2442,
      "CF": 2443,
      "Press": 2444,
      "face": 2445,
      "olicy": 2446,
      "nem": 2447,
      "Ġsil": 2448,
      "Task": 2449,
      "Ġduk": 2450,
      "lav": 2451,
      "oggle": 2452,
      "Ġmer": 2453,
      "ania": 2454,
      "ĠGir": 2455,
      "iol": 2456,
      "SXml": 2457,
      "Version": 2458,
      "ĠEM": 2459,
      "image": 2460,
      "assa": 2461,
      "umph": 2462,
      "czn": 2463,
      "oup": 2464,
      "Ġloc": 2465,
      "lj": 2466,
      "Search": 2467,
      "hes": 2468,
      "obb": 2469,
      "UID": 2470,
      "ĠMcInt": 2471,
      "Navig": 2472,
      "Http": 2473,
      "Equal": 2474,
      "Gl": 2475,
      "Ġsput": 2476,
      "Instance": 2477,
      "edit": 2478,
      "akes": 2479,
      "oji": 2480,
      "Character": 2481,
      "Ġinput": 2482,
      "Connection": 2483,
      "Unary": 2484,
      "olm": 2485,
      "illes": 2486,
      "lio": 2487,
      "Ġrect": 2488,
      "ilda": 2489,
      "Ġdo": 2490,
      "rame": 2491,
      "ĠDom": 2492,
      "atform": 2493,
      "angu": 2494,
      "asena": 2495,
      "ĠBer": 2496,
      "onucle": 2497,
      "Ġaf": 2498,
      "Props": 2499,
      "ĠEx": 2500,
      "aton": 2501,
      "Ġbul": 2502,
      "icker": 2503,
      "Ġext": 2504,
      "SON": 2505,
      "ĠMcL": 2506,
      "atas": 2507,
      "ART": 2508,
      "aron": 2509,
      "erred": 2510,
      "Ġing": 2511,
      "cre": 2512,
      "racket": 2513,
      "asal": 2514,
      "Pix": 2515,
      "uced": 2516,
      "getM": 2517,
      "Camera": 2518,
      "ology": 2519,
      "rew": 2520,
      "irl": 2521,
      "Ġparab": 2522,
      "Empty": 2523,
      "OW": 2524,
      "Ġsam": 2525,
      "ify": 2526,
      "screen": 2527,
      "Ġlle": 2528,
      "Mutability": 2529,
      "Ġsymbol": 2530,
      "head": 2531,
      "econds": 2532,
      "PD": 2533,
      "idden": 2534,
      "aliz": 2535,
      "idazole": 2536,
      "Ġmic": 2537,
      "Interface": 2538,
      "isTrack": 2539,
      "ador": 2540,
      "Ġgi": 2541,
      "ori": 2542,
      "ained": 2543,
      "alan": 2544,
      "rep": 2545,
      "arant": 2546,
      "cy": 2547,
      "ILL": 2548,
      "hy": 2549,
      "Ow": 2550,
      "apping": 2551,
      "ĠHay": 2552,
      "DL": 2553,
      "Fit": 2554,
      "ground": 2555,
      "Push": 2556,
      "azar": 2557,
      "Ġred": 2558,
      "rod": 2559,
      "ective": 2560,
      "Policy": 2561,
      "miss": 2562,
      "EP": 2563,
      "ury": 2564,
      "ikt": 2565,
      "Ġkar": 2566,
      "ĠLuc": 2567,
      "ials": 2568,
      "Target": 2569,
      "pm": 2570,
      "VCT": 2571,
      "Ġte": 2572,
      "ske": 2573,
      "lectic": 2574,
      "BP": 2575,
      "Ġfo": 2576,
      "Ġde": 2577,
      "ief": 2578,
      "ORT": 2579,
      "enden": 2580,
      "ĠCH": 2581,
      "osk": 2582,
      "nav": 2583,
      "FC": 2584,
      "raven": 2585,
      "Board": 2586,
      "eros": 2587,
      "Bl": 2588,
      "Callback": 2589,
      "bad": 2590,
      "RA": 2591,
      "oor": 2592,
      "Project": 2593,
      "iana": 2594,
      "vr": 2595,
      "Ġcol": 2596,
      "Handler": 2597,
      "rows": 2598,
      "ĠGi": 2599,
      "ister": 2600,
      "amily": 2601,
      "appe": 2602,
      "PO": 2603,
      "Device": 2604,
      "Sample": 2605,
      "ingham": 2606,
      "ĠSk": 2607,
      "race": 2608,
      "ytic": 2609,
      "inde": 2610,
      "ondo": 2611,
      "idin": 2612,
      "Ġpercent": 2613,
      "erno": 2614,
      "ardi": 2615,
      "char": 2616,
      "Ġviv": 2617,
      "Fact": 2618,
      "Flight": 2619,
      "arker": 2620,
      "eground": 2621,
      "esus": 2622,
      "ife": 2623,
      "Used": 2624,
      "Ġvutt": 2625,
      "ĠKx": 2626,
      "Ġmeg": 2627,
      "atiti": 2628,
      "ersch": 2629,
      "ĠBad": 2630,
      "code": 2631,
      "esse": 2632,
      "umann": 2633,
      "Ġbet": 2634,
      "Ġsu": 2635,
      "search": 2636,
      "oney": 2637,
      "ĠMax": 2638,
      "peat": 2639,
      "PI": 2640,
      "imple": 2641,
      "Ġmost": 2642,
      "ungs": 2643,
      "itone": 2644,
      "Ġferr": 2645,
      "Ġren": 2646,
      "Ġgel": 2647,
      "ilis": 2648,
      "wise": 2649,
      "ired": 2650,
      "pear": 2651,
      "inner": 2652,
      "Ġfamil": 2653,
      "ordan": 2654,
      "Ġdiss": 2655,
      "rift": 2656,
      "Ġknock": 2657,
      "rish": 2658,
      "Details": 2659,
      "ĠMaur": 2660,
      "ursor": 2661,
      "ushroom": 2662,
      "ergic": 2663,
      "ĠAll": 2664,
      "osi": 2665,
      "oon": 2666,
      "ĠGall": 2667,
      "eza": 2668,
      "Ġic": 2669,
      "outh": 2670,
      "Ġdata": 2671,
      "ĠBeat": 2672,
      "aze": 2673,
      "burg": 2674,
      "angle": 2675,
      "ahu": 2676,
      "aim": 2677,
      "anny": 2678,
      "DT": 2679,
      "zi": 2680,
      "ilm": 2681,
      "ĠRUTAR": 2682,
      "Save": 2683,
      "url": 2684,
      "ĠOb": 2685,
      "FR": 2686,
      "sid": 2687,
      "ahul": 2688,
      "ague": 2689,
      "rot": 2690,
      "ida": 2691,
      "Ġsubt": 2692,
      "urope": 2693,
      "roke": 2694,
      "lyn": 2695,
      "Ġphen": 2696,
      "tha": 2697,
      "ebra": 2698,
      "Bin": 2699,
      "eres": 2700,
      "stream": 2701,
      "OH": 2702,
      "Ġcle": 2703,
      "UD": 2704,
      "Ġbro": 2705,
      "ures": 2706,
      "ikan": 2707,
      "yatt": 2708,
      "stone": 2709,
      "Ext": 2710,
      "ĠBuk": 2711,
      "Provider": 2712,
      "Ġax": 2713,
      "Ġhead": 2714,
      "owell": 2715,
      "had": 2716,
      "ĠGh": 2717,
      "Wall": 2718,
      "ĠShe": 2719,
      "Adapter": 2720,
      "ĠBoy": 2721,
      "amine": 2722,
      "abbam": 2723,
      "Ġdign": 2724,
      "rust": 2725,
      "Args": 2726,
      "igo": 2727,
      "Ġposit": 2728,
      "amento": 2729,
      "ĠDal": 2730,
      "ĠAnd": 2731,
      "olver": 2732,
      "Des": 2733,
      "Ġmot": 2734,
      "ĠHumph": 2735,
      "tb": 2736,
      "mult": 2737,
      "Flag": 2738,
      "him": 2739,
      "odor": 2740,
      "rant": 2741,
      "ward": 2742,
      "uls": 2743,
      "NS": 2744,
      "Center": 2745,
      "iers": 2746,
      "arah": 2747,
      "Ġvert": 2748,
      "ĠCR": 2749,
      "sad": 2750,
      "ERC": 2751,
      "Ġhand": 2752,
      "Utils": 2753,
      "Ġprop": 2754,
      "Ġcr": 2755,
      "alam": 2756,
      "ffen": 2757,
      "EY": 2758,
      "raul": 2759,
      "Ġtot": 2760,
      "alar": 2761,
      "allel": 2762,
      "stant": 2763,
      "ational": 2764,
      "ĠMarg": 2765,
      "ranc": 2766,
      "urd": 2767,
      "aye": 2768,
      "umm": 2769,
      "VER": 2770,
      "ieg": 2771,
      "Ġmill": 2772,
      "ĠGr": 2773,
      "Controller": 2774,
      "Tab": 2775,
      "alm": 2776,
      "eno": 2777,
      "eless": 2778,
      "tol": 2779,
      "edd": 2780,
      "Ġabh": 2781,
      "ĠCorn": 2782,
      "Ġdil": 2783,
      "Str": 2784,
      "Ass": 2785,
      "ĠNorth": 2786,
      "ĠUt": 2787,
      "ello": 2788,
      "Ġkey": 2789,
      "Dto": 2790,
      "Ġexc": 2791,
      "por": 2792,
      "ĠNL": 2793,
      "uest": 2794,
      "Del": 2795,
      "Opt": 2796,
      "Ġten": 2797,
      "BT": 2798,
      "bre": 2799,
      "revi": 2800,
      "akespe": 2801,
      "wrap": 2802,
      "kar": 2803,
      "itrile": 2804,
      "Current": 2805,
      "Ġvucc": 2806,
      "aad": 2807,
      "ĠBa": 2808,
      "dk": 2809,
      "Ġat": 2810,
      "Ġkah": 2811,
      "Radius": 2812,
      "auer": 2813,
      "pop": 2814,
      "Ġmyc": 2815,
      "sche": 2816,
      "Ġprim": 2817,
      "ĠUIC": 2818,
      "inder": 2819,
      "Ġunder": 2820,
      "itting": 2821,
      "endez": 2822,
      "sy": 2823,
      "reet": 2824,
      "ryst": 2825,
      "fordshire": 2826,
      "VS": 2827,
      "anger": 2828,
      "trl": 2829,
      "esu": 2830,
      "idad": 2831,
      "ĠMull": 2832,
      "oster": 2833,
      "si": 2834,
      "ĠCan": 2835,
      "ily": 2836,
      "Beat": 2837,
      "ĠGreen": 2838,
      "Vector": 2839,
      "ches": 2840,
      "imation": 2841,
      "ommon": 2842,
      "sn": 2843,
      "iaz": 2844,
      "sec": 2845,
      "eder": 2846,
      "Ġven": 2847,
      "Ġsem": 2848,
      "house": 2849,
      "Dir": 2850,
      "Child": 2851,
      "aird": 2852,
      "Re": 2853,
      "atir": 2854,
      "Chang": 2855,
      "icate": 2856,
      "obil": 2857,
      "Popup": 2858,
      "andal": 2859,
      "eze": 2860,
      "struct": 2861,
      "ĠComp": 2862,
      "ĠTon": 2863,
      "Photo": 2864,
      "ĠStaff": 2865,
      "Stack": 2866,
      "ĠStr": 2867,
      "One": 2868,
      "Ġtub": 2869,
      "ences": 2870,
      "ging": 2871,
      "acht": 2872,
      "ĠWeb": 2873,
      "quier": 2874,
      "System": 2875,
      "nes": 2876,
      "drop": 2877,
      "fol": 2878,
      "ypt": 2879,
      "bum": 2880,
      "Byte": 2881,
      "alur": 2882,
      "ĠBarcl": 2883,
      "ĠSab": 2884,
      "ilib": 2885,
      "enie": 2886,
      "INT": 2887,
      "lia": 2888,
      "ĠAp": 2889,
      "ije": 2890,
      "Keyboard": 2891,
      "brevi": 2892,
      "Ġwarm": 2893,
      "ĠFerr": 2894,
      "Ġconf": 2895,
      "Ġest": 2896,
      "cor": 2897,
      "quam": 2898,
      "ayan": 2899,
      "ska": 2900,
      "ĠHer": 2901,
      "ulin": 2902,
      "Mov": 2903,
      "iros": 2904,
      "orum": 2905,
      "Route": 2906,
      "iyet": 2907,
      "has": 2908,
      "iller": 2909,
      "azi": 2910,
      "sql": 2911,
      "Ġet": 2912,
      "abs": 2913,
      "sman": 2914,
      "ME": 2915,
      "Aud": 2916,
      "Case": 2917,
      "eman": 2918,
      "ĠMain": 2919,
      "Ġbe": 2920,
      "uchi": 2921,
      "zym": 2922,
      "orrh": 2923,
      "ikum": 2924,
      "Ġfile": 2925,
      "jel": 2926,
      "ĠsubTest": 2927,
      "olds": 2928,
      "elf": 2929,
      "RAN": 2930,
      "ĠMa": 2931,
      "Ġrup": 2932,
      "ements": 2933,
      "Ġeg": 2934,
      "Percent": 2935,
      "lt": 2936,
      "QL": 2937,
      "uang": 2938,
      "Document": 2939,
      "Product": 2940,
      "ĠFair": 2941,
      "Ġatth": 2942,
      "ewer": 2943,
      "Ġodp": 2944,
      "Ġcin": 2945,
      "Ac": 2946,
      "Ġtem": 2947,
      "iner": 2948,
      "ators": 2949,
      "asp": 2950,
      "Ġmet": 2951,
      "Ġbo": 2952,
      "GA": 2953,
      "ĠHein": 2954,
      "ube": 2955,
      "ĠGer": 2956,
      "Ġmod": 2957,
      "ehen": 2958,
      "wen": 2959,
      "erre": 2960,
      "Ġaff": 2961,
      "kk": 2962,
      "arra": 2963,
      "ĠGro": 2964,
      "cd": 2965,
      "inh": 2966,
      "ĠLut": 2967,
      "aste": 2968,
      "aries": 2969,
      "ograph": 2970,
      "spl": 2971,
      "DF": 2972,
      "onda": 2973,
      "aris": 2974,
      "vach": 2975,
      "wt": 2976,
      "iper": 2977,
      "olt": 2978,
      "Pass": 2979,
      "ieht": 2980,
      "atin": 2981,
      "elo": 2982,
      "ĠCam": 2983,
      "aneu": 2984,
      "ramework": 2985,
      "ission": 2986,
      "ryl": 2987,
      "XY": 2988,
      "ĠAss": 2989,
      "We": 2990,
      "ĠRad": 2991,
      "rach": 2992,
      "ĠEng": 2993,
      "rik": 2994,
      "Navigator": 2995,
      "ĠHaw": 2996,
      "ruff": 2997,
      "webElement": 2998,
      "ermi": 2999,
      "Tree": 3000,
      "inden": 3001,
      "Ġdev": 3002,
      "unct": 3003,
      "stat": 3004,
      "Ġmit": 3005,
      "ofar": 3006,
      "iser": 3007,
      "arin": 3008,
      "ongo": 3009,
      "ĠSur": 3010,
      "igan": 3011,
      "yloxy": 3012,
      "col": 3013,
      "Area": 3014,
      "align": 3015,
      "lands": 3016,
      "sun": 3017,
      "ibb": 3018,
      "phal": 3019,
      "YPE": 3020,
      "romo": 3021,
      "iko": 3022,
      "Each": 3023,
      "Unit": 3024,
      "write": 3025,
      "Kind": 3026,
      "ĠMal": 3027,
      "Core": 3028,
      "If": 3029,
      "VP": 3030,
      "ĠUl": 3031,
      "adam": 3032,
      "Ab": 3033,
      "ĠPet": 3034,
      "ells": 3035,
      "ky": 3036,
      "feit": 3037,
      "Ġart": 3038,
      "def": 3039,
      "iph": 3040,
      "ool": 3041,
      "ĠBrit": 3042,
      "Cap": 3043,
      "Ġoct": 3044,
      "atts": 3045,
      "ela": 3046,
      "rex": 3047,
      "nown": 3048,
      "Ġand": 3049,
      "lis": 3050,
      "Ġid": 3051,
      "rypt": 3052,
      "olid": 3053,
      "hens": 3054,
      "ĠFA": 3055,
      "list": 3056,
      "Grid": 3057,
      "ucleaires": 3058,
      "UE": 3059,
      "umble": 3060,
      "LAG": 3061,
      "Ap": 3062,
      "agger": 3063,
      "etz": 3064,
      "ysz": 3065,
      "posit": 3066,
      "Preview": 3067,
      "greg": 3068,
      "Pane": 3069,
      "ĠSL": 3070,
      "owe": 3071,
      "ubs": 3072,
      "urk": 3073,
      "angs": 3074,
      "rote": 3075,
      "oku": 3076,
      "Ġauto": 3077,
      "ising": 3078,
      "Ġrealiz": 3079,
      "Drop": 3080,
      "Ġmar": 3081,
      "0x": 3082,
      "<0x": 3083,
      "Ġcond": 3084,
      "ĠWill": 3085,
      "etic": 3086,
      "RGB": 3087,
      "IK": 3088,
      "resh": 3089,
      "ĠGab": 3090,
      "iffer": 3091,
      "Ġther": 3092,
      "Rx": 3093,
      "RxDocument": 3094,
      "Ġatt": 3095,
      "rict": 3096,
      "comstock": 3097,
      "ĠSRP": 3098,
      "Asp": 3099,
      "icle": 3100,
      "ahl": 3101,
      "ekt": 3102,
      "Support": 3103,
      "chn": 3104,
      "agon": 3105,
      "Ġbre": 3106,
      "ĠYam": 3107,
      "kinson": 3108,
      "ĠMaj": 3109,
      "Ġnov": 3110,
      "phenyl": 3111,
      "Ġbeg": 3112,
      "ĠAug": 3113,
      "thorax": 3114,
      "igation": 3115,
      "Events": 3116,
      "rane": 3117,
      "ToProps": 3118,
      "iddle": 3119,
      "ĠBal": 3120,
      "anes": 3121,
      "ĠFitz": 3122,
      "erial": 3123,
      "illus": 3124,
      "Concept": 3125,
      "YY": 3126,
      "Ġtw": 3127,
      "Ġmand": 3128,
      "Graph": 3129,
      "ĠPad": 3130,
      "beat": 3131,
      "ATIV": 3132,
      "Perm": 3133,
      "ophor": 3134,
      "xx": 3135,
      "http": 3136,
      "rington": 3137,
      "follow": 3138,
      "ĠBern": 3139,
      "Ġrev": 3140,
      "agin": 3141,
      "uana": 3142,
      "Ġla": 3143,
      "illon": 3144,
      "Ġneg": 3145,
      "aved": 3146,
      "isms": 3147,
      "Ent": 3148,
      "Ġhalf": 3149,
      "cup": 3150,
      "Ġped": 3151,
      "expr": 3152,
      "Ġcele": 3153,
      "Ġgacch": 3154,
      "oe": 3155,
      "onom": 3156,
      "Ġfast": 3157,
      "Compl": 3158,
      "ermin": 3159,
      "ĠLiv": 3160,
      "hook": 3161,
      "Edit": 3162,
      "She": 3163,
      "Choice": 3164,
      "Ġju": 3165,
      "Root": 3166,
      "acet": 3167,
      "Ġport": 3168,
      "iot": 3169,
      "anche": 3170,
      "Trans": 3171,
      "ĠKais": 3172,
      "imiz": 3173,
      "Br": 3174,
      "GT": 3175,
      "XYZ": 3176,
      "Ġsob": 3177,
      "wan": 3178,
      "exec": 3179,
      "irth": 3180,
      "Matrix": 3181,
      "Dispatch": 3182,
      "ommod": 3183,
      "SL": 3184,
      "ently": 3185,
      "Shape": 3186,
      "cul": 3187,
      "ĠCyr": 3188,
      "iat": 3189,
      "arded": 3190,
      "etr": 3191,
      "onna": 3192,
      "yer": 3193,
      "ikut": 3194,
      "iert": 3195,
      "Ġbas": 3196,
      "idget": 3197,
      "ĠBog": 3198,
      "offset": 3199,
      "uge": 3200,
      "ympt": 3201,
      "Lua": 3202,
      "plot": 3203,
      "method": 3204,
      "egu": 3205,
      "corr": 3206,
      "BU": 3207,
      "Ġinst": 3208,
      "thol": 3209,
      "iary": 3210,
      "rek": 3211,
      "esz": 3212,
      "ctivity": 3213,
      "sie": 3214,
      "bib": 3215,
      "Ġtro": 3216,
      "II": 3217,
      "SH": 3218,
      "Ġwa": 3219,
      "ĠLak": 3220,
      "quare": 3221,
      "ried": 3222,
      "icles": 3223,
      "ĠPe": 3224,
      "anvas": 3225,
      "obe": 3226,
      "BR": 3227,
      "ateral": 3228,
      "ĠPro": 3229,
      "nego": 3230,
      "ĠEug": 3231,
      "adal": 3232,
      "Ġfe": 3233,
      "rig": 3234,
      "Base": 3235,
      "Column": 3236,
      "ydro": 3237,
      "unes": 3238,
      "sor": 3239,
      "erecht": 3240,
      "iran": 3241,
      "Ġall": 3242,
      "ĠDown": 3243,
      "apsed": 3244,
      "jal": 3245,
      "urity": 3246,
      "DM": 3247,
      "Factory": 3248,
      "Ġbase": 3249,
      "okat": 3250,
      "etto": 3251,
      "ĠDod": 3252,
      "Before": 3253,
      "IZ": 3254,
      "param": 3255,
      "Platform": 3256,
      "iber": 3257,
      "asus": 3258,
      "Ġdep": 3259,
      "ĠDh": 3260,
      "Ġyath": 3261,
      "iven": 3262,
      "ĠAugust": 3263,
      "itten": 3264,
      "Ġnaj": 3265,
      "itim": 3266,
      "Arch": 3267,
      "hatu": 3268,
      "imet": 3269,
      "yb": 3270,
      "anne": 3271,
      "then": 3272,
      "namefont": 3273,
      "Canvas": 3274,
      "udan": 3275,
      "mund": 3276,
      "evel": 3277,
      "opy": 3278,
      "mont": 3279,
      "ullam": 3280,
      "post": 3281,
      "rade": 3282,
      "CTOR": 3283,
      "Background": 3284,
      "Sort": 3285,
      "Ġphot": 3286,
      "Enc": 3287,
      "ĠOl": 3288,
      "Space": 3289,
      "ĠlocalVar": 3290,
      "ottom": 3291,
      "ĠViv": 3292,
      "ublic": 3293,
      "game": 3294,
      "ĠNP": 3295,
      "oja": 3296,
      "ARR": 3297,
      "Folder": 3298,
      "cest": 3299,
      "Texture": 3300,
      "dd": 3301,
      "organ": 3302,
      "ivo": 3303,
      "Level": 3304,
      "erme": 3305,
      "adis": 3306,
      "Ġdob": 3307,
      "Activity": 3308,
      "engu": 3309,
      "encent": 3310,
      "ASE": 3311,
      "ĠPel": 3312,
      "ungan": 3313,
      "arbox": 3314,
      "ELE": 3315,
      "ĠBo": 3316,
      "ipe": 3317,
      "ĠIN": 3318,
      "ĠKey": 3319,
      "ousse": 3320,
      "Scale": 3321,
      "ELEASE": 3322,
      "Ġitem": 3323,
      "rech": 3324,
      "eben": 3325,
      "SrvGroup": 3326,
      "rij": 3327,
      "Tmp": 3328,
      "ĠSpring": 3329,
      "Ġconsequ": 3330,
      "ential": 3331,
      "cel": 3332,
      "ple": 3333,
      "odh": 3334,
      "time": 3335,
      "ept": 3336,
      "Ġaliqu": 3337,
      "www": 3338,
      "wwwpond": 3339,
      "ento": 3340,
      "Ġlib": 3341,
      "Ġdrag": 3342,
      "andl": 3343,
      "ctx": 3344,
      "Post": 3345,
      "Ġmultic": 3346,
      "iam": 3347,
      "Match": 3348,
      "CPP": 3349,
      "ĠInput": 3350,
      "ĠKish": 3351,
      "AI": 3352,
      "Ġlab": 3353,
      "ĠPap": 3354,
      "antile": 3355,
      "urry": 3356,
      "erton": 3357,
      "ĠMH": 3358,
      "gd": 3359,
      "RAM": 3360,
      "loud": 3361,
      "uses": 3362,
      "ARG": 3363,
      "max": 3364,
      "cos": 3365,
      "ĠJac": 3366,
      "dis": 3367,
      "Package": 3368,
      "Idle": 3369,
      "vm": 3370,
      "IdleSync": 3371,
      "Pkg": 3372,
      "ParaPkg": 3373,
      "lus": 3374,
      "ĠBrid": 3375,
      "Ġrh": 3376,
      "dam": 3377,
      "uman": 3378,
      "aras": 3379,
      "Ġlu": 3380,
      "Ġgah": 3381,
      "nah": 3382,
      "ALL": 3383,
      "otlin": 3384,
      "icture": 3385,
      "Ġsac": 3386,
      "henium": 3387,
      "iom": 3388,
      "buf": 3389,
      "ĠHeid": 3390,
      "fu": 3391,
      "Ġtran": 3392,
      "awks": 3393,
      "Take": 3394,
      "ship": 3395,
      "ĠWat": 3396,
      "feat": 3397,
      "ENUM": 3398,
      "NewUrl": 3399,
      "formed": 3400,
      "Ġgahet": 3401,
      "Ġmicro": 3402,
      "ĠhalfCanvas": 3403,
      "amos": 3404,
      "Ġmem": 3405,
      "omes": 3406,
      "ĠAv": 3407,
      "ershire": 3408,
      "usp": 3409,
      "ĠVen": 3410,
      "arlene": 3411,
      "MethodBeat": 3412,
      "mit": 3413,
      "coprote": 3414,
      "Ġanis": 3415,
      "gn": 3416,
      "Raw": 3417,
      "Ġneutral": 3418,
      "Ġgol": 3419,
      "ĠPat": 3420,
      "Ġmorph": 3421,
      "ĠMerc": 3422,
      "aric": 3423,
      "enny": 3424,
      "ĠAst": 3425,
      "job": 3426,
      "enia": 3427,
      "osin": 3428,
      "apped": 3429,
      "Do": 3430,
      "sten": 3431,
      "ĠMod": 3432,
      "ober": 3433,
      "OCC": 3434,
      "Point": 3435,
      "aniy": 3436,
      "uo": 3437,
      "rar": 3438,
      "NN": 3439,
      "alg": 3440,
      "size": 3441,
      "fill": 3442,
      "Ġsett": 3443,
      "Ġinterview": 3444,
      "Ġsle": 3445,
      "enth": 3446,
      "ĠBang": 3447,
      "abbo": 3448,
      "ĠPfe": 3449,
      "FER": 3450,
      "ago": 3451,
      "tin": 3452,
      "Ġus": 3453,
      "otherm": 3454,
      "esting": 3455,
      "WMN": 3456,
      "sz": 3457,
      "atory": 3458,
      "hed": 3459,
      "orman": 3460,
      "Put": 3461,
      "alaikum": 3462,
      "ĠPear": 3463,
      "orrent": 3464,
      "ehyde": 3465,
      "ordon": 3466,
      "EE": 3467,
      "ĠCov": 3468,
      "VOA": 3469,
      "lr": 3470,
      "ilian": 3471,
      "lef": 3472,
      "ungk": 3473,
      "StructOf": 3474,
      "ĠPay": 3475,
      "ycle": 3476,
      "iente": 3477,
      "jug": 3478,
      "ĠMcM": 3479,
      "Archive": 3480,
      "curs": 3481,
      "Left": 3482,
      "stm": 3483,
      "keit": 3484,
      "ified": 3485,
      "egen": 3486,
      "inter": 3487,
      "Pressed": 3488,
      "piece": 3489,
      "bed": 3490,
      "ĠLD": 3491,
      "ilon": 3492,
      "erat": 3493,
      "Ġrepet": 3494,
      "band": 3495,
      "ued": 3496,
      "utte": 3497,
      "LAN": 3498,
      "ohl": 3499,
      "burn": 3500,
      "<UNK>": 3501
    },
    "merges": [
      "e r",
      "a n",
      "i n",
      "e n",
      "o n",
      "a r",
      "a t",
      "e s",
      "a l",
      "o r",
      "e t",
      "i t",
      "s t",
      "l e",
      "i c",
      "e l",
      "e d",
      "c h",
      "a m",
      "r o",
      "i s",
      "r e",
      "a d",
      "Ġ s",
      "Ġ p",
      "u n",
      "i l",
      "Ġ S",
      "a s",
      "in g",
      "u t",
      "Ġ C",
      "en t",
      "o l",
      "u r",
      "Ġ M",
      "u s",
      "Ġ B",
      "r a",
      "i on",
      "Ġ c",
      "i d",
      "Ġ d",
      "Ġ P",
      "u l",
      "i m",
      "Ġ t",
      "Ġ m",
      "o m",
      "Ġ A",
      "a c",
      "a g",
      "e m",
      "a b",
      "Ġ D",
      "o s",
      "o t",
      "u m",
      "i g",
      "c t",
      "o d",
      "Ġ b",
      "r i",
      "Ġ T",
      "Ġ G",
      "Ġ R",
      "Ġ H",
      "a p",
      "i e",
      "a k",
      "o c",
      "i r",
      "Ġ N",
      "es t",
      "Ġ L",
      "a y",
      "o w",
      "Ġ f",
      "Ġ E",
      "Ġ g",
      "e x",
      "o p",
      "Ġ v",
      "Ġ h",
      "an d",
      "t h",
      "i a",
      "Ġ K",
      "c e",
      "q u",
      "Ġ n",
      "i v",
      "Ġ F",
      "at e",
      "a v",
      "er s",
      "Ġ W",
      "an g",
      "at ion",
      "o g",
      "Ġ l",
      "an t",
      "I n",
      "i k",
      "o v",
      "a h",
      "e c",
      "e g",
      "Ġ k",
      "i st",
      "en d",
      "u b",
      "u d",
      "t er",
      "f f",
      "in e",
      "on t",
      "S t",
      "o b",
      "i b",
      "Ġ r",
      "u p",
      "i p",
      "t on",
      "es s",
      "at h",
      "i z",
      "i an",
      "e y",
      "el l",
      "u g",
      "e ct",
      "Ġ V",
      "Ġ I",
      "in d",
      "ar d",
      "l y",
      "er t",
      "a st",
      "Ġ J",
      "p e",
      "or d",
      "p h",
      "o k",
      "g et",
      "il l",
      "Ġ w",
      "p t",
      "ar t",
      "u e",
      "Ġ re",
      "u c",
      "n e",
      "h t",
      "y l",
      "ag e",
      "Ġ in",
      "Ġ U",
      "Ġ O",
      "i f",
      "e b",
      "t e",
      "as s",
      "i o",
      "s e",
      "a u",
      "un g",
      "al l",
      "e v",
      "un d",
      "e k",
      "e f",
      "e p",
      "o x",
      "ab le",
      "i le",
      "en s",
      "u k",
      "a w",
      "Ġ st",
      "Ġ j",
      "ex t",
      "at a",
      "er m",
      "ac k",
      "h e",
      "ul t",
      "o ut",
      "ĠC h",
      "s et",
      "in t",
      "it y",
      "a z",
      "e w",
      "i al",
      "p l",
      "a ch",
      "o ur",
      "i es",
      "y m",
      "ro p",
      "r an",
      "o u",
      "s k",
      "a j",
      "or t",
      "Ġ ch",
      "ic k",
      "am e",
      "oc k",
      "Ġ a",
      "r y",
      "an n",
      "Ġ un",
      "o st",
      "a i",
      "c l",
      "Ġc on",
      "s h",
      "s on",
      "ĠM c",
      "at t",
      "iv e",
      "p r",
      "u st",
      "j ect",
      "m ent",
      "ie w",
      "h er",
      "i el",
      "y n",
      "l l",
      "o us",
      "p er",
      "e le",
      "y a",
      "i er",
      "od e",
      "y pe",
      "a in",
      "ad d",
      "un t",
      "er v",
      "ar e",
      "p ut",
      "t o",
      "n a",
      "ic h",
      "i j",
      "is h",
      "E R",
      "on g",
      "en g",
      "it e",
      "l o",
      "a x",
      "ig n",
      "on d",
      "C ont",
      "s p",
      "r ing",
      "p p",
      "b er",
      "an e",
      "ul l",
      "at i",
      "or e",
      "ic e",
      "V al",
      "e z",
      "A r",
      "i re",
      "u re",
      "C h",
      "O b",
      "ro m",
      "ar y",
      "il d",
      "id e",
      "om p",
      "T o",
      "m an",
      "r on",
      "as h",
      "at ed",
      "S T",
      "o h",
      "r u",
      "f t",
      "r es",
      "im e",
      "in k",
      "et t",
      "Ġ z",
      "s c",
      "ĠS h",
      "is s",
      "ig ht",
      "n d",
      "an a",
      "er r",
      "iel d",
      "Ġp ro",
      "ar k",
      "en c",
      "Ob ject",
      "T ype",
      "g e",
      "it h",
      "C on",
      "er n",
      "iz e",
      "Ġs p",
      "et h",
      "er e",
      "ow n",
      "I D",
      "l es",
      "e h",
      "P ar",
      "i y",
      "t r",
      "C l",
      "Ġ e",
      "or m",
      "it t",
      "in s",
      "en e",
      "V iew",
      "ra y",
      "O R",
      "Val ue",
      "er c",
      "ol l",
      "le y",
      "o y",
      "O N",
      "h am",
      "Ġ le",
      "Ġp r",
      "or s",
      "al e",
      "A R",
      "R es",
      "on s",
      "m a",
      "c o",
      "E N",
      "i um",
      "U R",
      "r r",
      "Ġ im",
      "L ist",
      "k a",
      "I C",
      "o j",
      "ac e",
      "i ent",
      "E x",
      "h o",
      "s s",
      "ic al",
      "ro w",
      "ct ion",
      "t t",
      "in a",
      "Ġ Y",
      "I N",
      "Ġt h",
      "P ath",
      "ol d",
      "v er",
      "w e",
      "A N",
      "ĠA r",
      "ac t",
      "en ce",
      "P ro",
      "ol or",
      "y s",
      "qu e",
      "r it",
      "S C",
      "ut ton",
      "as e",
      "en n",
      "at o",
      "n o",
      "ar g",
      "l er",
      "r am",
      "E rr",
      "ĠS t",
      "ce pt",
      "e ad",
      "n i",
      "on e",
      "Ġ Z",
      "at ch",
      "Ġ qu",
      "Ġ ex",
      "Ġ ab",
      "al d",
      "Ġs c",
      "c k",
      "o le",
      "t em",
      "C C",
      "I d",
      "o od",
      "us h",
      "om m",
      "s ch",
      "L E",
      "Ġp l",
      "N ame",
      "an s",
      "Ġ Q",
      "Err or",
      "e e",
      "o z",
      "r ent",
      "b o",
      "r ic",
      "s er",
      "an ce",
      "o f",
      "i x",
      "er g",
      "a il",
      "D ata",
      "I m",
      "ar i",
      "Ġd is",
      "an k",
      "A L",
      "ap p",
      "Ġ ad",
      "ar l",
      "C T",
      "S c",
      "y d",
      "an c",
      "ad o",
      "in i",
      "A T",
      "K ey",
      "Ġ al",
      "u f",
      "am p",
      "Ġs ub",
      "y t",
      "C omp",
      "r id",
      "u ff",
      "ĠS ch",
      "le d",
      "S erv",
      "ĠA l",
      "B utton",
      "em ent",
      "em b",
      "S E",
      "r et",
      "an i",
      "a it",
      "T ext",
      "s l",
      "Ġ In",
      "a f",
      "or n",
      "ra v",
      "ar r",
      "g en",
      "A M",
      "at or",
      "f o",
      "Ġ y",
      "e qu",
      "h en",
      "a is",
      "l and",
      "am b",
      "S P",
      "ing s",
      "v al",
      "I T",
      "S ize",
      "y p",
      "e ar",
      "et er",
      "Ar ray",
      "St ring",
      "ad a",
      "f ord",
      "a ir",
      "R E",
      "in n",
      "it i",
      "I tem",
      "i en",
      "ion s",
      "es h",
      "C o",
      "S A",
      "r en",
      "Par am",
      "B y",
      "O f",
      "ug h",
      "ad e",
      "ot t",
      "Ġg et",
      "c on",
      "Ġs h",
      "R P",
      "k an",
      "ec k",
      "in c",
      "e in",
      "c c",
      "u j",
      "ut t",
      "B S",
      "ic t",
      "er a",
      "ic a",
      "ov er",
      "Cont ext",
      "C S",
      "ĠB l",
      "n g",
      "us s",
      "y c",
      "e at",
      "v ent",
      "Ġp ar",
      "n t",
      "p s",
      "or y",
      "ri b",
      "un c",
      "ar a",
      "um b",
      "ot h",
      "k e",
      "In t",
      "ic s",
      "on ent",
      "ut h",
      "ur rent",
      "ar m",
      "ur s",
      "q l",
      "en a",
      "u ch",
      "g er",
      "le ment",
      "P l",
      "y st",
      "eg o",
      "F ield",
      "Ġ an",
      "Ġ en",
      "Im age",
      "i ro",
      "or a",
      "is c",
      "os it",
      "F ile",
      "A C",
      "ut e",
      "P S",
      "i ra",
      "A pp",
      "re ate",
      "re en",
      "i h",
      "ro up",
      "am a",
      "Ġ ac",
      "z e",
      "ĠG u",
      "ag er",
      "us e",
      "at er",
      "C P",
      "v a",
      "al a",
      "Ġd es",
      "st r",
      "M od",
      "Ġs l",
      "v e",
      "ut o",
      "um ber",
      "f l",
      "Ġ ar",
      "o ff",
      "Ġ ap",
      "G et",
      "ch e",
      "D A",
      "u y",
      "Ġs et",
      "is m",
      "d en",
      "at th",
      "er y",
      "Ġ X",
      "Ġre c",
      "T ime",
      "al s",
      "m e",
      "equ est",
      "M an",
      "k h",
      "ro ll",
      "r ess",
      "I A",
      "is e",
      "St ate",
      "p ar",
      "am ent",
      "Ġp er",
      "d ex",
      "I S",
      "p o",
      "n er",
      "il le",
      "ur n",
      "P C",
      "it z",
      "ar c",
      "u z",
      "at es",
      "Ġ ro",
      "ul ar",
      "or r",
      "e ch",
      "l et",
      "i us",
      "r ad",
      "ord er",
      "av e",
      "al t",
      "ra w",
      "an j",
      "h a",
      "C olor",
      "f e",
      "S h",
      "et s",
      "ar b",
      "or b",
      "d u",
      "C ode",
      "I L",
      "i ff",
      "op h",
      "re f",
      "re v",
      "os e",
      "In dex",
      "l ock",
      "u v",
      "Ch ar",
      "our ce",
      "D P",
      "F l",
      "E S",
      "il i",
      "U T",
      "ri st",
      "Ġr es",
      "Ġ is",
      "u h",
      "g l",
      "b ar",
      "p i",
      "m l",
      "it er",
      "Comp onent",
      "M S",
      "k s",
      "k t",
      "i ed",
      "ian s",
      "ru ct",
      "y ch",
      "ay out",
      "re e",
      "I P",
      "R equest",
      "u an",
      "l d",
      "Ġm en",
      "y r",
      "ĠT h",
      "ing ton",
      "ra ck",
      "C H",
      "i i",
      "om b",
      "o ch",
      "ele ct",
      "s ub",
      "O ut",
      "ra g",
      "em e",
      "u x",
      "S et",
      "A ll",
      "ĠA m",
      "et e",
      "S I",
      "r im",
      "C all",
      "M A",
      "c z",
      "C A",
      "f ig",
      "an o",
      "a e",
      "ab b",
      "a o",
      "ro l",
      "f orm",
      "s w",
      "Ġc ont",
      "el y",
      "E n",
      "E vent",
      "R ef",
      "ĠS c",
      "G roup",
      "T R",
      "ay s",
      "ran s",
      "g o",
      "ak e",
      "z a",
      "as c",
      "E T",
      "er d",
      "ox y",
      "Ġj ed",
      "B ox",
      "Ġ od",
      "A ction",
      "o id",
      "b ack",
      "y le",
      "Ġ am",
      "r ed",
      "ro s",
      "ĠL e",
      "ri v",
      "es e",
      "o a",
      "ot s",
      "l a",
      "or k",
      "o o",
      "l ine",
      "Ġr et",
      "Ġ und",
      "a ff",
      "Res ult",
      "U N",
      "at ur",
      "S p",
      "r t",
      "ĠC on",
      "er ed",
      "Ġ ind",
      "ind ow",
      "cept ion",
      "P rop",
      "end o",
      "In put",
      "Man ager",
      "Ġc om",
      "ĠB ar",
      "U p",
      "M P",
      "Ġ ob",
      "re c",
      "Ex ception",
      "Ġ ant",
      "Serv ice",
      "m en",
      "l ing",
      "ĠA d",
      "um p",
      "Co unt",
      "A G",
      "est er",
      "sh ire",
      "ĠE d",
      "un ter",
      "u ild",
      "e j",
      "A d",
      "ay a",
      "an am",
      "i os",
      "r l",
      "ĠE m",
      "Cl ass",
      "el s",
      "Ġim p",
      "t en",
      "oc al",
      "P A",
      "m er",
      "e ut",
      "ow er",
      "at s",
      "L ayout",
      "T able",
      "as k",
      "en er",
      "u it",
      "ĠR e",
      "ar s",
      "b ur",
      "ĠA n",
      "T S",
      "F or",
      "oc ation",
      "am il",
      "Ġ em",
      "id d",
      "m y",
      "ion e",
      "os s",
      "i qu",
      "A s",
      "uc k",
      "p ort",
      "el le",
      "iz ed",
      "uc le",
      "ang e",
      "u le",
      "n ik",
      "S M",
      "o und",
      "Ġt r",
      "og g",
      "at ic",
      "u al",
      "il ity",
      "ra ph",
      "or g",
      "ra ct",
      "E lement",
      "ous e",
      "et te",
      "E D",
      "l ast",
      "p ro",
      "W ith",
      "l as",
      "In fo",
      "Con fig",
      "D R",
      "p on",
      "ay er",
      "U ser",
      "an el",
      "A D",
      "l ad",
      "A P",
      "A pi",
      "ber g",
      "ie j",
      "Ġc o",
      "Ġ ov",
      "Ġ el",
      "B C",
      "Ġp h",
      "u i",
      "ĠE l",
      "ed i",
      "id th",
      "in o",
      "S S",
      "b e",
      "ic ht",
      "ĠB r",
      "ead er",
      "re g",
      "ot o",
      "ol ic",
      "h i",
      "A l",
      "om e",
      "I M",
      "b it",
      "b r",
      "I s",
      "un k",
      "m ap",
      "lo ad",
      "c ent",
      "Ġf l",
      "in al",
      "r al",
      "a ut",
      "W indow",
      "w eb",
      "i et",
      "le ct",
      "C O",
      "o ugh",
      "E C",
      "ur a",
      "at ing",
      "Ġin c",
      "Ġ ent",
      "Ġ on",
      "Ġ x",
      "Ġ ed",
      "Ġs k",
      "w ood",
      "p ath",
      "an y",
      "S RP",
      "t n",
      "al i",
      "Ġ ang",
      "i or",
      "ch t",
      "sk i",
      "ab el",
      "ne w",
      "I V",
      "D K",
      "Mod el",
      "er k",
      "Ġ op",
      "ĠS al",
      "ar n",
      "T est",
      "d a",
      "ant i",
      "P M",
      "e ep",
      "u id",
      "r v",
      "ion al",
      "ra b",
      "Ġg r",
      "ar ch",
      "EN T",
      "a an",
      "id er",
      "Ġm ult",
      "f ield",
      "ri pt",
      "bo ard",
      "Ġ use",
      "a ur",
      "P h",
      "L og",
      "ul f",
      "f er",
      "ect ion",
      "im ent",
      "Param s",
      "t s",
      "im a",
      "B A",
      "o ad",
      "eg a",
      "r is",
      "M C",
      "ud d",
      "l ic",
      "ĠS p",
      "G F",
      "ig h",
      "Ġin t",
      "it em",
      "et ail",
      "ert y",
      "U S",
      "ok e",
      "U M",
      "c al",
      "N ode",
      "ib le",
      "Ġd i",
      "Ġc l",
      "k ey",
      "ĠW il",
      "P anel",
      "en u",
      "ation s",
      "ol og",
      "an th",
      "O A",
      "od y",
      "yn c",
      "b y",
      "Ġ out",
      "ac ter",
      "St at",
      "k ow",
      "H T",
      "le g",
      "A t",
      "M ap",
      "P T",
      "M D",
      "ak an",
      "Ġ ra",
      "v ert",
      "B ar",
      "s ed",
      "or es",
      "em p",
      "C ol",
      "b ra",
      "ok en",
      "j e",
      "Ġb l",
      "f or",
      "ĠS w",
      "ĠC l",
      "ad i",
      "ĠC o",
      "C M",
      "h at",
      "i em",
      "N umber",
      "ch ed",
      "it a",
      "m o",
      "Ġ au",
      "U n",
      "ic ul",
      "Ġ ol",
      "d ate",
      "St art",
      "er on",
      "z y",
      "a ud",
      "n y",
      "eth od",
      "ĠMc C",
      "at ri",
      "C I",
      "Ġcon v",
      "O r",
      "ar o",
      "i ri",
      "Ġm ax",
      "Ġp ost",
      "il s",
      "Cont ent",
      "T E",
      "l in",
      "a a",
      "Con st",
      "erc ent",
      "E m",
      "I B",
      "on ic",
      "ĠB ur",
      "um ent",
      "pon se",
      "W idth",
      "ĠB h",
      "om er",
      "Ġ ult",
      "z t",
      "r ich",
      "al k",
      "n et",
      "o ok",
      "a us",
      "Ar g",
      "u a",
      "C E",
      "B lock",
      "D ate",
      "S R",
      "m s",
      "e er",
      "id o",
      "ament e",
      "Ġt rans",
      "er o",
      "on a",
      "O n",
      "et ri",
      "L ine",
      "h r",
      "H eader",
      "F A",
      "end er",
      "Ġ as",
      "O M",
      "St ar",
      "omm and",
      "h et",
      "j sk",
      "A uto",
      "Ġin ter",
      "l or",
      "ĠP al",
      "it s",
      "o is",
      "A S",
      "I R",
      "w in",
      "Ġv ol",
      "Ġ er",
      "O ff",
      "at ive",
      "re ad",
      "Serv er",
      "im p",
      "E L",
      "Ġp ot",
      "D C",
      "ial og",
      "eth yl",
      "st ra",
      "I F",
      "ess age",
      "M ode",
      "Out put",
      "j s",
      "U I",
      "os h",
      "d e",
      "d b",
      "ut ter",
      "ast er",
      "C L",
      "Ġs w",
      "ur t",
      "or th",
      "x c",
      "ro b",
      "A n",
      "M enu",
      "it or",
      "l ess",
      "il es",
      "ak s",
      "ip p",
      "M ut",
      "Ġd ec",
      "ac ch",
      "Ġt o",
      "L O",
      "l i",
      "ro und",
      "Ġ add",
      "ou ch",
      "th or",
      "ers on",
      "ak i",
      "D B",
      "P op",
      "Ġ ep",
      "Ġb er",
      "le x",
      "Ġt est",
      "v en",
      "p en",
      "l ar",
      "Ġjed n",
      "uff er",
      "oc us",
      "Ġb h",
      "d er",
      "y cl",
      "it ion",
      "or ph",
      "ic z",
      "M B",
      "b ox",
      "as i",
      "es p",
      "G o",
      "ill a",
      "Ġs al",
      "enc y",
      "at an",
      "ol s",
      "eng th",
      "v i",
      "Ġd ef",
      "ra z",
      "T A",
      "P E",
      "am i",
      "Ġ ag",
      "ro ph",
      "z o",
      "P R",
      "U rl",
      "ar th",
      "IN G",
      "m in",
      "K A",
      "ed ia",
      "e ight",
      "T C",
      "io us",
      "ai re",
      "ud ent",
      "ol a",
      "m et",
      "it ies",
      "c om",
      "a ul",
      "Con n",
      "N av",
      "b l",
      "ĠW h",
      "ec ond",
      "am era",
      "a ult",
      "A v",
      "c ess",
      "ym b",
      "ĠQ u",
      "in put",
      "D ialog",
      "Ġs m",
      "Ġs ch",
      "ĠP r",
      "ĠM ah",
      "Cont rol",
      "ĠA g",
      "pl ic",
      "S O",
      "el i",
      "re y",
      "ĠD or",
      "M L",
      "el d",
      "w ell",
      "ra in",
      "ra p",
      "c a",
      "Ġre m",
      "ĠMc G",
      "Ġ oc",
      "Q u",
      "am m",
      "I G",
      "r um",
      "Ġp al",
      "o ot",
      "f ind",
      "eb ug",
      "B it",
      "ĠC B",
      "Ġre p",
      "Ġc urrent",
      "w a",
      "ĠK n",
      "ical ly",
      "i as",
      "on n",
      "Ġm il",
      "Res ource",
      "u ro",
      "op e",
      "ra ft",
      "Ġp re",
      "Res ponse",
      "In it",
      "l u",
      "al le",
      "n ya",
      "Ġ app",
      "N ew",
      "o i",
      "ab ility",
      "aw a",
      "Ġn ew",
      "ĠE r",
      "ĠW ood",
      "ov e",
      "Ġd el",
      "uk an",
      "F BS",
      "B uffer",
      "and le",
      "an z",
      "us er",
      "D ef",
      "er al",
      "rop ri",
      "FBS DK",
      "In ter",
      "at is",
      "re am",
      "it ri",
      "ar get",
      "u er",
      "av a",
      "F ocus",
      "v an",
      "Ġs up",
      "ang an",
      "V ar",
      "ak a",
      "j i",
      "O per",
      "st ein",
      "ĠA pp",
      "ate g",
      "v is",
      "ĠB x",
      "if t",
      "im m",
      "O P",
      "Ch ange",
      "S D",
      "Ġ up",
      "r as",
      "an h",
      "ap t",
      "o un",
      "S elect",
      "ant e",
      "Ġc reate",
      "r z",
      "c p",
      "pr ing",
      "ac y",
      "ĠW ar",
      "ev er",
      "Ġm eng",
      "ĠC or",
      "ĠP h",
      "iz ation",
      "Ġt er",
      "n ot",
      "if ic",
      "ĠB ro",
      "ect or",
      "Cl ient",
      "ak t",
      "ik i",
      "il a",
      "st e",
      "Ġle g",
      "R ec",
      "P age",
      "M essage",
      "f rom",
      "A F",
      "t ype",
      "Ġg l",
      "ĠM an",
      "D I",
      "ak kh",
      "Ġ o",
      "ag a",
      "Prop erty",
      "ĠQ x",
      "d ata",
      "D own",
      "c urrent",
      "n al",
      "s end",
      "o ul",
      "T P",
      "d o",
      "Ġ act",
      "er ence",
      "g es",
      "Ġin f",
      "v ol",
      "I O",
      "al f",
      "eg er",
      "ig g",
      "c ont",
      "b en",
      "E nd",
      "st er",
      "I ON",
      "an yl",
      "is T",
      "erm an",
      "ed a",
      "e an",
      "C B",
      "ul a",
      "A Y",
      "u ct",
      "op en",
      "om a",
      "D etail",
      "and er",
      "g ar",
      "S w",
      "st it",
      "ib us",
      "ĠB e",
      "C ell",
      "a ft",
      "ĠA t",
      "ath a",
      "S ub",
      "k in",
      "yp es",
      "ers ion",
      "D E",
      "it ch",
      "c ad",
      "ert ex",
      "and ler",
      "ell y",
      "it th",
      "ag es",
      "A nd",
      "R G",
      "k o",
      "ark s",
      "ol es",
      "C D",
      "t ot",
      "ign ment",
      "Ġ ev",
      "r at",
      "w w",
      "E M",
      "ĠV ill",
      "d own",
      "Ġc or",
      "r in",
      "n ey",
      "g ed",
      "y an",
      "c ed",
      "M R",
      "u el",
      "ant s",
      "Ġ ir",
      "ĠM ar",
      "Ġp or",
      "s m",
      "L ocation",
      "ĠE n",
      "in ch",
      "im b",
      "W eb",
      "st art",
      "old er",
      "M ain",
      "and o",
      "ic o",
      "A tt",
      "in ate",
      "Ġm an",
      "Ġh em",
      "Ġp at",
      "iment o",
      "od er",
      "od es",
      "as m",
      "N ull",
      "Ġ end",
      "P P",
      "B ack",
      "u es",
      "ĠA b",
      "ro c",
      "y te",
      "k en",
      "T T",
      "tt p",
      "B uf",
      "n am",
      "p atch",
      "L ink",
      "o int",
      "ĠR ock",
      "D is",
      "ic es",
      "S pr",
      "y e",
      "Ġ av",
      "ac c",
      "Stat us",
      "ĠS m",
      "ov a",
      "F orm",
      "v ed",
      "G C",
      "ick s",
      "J son",
      "L U",
      "C ard",
      "en z",
      "H P",
      "j a",
      "Ġex p",
      "ĠMc K",
      "Ġm on",
      "ri ff",
      "ĠM on",
      "H eight",
      "a uc",
      "u en",
      "ri p",
      "y th",
      "f s",
      "P ref",
      "ear ch",
      "ĠR o",
      "M N",
      "P osit",
      "qu al",
      "D ebug",
      "R ect",
      "ra c",
      "E d",
      "um er",
      "ĠMc D",
      "v ar",
      "m m",
      "Ġp ay",
      "ath er",
      "ir t",
      "Ġk n",
      "st ance",
      "Ġr el",
      "o ft",
      "Ġn e",
      "Ġ ip",
      "al ly",
      "R ow",
      "ell a",
      "ent e",
      "s b",
      "ri f",
      "m p",
      "ie v",
      "Ġ ur",
      "ap s",
      "n ame",
      "et ry",
      "t ext",
      "B uild",
      "ĠM ad",
      "ah an",
      "Ġs ol",
      "Ġ ut",
      "o in",
      "el t",
      "T L",
      "Ex p",
      "pl ay",
      "Ġad j",
      "F ind",
      "c i",
      "Ġv er",
      "et a",
      "om en",
      "S ync",
      "po int",
      "is on",
      "iv ity",
      "aw n",
      "ĠC ar",
      "pt y",
      "ad r",
      "y k",
      "p ond",
      "l ay",
      "ig est",
      "H DR",
      "ĠV er",
      "Ġcon s",
      "it ter",
      "in ation",
      "O pen",
      "en i",
      "F rom",
      "us c",
      "ĠA ng",
      "ĠR x",
      "un ch",
      "ur b",
      "a ug",
      "l ob",
      "t ed",
      "in u",
      "h an",
      "L ength",
      "ĠN ew",
      "e it",
      "ĠM ont",
      "ad er",
      "get B",
      "ush ed",
      "M ethod",
      "ut to",
      "od el",
      "U C",
      "R C",
      "pr int",
      "D ec",
      "and a",
      "f ile",
      "ap e",
      "ch en",
      "ĠF l",
      "le ction",
      "ag n",
      "C reate",
      "in it",
      "H A",
      "ct ive",
      "Ġc ur",
      "Ġ es",
      "Qu ery",
      "Ch o",
      "id az",
      "ĠR ed",
      "Ġn ot",
      "ign ed",
      "v ille",
      "N um",
      "A uth",
      "ers h",
      "h ou",
      "ust om",
      "Ġim m",
      "i ya",
      "s el",
      "om ot",
      "le m",
      "m at",
      "St udent",
      "m d",
      "Ġpr z",
      "w ay",
      "ĠO r",
      "ap ter",
      "Up date",
      "m ann",
      "ĠP ar",
      "ĠU n",
      "o ard",
      "iv er",
      "et o",
      "Ġ emb",
      "Ġp art",
      "e i",
      "S X",
      "w ord",
      "g u",
      "ra f",
      "oll ow",
      "d es",
      "x y",
      "ri z",
      "U L",
      "ro om",
      "au f",
      "P er",
      "Ġ over",
      "os a",
      "Ġ off",
      "G E",
      "m i",
      "L C",
      "d el",
      "re a",
      "I ST",
      "c op",
      "G ame",
      "rit er",
      "in es",
      "all ow",
      "du ct",
      "V C",
      "Ġf or",
      "ĠL or",
      "f ul",
      "L abel",
      "ĠM art",
      "ro id",
      "ĠB el",
      "un a",
      "ol o",
      "Ġ ann",
      "e al",
      "Ġb il",
      "an ch",
      "d raw",
      "s a",
      "pr ess",
      "T oken",
      "um e",
      "ir st",
      "Ġd em",
      "und er",
      "ĠH ar",
      "arg in",
      "As set",
      "Ġre f",
      "ĠC ol",
      "ell es",
      "T H",
      "ob j",
      "ell en",
      "v as",
      "rib ute",
      "N ot",
      "S l",
      "To ol",
      "ek s",
      "Ġn eut",
      "v ers",
      "D S",
      "atri x",
      "St yle",
      "ĠS e",
      "Att ribute",
      "h av",
      "co unter",
      "Ġp ol",
      "em ia",
      "Ġs pl",
      "ain s",
      "end e",
      "un n",
      "g i",
      "id es",
      "c olor",
      "b a",
      "ĠF re",
      "emb re",
      "Posit ion",
      "ad es",
      "Ġv al",
      "ulf anyl",
      "Ġ q",
      "sp ace",
      "ar ed",
      "h el",
      "Build er",
      "s ulfanyl",
      "Ġac c",
      "p ie",
      "s al",
      "ar at",
      "ph en",
      "F ull",
      "UR N",
      "en se",
      "ĠE ll",
      "ĠBl ack",
      "l en",
      "l ov",
      "est het",
      "Ġh um",
      "iv es",
      "in st",
      "v el",
      "b u",
      "C ent",
      "Ad d",
      "es i",
      "p erm",
      "Spr ite",
      "Ġs n",
      "a at",
      "G R",
      "ij k",
      "on c",
      "ap i",
      "our n",
      "it es",
      "Ġt ri",
      "ind ing",
      "ung en",
      "ce ed",
      "ot e",
      "ent s",
      "et on",
      "ie go",
      "air es",
      "on ne",
      "op p",
      "ac ute",
      "Ġf re",
      "ire ct",
      "Component s",
      "ĠM or",
      "ron e",
      "h ar",
      "ang k",
      "Off set",
      "ag en",
      "ro g",
      "Ġt ra",
      "it ar",
      "en na",
      "c s",
      "V ertex",
      "v iew",
      "ri e",
      "b b",
      "ĠW al",
      "w ar",
      "N ow",
      "Ġc ar",
      "b or",
      "l ink",
      "T h",
      "ug in",
      "O C",
      "p rop",
      "sk y",
      "s is",
      "ap h",
      "it o",
      "E G",
      "t est",
      "cl ass",
      "Ġw h",
      "est o",
      "p ton",
      "ar sh",
      "ell er",
      "it is",
      "am s",
      "S F",
      "S ource",
      "Ġp res",
      "uc c",
      "ient o",
      "e il",
      "il er",
      "ĠG al",
      "L P",
      "p os",
      "st ring",
      "is i",
      "ri es",
      "it al",
      "s en",
      "o om",
      "ĠR aj",
      "ĠK e",
      "ĠM o",
      "ut ion",
      "Ġpr et",
      "P ort",
      "oh n",
      "i que",
      "Rec ord",
      "ur ing",
      "N on",
      "r ite",
      "C R",
      "ER N",
      "l og",
      "h n",
      "B ody",
      "Key s",
      "s o",
      "S ett",
      "ĠR UT",
      "um n",
      "ran ch",
      "P os",
      "ĠU I",
      "our s",
      "ĠP ol",
      "h ab",
      "ĠH o",
      "Ġd ist",
      "ak er",
      "il t",
      "Log in",
      "ak ukan",
      "ide o",
      "em y",
      "E l",
      "V ideo",
      "ue ue",
      "in ct",
      "Ġm y",
      "M arks",
      "rev iew",
      "ymb ol",
      "Ġp op",
      "l ig",
      "el er",
      "ĠH e",
      "ef ont",
      "ĠG ar",
      "ep ort",
      "ell i",
      "Ġh ab",
      "m ond",
      "ock et",
      "Sett ings",
      "ef t",
      "ĠE p",
      "ocal Var",
      "g g",
      "ot her",
      "T I",
      "Ġp le",
      "b ert",
      "p age",
      "S up",
      "y o",
      "at u",
      "et ter",
      "ĠC av",
      "z n",
      "Sc ript",
      "ah i",
      "ann ya",
      "S al",
      "D id",
      "H L",
      "it le",
      "b ig",
      "ing en",
      "ch er",
      "r el",
      "T O",
      "v o",
      "ĠC ro",
      "ud a",
      "Ġs ur",
      "Sc reen",
      "Pl ayer",
      "T emp",
      "Ġm el",
      "ĠC ont",
      "R ad",
      "F S",
      "v es",
      "Co unter",
      "l ich",
      "est on",
      "ev a",
      "T ypes",
      "H S",
      "Sh ow",
      "Ġv att",
      "ĠI r",
      "S ql",
      "O U",
      "z in",
      "rv Group",
      "ist a",
      "M T",
      "Ġc yt",
      "ĠR h",
      "Q ueue",
      "L oad",
      "ild e",
      "up t",
      "Ġa us",
      "co unt",
      "Par a",
      "ĠH or",
      "r ight",
      "Ġc omp",
      "im i",
      "ud e",
      "t ils",
      "Item s",
      "B E",
      "re ens",
      "D ict",
      "ĠS om",
      "h d",
      "ash i",
      "Param eter",
      "l ish",
      "Par ser",
      "d l",
      "Ġst at",
      "ist s",
      "y g",
      "R S",
      "eh yd",
      "il ly",
      "n c",
      "oc ument",
      "Comp at",
      "yl l",
      "ht t",
      "v ider",
      "Ġb r",
      "Ġcon c",
      "e ce",
      "om y",
      "C om",
      "Ġh ot",
      "get C",
      "yst em",
      "at en",
      "os is",
      "rom e",
      "g ram",
      "i endo",
      "ef ore",
      "on es",
      "m ouse",
      "oll is",
      "F T",
      "ist ic",
      "e ed",
      "A B",
      "Ġin s",
      "P L",
      "k i",
      "a ugh",
      "it te",
      "Ġt re",
      "at ter",
      "Mod ule",
      "ym ph",
      "ĠG o",
      "B tn",
      "ot rop",
      "ĠB erg",
      "ĠE st",
      "Ġ ele",
      "B ound",
      "F F",
      "c reate",
      "w ick",
      "ik a",
      "W ait",
      "Ġm in",
      "ĠP A",
      "Ġcont ent",
      "UR L",
      "ir m",
      "on y",
      "at iv",
      "B L",
      "m ath",
      "ar ia",
      "un e",
      "r ine",
      "ow an",
      "ĠP l",
      "ar et",
      "Ġm ast",
      "ic i",
      "Pl ugin",
      "ett a",
      "ne j",
      "O L",
      "Ġp ur",
      "im er",
      "ic ons",
      "B I",
      "il it",
      "ile y",
      "Ġm ag",
      "yt es",
      "Ġ enc",
      "ile d",
      "h ot",
      "A A",
      "h m",
      "th er",
      "G P",
      "iv al",
      "ĠS te",
      "el et",
      "Ġcon se",
      "ob ac",
      "ar an",
      "Ġ ass",
      "S U",
      "ĠA y",
      "ach e",
      "o en",
      "St ruct",
      "all back",
      "and om",
      "og en",
      "Ġc re",
      "P k",
      "a int",
      "al er",
      "Oper ation",
      "C ommand",
      "D ev",
      "um l",
      "e ek",
      "ĠA sh",
      "Ġt or",
      "z en",
      "b s",
      "Sc roll",
      "ath am",
      "ub le",
      "iy e",
      "bur y",
      "Ġd ham",
      "R et",
      "Av g",
      "it ed",
      "S ch",
      "ĠAr ch",
      "Ġp os",
      "Ġ or",
      "im o",
      "os c",
      "V is",
      "st ock",
      "ay am",
      "Ġin v",
      "F ont",
      "amp le",
      "ro u",
      "A E",
      "r ug",
      "et her",
      "ĠP L",
      "e on",
      "R out",
      "in f",
      "h al",
      "row n",
      "anj a",
      "ert o",
      "am o",
      "ul ation",
      "Ġst r",
      "Ġp e",
      "m as",
      "roll er",
      "t im",
      "op l",
      "R ight",
      "ik e",
      "ter ed",
      "Ġre g",
      "k it",
      "os ph",
      "rist ian",
      "row ser",
      "Ġv el",
      "g a",
      "ĠN ag",
      "og ram",
      "ew ork",
      "P ack",
      "T op",
      "ec o",
      "og o",
      "n ess",
      "ol son",
      "v ation",
      "N D",
      "P tr",
      "ĠR eg",
      "ĠR os",
      "out s",
      "Ġp ers",
      "et ch",
      "on o",
      "ad os",
      "un sch",
      "G S",
      "as is",
      "C F",
      "P ress",
      "f ace",
      "olic y",
      "n em",
      "Ġs il",
      "T ask",
      "Ġd uk",
      "l av",
      "ogg le",
      "Ġm er",
      "an ia",
      "ĠG ir",
      "i ol",
      "SX ml",
      "V ersion",
      "ĠE M",
      "im age",
      "ass a",
      "um ph",
      "cz n",
      "o up",
      "Ġl oc",
      "l j",
      "S earch",
      "h es",
      "ob b",
      "U ID",
      "ĠMc Int",
      "Nav ig",
      "H ttp",
      "E qual",
      "G l",
      "Ġs put",
      "In stance",
      "ed it",
      "ak es",
      "oj i",
      "Char acter",
      "Ġin put",
      "Conn ection",
      "Un ary",
      "ol m",
      "ill es",
      "l io",
      "Ġre ct",
      "ild a",
      "Ġd o",
      "r ame",
      "ĠD om",
      "at form",
      "ang u",
      "as ena",
      "ĠB er",
      "on ucle",
      "Ġa f",
      "Prop s",
      "ĠE x",
      "at on",
      "Ġb ul",
      "ick er",
      "Ġ ext",
      "S ON",
      "ĠMc L",
      "at as",
      "AR T",
      "ar on",
      "err ed",
      "Ġ ing",
      "c re",
      "rack et",
      "as al",
      "P ix",
      "uc ed",
      "get M",
      "C amera",
      "olog y",
      "re w",
      "ir l",
      "Ġpar ab",
      "Em pty",
      "O W",
      "Ġs am",
      "if y",
      "sc reen",
      "Ġl le",
      "Mut ability",
      "Ġs ymbol",
      "he ad",
      "econd s",
      "P D",
      "id den",
      "al iz",
      "idaz ole",
      "Ġm ic",
      "Inter face",
      "isT rack",
      "ad or",
      "Ġg i",
      "or i",
      "ain ed",
      "al an",
      "re p",
      "ar ant",
      "c y",
      "IL L",
      "h y",
      "O w",
      "app ing",
      "ĠH ay",
      "D L",
      "F it",
      "g round",
      "P ush",
      "az ar",
      "Ġr ed",
      "ro d",
      "ect ive",
      "P olicy",
      "m iss",
      "E P",
      "ur y",
      "ik t",
      "Ġk ar",
      "ĠL uc",
      "ial s",
      "T arget",
      "p m",
      "V CT",
      "Ġt e",
      "sk e",
      "lect ic",
      "B P",
      "Ġf o",
      "Ġd e",
      "ie f",
      "OR T",
      "end en",
      "ĠC H",
      "os k",
      "n av",
      "F C",
      "rav en",
      "B oard",
      "er os",
      "B l",
      "Call back",
      "b ad",
      "R A",
      "o or",
      "Pro ject",
      "ian a",
      "v r",
      "Ġc ol",
      "H andler",
      "row s",
      "ĠG i",
      "ist er",
      "amil y",
      "ap pe",
      "P O",
      "Dev ice",
      "S ample",
      "ing ham",
      "ĠS k",
      "ra ce",
      "yt ic",
      "ind e",
      "ond o",
      "id in",
      "Ġp ercent",
      "ern o",
      "ard i",
      "ch ar",
      "Ġv iv",
      "F act",
      "Fl ight",
      "ark er",
      "eg round",
      "es us",
      "if e",
      "U sed",
      "Ġv utt",
      "ĠK x",
      "Ġm eg",
      "at iti",
      "ers ch",
      "ĠB ad",
      "c ode",
      "ess e",
      "um ann",
      "Ġb et",
      "Ġs u",
      "se arch",
      "on ey",
      "ĠM ax",
      "pe at",
      "P I",
      "imp le",
      "Ġm ost",
      "ung s",
      "it one",
      "Ġf err",
      "Ġr en",
      "Ġg el",
      "il is",
      "w ise",
      "ir ed",
      "pe ar",
      "inn er",
      "Ġf amil",
      "ord an",
      "Ġd iss",
      "ri ft",
      "Ġkn ock",
      "r ish",
      "Detail s",
      "ĠM aur",
      "urs or",
      "ush room",
      "erg ic",
      "ĠA ll",
      "os i",
      "o on",
      "ĠG all",
      "ez a",
      "Ġ ic",
      "out h",
      "Ġd ata",
      "ĠB eat",
      "az e",
      "bur g",
      "ang le",
      "ah u",
      "a im",
      "ann y",
      "D T",
      "z i",
      "il m",
      "ĠRUT AR",
      "S ave",
      "ur l",
      "ĠO b",
      "F R",
      "s id",
      "ah ul",
      "ag ue",
      "ro t",
      "id a",
      "Ġsub t",
      "uro pe",
      "ro ke",
      "ly n",
      "Ġp hen",
      "th a",
      "eb ra",
      "B in",
      "er es",
      "st ream",
      "O H",
      "Ġc le",
      "U D",
      "Ġb ro",
      "ur es",
      "ik an",
      "y att",
      "st one",
      "Ex t",
      "ĠB uk",
      "Pro vider",
      "Ġa x",
      "Ġh ead",
      "ow ell",
      "h ad",
      "ĠG h",
      "W all",
      "ĠS he",
      "Ad apter",
      "ĠB oy",
      "am ine",
      "abb am",
      "Ġd ign",
      "r ust",
      "Arg s",
      "ig o",
      "Ġp osit",
      "ament o",
      "ĠD al",
      "ĠA nd",
      "ol ver",
      "D es",
      "Ġm ot",
      "ĠH umph",
      "t b",
      "m ult",
      "Fl ag",
      "h im",
      "od or",
      "r ant",
      "w ard",
      "ul s",
      "N S",
      "Cent er",
      "i ers",
      "ar ah",
      "Ġv ert",
      "ĠC R",
      "s ad",
      "ER C",
      "Ġh and",
      "U tils",
      "Ġp rop",
      "Ġc r",
      "al am",
      "ff en",
      "E Y",
      "ra ul",
      "Ġt ot",
      "al ar",
      "alle l",
      "st ant",
      "ation al",
      "ĠM arg",
      "ran c",
      "ur d",
      "ay e",
      "um m",
      "V ER",
      "ie g",
      "Ġm ill",
      "ĠG r",
      "Cont roller",
      "T ab",
      "al m",
      "en o",
      "el ess",
      "t ol",
      "ed d",
      "Ġab h",
      "ĠC orn",
      "Ġd il",
      "St r",
      "A ss",
      "ĠN orth",
      "ĠU t",
      "ell o",
      "Ġk ey",
      "D to",
      "Ġex c",
      "p or",
      "ĠN L",
      "u est",
      "D el",
      "O pt",
      "Ġt en",
      "B T",
      "b re",
      "rev i",
      "akes pe",
      "w rap",
      "k ar",
      "itri le",
      "C urrent",
      "Ġv ucc",
      "a ad",
      "ĠB a",
      "d k",
      "Ġ at",
      "Ġk ah",
      "Rad ius",
      "au er",
      "p op",
      "Ġm yc",
      "sch e",
      "Ġpr im",
      "ĠU IC",
      "ind er",
      "Ġund er",
      "itt ing",
      "end ez",
      "s y",
      "re et",
      "ry st",
      "ford shire",
      "V S",
      "ang er",
      "tr l",
      "es u",
      "id ad",
      "ĠM ull",
      "ost er",
      "s i",
      "ĠC an",
      "il y",
      "B eat",
      "ĠG reen",
      "V ector",
      "ch es",
      "im ation",
      "omm on",
      "s n",
      "ia z",
      "s ec",
      "ed er",
      "Ġv en",
      "Ġs em",
      "h ouse",
      "D ir",
      "Ch ild",
      "air d",
      "R e",
      "at ir",
      "Ch ang",
      "ic ate",
      "ob il",
      "Pop up",
      "and al",
      "ez e",
      "st ruct",
      "ĠC omp",
      "ĠT on",
      "Ph oto",
      "ĠSt aff",
      "St ack",
      "ĠS tr",
      "O ne",
      "Ġt ub",
      "enc es",
      "g ing",
      "ach t",
      "ĠW eb",
      "qu ier",
      "S ystem",
      "n es",
      "d rop",
      "f ol",
      "y pt",
      "b um",
      "By te",
      "al ur",
      "ĠBar cl",
      "ĠS ab",
      "il ib",
      "en ie",
      "IN T",
      "l ia",
      "ĠA p",
      "ij e",
      "Key board",
      "b revi",
      "Ġw arm",
      "ĠF err",
      "Ġcon f",
      "Ġ est",
      "c or",
      "qu am",
      "ay an",
      "sk a",
      "ĠH er",
      "ul in",
      "M ov",
      "iro s",
      "or um",
      "Rout e",
      "iy et",
      "h as",
      "ill er",
      "az i",
      "s ql",
      "Ġ et",
      "ab s",
      "s man",
      "M E",
      "A ud",
      "C ase",
      "em an",
      "ĠM ain",
      "Ġb e",
      "uch i",
      "z ym",
      "orr h",
      "ik um",
      "Ġf ile",
      "j el",
      "Ġsub Test",
      "old s",
      "el f",
      "R AN",
      "ĠM a",
      "Ġr up",
      "ement s",
      "Ġ eg",
      "P ercent",
      "l t",
      "Q L",
      "u ang",
      "D ocument",
      "Pro duct",
      "ĠF air",
      "Ġ atth",
      "ew er",
      "Ġod p",
      "Ġc in",
      "A c",
      "Ġt em",
      "in er",
      "at ors",
      "as p",
      "Ġm et",
      "Ġb o",
      "G A",
      "ĠH ein",
      "ub e",
      "ĠG er",
      "Ġm od",
      "eh en",
      "w en",
      "er re",
      "Ġa ff",
      "k k",
      "ar ra",
      "ĠG ro",
      "c d",
      "in h",
      "ĠL ut",
      "ast e",
      "ar ies",
      "og raph",
      "s pl",
      "D F",
      "ond a",
      "ar is",
      "v ach",
      "w t",
      "ip er",
      "ol t",
      "P ass",
      "ie ht",
      "at in",
      "el o",
      "ĠC am",
      "ane u",
      "ram ework",
      "iss ion",
      "r yl",
      "X Y",
      "ĠA ss",
      "W e",
      "ĠR ad",
      "ra ch",
      "ĠE ng",
      "ri k",
      "Navig ator",
      "ĠH aw",
      "ru ff",
      "web Element",
      "erm i",
      "T ree",
      "ind en",
      "Ġd ev",
      "un ct",
      "st at",
      "Ġm it",
      "of ar",
      "is er",
      "ar in",
      "ong o",
      "ĠS ur",
      "ig an",
      "yl oxy",
      "c ol",
      "A rea",
      "al ign",
      "land s",
      "s un",
      "ib b",
      "ph al",
      "Y PE",
      "rom o",
      "ik o",
      "E ach",
      "Un it",
      "w rite",
      "K ind",
      "ĠM al",
      "C ore",
      "I f",
      "V P",
      "ĠU l",
      "ad am",
      "A b",
      "ĠP et",
      "ell s",
      "k y",
      "fe it",
      "Ġ art",
      "d ef",
      "ip h",
      "o ol",
      "ĠB rit",
      "C ap",
      "Ġo ct",
      "att s",
      "el a",
      "re x",
      "n own",
      "Ġ and",
      "l is",
      "Ġ id",
      "ry pt",
      "ol id",
      "h ens",
      "ĠF A",
      "l ist",
      "G rid",
      "ucle aires",
      "U E",
      "umb le",
      "L AG",
      "A p",
      "ag ger",
      "et z",
      "ys z",
      "p osit",
      "P review",
      "g reg",
      "P ane",
      "ĠS L",
      "ow e",
      "ub s",
      "ur k",
      "ang s",
      "ro te",
      "ok u",
      "Ġa uto",
      "is ing",
      "Ġre aliz",
      "D rop",
      "Ġm ar",
      "0 x",
      "< 0x",
      "Ġcon d",
      "ĠW ill",
      "et ic",
      "RG B",
      "I K",
      "res h",
      "ĠG ab",
      "iff er",
      "Ġt her",
      "R x",
      "Rx Document",
      "Ġ att",
      "ric t",
      "com stock",
      "ĠS RP",
      "A sp",
      "ic le",
      "ah l",
      "ek t",
      "Sup port",
      "ch n",
      "ag on",
      "Ġb re",
      "ĠY am",
      "kin son",
      "ĠM aj",
      "Ġn ov",
      "phen yl",
      "Ġb eg",
      "ĠA ug",
      "thor ax",
      "ig ation",
      "Event s",
      "ran e",
      "To Props",
      "idd le",
      "ĠB al",
      "an es",
      "ĠF itz",
      "er ial",
      "ill us",
      "Con cept",
      "Y Y",
      "Ġt w",
      "Ġm and",
      "G raph",
      "ĠP ad",
      "b eat",
      "AT IV",
      "P erm",
      "oph or",
      "x x",
      "htt p",
      "ring ton",
      "f ollow",
      "ĠB ern",
      "Ġre v",
      "ag in",
      "u ana",
      "Ġl a",
      "ill on",
      "Ġn eg",
      "av ed",
      "ism s",
      "E nt",
      "Ġh alf",
      "c up",
      "Ġp ed",
      "ex pr",
      "Ġc ele",
      "Ġg acch",
      "o e",
      "on om",
      "Ġf ast",
      "Com pl",
      "erm in",
      "ĠL iv",
      "ho ok",
      "Ed it",
      "S he",
      "Cho ice",
      "Ġj u",
      "R oot",
      "ac et",
      "Ġp ort",
      "i ot",
      "an che",
      "T rans",
      "ĠK ais",
      "im iz",
      "B r",
      "G T",
      "XY Z",
      "Ġs ob",
      "w an",
      "ex ec",
      "ir th",
      "M atrix",
      "Dis patch",
      "omm od",
      "S L",
      "ent ly",
      "Sh ape",
      "c ul",
      "ĠC yr",
      "i at",
      "ard ed",
      "et r",
      "on na",
      "y er",
      "ik ut",
      "i ert",
      "Ġb as",
      "id get",
      "ĠB og",
      "off set",
      "ug e",
      "ym pt",
      "L ua",
      "pl ot",
      "m ethod",
      "eg u",
      "c orr",
      "B U",
      "Ġin st",
      "th ol",
      "i ary",
      "re k",
      "es z",
      "ct ivity",
      "s ie",
      "b ib",
      "Ġt ro",
      "I I",
      "S H",
      "Ġw a",
      "ĠL ak",
      "qu are",
      "ri ed",
      "ic les",
      "ĠP e",
      "an vas",
      "ob e",
      "B R",
      "ater al",
      "ĠP ro",
      "n ego",
      "ĠE ug",
      "ad al",
      "Ġf e",
      "r ig",
      "B ase",
      "Col umn",
      "yd ro",
      "un es",
      "s or",
      "ere cht",
      "ir an",
      "Ġ all",
      "ĠD own",
      "ap sed",
      "j al",
      "ur ity",
      "D M",
      "Fact ory",
      "Ġb ase",
      "ok at",
      "et to",
      "ĠD od",
      "B efore",
      "I Z",
      "par am",
      "Pl atform",
      "ib er",
      "as us",
      "Ġd ep",
      "ĠD h",
      "Ġy ath",
      "iv en",
      "ĠAug ust",
      "itt en",
      "Ġn aj",
      "it im",
      "Ar ch",
      "hat u",
      "im et",
      "y b",
      "an ne",
      "th en",
      "nam efont",
      "C anvas",
      "ud an",
      "m und",
      "ev el",
      "op y",
      "m ont",
      "ull am",
      "p ost",
      "r ade",
      "CT OR",
      "Back ground",
      "S ort",
      "Ġph ot",
      "En c",
      "ĠO l",
      "Sp ace",
      "Ġl ocalVar",
      "ott om",
      "ĠV iv",
      "ub lic",
      "g ame",
      "ĠN P",
      "oj a",
      "AR R",
      "F older",
      "c est",
      "Text ure",
      "d d",
      "org an",
      "iv o",
      "L evel",
      "erm e",
      "ad is",
      "Ġd ob",
      "A ctivity",
      "eng u",
      "enc ent",
      "A SE",
      "ĠP el",
      "ung an",
      "arb ox",
      "E LE",
      "ĠB o",
      "ip e",
      "ĠI N",
      "ĠK ey",
      "ous se",
      "Sc ale",
      "ELE ASE",
      "Ġ item",
      "re ch",
      "eb en",
      "S rvGroup",
      "ri j",
      "T mp",
      "ĠS pring",
      "Ġconse qu",
      "ent ial",
      "c el",
      "p le",
      "od h",
      "t ime",
      "e pt",
      "Ġal iqu",
      "ww w",
      "www pond",
      "ent o",
      "Ġl ib",
      "Ġd rag",
      "and l",
      "ct x",
      "P ost",
      "Ġmult ic",
      "i am",
      "M atch",
      "CP P",
      "ĠIn put",
      "ĠK ish",
      "A I",
      "Ġl ab",
      "ĠP ap",
      "ant ile",
      "ur ry",
      "er ton",
      "ĠM H",
      "g d",
      "R AM",
      "lo ud",
      "us es",
      "AR G",
      "m ax",
      "c os",
      "ĠJ ac",
      "d is",
      "Pack age",
      "Id le",
      "v m",
      "Idle Sync",
      "Pk g",
      "Para Pkg",
      "l us",
      "ĠB rid",
      "Ġr h",
      "d am",
      "um an",
      "ar as",
      "Ġl u",
      "Ġg ah",
      "n ah",
      "AL L",
      "ot lin",
      "ict ure",
      "Ġs ac",
      "hen ium",
      "i om",
      "b uf",
      "ĠHe id",
      "f u",
      "Ġt ran",
      "aw ks",
      "T ake",
      "sh ip",
      "ĠW at",
      "f eat",
      "EN UM",
      "New Url",
      "form ed",
      "Ġgah et",
      "Ġmic ro",
      "Ġhalf Canvas",
      "am os",
      "Ġm em",
      "om es",
      "ĠA v",
      "ersh ire",
      "us p",
      "ĠV en",
      "arl ene",
      "Method Beat",
      "m it",
      "cop rote",
      "Ġan is",
      "g n",
      "R aw",
      "Ġneut ral",
      "Ġg ol",
      "ĠP at",
      "Ġm orph",
      "ĠM erc",
      "ar ic",
      "enn y",
      "ĠA st",
      "j ob",
      "en ia",
      "os in",
      "app ed",
      "D o",
      "st en",
      "ĠM od",
      "ob er",
      "O CC",
      "P oint",
      "an iy",
      "u o",
      "r ar",
      "N N",
      "al g",
      "s ize",
      "f ill",
      "Ġs ett",
      "Ġinter view",
      "Ġs le",
      "ent h",
      "ĠB ang",
      "ab bo",
      "ĠP fe",
      "F ER",
      "ag o",
      "t in",
      "Ġ us",
      "oth erm",
      "est ing",
      "W MN",
      "s z",
      "ator y",
      "h ed",
      "or man",
      "P ut",
      "ala ikum",
      "ĠP ear",
      "or rent",
      "ehyd e",
      "ord on",
      "E E",
      "ĠC ov",
      "V OA",
      "l r",
      "il ian",
      "le f",
      "ung k",
      "Struct Of",
      "ĠP ay",
      "yc le",
      "ient e",
      "j ug",
      "ĠMc M",
      "Arch ive",
      "c urs",
      "L eft",
      "st m",
      "ke it",
      "if ied",
      "eg en",
      "in ter",
      "Press ed",
      "pie ce",
      "b ed",
      "ĠL D",
      "il on",
      "er at",
      "Ġrep et",
      "b and",
      "u ed",
      "ut te",
      "L AN",
      "oh l",
      "b urn"
    ],
    "counts": "[[32,4717],[40,2],[64,41163],[72,14],[257,39316],[260,5919],[262,48158],[267,28341],[276,43829],[284,4942],[292,6859],[305,1605],[340,265],[377,2193],[389,2],[415,1],[439,27984],[441,2],[443,4],[453,3389],[456,205],[466,1358],[481,2227],[484,4],[485,47732],[498,21301],[500,3],[501,48627],[508,11],[512,4],[520,5303],[531,1500],[533,3224],[535,93],[536,1],[539,1],[547,42226],[548,60],[556,4],[557,638],[559,47237],[561,4],[564,97],[569,3],[580,2],[581,140],[585,4],[587,2],[588,31],[589,5],[592,3],[618,190],[625,8],[626,21],[628,1],[629,8371],[634,24292],[637,3],[639,35893],[641,3],[643,12187],[644,201],[647,2],[649,1390],[650,45722],[654,23982],[658,3],[666,5],[667,9705],[674,7],[677,3],[682,278],[684,5],[685,13546],[690,27600],[694,3],[701,70],[702,394],[709,4],[710,11392],[713,2],[715,2076],[721,857],[726,12768],[727,14139],[742,4],[743,13],[745,3],[746,5],[747,3],[748,2],[750,32264],[751,1159],[753,48],[754,3],[755,574],[758,38815],[762,4],[763,3],[764,1050],[765,479],[767,4],[773,37419],[778,11742],[780,3],[784,38],[788,16229],[790,2],[791,40],[796,23524],[799,271],[800,39788],[804,7995],[805,8538],[806,2],[807,138],[811,31],[815,14795],[816,20189],[817,3449],[818,612],[820,4],[821,87],[822,2],[823,8180],[824,29],[825,14],[829,1423],[831,5],[832,32910],[834,94],[839,18],[841,2],[850,2],[851,4],[863,27897],[869,26363],[873,2],[874,12785],[877,3],[879,93],[881,19820],[882,2],[885,1050],[886,4],[888,3],[894,5952],[895,618],[897,1],[899,9],[900,2],[902,4],[903,2],[905,89],[909,327],[910,33028],[912,93],[914,7546],[915,3],[919,8],[920,5],[923,4],[929,1163],[931,1],[937,4],[938,185],[943,32005],[944,174],[945,33964],[946,405],[947,37],[949,64],[950,5],[955,44996],[956,1],[959,3],[960,2],[961,3],[963,94],[964,3],[965,2],[970,3816],[972,3060],[973,3],[977,2],[980,96],[982,2],[988,4],[991,3],[994,64],[996,9],[998,29],[1000,57],[1001,1],[1002,2],[1003,3],[1005,3],[1006,24746],[1007,14397],[1008,40955],[1013,30448],[1016,3],[1018,2],[1024,3],[1026,10599],[1032,19553],[1033,3],[1035,1],[1036,36],[1037,10],[1040,1],[1044,927],[1046,4],[1050,5],[1051,4],[1053,891],[1054,19259],[1056,43],[1057,2],[1060,20682],[1061,32619],[1065,455],[1069,199],[1073,3515],[1075,2381],[1077,1811],[1078,4],[1079,2],[1083,111],[1085,1],[1086,4],[1087,3643],[1089,7255],[1090,2405],[1092,242],[1093,31705],[1094,1],[1095,3012],[1096,464],[1097,838],[1099,17419],[1100,4],[1101,1065],[1102,32644],[1104,217],[1106,48053],[1110,10],[1112,3],[1113,3],[1114,101],[1115,6],[1117,1179],[1119,1],[1121,16488],[1122,49],[1124,15],[1125,3],[1126,4],[1127,3],[1129,28078],[1131,1796],[1132,1],[1133,47481],[1141,3],[1142,6415],[1145,882],[1146,3386],[1150,3],[1151,96],[1156,6592],[1158,1],[1159,4347],[1160,3],[1161,5],[1162,5108],[1164,34079],[1167,839],[1168,3],[1169,407],[1170,6],[1172,454],[1178,13],[1182,2],[1183,15],[1184,1531],[1185,42161],[1189,19],[1191,3683],[1192,2],[1196,14],[1197,4],[1200,837],[1201,4],[1205,27102],[1206,558],[1209,41197],[1211,3],[1214,3],[1216,3116],[1217,1138],[1218,4],[1220,10434],[1223,14],[1226,3],[1227,3],[1231,33567],[1232,32433],[1233,4],[1235,6],[1239,10],[1241,526],[1242,98],[1243,312],[1244,1],[1245,9],[1248,32],[1252,352],[1253,2],[1254,3],[1255,3],[1257,4],[1258,1],[1260,2],[1261,3415],[1262,3],[1263,576],[1264,22129],[1266,36647],[1269,1],[1270,3],[1273,3],[1275,1],[1282,5525],[1285,1],[1291,1558],[1292,1348],[1293,103],[1299,2365],[1301,3],[1302,3],[1303,3],[1305,2],[1307,3825],[1308,1],[1309,8660],[1313,40714],[1314,4],[1315,2],[1318,17],[1326,1],[1328,278],[1329,4],[1330,269],[1332,2],[1335,2],[1336,1],[1337,23],[1338,16],[1340,64],[1343,6],[1344,2],[1347,3],[1352,29167],[1353,1],[1354,38258],[1357,202],[1359,27],[1360,1],[1364,11815],[1365,37815],[1370,2],[1371,415],[1372,1],[1374,2],[1379,2],[1380,89],[1385,5],[1386,1],[1388,2],[1389,159],[1390,3],[1391,25],[1394,1],[1397,75],[1398,269],[1401,15764],[1402,3],[1404,3],[1405,1],[1406,1371],[1407,2],[1409,2],[1410,4],[1411,18],[1412,11],[1414,4376],[1415,4],[1418,1580],[1420,2],[1421,585],[1422,3],[1423,1],[1425,185],[1428,443],[1429,4],[1433,16514],[1434,2],[1435,6],[1438,10312],[1440,90],[1441,42859],[1443,160],[1444,3],[1447,4],[1449,2],[1450,34728],[1451,4],[1452,338],[1455,12],[1458,888],[1460,11030],[1463,26],[1464,1064],[1468,4],[1469,207],[1473,3780],[1474,1],[1478,9554],[1479,4],[1480,6],[1484,5505],[1485,528],[1487,4],[1488,34832],[1490,37],[1491,4],[1495,3],[1496,4],[1498,635],[1499,1],[1501,1],[1505,1283],[1506,4],[1507,3],[1510,60],[1513,2],[1515,5],[1517,3673],[1518,2],[1519,115],[1520,2034],[1523,1],[1528,2],[1530,2],[1531,1],[1533,3],[1535,11],[1536,8],[1538,1475],[1543,2],[1544,203],[1547,2],[1550,15988],[1551,2742],[1552,72],[1554,10],[1555,4],[1557,41617],[1558,15720],[1559,43192],[1561,2],[1562,3853],[1563,6339],[1564,4],[1565,4],[1567,2],[1568,11235],[1570,434],[1572,48360],[1574,1],[1575,2],[1577,17189],[1580,11334],[1583,6],[1585,831],[1587,28287],[1588,237],[1589,15607],[1590,1],[1592,1],[1595,8],[1596,55],[1598,37],[1599,1],[1604,4],[1605,475],[1607,193],[1608,67],[1609,332],[1610,131],[1611,31186],[1615,103],[1616,20],[1617,167],[1623,3],[1625,47020],[1626,4],[1629,45],[1630,1],[1632,6],[1633,5],[1635,5],[1642,1015],[1643,9191],[1644,24],[1650,47052],[1652,33625],[1653,3],[1654,45047],[1656,3],[1658,8610],[1659,4],[1660,2],[1661,8],[1662,5453],[1665,1230],[1666,835],[1667,9],[1668,4],[1669,108],[1670,1],[1671,41974],[1673,2113],[1674,3],[1675,4188],[1677,46073],[1678,1],[1681,9919],[1682,4762],[1684,1],[1687,38271],[1688,1],[1690,146],[1691,11205],[1696,23],[1697,61],[1699,2447],[1700,40683],[1702,49406],[1705,2],[1711,372],[1713,80],[1714,2832],[1715,3],[1716,1],[1717,115],[1718,1],[1722,41576],[1724,47],[1726,21],[1727,408],[1728,4],[1729,3],[1730,2],[1733,4],[1736,1],[1737,38456],[1740,42],[1741,3],[1742,3],[1743,13065],[1744,3],[1745,3275],[1746,2],[1748,4],[1753,1010],[1755,4335],[1759,32],[1760,3],[1762,3],[1763,855],[1767,1],[1769,15861],[1771,187],[1772,1006],[1773,4],[1774,4],[1775,38900],[1777,3],[1778,46],[1782,2],[1783,1700],[1784,11],[1785,2],[1787,1691],[1788,48019],[1791,13],[1792,1],[1793,8826],[1795,1],[1797,11],[1801,232],[1802,12],[1805,3],[1807,38928],[1809,124],[1811,2],[1813,2],[1814,40592],[1815,43094],[1818,642],[1819,11],[1822,3],[1823,2],[1824,4],[1827,3],[1828,11],[1829,3],[1830,5],[1831,2],[1832,10],[1833,14022],[1835,18778],[1836,37322],[1838,6147],[1839,23147],[1840,36286],[1841,18135],[1844,3],[1845,1937],[1846,34],[1847,43071],[1848,45],[1849,906],[1852,357],[1853,3],[1854,1],[1855,127],[1857,2],[1859,1113],[1862,2],[1863,3],[1865,4],[1866,1906],[1867,38118],[1868,160],[1871,6],[1873,5],[1874,4],[1875,2],[1878,36742],[1879,26563],[1880,1],[1881,3],[1886,10],[1890,2],[1891,9],[1892,1],[1893,4],[1894,3],[1896,9],[1897,4],[1899,49032],[1901,6210],[1902,2356],[1904,29],[1906,4],[1907,3],[1909,109],[1910,4],[1911,4],[1915,11452],[1916,2],[1921,3],[1923,11203],[1924,17653],[1927,14047],[1929,506],[1930,348],[1933,11019],[1941,85],[1942,4],[1943,3],[1945,312],[1946,28],[1948,1],[1951,3],[1952,4],[1953,440],[1955,8006],[1956,1356],[1958,41712],[1960,2],[1961,3],[1963,3],[1964,5],[1965,4],[1966,1607],[1970,244],[1971,4],[1974,2166],[1976,5],[1977,298],[1978,326],[1979,155],[1980,1],[1982,3],[1983,9531],[1984,30719],[1985,650],[1987,40442],[1988,4],[1990,5],[1991,1],[1994,28232],[1995,3],[1996,1252],[1997,6134],[1998,6095],[2000,2],[2001,8],[2004,5586],[2005,4],[2008,480],[2010,3],[2011,29],[2012,654],[2013,2],[2014,11195],[2016,34399],[2018,32295],[2019,3],[2020,2],[2021,33410],[2022,2],[2024,2],[2026,3],[2028,96],[2031,132],[2033,18900],[2035,16012],[2037,2532],[2039,30920],[2041,19111],[2042,3],[2043,17975],[2045,4],[2047,2],[2048,46287],[2049,9611],[2050,3],[2052,34947],[2053,31623],[2054,101],[2055,33578],[2056,4],[2057,61],[2059,3],[2060,58],[2062,28150],[2064,27023],[2065,1213],[2066,3],[2067,18700],[2069,4],[2070,45979],[2072,49019],[2076,3575],[2078,2],[2080,510],[2081,4],[2083,100],[2086,20],[2088,202],[2091,3],[2092,418],[2094,1581],[2095,3],[2097,44],[2098,4013],[2099,4270],[2101,4],[2103,338],[2104,166],[2105,47714],[2106,2],[2107,3],[2110,3],[2111,47680],[2113,2],[2115,4],[2116,45376],[2119,5],[2120,33514],[2121,545],[2122,47484],[2124,109],[2125,9],[2127,4],[2132,3],[2133,197],[2134,1],[2135,2],[2136,38450],[2137,2],[2141,9801],[2143,7],[2146,12],[2147,7],[2148,460],[2149,39078],[2150,9],[2151,2],[2153,4],[2155,5053],[2156,5852],[2157,3],[2158,4],[2159,2582],[2160,351],[2161,3],[2162,10871],[2163,2],[2167,54],[2168,4],[2169,51],[2170,2],[2171,3],[2172,35572],[2176,4],[2179,1],[2180,120],[2183,16772],[2184,2590],[2185,41835],[2187,53],[2188,47875],[2189,316],[2191,1],[2193,640],[2194,4],[2195,2],[2198,1],[2201,2902],[2203,9473],[2204,3207],[2205,3],[2212,4],[2213,44268],[2214,3],[2215,43],[2217,2],[2218,11],[2220,1],[2222,43029],[2223,37066],[2224,3],[2226,126],[2228,40156],[2229,4],[2230,27703],[2231,13],[2233,4],[2236,23],[2238,22825],[2239,426],[2241,3425],[2242,1],[2244,9],[2245,531],[2247,18],[2248,3],[2249,23494],[2250,19],[2253,18],[2257,26713],[2259,4],[2260,87],[2261,5546],[2262,1420],[2263,27410],[2266,25484],[2267,1726],[2269,5038],[2270,2966],[2271,3],[2272,2],[2273,8141],[2274,113],[2275,802],[2276,44952],[2277,405],[2279,5],[2280,744],[2282,60],[2283,48099],[2288,14778],[2289,2],[2291,10],[2292,23],[2293,23868],[2295,1136],[2296,4],[2297,1],[2300,3],[2302,1],[2303,13],[2304,4],[2305,275],[2308,17],[2309,668],[2310,423],[2311,1],[2312,7],[2314,3],[2315,3],[2316,6461],[2317,167],[2318,22445],[2320,35624],[2321,48705],[2323,6832],[2324,266],[2325,45819],[2327,3],[2328,10],[2329,1286],[2331,38429],[2332,26315],[2334,686],[2336,310],[2337,15726],[2340,96],[2342,46185],[2346,43054],[2347,42081],[2351,4],[2353,14],[2355,44363],[2356,534],[2359,1387],[2360,1],[2361,3],[2362,20],[2364,21],[2365,5341],[2366,1],[2368,4122],[2370,9485],[2371,45064],[2372,4],[2373,49514],[2374,6633],[2375,89],[2377,15],[2378,561],[2380,2],[2383,2],[2384,893],[2386,3],[2387,1],[2389,3],[2390,137],[2391,2],[2393,43],[2394,2],[2400,234],[2401,476],[2402,21924],[2403,111],[2404,3],[2408,1702],[2409,3],[2410,49385],[2411,12],[2412,1039],[2413,3],[2415,7767],[2416,4550],[2418,908],[2419,20],[2421,1],[2422,24],[2423,31016],[2424,3],[2425,38],[2426,7],[2427,360],[2429,46542],[2430,45008],[2432,5330],[2435,4],[2437,14126],[2438,1],[2440,48638],[2442,8412],[2444,213],[2445,3],[2446,5786],[2447,45703],[2448,3],[2449,3],[2450,10063],[2451,17],[2452,15273],[2454,280],[2455,45727],[2456,1248],[2457,35911],[2458,782],[2460,4],[2461,9734],[2464,47780],[2467,4],[2469,14819],[2470,2],[2471,46997],[2473,1],[2474,10],[2477,1925],[2478,19],[2479,5],[2480,2771],[2481,5],[2482,24],[2483,2],[2484,49087],[2485,20681],[2486,37],[2487,24554],[2488,1422],[2489,16784],[2490,1],[2491,3408],[2493,35476],[2494,4],[2495,30269],[2497,3],[2499,1463],[2501,39891],[2502,4],[2503,66],[2506,2],[2507,45663],[2509,4],[2514,44618],[2515,67],[2516,2847],[2518,6586],[2520,17007],[2521,6763],[2522,48068],[2523,2],[2526,216],[2527,10171],[2529,41560],[2530,3442],[2531,3],[2534,23030],[2536,26522],[2538,87],[2539,24724],[2540,2],[2543,278],[2544,39159],[2546,5040],[2551,2],[2552,2],[2554,4],[2555,880],[2556,4],[2557,5820],[2559,4],[2560,11957],[2561,96],[2562,1],[2564,2],[2565,26120],[2567,56],[2568,48140],[2569,4],[2571,7696],[2573,19348],[2574,46838],[2578,6],[2580,1571],[2582,29142],[2583,5],[2585,34821],[2586,4],[2587,3],[2589,839],[2590,3],[2592,48982],[2593,3],[2594,3],[2597,4],[2598,24],[2600,6807],[2601,21485],[2602,593],[2604,115],[2605,5],[2606,1024],[2608,2],[2609,419],[2610,537],[2611,20132],[2612,36532],[2613,132],[2614,39601],[2615,29659],[2617,815],[2618,1],[2619,3],[2620,48448],[2622,489],[2623,23],[2624,5694],[2625,43621],[2627,151],[2628,18364],[2629,29512],[2630,1],[2631,30],[2632,14521],[2633,35069],[2634,11197],[2636,4],[2637,4],[2638,1],[2639,3465],[2641,12],[2642,4],[2643,167],[2644,42643],[2645,4],[2647,130],[2648,18664],[2649,4],[2650,37867],[2651,2826],[2652,3],[2653,28985],[2654,2],[2655,2],[2656,17263],[2657,28797],[2658,37730],[2659,4],[2660,39424],[2661,12009],[2662,44592],[2663,16430],[2665,4284],[2666,4],[2667,31368],[2670,1173],[2672,9244],[2673,3],[2674,3],[2675,17],[2676,36819],[2677,1],[2678,12287],[2681,203],[2683,4],[2684,5],[2687,5426],[2688,27014],[2689,40648],[2690,3],[2691,47],[2692,220],[2693,2],[2694,29254],[2695,3],[2696,1],[2697,400],[2698,18955],[2699,1],[2700,3],[2701,3],[2707,3],[2709,2],[2711,38074],[2712,130],[2714,2],[2716,3],[2718,9064],[2720,4],[2721,56],[2722,1],[2723,21728],[2724,13019],[2725,17],[2726,15],[2727,4],[2728,13157],[2729,48],[2730,1],[2731,1],[2732,20228],[2735,36862],[2738,2],[2739,2],[2740,5],[2741,3],[2743,2],[2745,4],[2746,330],[2747,49276],[2748,3],[2750,742],[2751,10595],[2752,4],[2753,748],[2756,1762],[2757,31398],[2759,41258],[2760,3],[2761,44203],[2762,48885],[2763,1861],[2764,3],[2765,4],[2767,10187],[2768,2],[2769,6560],[2771,3061],[2772,1],[2774,7],[2775,1338],[2776,41458],[2777,2],[2778,419],[2779,13321],[2780,3],[2781,9049],[2782,1],[2783,3],[2786,2],[2788,15],[2789,4],[2790,1688],[2794,3],[2796,3],[2801,31351],[2802,2],[2804,2649],[2805,1],[2806,13257],[2807,22316],[2810,10],[2811,1],[2812,11],[2813,20511],[2814,60],[2815,2182],[2816,1],[2817,2],[2818,32703],[2819,97],[2821,2],[2822,47548],[2824,51],[2825,31079],[2826,21918],[2828,4],[2829,25621],[2830,876],[2832,1314],[2833,3],[2836,2],[2837,20658],[2838,2],[2839,40],[2841,1470],[2844,64],[2846,4],[2849,1],[2851,8],[2852,8368],[2854,42115],[2855,1],[2856,88],[2857,3],[2858,328],[2859,46959],[2860,4623],[2861,557],[2864,39],[2865,4],[2866,31],[2869,2],[2870,2],[2872,3873],[2873,3],[2874,18658],[2875,3],[2877,3],[2878,7],[2880,27581],[2881,735],[2882,49723],[2883,40200],[2884,19067],[2885,37879],[2886,44940],[2888,577],[2890,22491],[2891,13],[2892,12742],[2893,5042],[2894,8497],[2898,48977],[2899,48825],[2900,29639],[2901,3],[2902,252],[2903,3],[2904,17054],[2905,35776],[2906,39],[2907,25963],[2908,20],[2909,974],[2910,45442],[2911,4],[2913,1],[2914,11],[2915,41630],[2916,2],[2917,203],[2918,1],[2919,1],[2920,2],[2921,39987],[2922,2689],[2923,41735],[2924,2889],[2925,19],[2926,3],[2927,47744],[2928,30],[2929,3],[2932,2004],[2935,24469],[2938,37800],[2939,8],[2940,4],[2941,1],[2942,796],[2943,16097],[2944,41930],[2945,3],[2948,2],[2949,2],[2950,105],[2954,20283],[2955,467],[2959,45278],[2960,18319],[2963,35362],[2966,31566],[2967,4],[2968,424],[2969,4],[2970,190],[2971,3],[2973,7],[2974,7297],[2977,46260],[2978,1812],[2979,2],[2980,17766],[2981,28655],[2982,8],[2985,24269],[2986,69],[2987,11186],[2990,1],[2992,5635],[2993,3],[2994,41],[2995,54],[2996,365],[2997,37121],[2998,23722],[2999,41388],[3000,2],[3001,247],[3003,21],[3005,45281],[3006,42045],[3007,30],[3008,27521],[3009,5999],[3011,4],[3012,38647],[3014,4],[3015,1379],[3016,2393],[3017,1],[3018,13926],[3019,10065],[3021,23278],[3022,3513],[3023,2],[3024,9],[3025,4],[3026,1],[3028,52],[3029,1],[3032,4],[3034,2],[3035,87],[3037,8590],[3040,2],[3041,728],[3042,13],[3044,1],[3045,18670],[3046,4],[3047,1],[3048,23104],[3049,1647],[3050,29758],[3052,2],[3053,2851],[3054,36771],[3057,2249],[3060,43858],[3061,10],[3063,26],[3064,6],[3065,27321],[3066,12266],[3067,4],[3069,741],[3071,36216],[3072,26],[3073,23170],[3074,3],[3075,7897],[3076,18927],[3078,680],[3079,507],[3080,4],[3085,78],[3086,5],[3087,41474],[3089,41047],[3090,1410],[3091,25792],[3092,185],[3094,49673],[3096,5558],[3097,37277],[3098,21531],[3099,1],[3100,5],[3101,27355],[3102,280],[3103,3],[3104,3020],[3105,13],[3107,1],[3108,12749],[3109,5678],[3110,24682],[3111,1002],[3112,2],[3113,1],[3114,28388],[3115,1886],[3116,106],[3117,337],[3118,31864],[3119,69],[3121,24219],[3122,31333],[3123,4],[3124,13],[3125,5],[3128,243],[3129,3],[3130,4],[3131,29150],[3132,7],[3134,46213],[3136,1],[3137,1],[3138,1],[3139,1025],[3141,520],[3142,20401],[3144,42910],[3145,159],[3146,378],[3147,15052],[3149,2334],[3150,4],[3152,110],[3153,2760],[3154,41662],[3156,347],[3157,3],[3159,37265],[3160,42571],[3161,3695],[3162,34],[3164,2],[3166,6],[3167,50],[3168,625],[3169,3335],[3170,3],[3172,44277],[3173,17937],[3176,2501],[3177,864],[3178,343],[3179,2],[3180,45732],[3181,2],[3182,4220],[3185,33445],[3186,4],[3187,2],[3188,13862],[3189,24742],[3190,24359],[3191,48443],[3192,7961],[3193,1282],[3194,2776],[3195,14],[3197,10447],[3198,32677],[3199,1085],[3200,1085],[3201,9457],[3202,1],[3203,2],[3204,2782],[3205,45342],[3209,44812],[3210,45264],[3211,48836],[3212,12338],[3214,38568],[3215,2],[3220,420],[3221,4],[3222,2],[3223,3],[3226,41179],[3228,832],[3230,26708],[3231,25582],[3232,40801],[3234,138],[3235,3],[3236,137],[3237,4],[3238,30670],[3239,3392],[3240,49184],[3241,34133],[3243,3],[3244,18645],[3245,3],[3246,2],[3248,443],[3249,72],[3250,6809],[3251,13],[3252,1803],[3253,2],[3255,14],[3256,47],[3257,275],[3258,35909],[3261,32531],[3262,3],[3263,1],[3264,24348],[3265,2],[3266,48220],[3267,1],[3268,40752],[3269,2],[3271,4054],[3272,4],[3273,37001],[3274,2291],[3275,36224],[3276,80],[3278,56],[3279,1],[3282,123],[3284,17],[3285,6],[3286,13],[3289,3],[3290,1100],[3291,18],[3292,1],[3293,2418],[3294,16],[3296,30786],[3298,55],[3299,17539],[3300,13],[3302,2],[3303,314],[3304,165],[3305,39851],[3306,35329],[3307,13341],[3308,3],[3310,21923],[3312,1971],[3313,48083],[3317,268],[3319,20],[3320,63],[3321,16],[3322,49707],[3323,2030],[3324,23503],[3325,30743],[3326,14880],[3327,22732],[3328,3],[3329,2],[3330,2],[3331,4],[3334,46574],[3336,40535],[3337,861],[3338,1],[3339,47400],[3341,2],[3342,5904],[3344,41],[3346,1],[3347,9],[3348,127],[3349,1],[3350,36],[3351,20114],[3353,752],[3354,1],[3355,23345],[3356,26288],[3357,36584],[3361,2],[3362,22],[3363,1],[3364,2],[3366,1],[3368,3],[3369,23],[3371,49045],[3372,3],[3373,7919],[3374,36909],[3375,3031],[3377,2],[3378,33],[3379,42622],[3381,664],[3382,33337],[3385,4],[3386,4],[3387,6460],[3389,19],[3390,20834],[3393,327],[3394,1],[3395,79],[3396,1],[3397,20],[3398,22307],[3399,29851],[3400,3],[3401,42327],[3403,49190],[3404,4],[3406,2],[3409,42539],[3411,28671],[3412,46547],[3413,1],[3414,14875],[3415,1339],[3417,2],[3418,36449],[3419,2],[3421,59],[3422,3],[3423,49216],[3426,2609],[3427,7849],[3428,38973],[3429,16],[3430,1],[3431,1],[3433,35907],[3434,3],[3435,4],[3436,39500],[3438,2],[3440,3],[3441,14],[3442,464],[3443,2],[3444,33496],[3445,12],[3446,9],[3447,1585],[3448,8402],[3449,44865],[3451,2],[3452,49981],[3453,1265],[3454,3235],[3455,39286],[3456,32972],[3458,2],[3460,1721],[3461,2],[3463,31121],[3466,2],[3468,45083],[3469,4],[3471,19172],[3472,28538],[3473,42784],[3474,49197],[3475,4],[3476,536],[3477,5],[3478,6],[3479,3],[3480,7942],[3481,3],[3482,4],[3483,1239],[3484,4741],[3485,1147],[3486,26757],[3488,2],[3489,5],[3490,780],[3492,2755],[3493,26745],[3494,561],[3495,49],[3496,4],[3497,47476],[3499,44749],[3500,1]]"
  }
}