{
  "version": "1.0",
  "truncation": null,
  "padding": null,
  "added_tokens": [
    {
      "id": 668,
      "content": "<UNK>",
      "single_word": false,
      "lstrip": false,
      "rstrip": false,
      "normalized": true,
      "special": true
    },
    {
      "id": 669,
      "content": "<｜end▁of▁sentence｜>",
      "single_word": false,
      "lstrip": false,
      "rstrip": false,
      "normalized": true,
      "special": true
    },
    {
      "id": 670,
      "content": "<｜pad｜>",
      "single_word": false,
      "lstrip": false,
      "rstrip": false,
      "normalized": true,
      "special": true
    },
    {
      "id": 671,
      "content": "<｜begin▁of▁sentence｜>",
      "single_word": false,
      "lstrip": false,
      "rstrip": false,
      "normalized": true,
      "special": true
    }
  ],
  "normalizer": {
    "type": "Sequence",
    "normalizers": []
  },
  "pre_tokenizer": {
    "type": "Sequence",
    "pretokenizers": [
      {
        "type": "Split",
        "pattern": {
          "Regex": "[\\r\\n]"
        },
        "behavior": "Isolated",
        "invert": false
      },
      {
        "type": "Split",
        "pattern": {
          "Regex": "\\s?[A-Za-zµÀ-ÖØ-öø-ƺƼ-ƿǄ-ʓʕ-ʯͰ-ͳͶͷͻ-ͽͿΆΈ-ΊΌΎ-ΡΣ-ϵϷ-ҁҊ-ԯԱ-ՖႠ-ჅᎠ-Ᏽᏸ-ᏽᲐ-ᲺᲽ-Ჿᴀ-ᴫᵫ-ᵷᵹ-ᶚḀ-ἕἘ-Ἕἠ-ὅὈ-Ὅὐ-ὗὙὛὝὟ-ώᾀ-ᾴᾶ-ᾼιῂ-ῄῆ-ῌῐ-ΐῖ-Ίῠ-Ῥῲ-ῴῶ-ῼℂℇℊ-ℓℕℙ-ℝℤΩℨK-ℭℯ-ℴℹℼ-ℿⅅ-ⅉⅎↃↄⰀ-ⱻⱾ-ⳤⳫ-ⳮⳲⳳꙀ-ꙭꚀ-ꚛꜢ-ꝯꝱ-ꞇꞋ-ꞎꭰ-ꮿﬀ-ﬆﬓ-ﬗＡ-Ｚａ-ｚ𐐀-𐑏𐒰-𐓓𐓘-𐓻𐲀-𐲲𐳀-𐳲𑢠-𑣟𞤀-𞥃]+"
        },
        "behavior": "Isolated",
        "invert": false
      },
      {
        "type": "Split",
        "pattern": {
          "Regex": "\\s?[!-/:-~！-／：-～‘-‟　-。]+"
        },
        "behavior": "Isolated",
        "invert": false
      },
      {
        "type": "Split",
        "pattern": {
          "Regex": "\\s+$"
        },
        "behavior": "Isolated",
        "invert": false
      },
      {
        "type": "Split",
        "pattern": {
          "Regex": "[一-龥ࠀ-一가-퟿]+"
        },
        "behavior": "Isolated",
        "invert": false
      },
      {
        "type": "Digits",
        "individual_digits": true
      },
      {
        "type": "ByteLevel",
        "add_prefix_space": false,
        "trim_offsets": true,
        "use_regex": false
      }
    ]
  },
  "post_processor": {
    "type": "ByteLevel",
    "add_prefix_space": true,
    "trim_offsets": false,
    "use_regex": true
  },
  "decoder": {
    "type": "ByteLevel",
    "add_prefix_space": true,
    "trim_offsets": true,
    "use_regex": true
  },
  "model": {
    "type": "BPE",
    "dropout": null,
    "unk_token": "<UNK>",
    "continuing_subword_prefix": null,
    "end_of_word_suffix": null,
    "fuse_unk": false,
    "byte_fallback": false,
    "ignore_merges": false,
    "bMax_frequency": true,
    "max_frequency": 63649887,
    "vocab": {
      "er": 0,
      "an": 1,
      "in": 2,
      "en": 3,
      "on": 4,
      "ar": 5,
      "at": 6,
      "es": 7,
      "al": 8,
      "or": 9,
      "et": 10,
      "it": 11,
      "st": 12,
      "le": 13,
      "ic": 14,
      "el": 15,
      "ed": 16,
      "ch": 17,
      "am": 18,
      "ro": 19,
      "is": 20,
      "re": 21,
      "ad": 22,
      "Ġs": 23,
      "Ġp": 24,
      "un": 25,
      "il": 26,
      "ĠS": 27,
      "as": 28,
      "ing": 29,
      "ut": 30,
      "ĠC": 31,
      "ent": 32,
      "ol": 33,
      "ur": 34,
      "ĠM": 35,
      "us": 36,
      "ĠB": 37,
      "ra": 38,
      "ion": 39,
      "Ġc": 40,
      "id": 41,
      "Ġd": 42,
      "ĠP": 43,
      "ul": 44,
      "im": 45,
      "Ġt": 46,
      "Ġm": 47,
      "om": 48,
      "ĠA": 49,
      "ac": 50,
      "ag": 51,
      "em": 52,
      "ab": 53,
      "ĠD": 54,
      "os": 55,
      "ot": 56,
      "um": 57,
      "ig": 58,
      "ct": 59,
      "od": 60,
      "Ġb": 61,
      "ri": 62,
      "ĠT": 63,
      "ĠG": 64,
      "ĠR": 65,
      "ĠH": 66,
      "ap": 67,
      "ie": 68,
      "ak": 69,
      "oc": 70,
      "ir": 71,
      "ĠN": 72,
      "est": 73,
      "ĠL": 74,
      "ay": 75,
      "ow": 76,
      "Ġf": 77,
      "ĠE": 78,
      "Ġg": 79,
      "ex": 80,
      "op": 81,
      "Ġv": 82,
      "Ġh": 83,
      "and": 84,
      "th": 85,
      "ia": 86,
      "ĠK": 87,
      "ce": 88,
      "qu": 89,
      "Ġn": 90,
      "iv": 91,
      "ĠF": 92,
      "ate": 93,
      "av": 94,
      "ers": 95,
      "ĠW": 96,
      "ang": 97,
      "ation": 98,
      "og": 99,
      "Ġl": 100,
      "ant": 101,
      "In": 102,
      "ik": 103,
      "ov": 104,
      "ah": 105,
      "ec": 106,
      "eg": 107,
      "Ġk": 108,
      "ist": 109,
      "end": 110,
      "ub": 111,
      "ud": 112,
      "ter": 113,
      "ff": 114,
      "ine": 115,
      "ont": 116,
      "St": 117,
      "ob": 118,
      "ib": 119,
      "Ġr": 120,
      "up": 121,
      "ip": 122,
      "ton": 123,
      "ess": 124,
      "ath": 125,
      "iz": 126,
      "ian": 127,
      "ey": 128,
      "ell": 129,
      "ug": 130,
      "ect": 131,
      "ĠV": 132,
      "ĠI": 133,
      "ind": 134,
      "ard": 135,
      "ly": 136,
      "ert": 137,
      "ast": 138,
      "ĠJ": 139,
      "pe": 140,
      "ord": 141,
      "ph": 142,
      "ok": 143,
      "get": 144,
      "ill": 145,
      "Ġw": 146,
      "pt": 147,
      "art": 148,
      "ue": 149,
      "Ġre": 150,
      "uc": 151,
      "ne": 152,
      "ht": 153,
      "yl": 154,
      "age": 155,
      "Ġin": 156,
      "ĠU": 157,
      "ĠO": 158,
      "if": 159,
      "eb": 160,
      "te": 161,
      "ass": 162,
      "io": 163,
      "se": 164,
      "au": 165,
      "ung": 166,
      "all": 167,
      "ev": 168,
      "und": 169,
      "ek": 170,
      "ef": 171,
      "ep": 172,
      "ox": 173,
      "able": 174,
      "ile": 175,
      "ens": 176,
      "uk": 177,
      "aw": 178,
      "Ġst": 179,
      "Ġj": 180,
      "ext": 181,
      "ata": 182,
      "erm": 183,
      "ack": 184,
      "he": 185,
      "ult": 186,
      "out": 187,
      "ĠCh": 188,
      "set": 189,
      "int": 190,
      "ity": 191,
      "az": 192,
      "ew": 193,
      "ial": 194,
      "pl": 195,
      "ach": 196,
      "our": 197,
      "ies": 198,
      "ym": 199,
      "rop": 200,
      "ran": 201,
      "ou": 202,
      "sk": 203,
      "aj": 204,
      "ort": 205,
      "Ġch": 206,
      "ick": 207,
      "ame": 208,
      "ock": 209,
      "Ġa": 210,
      "ry": 211,
      "ann": 212,
      "Ġun": 213,
      "ost": 214,
      "ai": 215,
      "cl": 216,
      "Ġcon": 217,
      "sh": 218,
      "son": 219,
      "ĠMc": 220,
      "att": 221,
      "ive": 222,
      "pr": 223,
      "ust": 224,
      "ject": 225,
      "ment": 226,
      "iew": 227,
      "her": 228,
      "iel": 229,
      "yn": 230,
      "ll": 231,
      "ous": 232,
      "per": 233,
      "ele": 234,
      "ya": 235,
      "ier": 236,
      "ode": 237,
      "ype": 238,
      "ain": 239,
      "add": 240,
      "unt": 241,
      "erv": 242,
      "are": 243,
      "put": 244,
      "to": 245,
      "na": 246,
      "ich": 247,
      "ij": 248,
      "ish": 249,
      "ER": 250,
      "ong": 251,
      "eng": 252,
      "ite": 253,
      "lo": 254,
      "ax": 255,
      "ign": 256,
      "ond": 257,
      "Cont": 258,
      "sp": 259,
      "ring": 260,
      "pp": 261,
      "ber": 262,
      "ane": 263,
      "ull": 264,
      "ati": 265,
      "ore": 266,
      "ice": 267,
      "Val": 268,
      "ez": 269,
      "Ar": 270,
      "ire": 271,
      "ure": 272,
      "Ch": 273,
      "Ob": 274,
      "rom": 275,
      "ary": 276,
      "ild": 277,
      "ide": 278,
      "omp": 279,
      "To": 280,
      "man": 281,
      "ron": 282,
      "ash": 283,
      "ated": 284,
      "ST": 285,
      "oh": 286,
      "ru": 287,
      "ft": 288,
      "res": 289,
      "ime": 290,
      "ink": 291,
      "ett": 292,
      "Ġz": 293,
      "sc": 294,
      "ĠSh": 295,
      "iss": 296,
      "ight": 297,
      "nd": 298,
      "ana": 299,
      "err": 300,
      "ield": 301,
      "Ġpro": 302,
      "ark": 303,
      "enc": 304,
      "Object": 305,
      "Type": 306,
      "ge": 307,
      "ith": 308,
      "Con": 309,
      "ern": 310,
      "ize": 311,
      "Ġsp": 312,
      "eth": 313,
      "ere": 314,
      "own": 315,
      "ID": 316,
      "les": 317,
      "eh": 318,
      "Par": 319,
      "iy": 320,
      "tr": 321,
      "Cl": 322,
      "Ġe": 323,
      "orm": 324,
      "itt": 325,
      "ins": 326,
      "ene": 327,
      "View": 328,
      "ray": 329,
      "OR": 330,
      "Value": 331,
      "erc": 332,
      "oll": 333,
      "ley": 334,
      "oy": 335,
      "ON": 336,
      "ham": 337,
      "Ġle": 338,
      "Ġpr": 339,
      "ors": 340,
      "ale": 341,
      "AR": 342,
      "Res": 343,
      "ons": 344,
      "ma": 345,
      "co": 346,
      "EN": 347,
      "ium": 348,
      "UR": 349,
      "rr": 350,
      "Ġim": 351,
      "List": 352,
      "ka": 353,
      "IC": 354,
      "oj": 355,
      "ace": 356,
      "ient": 357,
      "Ex": 358,
      "ho": 359,
      "ss": 360,
      "ical": 361,
      "row": 362,
      "ction": 363,
      "tt": 364,
      "ina": 365,
      "ĠY": 366,
      "IN": 367,
      "Ġth": 368,
      "Path": 369,
      "old": 370,
      "ver": 371,
      "we": 372,
      "AN": 373,
      "ĠAr": 374,
      "act": 375,
      "ence": 376,
      "Pro": 377,
      "olor": 378,
      "ys": 379,
      "que": 380,
      "rit": 381,
      "SC": 382,
      "utton": 383,
      "ase": 384,
      "enn": 385,
      "ato": 386,
      "no": 387,
      "arg": 388,
      "ler": 389,
      "ram": 390,
      "Err": 391,
      "ĠSt": 392,
      "cept": 393,
      "ead": 394,
      "ni": 395,
      "one": 396,
      "ĠZ": 397,
      "atch": 398,
      "Ġqu": 399,
      "Ġex": 400,
      "Ġab": 401,
      "ald": 402,
      "Ġsc": 403,
      "ck": 404,
      "ole": 405,
      "tem": 406,
      "CC": 407,
      "Id": 408,
      "ood": 409,
      "ush": 410,
      "omm": 411,
      "sch": 412,
      "LE": 413,
      "Ġpl": 414,
      "Name": 415,
      "ans": 416,
      "ĠQ": 417,
      "Error": 418,
      "ee": 419,
      "oz": 420,
      "rent": 421,
      "bo": 422,
      "ric": 423,
      "ser": 424,
      "ance": 425,
      "of": 426,
      "ix": 427,
      "erg": 428,
      "ail": 429,
      "Data": 430,
      "Im": 431,
      "ari": 432,
      "Ġdis": 433,
      "ank": 434,
      "AL": 435,
      "app": 436,
      "Ġad": 437,
      "arl": 438,
      "CT": 439,
      "Sc": 440,
      "yd": 441,
      "anc": 442,
      "ado": 443,
      "ini": 444,
      "AT": 445,
      "Key": 446,
      "Ġal": 447,
      "uf": 448,
      "amp": 449,
      "Ġsub": 450,
      "yt": 451,
      "Comp": 452,
      "rid": 453,
      "uff": 454,
      "ĠSch": 455,
      "led": 456,
      "Serv": 457,
      "ĠAl": 458,
      "Button": 459,
      "ement": 460,
      "emb": 461,
      "SE": 462,
      "ret": 463,
      "ani": 464,
      "ait": 465,
      "Text": 466,
      "sl": 467,
      "ĠIn": 468,
      "af": 469,
      "orn": 470,
      "rav": 471,
      "arr": 472,
      "gen": 473,
      "AM": 474,
      "ator": 475,
      "fo": 476,
      "Ġy": 477,
      "equ": 478,
      "hen": 479,
      "ais": 480,
      "land": 481,
      "amb": 482,
      "SP": 483,
      "ings": 484,
      "val": 485,
      "IT": 486,
      "Size": 487,
      "yp": 488,
      "ear": 489,
      "eter": 490,
      "Array": 491,
      "String": 492,
      "ada": 493,
      "ford": 494,
      "air": 495,
      "RE": 496,
      "inn": 497,
      "iti": 498,
      "Item": 499,
      "ien": 500,
      "ions": 501,
      "esh": 502,
      "Co": 503,
      "SA": 504,
      "ren": 505,
      "Param": 506,
      "By": 507,
      "Of": 508,
      "ugh": 509,
      "ade": 510,
      "ott": 511,
      "Ġget": 512,
      "con": 513,
      "Ġsh": 514,
      "RP": 515,
      "kan": 516,
      "eck": 517,
      "inc": 518,
      "ein": 519,
      "cc": 520,
      "uj": 521,
      "utt": 522,
      "BS": 523,
      "ict": 524,
      "era": 525,
      "ica": 526,
      "over": 527,
      "Context": 528,
      "CS": 529,
      "ĠBl": 530,
      "ng": 531,
      "uss": 532,
      "yc": 533,
      "eat": 534,
      "vent": 535,
      "Ġpar": 536,
      "nt": 537,
      "ps": 538,
      "ory": 539,
      "rib": 540,
      "unc": 541,
      "ara": 542,
      "umb": 543,
      "oth": 544,
      "ke": 545,
      "Int": 546,
      "ics": 547,
      "onent": 548,
      "uth": 549,
      "urrent": 550,
      "arm": 551,
      "urs": 552,
      "ql": 553,
      "ena": 554,
      "uch": 555,
      "ger": 556,
      "lement": 557,
      "Pl": 558,
      "yst": 559,
      "ego": 560,
      "Field": 561,
      "Ġan": 562,
      "Ġen": 563,
      "Image": 564,
      "iro": 565,
      "ora": 566,
      "isc": 567,
      "osit": 568,
      "File": 569,
      "AC": 570,
      "ute": 571,
      "PS": 572,
      "ira": 573,
      "App": 574,
      "reate": 575,
      "reen": 576,
      "ih": 577,
      "roup": 578,
      "ama": 579,
      "Ġac": 580,
      "ze": 581,
      "ĠGu": 582,
      "ager": 583,
      "use": 584,
      "ater": 585,
      "CP": 586,
      "va": 587,
      "ala": 588,
      "Ġdes": 589,
      "str": 590,
      "Mod": 591,
      "Ġsl": 592,
      "ve": 593,
      "uto": 594,
      "umber": 595,
      "fl": 596,
      "Ġar": 597,
      "off": 598,
      "Ġap": 599,
      "Get": 600,
      "che": 601,
      "DA": 602,
      "uy": 603,
      "Ġset": 604,
      "ism": 605,
      "den": 606,
      "atth": 607,
      "ery": 608,
      "ĠX": 609,
      "Ġrec": 610,
      "Time": 611,
      "als": 612,
      "me": 613,
      "equest": 614,
      "Man": 615,
      "kh": 616,
      "roll": 617,
      "ress": 618,
      "IA": 619,
      "ise": 620,
      "State": 621,
      "par": 622,
      "ament": 623,
      "Ġper": 624,
      "dex": 625,
      "IS": 626,
      "po": 627,
      "ner": 628,
      "ille": 629,
      "urn": 630,
      "PC": 631,
      "itz": 632,
      "arc": 633,
      "uz": 634,
      "ates": 635,
      "Ġro": 636,
      "ular": 637,
      "orr": 638,
      "ech": 639,
      "let": 640,
      "ius": 641,
      "rad": 642,
      "order": 643,
      "ave": 644,
      "alt": 645,
      "raw": 646,
      "anj": 647,
      "ha": 648,
      "Color": 649,
      "fe": 650,
      "Sh": 651,
      "ets": 652,
      "arb": 653,
      "orb": 654,
      "du": 655,
      "Code": 656,
      "IL": 657,
      "iff": 658,
      "oph": 659,
      "ref": 660,
      "rev": 661,
      "ose": 662,
      "Index": 663,
      "lock": 664,
      "uv": 665,
      "Char": 666,
      "ource": 667,
      "<UNK>": 668
    },
    "old_vocab": {
      "!": 0,
      "\"": 1,
      "#": 2,
      "$": 3,
      "%": 4,
      "&": 5,
      "'": 6,
      "(": 7,
      ")": 8,
      "*": 9,
      "+": 10,
      ",": 11,
      "-": 12,
      ".": 13,
      "/": 14,
      "0": 15,
      "1": 16,
      "2": 17,
      "3": 18,
      "4": 19,
      "5": 20,
      "6": 21,
      "7": 22,
      "8": 23,
      "9": 24,
      ":": 25,
      ";": 26,
      "<": 27,
      "=": 28,
      ">": 29,
      "?": 30,
      "@": 31,
      "A": 32,
      "B": 33,
      "C": 34,
      "D": 35,
      "E": 36,
      "F": 37,
      "G": 38,
      "H": 39,
      "I": 40,
      "J": 41,
      "K": 42,
      "L": 43,
      "M": 44,
      "N": 45,
      "O": 46,
      "P": 47,
      "Q": 48,
      "R": 49,
      "S": 50,
      "T": 51,
      "U": 52,
      "V": 53,
      "W": 54,
      "X": 55,
      "Y": 56,
      "Z": 57,
      "[": 58,
      "\\": 59,
      "]": 60,
      "^": 61,
      "_": 62,
      "`": 63,
      "a": 64,
      "b": 65,
      "c": 66,
      "d": 67,
      "e": 68,
      "f": 69,
      "g": 70,
      "h": 71,
      "i": 72,
      "j": 73,
      "k": 74,
      "l": 75,
      "m": 76,
      "n": 77,
      "o": 78,
      "p": 79,
      "q": 80,
      "r": 81,
      "s": 82,
      "t": 83,
      "u": 84,
      "v": 85,
      "w": 86,
      "x": 87,
      "y": 88,
      "z": 89,
      "{": 90,
      "|": 91,
      "}": 92,
      "~": 93,
      "¡": 94,
      "¢": 95,
      "£": 96,
      "¤": 97,
      "¥": 98,
      "¦": 99,
      "§": 100,
      "¨": 101,
      "©": 102,
      "ª": 103,
      "«": 104,
      "¬": 105,
      "®": 106,
      "¯": 107,
      "°": 108,
      "±": 109,
      "²": 110,
      "³": 111,
      "´": 112,
      "µ": 113,
      "¶": 114,
      "·": 115,
      "¸": 116,
      "¹": 117,
      "º": 118,
      "»": 119,
      "¼": 120,
      "½": 121,
      "¾": 122,
      "¿": 123,
      "À": 124,
      "Á": 125,
      "Â": 126,
      "Ã": 127,
      "Ä": 128,
      "Å": 129,
      "Æ": 130,
      "Ç": 131,
      "È": 132,
      "É": 133,
      "Ê": 134,
      "Ë": 135,
      "Ì": 136,
      "Í": 137,
      "Î": 138,
      "Ï": 139,
      "Ð": 140,
      "Ñ": 141,
      "Ò": 142,
      "Ó": 143,
      "Ô": 144,
      "Õ": 145,
      "Ö": 146,
      "×": 147,
      "Ø": 148,
      "Ù": 149,
      "Ú": 150,
      "Û": 151,
      "Ü": 152,
      "Ý": 153,
      "Þ": 154,
      "ß": 155,
      "à": 156,
      "á": 157,
      "â": 158,
      "ã": 159,
      "ä": 160,
      "å": 161,
      "æ": 162,
      "ç": 163,
      "è": 164,
      "é": 165,
      "ê": 166,
      "ë": 167,
      "ì": 168,
      "í": 169,
      "î": 170,
      "ï": 171,
      "ð": 172,
      "ñ": 173,
      "ò": 174,
      "ó": 175,
      "ô": 176,
      "õ": 177,
      "ö": 178,
      "÷": 179,
      "ø": 180,
      "ù": 181,
      "ú": 182,
      "û": 183,
      "ü": 184,
      "ý": 185,
      "þ": 186,
      "ÿ": 187,
      "Ā": 188,
      "ā": 189,
      "Ă": 190,
      "ă": 191,
      "Ą": 192,
      "ą": 193,
      "Ć": 194,
      "ć": 195,
      "Ĉ": 196,
      "ĉ": 197,
      "Ċ": 198,
      "ċ": 199,
      "Č": 200,
      "č": 201,
      "Ď": 202,
      "ď": 203,
      "Đ": 204,
      "đ": 205,
      "Ē": 206,
      "ē": 207,
      "Ĕ": 208,
      "ĕ": 209,
      "Ė": 210,
      "ė": 211,
      "Ę": 212,
      "ę": 213,
      "Ě": 214,
      "ě": 215,
      "Ĝ": 216,
      "ĝ": 217,
      "Ğ": 218,
      "ğ": 219,
      "Ġ": 220,
      "ġ": 221,
      "Ģ": 222,
      "ģ": 223,
      "Ĥ": 224,
      "ĥ": 225,
      "Ħ": 226,
      "ħ": 227,
      "Ĩ": 228,
      "ĩ": 229,
      "Ī": 230,
      "ī": 231,
      "Ĭ": 232,
      "ĭ": 233,
      "Į": 234,
      "į": 235,
      "İ": 236,
      "ı": 237,
      "Ĳ": 238,
      "ĳ": 239,
      "Ĵ": 240,
      "ĵ": 241,
      "Ķ": 242,
      "ķ": 243,
      "ĸ": 244,
      "Ĺ": 245,
      "ĺ": 246,
      "Ļ": 247,
      "ļ": 248,
      "Ľ": 249,
      "ľ": 250,
      "Ŀ": 251,
      "ŀ": 252,
      "Ł": 253,
      "ł": 254,
      "Ń": 255,
      "er": 256,
      "an": 257,
      "in": 258,
      "en": 259,
      "on": 260,
      "ar": 261,
      "at": 262,
      "es": 263,
      "al": 264,
      "or": 265,
      "et": 266,
      "it": 267,
      "st": 268,
      "le": 269,
      "ic": 270,
      "el": 271,
      "ed": 272,
      "ch": 273,
      "am": 274,
      "ro": 275,
      "is": 276,
      "re": 277,
      "ad": 278,
      "Ġs": 279,
      "Ġp": 280,
      "un": 281,
      "il": 282,
      "ĠS": 283,
      "as": 284,
      "ing": 285,
      "ut": 286,
      "ĠC": 287,
      "ent": 288,
      "ol": 289,
      "ur": 290,
      "ĠM": 291,
      "us": 292,
      "ĠB": 293,
      "ra": 294,
      "ion": 295,
      "Ġc": 296,
      "id": 297,
      "Ġd": 298,
      "ĠP": 299,
      "ul": 300,
      "im": 301,
      "Ġt": 302,
      "Ġm": 303,
      "om": 304,
      "ĠA": 305,
      "ac": 306,
      "ag": 307,
      "em": 308,
      "ab": 309,
      "ĠD": 310,
      "os": 311,
      "ot": 312,
      "um": 313,
      "ig": 314,
      "ct": 315,
      "od": 316,
      "Ġb": 317,
      "ri": 318,
      "ĠT": 319,
      "ĠG": 320,
      "ĠR": 321,
      "ĠH": 322,
      "ap": 323,
      "ie": 324,
      "ak": 325,
      "oc": 326,
      "ir": 327,
      "ĠN": 328,
      "est": 329,
      "ĠL": 330,
      "ay": 331,
      "ow": 332,
      "Ġf": 333,
      "ĠE": 334,
      "Ġg": 335,
      "ex": 336,
      "op": 337,
      "Ġv": 338,
      "Ġh": 339,
      "and": 340,
      "th": 341,
      "ia": 342,
      "ĠK": 343,
      "ce": 344,
      "qu": 345,
      "Ġn": 346,
      "iv": 347,
      "ĠF": 348,
      "ate": 349,
      "av": 350,
      "ers": 351,
      "ĠW": 352,
      "ang": 353,
      "ation": 354,
      "og": 355,
      "Ġl": 356,
      "ant": 357,
      "In": 358,
      "ik": 359,
      "ov": 360,
      "ah": 361,
      "ec": 362,
      "eg": 363,
      "Ġk": 364,
      "ist": 365,
      "end": 366,
      "ub": 367,
      "ud": 368,
      "ter": 369,
      "ff": 370,
      "ine": 371,
      "ont": 372,
      "St": 373,
      "ob": 374,
      "ib": 375,
      "Ġr": 376,
      "up": 377,
      "ip": 378,
      "ton": 379,
      "ess": 380,
      "ath": 381,
      "iz": 382,
      "ian": 383,
      "ey": 384,
      "ell": 385,
      "ug": 386,
      "ect": 387,
      "ĠV": 388,
      "ĠI": 389,
      "ind": 390,
      "ard": 391,
      "ly": 392,
      "ert": 393,
      "ast": 394,
      "ĠJ": 395,
      "pe": 396,
      "ord": 397,
      "ph": 398,
      "ok": 399,
      "get": 400,
      "ill": 401,
      "Ġw": 402,
      "pt": 403,
      "art": 404,
      "ue": 405,
      "Ġre": 406,
      "uc": 407,
      "ne": 408,
      "ht": 409,
      "yl": 410,
      "age": 411,
      "Ġin": 412,
      "ĠU": 413,
      "ĠO": 414,
      "if": 415,
      "eb": 416,
      "te": 417,
      "ass": 418,
      "io": 419,
      "se": 420,
      "au": 421,
      "ung": 422,
      "all": 423,
      "ev": 424,
      "und": 425,
      "ek": 426,
      "ef": 427,
      "ep": 428,
      "ox": 429,
      "able": 430,
      "ile": 431,
      "ens": 432,
      "uk": 433,
      "aw": 434,
      "Ġst": 435,
      "Ġj": 436,
      "ext": 437,
      "ata": 438,
      "erm": 439,
      "ack": 440,
      "he": 441,
      "ult": 442,
      "out": 443,
      "ĠCh": 444,
      "set": 445,
      "int": 446,
      "ity": 447,
      "az": 448,
      "ew": 449,
      "ial": 450,
      "pl": 451,
      "ach": 452,
      "our": 453,
      "ies": 454,
      "ym": 455,
      "rop": 456,
      "ran": 457,
      "ou": 458,
      "sk": 459,
      "aj": 460,
      "ort": 461,
      "Ġch": 462,
      "ick": 463,
      "ame": 464,
      "ock": 465,
      "Ġa": 466,
      "ry": 467,
      "ann": 468,
      "Ġun": 469,
      "ost": 470,
      "ai": 471,
      "cl": 472,
      "Ġcon": 473,
      "sh": 474,
      "son": 475,
      "ĠMc": 476,
      "att": 477,
      "ive": 478,
      "pr": 479,
      "ust": 480,
      "ject": 481,
      "ment": 482,
      "iew": 483,
      "her": 484,
      "iel": 485,
      "yn": 486,
      "ll": 487,
      "ous": 488,
      "per": 489,
      "ele": 490,
      "ya": 491,
      "ier": 492,
      "ode": 493,
      "ype": 494,
      "ain": 495,
      "add": 496,
      "unt": 497,
      "erv": 498,
      "are": 499,
      "put": 500,
      "to": 501,
      "na": 502,
      "ich": 503,
      "ij": 504,
      "ish": 505,
      "ER": 506,
      "ong": 507,
      "eng": 508,
      "ite": 509,
      "lo": 510,
      "ax": 511,
      "ign": 512,
      "ond": 513,
      "Cont": 514,
      "sp": 515,
      "ring": 516,
      "pp": 517,
      "ber": 518,
      "ane": 519,
      "ull": 520,
      "ati": 521,
      "ore": 522,
      "ice": 523,
      "Val": 524,
      "ez": 525,
      "Ar": 526,
      "ire": 527,
      "ure": 528,
      "Ch": 529,
      "Ob": 530,
      "rom": 531,
      "ary": 532,
      "ild": 533,
      "ide": 534,
      "omp": 535,
      "To": 536,
      "man": 537,
      "ron": 538,
      "ash": 539,
      "ated": 540,
      "ST": 541,
      "oh": 542,
      "ru": 543,
      "ft": 544,
      "res": 545,
      "ime": 546,
      "ink": 547,
      "ett": 548,
      "Ġz": 549,
      "sc": 550,
      "ĠSh": 551,
      "iss": 552,
      "ight": 553,
      "nd": 554,
      "ana": 555,
      "err": 556,
      "ield": 557,
      "Ġpro": 558,
      "ark": 559,
      "enc": 560,
      "Object": 561,
      "Type": 562,
      "ge": 563,
      "ith": 564,
      "Con": 565,
      "ern": 566,
      "ize": 567,
      "Ġsp": 568,
      "eth": 569,
      "ere": 570,
      "own": 571,
      "ID": 572,
      "les": 573,
      "eh": 574,
      "Par": 575,
      "iy": 576,
      "tr": 577,
      "Cl": 578,
      "Ġe": 579,
      "orm": 580,
      "itt": 581,
      "ins": 582,
      "ene": 583,
      "View": 584,
      "ray": 585,
      "OR": 586,
      "Value": 587,
      "erc": 588,
      "oll": 589,
      "ley": 590,
      "oy": 591,
      "ON": 592,
      "ham": 593,
      "Ġle": 594,
      "Ġpr": 595,
      "ors": 596,
      "ale": 597,
      "AR": 598,
      "Res": 599,
      "ons": 600,
      "ma": 601,
      "co": 602,
      "EN": 603,
      "ium": 604,
      "UR": 605,
      "rr": 606,
      "Ġim": 607,
      "List": 608,
      "ka": 609,
      "IC": 610,
      "oj": 611,
      "ace": 612,
      "ient": 613,
      "Ex": 614,
      "ho": 615,
      "ss": 616,
      "ical": 617,
      "row": 618,
      "ction": 619,
      "tt": 620,
      "ina": 621,
      "ĠY": 622,
      "IN": 623,
      "Ġth": 624,
      "Path": 625,
      "old": 626,
      "ver": 627,
      "we": 628,
      "AN": 629,
      "ĠAr": 630,
      "act": 631,
      "ence": 632,
      "Pro": 633,
      "olor": 634,
      "ys": 635,
      "que": 636,
      "rit": 637,
      "SC": 638,
      "utton": 639,
      "ase": 640,
      "enn": 641,
      "ato": 642,
      "no": 643,
      "arg": 644,
      "ler": 645,
      "ram": 646,
      "Err": 647,
      "ĠSt": 648,
      "cept": 649,
      "ead": 650,
      "ni": 651,
      "one": 652,
      "ĠZ": 653,
      "atch": 654,
      "Ġqu": 655,
      "Ġex": 656,
      "Ġab": 657,
      "ald": 658,
      "Ġsc": 659,
      "ck": 660,
      "ole": 661,
      "tem": 662,
      "CC": 663,
      "Id": 664,
      "ood": 665,
      "ush": 666,
      "omm": 667,
      "sch": 668,
      "LE": 669,
      "Ġpl": 670,
      "Name": 671,
      "ans": 672,
      "ĠQ": 673,
      "Error": 674,
      "ee": 675,
      "oz": 676,
      "rent": 677,
      "bo": 678,
      "ric": 679,
      "ser": 680,
      "ance": 681,
      "of": 682,
      "ix": 683,
      "erg": 684,
      "ail": 685,
      "Data": 686,
      "Im": 687,
      "ari": 688,
      "Ġdis": 689,
      "ank": 690,
      "AL": 691,
      "app": 692,
      "Ġad": 693,
      "arl": 694,
      "CT": 695,
      "Sc": 696,
      "yd": 697,
      "anc": 698,
      "ado": 699,
      "ini": 700,
      "AT": 701,
      "Key": 702,
      "Ġal": 703,
      "uf": 704,
      "amp": 705,
      "Ġsub": 706,
      "yt": 707,
      "Comp": 708,
      "rid": 709,
      "uff": 710,
      "ĠSch": 711,
      "led": 712,
      "Serv": 713,
      "ĠAl": 714,
      "Button": 715,
      "ement": 716,
      "emb": 717,
      "SE": 718,
      "ret": 719,
      "ani": 720,
      "ait": 721,
      "Text": 722,
      "sl": 723,
      "ĠIn": 724,
      "af": 725,
      "orn": 726,
      "rav": 727,
      "arr": 728,
      "gen": 729,
      "AM": 730,
      "ator": 731,
      "fo": 732,
      "Ġy": 733,
      "equ": 734,
      "hen": 735,
      "ais": 736,
      "land": 737,
      "amb": 738,
      "SP": 739,
      "ings": 740,
      "val": 741,
      "IT": 742,
      "Size": 743,
      "yp": 744,
      "ear": 745,
      "eter": 746,
      "Array": 747,
      "String": 748,
      "ada": 749,
      "ford": 750,
      "air": 751,
      "RE": 752,
      "inn": 753,
      "iti": 754,
      "Item": 755,
      "ien": 756,
      "ions": 757,
      "esh": 758,
      "Co": 759,
      "SA": 760,
      "ren": 761,
      "Param": 762,
      "By": 763,
      "Of": 764,
      "ugh": 765,
      "ade": 766,
      "ott": 767,
      "Ġget": 768,
      "con": 769,
      "Ġsh": 770,
      "RP": 771,
      "kan": 772,
      "eck": 773,
      "inc": 774,
      "ein": 775,
      "cc": 776,
      "uj": 777,
      "utt": 778,
      "BS": 779,
      "ict": 780,
      "era": 781,
      "ica": 782,
      "over": 783,
      "Context": 784,
      "CS": 785,
      "ĠBl": 786,
      "ng": 787,
      "uss": 788,
      "yc": 789,
      "eat": 790,
      "vent": 791,
      "Ġpar": 792,
      "nt": 793,
      "ps": 794,
      "ory": 795,
      "rib": 796,
      "unc": 797,
      "ara": 798,
      "umb": 799,
      "oth": 800,
      "ke": 801,
      "Int": 802,
      "ics": 803,
      "onent": 804,
      "uth": 805,
      "urrent": 806,
      "arm": 807,
      "urs": 808,
      "ql": 809,
      "ena": 810,
      "uch": 811,
      "ger": 812,
      "lement": 813,
      "Pl": 814,
      "yst": 815,
      "ego": 816,
      "Field": 817,
      "Ġan": 818,
      "Ġen": 819,
      "Image": 820,
      "iro": 821,
      "ora": 822,
      "isc": 823,
      "osit": 824,
      "File": 825,
      "AC": 826,
      "ute": 827,
      "PS": 828,
      "ira": 829,
      "App": 830,
      "reate": 831,
      "reen": 832,
      "ih": 833,
      "roup": 834,
      "ama": 835,
      "Ġac": 836,
      "ze": 837,
      "ĠGu": 838,
      "ager": 839,
      "use": 840,
      "ater": 841,
      "CP": 842,
      "va": 843,
      "ala": 844,
      "Ġdes": 845,
      "str": 846,
      "Mod": 847,
      "Ġsl": 848,
      "ve": 849,
      "uto": 850,
      "umber": 851,
      "fl": 852,
      "Ġar": 853,
      "off": 854,
      "Ġap": 855,
      "Get": 856,
      "che": 857,
      "DA": 858,
      "uy": 859,
      "Ġset": 860,
      "ism": 861,
      "den": 862,
      "atth": 863,
      "ery": 864,
      "ĠX": 865,
      "Ġrec": 866,
      "Time": 867,
      "als": 868,
      "me": 869,
      "equest": 870,
      "Man": 871,
      "kh": 872,
      "roll": 873,
      "ress": 874,
      "IA": 875,
      "ise": 876,
      "State": 877,
      "par": 878,
      "ament": 879,
      "Ġper": 880,
      "dex": 881,
      "IS": 882,
      "po": 883,
      "ner": 884,
      "ille": 885,
      "urn": 886,
      "PC": 887,
      "itz": 888,
      "arc": 889,
      "uz": 890,
      "ates": 891,
      "Ġro": 892,
      "ular": 893,
      "orr": 894,
      "ech": 895,
      "let": 896,
      "ius": 897,
      "rad": 898,
      "order": 899,
      "ave": 900,
      "alt": 901,
      "raw": 902,
      "anj": 903,
      "ha": 904,
      "Color": 905,
      "fe": 906,
      "Sh": 907,
      "ets": 908,
      "arb": 909,
      "orb": 910,
      "du": 911,
      "Code": 912,
      "IL": 913,
      "iff": 914,
      "oph": 915,
      "ref": 916,
      "rev": 917,
      "ose": 918,
      "Index": 919,
      "lock": 920,
      "uv": 921,
      "Char": 922,
      "ource": 923,
      "<UNK>": 924
    },
    "merges": [
      "e r",
      "a n",
      "i n",
      "e n",
      "o n",
      "a r",
      "a t",
      "e s",
      "a l",
      "o r",
      "e t",
      "i t",
      "s t",
      "l e",
      "i c",
      "e l",
      "e d",
      "c h",
      "a m",
      "r o",
      "i s",
      "r e",
      "a d",
      "Ġ s",
      "Ġ p",
      "u n",
      "i l",
      "Ġ S",
      "a s",
      "in g",
      "u t",
      "Ġ C",
      "en t",
      "o l",
      "u r",
      "Ġ M",
      "u s",
      "Ġ B",
      "r a",
      "i on",
      "Ġ c",
      "i d",
      "Ġ d",
      "Ġ P",
      "u l",
      "i m",
      "Ġ t",
      "Ġ m",
      "o m",
      "Ġ A",
      "a c",
      "a g",
      "e m",
      "a b",
      "Ġ D",
      "o s",
      "o t",
      "u m",
      "i g",
      "c t",
      "o d",
      "Ġ b",
      "r i",
      "Ġ T",
      "Ġ G",
      "Ġ R",
      "Ġ H",
      "a p",
      "i e",
      "a k",
      "o c",
      "i r",
      "Ġ N",
      "es t",
      "Ġ L",
      "a y",
      "o w",
      "Ġ f",
      "Ġ E",
      "Ġ g",
      "e x",
      "o p",
      "Ġ v",
      "Ġ h",
      "an d",
      "t h",
      "i a",
      "Ġ K",
      "c e",
      "q u",
      "Ġ n",
      "i v",
      "Ġ F",
      "at e",
      "a v",
      "er s",
      "Ġ W",
      "an g",
      "at ion",
      "o g",
      "Ġ l",
      "an t",
      "I n",
      "i k",
      "o v",
      "a h",
      "e c",
      "e g",
      "Ġ k",
      "i st",
      "en d",
      "u b",
      "u d",
      "t er",
      "f f",
      "in e",
      "on t",
      "S t",
      "o b",
      "i b",
      "Ġ r",
      "u p",
      "i p",
      "t on",
      "es s",
      "at h",
      "i z",
      "i an",
      "e y",
      "el l",
      "u g",
      "e ct",
      "Ġ V",
      "Ġ I",
      "in d",
      "ar d",
      "l y",
      "er t",
      "a st",
      "Ġ J",
      "p e",
      "or d",
      "p h",
      "o k",
      "g et",
      "il l",
      "Ġ w",
      "p t",
      "ar t",
      "u e",
      "Ġ re",
      "u c",
      "n e",
      "h t",
      "y l",
      "ag e",
      "Ġ in",
      "Ġ U",
      "Ġ O",
      "i f",
      "e b",
      "t e",
      "as s",
      "i o",
      "s e",
      "a u",
      "un g",
      "al l",
      "e v",
      "un d",
      "e k",
      "e f",
      "e p",
      "o x",
      "ab le",
      "i le",
      "en s",
      "u k",
      "a w",
      "Ġ st",
      "Ġ j",
      "ex t",
      "at a",
      "er m",
      "ac k",
      "h e",
      "ul t",
      "o ut",
      "ĠC h",
      "s et",
      "in t",
      "it y",
      "a z",
      "e w",
      "i al",
      "p l",
      "a ch",
      "o ur",
      "i es",
      "y m",
      "ro p",
      "r an",
      "o u",
      "s k",
      "a j",
      "or t",
      "Ġ ch",
      "ic k",
      "am e",
      "oc k",
      "Ġ a",
      "r y",
      "an n",
      "Ġ un",
      "o st",
      "a i",
      "c l",
      "Ġc on",
      "s h",
      "s on",
      "ĠM c",
      "at t",
      "iv e",
      "p r",
      "u st",
      "j ect",
      "m ent",
      "ie w",
      "h er",
      "i el",
      "y n",
      "l l",
      "o us",
      "p er",
      "e le",
      "y a",
      "i er",
      "od e",
      "y pe",
      "a in",
      "ad d",
      "un t",
      "er v",
      "ar e",
      "p ut",
      "t o",
      "n a",
      "ic h",
      "i j",
      "is h",
      "E R",
      "on g",
      "en g",
      "it e",
      "l o",
      "a x",
      "ig n",
      "on d",
      "C ont",
      "s p",
      "r ing",
      "p p",
      "b er",
      "an e",
      "ul l",
      "at i",
      "or e",
      "ic e",
      "V al",
      "e z",
      "A r",
      "i re",
      "u re",
      "C h",
      "O b",
      "ro m",
      "ar y",
      "il d",
      "id e",
      "om p",
      "T o",
      "m an",
      "r on",
      "as h",
      "at ed",
      "S T",
      "o h",
      "r u",
      "f t",
      "r es",
      "im e",
      "in k",
      "et t",
      "Ġ z",
      "s c",
      "ĠS h",
      "is s",
      "ig ht",
      "n d",
      "an a",
      "er r",
      "iel d",
      "Ġp ro",
      "ar k",
      "en c",
      "Ob ject",
      "T ype",
      "g e",
      "it h",
      "C on",
      "er n",
      "iz e",
      "Ġs p",
      "et h",
      "er e",
      "ow n",
      "I D",
      "l es",
      "e h",
      "P ar",
      "i y",
      "t r",
      "C l",
      "Ġ e",
      "or m",
      "it t",
      "in s",
      "en e",
      "V iew",
      "ra y",
      "O R",
      "Val ue",
      "er c",
      "ol l",
      "le y",
      "o y",
      "O N",
      "h am",
      "Ġ le",
      "Ġp r",
      "or s",
      "al e",
      "A R",
      "R es",
      "on s",
      "m a",
      "c o",
      "E N",
      "i um",
      "U R",
      "r r",
      "Ġ im",
      "L ist",
      "k a",
      "I C",
      "o j",
      "ac e",
      "i ent",
      "E x",
      "h o",
      "s s",
      "ic al",
      "ro w",
      "ct ion",
      "t t",
      "in a",
      "Ġ Y",
      "I N",
      "Ġt h",
      "P ath",
      "ol d",
      "v er",
      "w e",
      "A N",
      "ĠA r",
      "ac t",
      "en ce",
      "P ro",
      "ol or",
      "y s",
      "qu e",
      "r it",
      "S C",
      "ut ton",
      "as e",
      "en n",
      "at o",
      "n o",
      "ar g",
      "l er",
      "r am",
      "E rr",
      "ĠS t",
      "ce pt",
      "e ad",
      "n i",
      "on e",
      "Ġ Z",
      "at ch",
      "Ġ qu",
      "Ġ ex",
      "Ġ ab",
      "al d",
      "Ġs c",
      "c k",
      "o le",
      "t em",
      "C C",
      "I d",
      "o od",
      "us h",
      "om m",
      "s ch",
      "L E",
      "Ġp l",
      "N ame",
      "an s",
      "Ġ Q",
      "Err or",
      "e e",
      "o z",
      "r ent",
      "b o",
      "r ic",
      "s er",
      "an ce",
      "o f",
      "i x",
      "er g",
      "a il",
      "D ata",
      "I m",
      "ar i",
      "Ġd is",
      "an k",
      "A L",
      "ap p",
      "Ġ ad",
      "ar l",
      "C T",
      "S c",
      "y d",
      "an c",
      "ad o",
      "in i",
      "A T",
      "K ey",
      "Ġ al",
      "u f",
      "am p",
      "Ġs ub",
      "y t",
      "C omp",
      "r id",
      "u ff",
      "ĠS ch",
      "le d",
      "S erv",
      "ĠA l",
      "B utton",
      "em ent",
      "em b",
      "S E",
      "r et",
      "an i",
      "a it",
      "T ext",
      "s l",
      "Ġ In",
      "a f",
      "or n",
      "ra v",
      "ar r",
      "g en",
      "A M",
      "at or",
      "f o",
      "Ġ y",
      "e qu",
      "h en",
      "a is",
      "l and",
      "am b",
      "S P",
      "ing s",
      "v al",
      "I T",
      "S ize",
      "y p",
      "e ar",
      "et er",
      "Ar ray",
      "St ring",
      "ad a",
      "f ord",
      "a ir",
      "R E",
      "in n",
      "it i",
      "I tem",
      "i en",
      "ion s",
      "es h",
      "C o",
      "S A",
      "r en",
      "Par am",
      "B y",
      "O f",
      "ug h",
      "ad e",
      "ot t",
      "Ġg et",
      "c on",
      "Ġs h",
      "R P",
      "k an",
      "ec k",
      "in c",
      "e in",
      "c c",
      "u j",
      "ut t",
      "B S",
      "ic t",
      "er a",
      "ic a",
      "ov er",
      "Cont ext",
      "C S",
      "ĠB l",
      "n g",
      "us s",
      "y c",
      "e at",
      "v ent",
      "Ġp ar",
      "n t",
      "p s",
      "or y",
      "ri b",
      "un c",
      "ar a",
      "um b",
      "ot h",
      "k e",
      "In t",
      "ic s",
      "on ent",
      "ut h",
      "ur rent",
      "ar m",
      "ur s",
      "q l",
      "en a",
      "u ch",
      "g er",
      "le ment",
      "P l",
      "y st",
      "eg o",
      "F ield",
      "Ġ an",
      "Ġ en",
      "Im age",
      "i ro",
      "or a",
      "is c",
      "os it",
      "F ile",
      "A C",
      "ut e",
      "P S",
      "i ra",
      "A pp",
      "re ate",
      "re en",
      "i h",
      "ro up",
      "am a",
      "Ġ ac",
      "z e",
      "ĠG u",
      "ag er",
      "us e",
      "at er",
      "C P",
      "v a",
      "al a",
      "Ġd es",
      "st r",
      "M od",
      "Ġs l",
      "v e",
      "ut o",
      "um ber",
      "f l",
      "Ġ ar",
      "o ff",
      "Ġ ap",
      "G et",
      "ch e",
      "D A",
      "u y",
      "Ġs et",
      "is m",
      "d en",
      "at th",
      "er y",
      "Ġ X",
      "Ġre c",
      "T ime",
      "al s",
      "m e",
      "equ est",
      "M an",
      "k h",
      "ro ll",
      "r ess",
      "I A",
      "is e",
      "St ate",
      "p ar",
      "am ent",
      "Ġp er",
      "d ex",
      "I S",
      "p o",
      "n er",
      "il le",
      "ur n",
      "P C",
      "it z",
      "ar c",
      "u z",
      "at es",
      "Ġ ro",
      "ul ar",
      "or r",
      "e ch",
      "l et",
      "i us",
      "r ad",
      "ord er",
      "av e",
      "al t",
      "ra w",
      "an j",
      "h a",
      "C olor",
      "f e",
      "S h",
      "et s",
      "ar b",
      "or b",
      "d u",
      "C ode",
      "I L",
      "i ff",
      "op h",
      "re f",
      "re v",
      "os e",
      "In dex",
      "l ock",
      "u v",
      "Ch ar",
      "our ce"
    ],
    "counts": "[[32,4717],[40,2],[64,41163],[72,14],[257,39316],[260,5919],[262,48158],[267,28341],[276,43829],[284,4942],[292,6859],[305,1605],[340,265],[377,2193],[389,2],[415,1],[439,27984],[441,2],[443,4],[453,3389],[456,205],[466,1358],[481,2227],[484,4],[485,47732],[498,21301],[500,3],[501,48627],[508,11],[512,4],[520,5303],[531,1500],[533,3224],[535,93],[536,1],[539,1],[547,42226],[548,60],[556,4],[557,638],[559,47237],[561,4],[564,97],[569,3],[580,2],[581,140],[585,4],[587,2],[588,31],[589,5],[592,3],[618,190],[625,8],[626,21],[628,1],[629,8371],[634,24292],[637,3],[639,35893],[641,3],[643,12187],[644,201],[647,2],[649,1390],[650,45722],[654,23982],[658,3],[666,5],[667,9705],[674,7],[677,3],[682,278],[684,5],[685,13546],[690,27600],[694,3],[701,70],[702,394],[709,4],[710,11392],[713,2],[715,2076],[721,857],[726,12768],[727,14139],[742,4],[743,13],[745,3],[746,5],[747,3],[748,2],[750,32264],[751,1159],[753,48],[754,3],[755,574],[758,38815],[762,4],[763,3],[764,1050],[765,479],[767,4],[773,37419],[778,11742],[780,3],[784,38],[788,16229],[790,2],[791,40],[796,23524],[799,271],[800,39788],[804,7995],[805,8538],[806,2],[807,138],[811,31],[815,14795],[816,20189],[817,3449],[818,612],[820,4],[821,87],[822,2],[823,8180],[824,29],[825,14],[829,1423],[831,5],[832,32910],[834,94],[839,18],[841,2],[850,2],[851,4],[863,27897],[869,26363],[873,2],[874,12785],[877,3],[879,93],[881,19820],[882,2],[885,1050],[886,4],[888,3],[894,5952],[895,618],[897,1],[899,9],[900,2],[902,4],[903,2],[905,89],[909,327],[910,33028],[912,93],[914,7546],[915,3],[919,8],[920,5],[923,4]]"
  }
}