{
  "version": "1.0",
  "truncation": null,
  "padding": null,
  "added_tokens": [
    {
      "id": 3561,
      "content": "<UNK>",
      "single_word": false,
      "lstrip": false,
      "rstrip": false,
      "normalized": true,
      "special": true
    },
    {
      "id": 3562,
      "content": "<｜end▁of▁sentence｜>",
      "single_word": false,
      "lstrip": false,
      "rstrip": false,
      "normalized": true,
      "special": true
    },
    {
      "id": 3563,
      "content": "<｜pad｜>",
      "single_word": false,
      "lstrip": false,
      "rstrip": false,
      "normalized": true,
      "special": true
    },
    {
      "id": 3564,
      "content": "<｜begin▁of▁sentence｜>",
      "single_word": false,
      "lstrip": false,
      "rstrip": false,
      "normalized": true,
      "special": true
    }
  ],
  "normalizer": {
    "type": "Sequence",
    "normalizers": []
  },
  "pre_tokenizer": {
    "type": "Sequence",
    "pretokenizers": [
      {
        "type": "Split",
        "pattern": {
          "Regex": "[\\r\\n]"
        },
        "behavior": "Isolated",
        "invert": false
      },
      {
        "type": "Split",
        "pattern": {
          "Regex": "\\s?[A-Za-zµÀ-ÖØ-öø-ƺƼ-ƿǄ-ʓʕ-ʯͰ-ͳͶͷͻ-ͽͿΆΈ-ΊΌΎ-ΡΣ-ϵϷ-ҁҊ-ԯԱ-ՖႠ-ჅᎠ-Ᏽᏸ-ᏽᲐ-ᲺᲽ-Ჿᴀ-ᴫᵫ-ᵷᵹ-ᶚḀ-ἕἘ-Ἕἠ-ὅὈ-Ὅὐ-ὗὙὛὝὟ-ώᾀ-ᾴᾶ-ᾼιῂ-ῄῆ-ῌῐ-ΐῖ-Ίῠ-Ῥῲ-ῴῶ-ῼℂℇℊ-ℓℕℙ-ℝℤΩℨK-ℭℯ-ℴℹℼ-ℿⅅ-ⅉⅎↃↄⰀ-ⱻⱾ-ⳤⳫ-ⳮⳲⳳꙀ-ꙭꚀ-ꚛꜢ-ꝯꝱ-ꞇꞋ-ꞎꭰ-ꮿﬀ-ﬆﬓ-ﬗＡ-Ｚａ-ｚ𐐀-𐑏𐒰-𐓓𐓘-𐓻𐲀-𐲲𐳀-𐳲𑢠-𑣟𞤀-𞥃]+"
        },
        "behavior": "Isolated",
        "invert": false
      },
      {
        "type": "Split",
        "pattern": {
          "Regex": "\\s?[!-/:-~！-／：-～‘-‟　-。]+"
        },
        "behavior": "Isolated",
        "invert": false
      },
      {
        "type": "Split",
        "pattern": {
          "Regex": "\\s+$"
        },
        "behavior": "Isolated",
        "invert": false
      },
      {
        "type": "Split",
        "pattern": {
          "Regex": "[一-龥ࠀ-一가-퟿]+"
        },
        "behavior": "Isolated",
        "invert": false
      },
      {
        "type": "Digits",
        "individual_digits": true
      },
      {
        "type": "ByteLevel",
        "add_prefix_space": false,
        "trim_offsets": true,
        "use_regex": false
      }
    ]
  },
  "post_processor": {
    "type": "ByteLevel",
    "add_prefix_space": true,
    "trim_offsets": false,
    "use_regex": true
  },
  "decoder": {
    "type": "ByteLevel",
    "add_prefix_space": true,
    "trim_offsets": true,
    "use_regex": true
  },
  "model": {
    "type": "BPE",
    "dropout": null,
    "unk_token": "<UNK>",
    "continuing_subword_prefix": null,
    "end_of_word_suffix": null,
    "fuse_unk": false,
    "byte_fallback": false,
    "ignore_merges": false,
    "bMax_frequency": true,
    "max_frequency": 63649887,
    "vocab": {
      "ĠKob": 0,
      "ĠKobayashi": 1,
      "jection": 2,
      "ĠPCD": 3,
      "kai": 4,
      "arka": 5,
      "ĠManc": 6,
      "ĠHenrietta": 7,
      "aston": 8,
      "TGF": 9,
      "ĠNieto": 10,
      "uZ": 11,
      "TGFuZ": 12,
      "Ġdamos": 13,
      "erio": 14,
      "rao": 15,
      "ibh": 16,
      "ĠISD": 17,
      "ĠLenn": 18,
      "elden": 19,
      "ovariant": 20,
      "ĠXamarin": 21,
      "edent": 22,
      "Ġdeliver": 23,
      "thought": 24,
      "Ġpatente": 25,
      "ĠNSP": 26,
      "Ġpow": 27,
      "utada": 28,
      "update": 29,
      "ĠWittgenstein": 30,
      "ichromo": 31,
      "roquois": 32,
      "htb": 33,
      "ainan": 34,
      "DeleteDialogOpen": 35,
      "SMITH": 36,
      "Ġegypt": 37,
      "Ġfertig": 38,
      "ĠTrich": 39,
      "Ġantis": 40,
      "imber": 41,
      "arq": 42,
      "ĠKimber": 43,
      "Ġyen": 44,
      "ConfigSource": 45,
      "Ġoutcrops": 46,
      "ĠLennox": 47,
      "cije": 48,
      "Ġlys": 49,
      "castruct": 50,
      "eti": 51,
      "ĠIdani": 52,
      "alignParent": 53,
      "Ġwykon": 54,
      "ipur": 55,
      "znym": 56,
      "isEqualTo": 57,
      "ĠThunder": 58,
      "ĠOzzy": 59,
      "ĠThunderb": 60,
      "Ġhemolysis": 61,
      "ĠEllison": 62,
      "onicus": 63,
      "ĠAspergillus": 64,
      "tern": 65,
      "kag": 66,
      "orschungs": 67,
      "ĠAstrid": 68,
      "ĠManfred": 69,
      "Ġtent": 70,
      "Ġpalo": 71,
      "Ġapplause": 72,
      "window": 73,
      "Ġstriis": 74,
      "Ġelektrom": 75,
      "meck": 76,
      "pppp": 77,
      "AppBar": 78,
      "sendStatus": 79,
      "ĠstrokeWeight": 80,
      "ĠUGC": 81,
      "Ġtort": 82,
      "length": 83,
      "ĠcontentView": 84,
      "ĠALU": 85,
      "enco": 86,
      "Ġitertools": 87,
      "Ġvolition": 88,
      "eneuve": 89,
      "Ġipak": 90,
      "Ġamide": 91,
      "Ġhabla": 92,
      "ĠHutt": 93,
      "Ġlysates": 94,
      "Ġkarane": 95,
      "ĠBorough": 96,
      "Ġimplicate": 97,
      "dru": 98,
      "ĠBever": 99,
      "addAttribute": 100,
      "IFF": 101,
      "ĠBed": 102,
      "abay": 103,
      "eacute": 104,
      "cznie": 105,
      "Ġterrazzo": 106,
      "Ġroka": 107,
      "Lab": 108,
      "SupportActionBar": 109,
      "Ġpanne": 110,
      "phthal": 111,
      "Ġmote": 112,
      "ĠAenean": 113,
      "Ġjurul": 114,
      "ĠCCB": 115,
      "Ġker": 116,
      "asserie": 117,
      "Ġcylind": 118,
      "obit": 119,
      "Ġvertebral": 120,
      "isz": 121,
      "Ġimpug": 122,
      "lemish": 123,
      "Ġspod": 124,
      "Ġhere": 125,
      "FindBy": 126,
      "Ġspermato": 127,
      "ĠBeckett": 128,
      "Ġdeprecated": 129,
      "ĠTriv": 130,
      "ĠTsu": 131,
      "senal": 132,
      "warp": 133,
      "ĠRIP": 134,
      "jna": 135,
      "QUE": 136,
      "ĠCrowley": 137,
      "ĠConcurrent": 138,
      "Ġpolym": 139,
      "BtnPanel": 140,
      "ĠCheng": 141,
      "arima": 142,
      "Exponent": 143,
      "ĠRenata": 144,
      "ĠConcurrentTask": 145,
      "Ġvag": 146,
      "ĠSdn": 147,
      "okie": 148,
      "apit": 149,
      "ĠGreeks": 150,
      "LensGlare": 151,
      "ĠControvers": 152,
      "lished": 153,
      "Ġbast": 154,
      "ĠPhang": 155,
      "ĠBane": 156,
      "ovice": 157,
      "Brain": 158,
      "Brainz": 159,
      "myl": 160,
      "embe": 161,
      "umatic": 162,
      "ĠCummings": 163,
      "Sig": 164,
      "Ġrokov": 165,
      "ungkap": 166,
      "ĠpSig": 167,
      "eka": 168,
      "ĠDwight": 169,
      "verticalLayout": 170,
      "ĠClement": 171,
      "seva": 172,
      "Ġodk": 173,
      "Ġmengatakan": 174,
      "arai": 175,
      "wrapper": 176,
      "Ġbutt": 177,
      "Ġrepeated": 178,
      "ĠBAU": 179,
      "ĠGaia": 180,
      "ouche": 181,
      "achers": 182,
      "nr": 183,
      "owanym": 184,
      "nrB": 185,
      "rugula": 186,
      "ĠBianca": 187,
      "ĠMPP": 188,
      "ĠHins": 189,
      "Classes": 190,
      "AutoFocus": 191,
      "Ġlather": 192,
      "zony": 193,
      "ĠBuild": 194,
      "Ġwaahanga": 195,
      "ĠAHL": 196,
      "Ġthrombo": 197,
      "setPassword": 198,
      "ĠGhent": 199,
      "otrich": 200,
      "CellValue": 201,
      "emeinschaft": 202,
      "osure": 203,
      "setCellValue": 204,
      "ubat": 205,
      "ocie": 206,
      "inskii": 207,
      "Ġrecited": 208,
      "ozyg": 209,
      "ĠMb": 210,
      "ĠNPE": 211,
      "SaveChanges": 212,
      "Ġsolder": 213,
      "URLConnection": 214,
      "ĠKondo": 215,
      "ĠJezus": 216,
      "queue": 217,
      "bitwise": 218,
      "illar": 219,
      "Ġconj": 220,
      "ynku": 221,
      "ĠMargot": 222,
      "iral": 223,
      "ĠUtica": 224,
      "Ġcytok": 225,
      "ĠCCSDT": 226,
      "ĠRecife": 227,
      "ĠIrina": 228,
      "quinho": 229,
      "Ġcytokinin": 230,
      "vamente": 231,
      "Ġmonadic": 232,
      "okieParser": 233,
      "Ġexerted": 234,
      "rti": 235,
      "Ġsprayer": 236,
      "ROM": 237,
      "ĠProzent": 238,
      "Allen": 239,
      "ĠBVHTreeNode": 240,
      "ĠObjectID": 241,
      "BND": 242,
      "ĠUBND": 243,
      "calf": 244,
      "cling": 245,
      "umas": 246,
      "icilian": 247,
      "ĠCUR": 248,
      "Reg": 249,
      "emers": 250,
      "ĠDumas": 251,
      "acent": 252,
      "Ġuitge": 253,
      "LR": 254,
      "ĠallClasses": 255,
      "janja": 256,
      "ĠNig": 257,
      "ĠMetcalf": 258,
      "UREG": 259,
      "AddComponent": 260,
      "clock": 261,
      "inating": 262,
      "Ġfouls": 263,
      "ĠFROM": 264,
      "Ġreversion": 265,
      "ĠTher": 266,
      "MeshData": 267,
      "ĠMcDermott": 268,
      "geant": 269,
      "ripty": 270,
      "oia": 271,
      "ĠSP": 272,
      "ĠCallback": 273,
      "ĠWaits": 274,
      "Ġhablan": 275,
      "Ġoverdrive": 276,
      "Ġverwend": 277,
      "idega": 278,
      "ĠJordi": 279,
      "isha": 280,
      "Ġfastened": 281,
      "oxidase": 282,
      "dni": 283,
      "TextureAsset": 284,
      "fle": 285,
      "Ġchampioned": 286,
      "ĠMartin": 287,
      "Ġrally": 288,
      "Ġhumanities": 289,
      "eraj": 290,
      "FileLine": 291,
      "ĠAik": 292,
      "keydown": 293,
      "ĠLav": 294,
      "ĠMPR": 295,
      "Ġjson": 296,
      "Ġictal": 297,
      "tze": 298,
      "Aslam": 299,
      "Ġaction": 300,
      "Aslamualaikum": 301,
      "icao": 302,
      "MatContext": 303,
      "ĠNS": 304,
      "ĠIntPtr": 305,
      "rauen": 306,
      "ĠCMC": 307,
      "Filter": 308,
      "ĠBarrow": 309,
      "ReaderWriter": 310,
      "Slots": 311,
      "DTDs": 312,
      "rian": 313,
      "ĠNestor": 314,
      "forschungs": 315,
      "Ġcompr": 316,
      "ongi": 317,
      "jeeling": 318,
      "Ġkaug": 319,
      "Ġssh": 320,
      "odob": 321,
      "Ġsagitt": 322,
      "Ġsekar": 323,
      "indest": 324,
      "PAssignment": 325,
      "ezi": 326,
      "Ġdelect": 327,
      "ĠMSU": 328,
      "CImgBoard": 329,
      "ilene": 330,
      "Ġtroch": 331,
      "beli": 332,
      "ĠBanc": 333,
      "ĠBancroft": 334,
      "Ġconfe": 335,
      "ĠGuz": 336,
      "EnumValue": 337,
      "getApplication": 338,
      "Ġbetrayed": 339,
      "timePlusEvents": 340,
      "LElement": 341,
      "Ġtrust": 342,
      "ĠFROMVS": 343,
      "Ops": 344,
      "ĠSmy": 345,
      "setPreferred": 346,
      "ĠKnow": 347,
      "ĠDevOps": 348,
      "voll": 349,
      "Ġprogress": 350,
      "Ġnigga": 351,
      "stituted": 352,
      "ĠKnowles": 353,
      "ĠKensington": 354,
      "ĠKnock": 355,
      "Ġgeo": 356,
      "ĠgeoLocation": 357,
      "ĠTijuana": 358,
      "obium": 359,
      "ĠXuan": 360,
      "anoj": 361,
      "Mal": 362,
      "ĠIH": 363,
      "Ġcheek": 364,
      "ĠThun": 365,
      "slot": 366,
      "ĠChesh": 367,
      "TISE": 368,
      "ĠCheshire": 369,
      "ĠPew": 370,
      "vod": 371,
      "ĠBetty": 372,
      "ogonal": 373,
      "digo": 374,
      "inink": 375,
      "BNA": 376,
      "OAuth": 377,
      "ĠRae": 378,
      "ineas": 379,
      "Ġbiting": 380,
      "avan": 381,
      "slash": 382,
      "Ġultimo": 383,
      "imd": 384,
      "ijl": 385,
      "ĠEMG": 386,
      "Ġkupu": 387,
      "ĠBiswas": 388,
      "oporto": 389,
      "llrp": 390,
      "ĠRfd": 391,
      "ĠTe": 392,
      "Ġwych": 393,
      "ĠZamora": 394,
      "ĠCym": 395,
      "Ġmjes": 396,
      "korn": 397,
      "Ġsandhaya": 398,
      "ĠPlank": 399,
      "insky": 400,
      "Ġupas": 401,
      "Ġair": 402,
      "ĠMortimer": 403,
      "Ġditer": 404,
      "ĠCrescent": 405,
      "ĠCDC": 406,
      "BYTE": 407,
      "unciation": 408,
      "Ġmenu": 409,
      "Ġceas": 410,
      "Ġkandi": 411,
      "leme": 412,
      "Ġhein": 413,
      "anao": 414,
      "ensburg": 415,
      "ĠAlvarado": 416,
      "ĠPolly": 417,
      "avras": 418,
      "ĠCartan": 419,
      "run": 420,
      "Ġvadati": 421,
      "eils": 422,
      "FileInput": 423,
      "Ġworkpiece": 424,
      "ĠAML": 425,
      "unam": 426,
      "eqref": 427,
      "leston": 428,
      "ordnet": 429,
      "ĠLest": 430,
      "ĠLEED": 431,
      "Ġkom": 432,
      "Ġespuma": 433,
      "ees": 434,
      "Melit": 435,
      "orator": 436,
      "omnia": 437,
      "Melitaea": 438,
      "Ġeest": 439,
      "dre": 440,
      "Ġmjest": 441,
      "language": 442,
      "Ġenvers": 443,
      "languageTag": 444,
      "ĠRosal": 445,
      "ĠRUTAREAL": 446,
      "ContextCompat": 447,
      "abcati": 448,
      "icaria": 449,
      "Deferred": 450,
      "aturated": 451,
      "ROP": 452,
      "ĠMer": 453,
      "ĠLaufe": 454,
      "ĠAlgar": 455,
      "ĠHoud": 456,
      "Ġmelakukannya": 457,
      "Ġkolei": 458,
      "csv": 459,
      "csvStream": 460,
      "ĠGCD": 461,
      "ĠCommandCenter": 462,
      "InstanceOf": 463,
      "Ġtransfection": 464,
      "agle": 465,
      "BASELINE": 466,
      "vog": 467,
      "ĠReth": 468,
      "Ġtattoo": 469,
      "Ġjul": 470,
      "Ġadjourned": 471,
      "Ġtoege": 472,
      "placeholder": 473,
      "edLeft": 474,
      "Ġquery": 475,
      "MouseMove": 476,
      "ibly": 477,
      "Ġcref": 478,
      "ĠIDC": 479,
      "laszt": 480,
      "ĠHorde": 481,
      "editerr": 482,
      "UpdateChoice": 483,
      "vii": 484,
      "onin": 485,
      "ĠMbappe": 486,
      "Ġconn": 487,
      "Ġmotiv": 488,
      "TextUtils": 489,
      "PATH": 490,
      "ĠCompoundButton": 491,
      "streetmap": 492,
      "toArray": 493,
      "ambu": 494,
      "MDP": 495,
      "Ġtast": 496,
      "unz": 497,
      "myMDP": 498,
      "pPATH": 499,
      "anjut": 500,
      "reto": 501,
      "Ġxrd": 502,
      "inje": 503,
      "itl": 504,
      "ĠVali": 505,
      "iar": 506,
      "ĠHilary": 507,
      "ĠGalilee": 508,
      "csp": 509,
      "ĠSIC": 510,
      "UpperBound": 511,
      "acu": 512,
      "ĠMaulana": 513,
      "StartZ": 514,
      "urna": 515,
      "ĠIt": 516,
      "Ġkotlinx": 517,
      "ieto": 518,
      "eso": 519,
      "CreateCharacter": 520,
      "iszt": 521,
      "ĠMore": 522,
      "ĠGew": 523,
      "ayin": 524,
      "ĠChayin": 525,
      "IDField": 526,
      "ĠGarn": 527,
      "Ġxhr": 528,
      "ĠJasper": 529,
      "ataa": 530,
      "Ġsucedido": 531,
      "cookieParser": 532,
      "itania": 533,
      "Ġwiki": 534,
      "anorama": 535,
      "How": 536,
      "ĠRizzo": 537,
      "ĠwikiHow": 538,
      "markUpdateChoice": 539,
      "Panorama": 540,
      "Shroud": 541,
      "Ġelt": 542,
      "seite": 543,
      "isValue": 544,
      "Effects": 545,
      "embourg": 546,
      "ColorEffects": 547,
      "ĠmotionProxy": 548,
      "ĠAMS": 549,
      "Ġhydro": 550,
      "ĠKru": 551,
      "ĠKrueger": 552,
      "updateOne": 553,
      "ĠAviv": 554,
      "GroupID": 555,
      "Sum": 556,
      "Ġsed": 557,
      "Ġmaxime": 558,
      "Ġperoxidase": 559,
      "ajib": 560,
      "ĠSitt": 561,
      "ĠRous": 562,
      "UiThread": 563,
      "Arvore": 564,
      "OnUiThread": 565,
      "lexemeTable": 566,
      "ĠMelville": 567,
      "CLUSTERED": 568,
      "ĠTarn": 569,
      "ĠPAM": 570,
      "Ġauster": 571,
      "IfNot": 572,
      "ĠCST": 573,
      "ViewSet": 574,
      "ĠNajib": 575,
      "Ġfoo": 576,
      "ĠReven": 577,
      "ĠVuk": 578,
      "ApiClient": 579,
      "ĠBlind": 580,
      "pVar": 581,
      "Ġclamp": 582,
      "taining": 583,
      "ĠCOc": 584,
      "Ġslim": 585,
      "ocial": 586,
      "ĠRush": 587,
      "Ġjist": 588,
      "ĠJal": 589,
      "CustomGlare": 590,
      "Ġrequest": 591,
      "pheromone": 592,
      "Ġknocks": 593,
      "Ticks": 594,
      "ributed": 595,
      "ĠReilly": 596,
      "chio": 597,
      "UNDLE": 598,
      "ĠCCBUNDLE": 599,
      "hwar": 600,
      "ĠSCE": 601,
      "Ġultim": 602,
      "pson": 603,
      "ĠNassau": 604,
      "Ġpsychosocial": 605,
      "archa": 606,
      "Ġugu": 607,
      "Zawodnik": 608,
      "Ġfang": 609,
      "jasmine": 610,
      "ĠLSR": 611,
      "ĠCopp": 612,
      "fatter": 613,
      "ĠPLoS": 614,
      "apuram": 615,
      "Ġsmeared": 616,
      "ĠGodwin": 617,
      "Carter": 618,
      "UIC": 619,
      "ĠTobago": 620,
      "StartPreview": 621,
      "upper": 622,
      "ledo": 623,
      "rivy": 624,
      "ĠISPs": 625,
      "ĠWilbur": 626,
      "manag": 627,
      "nonce": 628,
      "ecer": 629,
      "ETY": 630,
      "Ġtreb": 631,
      "HttpPut": 632,
      "ĠVerv": 633,
      "Ġjonka": 634,
      "ilecek": 635,
      "hilt": 636,
      "before": 637,
      "icking": 638,
      "SOUR": 639,
      "td": 640,
      "beforeend": 641,
      "UDE": 642,
      "ĠEdw": 643,
      "Ġpreprocess": 644,
      "astern": 645,
      "ĠIngl": 646,
      "ysta": 647,
      "Ġkwe": 648,
      "asInstanceOf": 649,
      "pub": 650,
      "ServiceGroupID": 651,
      "onnen": 652,
      "kiem": 653,
      "ĠRamona": 654,
      "assapi": 655,
      "iavelli": 656,
      "pn": 657,
      "ukes": 658,
      "risome": 659,
      "ĠNAA": 660,
      "ĠLorentzian": 661,
      "ĠtopRight": 662,
      "utzt": 663,
      "folger": 664,
      "orea": 665,
      "Topbar": 666,
      "ibley": 667,
      "essed": 668,
      "Ġarada": 669,
      "Ġevam": 670,
      "Ġsiglas": 671,
      "izowane": 672,
      "Ġneoc": 673,
      "Destroy": 674,
      "PreviewPaused": 675,
      "zz": 676,
      "iseks": 677,
      "ĠPlague": 678,
      "ĠIwas": 679,
      "them": 680,
      "Ġmaur": 681,
      "Ġmauris": 682,
      "Ġimpre": 683,
      "ĠNASA": 684,
      "rene": 685,
      "Ġmig": 686,
      "UIControl": 687,
      "ouro": 688,
      "printf": 689,
      "lsulfanyl": 690,
      "ĠWach": 691,
      "ĠDWI": 692,
      "Codes": 693,
      "resar": 694,
      "ĠWoodruff": 695,
      "Ġalgu": 696,
      "Ġgelen": 697,
      "Litt": 698,
      "idy": 699,
      "ĠPhill": 700,
      "ĠPhillies": 701,
      "oblastic": 702,
      "ĠuseSelector": 703,
      "Ġtect": 704,
      "ĠLancashire": 705,
      "hookrightarrow": 706,
      "ĠLahore": 707,
      "Ġcorp": 708,
      "StatusCodes": 709,
      "Ġgeneric": 710,
      "Ġlymphoblastic": 711,
      "Ġjedan": 712,
      "Ġzieht": 713,
      "Ġrjf": 714,
      "ĠRosetta": 715,
      "ĠTherap": 716,
      "ĠCAE": 717,
      "itee": 718,
      "ĠUtils": 719,
      "ĠPend": 720,
      "Overview": 721,
      "ĠgenericOverview": 722,
      "ĠGaj": 723,
      "Mark": 724,
      "Ġdiph": 725,
      "Ġenrol": 726,
      "Ġlaure": 727,
      "Ġwry": 728,
      "stp": 729,
      "ratie": 730,
      "otri": 731,
      "Ġrud": 732,
      "ĠSandler": 733,
      "Ġbaad": 734,
      "ftime": 735,
      "mapi": 736,
      "SwiftlyPlugin": 737,
      "ĠVivienne": 738,
      "ĠCDP": 739,
      "objClass": 740,
      "strate": 741,
      "uradaki": 742,
      "odik": 743,
      "oven": 744,
      "ingular": 745,
      "Ġpapar": 746,
      "odikwa": 747,
      "nsic": 748,
      "ifal": 749,
      "bage": 750,
      "wikidata": 751,
      "Ġcherche": 752,
      "Ġaran": 753,
      "CommonAncestor": 754,
      "Ġvor": 755,
      "Ġcontradicts": 756,
      "ieni": 757,
      "ĠmyCamera": 758,
      "Ġevamadisu": 759,
      "verno": 760,
      "ivable": 761,
      "ivated": 762,
      "Glide": 763,
      "kyverno": 764,
      "Ġspars": 765,
      "Ġmaad": 766,
      "EphemeralShroud": 767,
      "enzo": 768,
      "ĠForge": 769,
      "PLF": 770,
      "jami": 771,
      "aic": 772,
      "thyl": 773,
      "Ġabgesch": 774,
      "onavir": 775,
      "loop": 776,
      "ĠSomm": 777,
      "ĠSeymour": 778,
      "ymet": 779,
      "slant": 780,
      "ĠBangor": 781,
      "Bytes": 782,
      "edm": 783,
      "ueba": 784,
      "ĠEMU": 785,
      "icus": 786,
      "apati": 787,
      "Ġsplit": 788,
      "Ġwildest": 789,
      "ichlor": 790,
      "Ġsplitpos": 791,
      "ĠSpro": 792,
      "igt": 793,
      "ĠBON": 794,
      "ĠFritz": 795,
      "ignons": 796,
      "ĠGustave": 797,
      "quantile": 798,
      "Ġgal": 799,
      "Ġgminy": 800,
      "vre": 801,
      "ĠTenerife": 802,
      "ultan": 803,
      "Ġmanipulative": 804,
      "Ġchampignons": 805,
      "Ġgru": 806,
      "epad": 807,
      "Align": 808,
      "psr": 809,
      "ammad": 810,
      "expanded": 811,
      "yside": 812,
      "illac": 813,
      "ĠEgypt": 814,
      "expandedTitle": 815,
      "ucius": 816,
      "Ġyem": 817,
      "gary": 818,
      "Ġvigueur": 819,
      "arcy": 820,
      "lenen": 821,
      "StarParaPkg": 822,
      "SetFloat": 823,
      "onces": 824,
      "Ġcompute": 825,
      "ĠNick": 826,
      "ecto": 827,
      "ĠcomputeEncoder": 828,
      "jols": 829,
      "NotNull": 830,
      "ĠAuff": 831,
      "uacute": 832,
      "ĠAN": 833,
      "Ġhumiliated": 834,
      "Ġausger": 835,
      "nin": 836,
      "ĠMee": 837,
      "Ġcondiment": 838,
      "ĠCHARSE": 839,
      "ĠCHARSET": 840,
      "Ġdatt": 841,
      "arrison": 842,
      "ĠOsc": 843,
      "oplast": 844,
      "ouw": 845,
      "Ġeinger": 846,
      "Ġcondimentum": 847,
      "ĠRena": 848,
      "incer": 849,
      "ĠHerring": 850,
      "cit": 851,
      "Ġangesehen": 852,
      "ritte": 853,
      "Ġinsofar": 854,
      "dport": 855,
      "Ġannuity": 856,
      "ujos": 857,
      "iliate": 858,
      "repeat": 859,
      "Option": 860,
      "ĠCurtis": 861,
      "lares": 862,
      "ĠEllie": 863,
      "OptionPane": 864,
      "ĠFRAN": 865,
      "ĠWic": 866,
      "bran": 867,
      "aians": 868,
      "Ġokun": 869,
      "oglas": 870,
      "MSFontService": 871,
      "INCT": 872,
      "ASC": 873,
      "Eddie": 874,
      "ĠLili": 875,
      "heast": 876,
      "ĠVilleneuve": 877,
      "ĠSmarty": 878,
      "ĠSmartyLint": 879,
      "braio": 880,
      "Ġepile": 881,
      "eltatdouble": 882,
      "ĠGag": 883,
      "putPath": 884,
      "Ġgamepad": 885,
      "tom": 886,
      "stargo": 887,
      "dard": 888,
      "ughton": 889,
      "ĠBroughton": 890,
      "OK": 891,
      "zys": 892,
      "icmp": 893,
      "chie": 894,
      "Ġkasi": 895,
      "Ġmarm": 896,
      "rne": 897,
      "khane": 898,
      "zoa": 899,
      "pa": 900,
      "ĠLPM": 901,
      "Ġmall": 902,
      "ĠDSM": 903,
      "yland": 904,
      "ĠColson": 905,
      "ĠCHP": 906,
      "Ġthromb": 907,
      "ASD": 908,
      "ĠMLP": 909,
      "Hos": 910,
      "ahren": 911,
      "ĠSikk": 912,
      "Appuntamento": 913,
      "ilitary": 914,
      "mylist": 915,
      "ĠReichs": 916,
      "ĠPart": 917,
      "imbus": 918,
      "Ġrid": 919,
      "recomm": 920,
      "ĠGreenfield": 921,
      "ennent": 922,
      "BOSS": 923,
      "Ġmontar": 924,
      "Ġreicht": 925,
      "ĠNewport": 926,
      "ĠWojcie": 927,
      "Ġdau": 928,
      "AddTo": 929,
      "openstreetmap": 930,
      "ungsseite": 931,
      "lma": 932,
      "Transicao": 933,
      "ĠSex": 934,
      "anedi": 935,
      "Ġsetzte": 936,
      "ĠBou": 937,
      "recommendet": 938,
      "adn": 939,
      "Ġcorriendo": 940,
      "ĠGewinn": 941,
      "ĠDavao": 942,
      "Ġstork": 943,
      "ĠTall": 944,
      "ĠMaxwell": 945,
      "AuthState": 946,
      "ĠSexton": 947,
      "Upload": 948,
      "ĠSikkim": 949,
      "ĠaddConfigureArg": 950,
      "ĠLian": 951,
      "esy": 952,
      "ĠGaulle": 953,
      "impan": 954,
      "ĠsbParams": 955,
      "ipc": 956,
      "ĠSting": 957,
      "clockwise": 958,
      "ĠLeiter": 959,
      "iconductor": 960,
      "mcs": 961,
      "ivot": 962,
      "ĠElvis": 963,
      "adan": 964,
      "peers": 965,
      "ĠDOP": 966,
      "rentice": 967,
      "rancis": 968,
      "Ġizme": 969,
      "ambo": 970,
      "Ġseno": 971,
      "Ġelucid": 972,
      "Ġvali": 973,
      "ĠHuy": 974,
      "onDestroy": 975,
      "Ġtortor": 976,
      "ptr": 977,
      "erina": 978,
      "renerg": 979,
      "ificial": 980,
      "KURZBESCHREIBUNG": 981,
      "ĠUmlauf": 982,
      "ĠPas": 983,
      "ĠPasand": 984,
      "ĠDarcy": 985,
      "ĠThrust": 986,
      "gouv": 987,
      "fton": 988,
      "clients": 989,
      "Ġpname": 990,
      "ListComponent": 991,
      "ĠWaltham": 992,
      "ĠJakob": 993,
      "Ġfrancis": 994,
      "Ġkir": 995,
      "Celula": 996,
      "Toolkit": 997,
      "IRCON": 998,
      "MyToolkit": 999,
      "omh": 1000,
      "ĠHack": 1001,
      "VERTISE": 1002,
      "ĠDukes": 1003,
      "hesians": 1004,
      "BLINK": 1005,
      "armament": 1006,
      "ĠWelch": 1007,
      "iced": 1008,
      "IDX": 1009,
      "ĠICR": 1010,
      "Subsec": 1011,
      "Ġgruesome": 1012,
      "ungu": 1013,
      "ributedString": 1014,
      "raper": 1015,
      "Ġconvolutional": 1016,
      "Ġbor": 1017,
      "ogged": 1018,
      "Ġinsomnia": 1019,
      "ĠWade": 1020,
      "Ġsillons": 1021,
      "omena": 1022,
      "peration": 1023,
      "wrapperEl": 1024,
      "localObject": 1025,
      "ble": 1026,
      "implantation": 1027,
      "Ġunto": 1028,
      "enture": 1029,
      "Ġgrate": 1030,
      "Ġgeleden": 1031,
      "uary": 1032,
      "ĠReina": 1033,
      "Deja": 1034,
      "RequestBuilder": 1035,
      "riters": 1036,
      "zado": 1037,
      "isn": 1038,
      "Ġdeliverables": 1039,
      "Ġchad": 1040,
      "ĠNorb": 1041,
      "ĠNorbert": 1042,
      "amment": 1043,
      "Ġetx": 1044,
      "dda": 1045,
      "otation": 1046,
      "Ġvaliant": 1047,
      "coprotein": 1048,
      "ucia": 1049,
      "cter": 1050,
      "ĠTDI": 1051,
      "Dun": 1052,
      "Ġcalda": 1053,
      "ĠOTT": 1054,
      "iscoll": 1055,
      "ĠDriscoll": 1056,
      "Ġsre": 1057,
      "ĠEpstein": 1058,
      "Ġtoa": 1059,
      "asti": 1060,
      "Ġmushrooms": 1061,
      "rescence": 1062,
      "inald": 1063,
      "iving": 1064,
      "Ġsinn": 1065,
      "loy": 1066,
      "ĠCardoso": 1067,
      "ĠScul": 1068,
      "iensis": 1069,
      "avacak": 1070,
      "VF": 1071,
      "ĠIVF": 1072,
      "eometry": 1073,
      "Geometry": 1074,
      "sdl": 1075,
      "setGeometry": 1076,
      "Ġteil": 1077,
      "Ġtwine": 1078,
      "kloud": 1079,
      "FTR": 1080,
      "Ġpabbaj": 1081,
      "lerinden": 1082,
      "ennyj": 1083,
      "udarstv": 1084,
      "udarstvennyj": 1085,
      "icis": 1086,
      "Ġkhel": 1087,
      "Ġnariz": 1088,
      "Ġmagn": 1089,
      "ĠRNN": 1090,
      "ĠtestPanorama": 1091,
      "zit": 1092,
      "uban": 1093,
      "ĠAnders": 1094,
      "Ġscompar": 1095,
      "ĠMoreton": 1096,
      "ohner": 1097,
      "ĠCIRCUIT": 1098,
      "ASCADE": 1099,
      "vt": 1100,
      "emate": 1101,
      "cvec": 1102,
      "Ġcrank": 1103,
      "Ġnazar": 1104,
      "FullScreen": 1105,
      "Ġdegrad": 1106,
      "bbR": 1107,
      "omis": 1108,
      "nienie": 1109,
      "Ġornare": 1110,
      "odoris": 1111,
      "alaa": 1112,
      "ADT": 1113,
      "Ġreproach": 1114,
      "hidden": 1115,
      "ATURE": 1116,
      "ĠASTM": 1117,
      "Ġposticis": 1118,
      "OLYBDENUM": 1119,
      "Ġede": 1120,
      "ĠMcQu": 1121,
      "ĠDuch": 1122,
      "ĠFoo": 1123,
      "insert": 1124,
      "Lock": 1125,
      "ĠOTP": 1126,
      "Ġconjoint": 1127,
      "Vu": 1128,
      "stadt": 1129,
      "DejaVu": 1130,
      "ĠMercy": 1131,
      "jsp": 1132,
      "brack": 1133,
      "ĠDole": 1134,
      "uale": 1135,
      "GetValue": 1136,
      "ĠPPT": 1137,
      "force": 1138,
      "Ġvont": 1139,
      "med": 1140,
      "Ġukon": 1141,
      "Ġphenytoin": 1142,
      "Ġchat": 1143,
      "sofar": 1144,
      "isVideo": 1145,
      "Ġmotivic": 1146,
      "ĠMSD": 1147,
      "ĠRafa": 1148,
      "manifolds": 1149,
      "ĠErwin": 1150,
      "Ġkttt": 1151,
      "endev": 1152,
      "chevron": 1153,
      "jolsendev": 1154,
      "ĠHov": 1155,
      "ĠNHT": 1156,
      "MLElement": 1157,
      "ĠAKT": 1158,
      "ĠSamo": 1159,
      "mena": 1160,
      "Invalid": 1161,
      "Ġoctave": 1162,
      "legg": 1163,
      "Ġpropriety": 1164,
      "TabLayout": 1165,
      "ĠPSD": 1166,
      "ĠMediterr": 1167,
      "Ġinternal": 1168,
      "bani": 1169,
      "leiter": 1170,
      "ques": 1171,
      "ĠSantander": 1172,
      "ulum": 1173,
      "oyam": 1174,
      "ceres": 1175,
      "White": 1176,
      "Prema": 1177,
      "Vol": 1178,
      "Gosudarstvennyj": 1179,
      "ractable": 1180,
      "robi": 1181,
      "ĠchatId": 1182,
      "odon": 1183,
      "Ivan": 1184,
      "ENN": 1185,
      "aphys": 1186,
      "Ġdicembre": 1187,
      "atk": 1188,
      "Ġmostra": 1189,
      "ĠCad": 1190,
      "rius": 1191,
      "DateTime": 1192,
      "ocyclic": 1193,
      "Balt": 1194,
      "ĠJoc": 1195,
      "ĠDarmstadt": 1196,
      "Ġcarapace": 1197,
      "ĠAgnes": 1198,
      "Swing": 1199,
      "rikan": 1200,
      "SwingConstants": 1201,
      "Ġpunctato": 1202,
      "uliert": 1203,
      "omethyl": 1204,
      "ĠObituary": 1205,
      "Ġcadast": 1206,
      "AppLink": 1207,
      "Ġinfidelity": 1208,
      "Ġocz": 1209,
      "ĠMcNamara": 1210,
      "Ġkere": 1211,
      "Ġmaneuvering": 1212,
      "JPEG": 1213,
      "ĠOBD": 1214,
      "jobj": 1215,
      "fangs": 1216,
      "oromethyl": 1217,
      "esta": 1218,
      "ĠGiles": 1219,
      "Ġgne": 1220,
      "Ġcurrants": 1221,
      "ĠEDF": 1222,
      "Ġcolo": 1223,
      "FileInputExcel": 1224,
      "Ġovation": 1225,
      "Tabpage": 1226,
      "ĠTreasury": 1227,
      "chalk": 1228,
      "ableName": 1229,
      "getpath": 1230,
      "ĠCadillac": 1231,
      "ĠAndersson": 1232,
      "eryl": 1233,
      "ishing": 1234,
      "tor": 1235,
      "Ġemper": 1236,
      "Ġparlour": 1237,
      "hamdul": 1238,
      "ĠSachs": 1239,
      "heem": 1240,
      "XT": 1241,
      "ĠSchmid": 1242,
      "Ġliquid": 1243,
      "yawa": 1244,
      "Ġpwm": 1245,
      "Ġcany": 1246,
      "ĠCAC": 1247,
      "Ġipsa": 1248,
      "ĠGoodwin": 1249,
      "Ġcomm": 1250,
      "ĠPita": 1251,
      "orta": 1252,
      "saan": 1253,
      "agini": 1254,
      "MenuGroup": 1255,
      "ĠKerr": 1256,
      "ĠVent": 1257,
      "Ġgahetva": 1258,
      "ANT": 1259,
      "Ġexpl": 1260,
      "ĠSalesforce": 1261,
      "Ġblandit": 1262,
      "alke": 1263,
      "ankt": 1264,
      "ĠTram": 1265,
      "Kell": 1266,
      "render": 1267,
      "ophage": 1268,
      "Ġaik": 1269,
      "hiver": 1270,
      "lenme": 1271,
      "Centers": 1272,
      "ĠChengdu": 1273,
      "ANG": 1274,
      "ĠnCenters": 1275,
      "oplus": 1276,
      "imil": 1277,
      "ridium": 1278,
      "hnung": 1279,
      "Ġfamilie": 1280,
      "osse": 1281,
      "assays": 1282,
      "Ġliberalization": 1283,
      "utral": 1284,
      "Ġalmo": 1285,
      "Ġasn": 1286,
      "Phase": 1287,
      "EditDialogOpen": 1288,
      "VARCHAR": 1289,
      "ĠTin": 1290,
      "Hound": 1291,
      "zego": 1292,
      "PhaseHound": 1293,
      "othing": 1294,
      "ĠBanglades": 1295,
      "ĠBeatriz": 1296,
      "Ġvog": 1297,
      "ĠGama": 1298,
      "nato": 1299,
      "eby": 1300,
      "ĠRiley": 1301,
      "waite": 1302,
      "Ġqtd": 1303,
      "ĠMark": 1304,
      "vah": 1305,
      "Ġcxb": 1306,
      "POS": 1307,
      "Ġramps": 1308,
      "ĠHE": 1309,
      "ĠShep": 1310,
      "Ġquotient": 1311,
      "rieden": 1312,
      "Ġvic": 1313,
      "Ġinhab": 1314,
      "Ġthis": 1315,
      "ommen": 1316,
      "ognito": 1317,
      "Ġenl": 1318,
      "phenol": 1319,
      "umbbell": 1320,
      "Salon": 1321,
      "pan": 1322,
      "elementProp": 1323,
      "FromName": 1324,
      "ĠBarnett": 1325,
      "Ġelect": 1326,
      "Ġodst": 1327,
      "Ġfinca": 1328,
      "owy": 1329,
      "aite": 1330,
      "ysing": 1331,
      "Ġsdl": 1332,
      "Program": 1333,
      "roomId": 1334,
      "agul": 1335,
      "Pa": 1336,
      "Pool": 1337,
      "Ġparv": 1338,
      "ĠDona": 1339,
      "ĠHux": 1340,
      "Ġtren": 1341,
      "Ġvalorem": 1342,
      "ogene": 1343,
      "Ġdihad": 1344,
      "ĠEnzyme": 1345,
      "fcntl": 1346,
      "Ġgag": 1347,
      "ĠFlushing": 1348,
      "ĠTeller": 1349,
      "pte": 1350,
      "ppable": 1351,
      "Ġvoglia": 1352,
      "stung": 1353,
      "Ġdand": 1354,
      "Ġcomed": 1355,
      "Pres": 1356,
      "Many": 1357,
      "asiun": 1358,
      "QUID": 1359,
      "ĠitemCount": 1360,
      "atamente": 1361,
      "chtenstein": 1362,
      "cznego": 1363,
      "elastic": 1364,
      "EndY": 1365,
      "gies": 1366,
      "Ġcolumnspan": 1367,
      "istent": 1368,
      "atine": 1369,
      "Ġviendo": 1370,
      "Recording": 1371,
      "chwitz": 1372,
      "Ġcated": 1373,
      "isVideoRecording": 1374,
      "ActionListener": 1375,
      "keiten": 1376,
      "emene": 1377,
      "arzys": 1378,
      "Ġafast": 1379,
      "MDEw": 1380,
      "Ġbiri": 1381,
      "totalBlock": 1382,
      "totalBlockFit": 1383,
      "group": 1384,
      "ukum": 1385,
      "kti": 1386,
      "Ġplaint": 1387,
      "ettre": 1388,
      "afel": 1389,
      "ambio": 1390,
      "ereum": 1391,
      "Equ": 1392,
      "Ġdisordered": 1393,
      "jskiej": 1394,
      "SearchParams": 1395,
      "esen": 1396,
      "rams": 1397,
      "LastError": 1398,
      "ĠMeyers": 1399,
      "ĠWarm": 1400,
      "ĠKyrie": 1401,
      "ĠCurrie": 1402,
      "ĠTeixeira": 1403,
      "usias": 1404,
      "ĠHoll": 1405,
      "ennials": 1406,
      "CameraButton": 1407,
      "opher": 1408,
      "hota": 1409,
      "Section": 1410,
      "furan": 1411,
      "atil": 1412,
      "Ġbranch": 1413,
      "ĠJustus": 1414,
      "wny": 1415,
      "nict": 1416,
      "xymatrix": 1417,
      "EMENT": 1418,
      "nancy": 1419,
      "openide": 1420,
      "zmann": 1421,
      "ĠAndre": 1422,
      "Ġsolle": 1423,
      "Ġwarmth": 1424,
      "Ġfeud": 1425,
      "orro": 1426,
      "ĠCURLE": 1427,
      "Itoa": 1428,
      "ĠNewell": 1429,
      "Ġvitre": 1430,
      "Ġeight": 1431,
      "Ġbidirectional": 1432,
      "inique": 1433,
      "ĠDominique": 1434,
      "ĠAbe": 1435,
      "ocommerce": 1436,
      "ĠUIImage": 1437,
      "Ġganglia": 1438,
      "Doom": 1439,
      "Fat": 1440,
      "artigen": 1441,
      "quierda": 1442,
      "Fatalf": 1443,
      "Orm": 1444,
      "ĠDrew": 1445,
      "essboard": 1446,
      "Light": 1447,
      "ĠHerald": 1448,
      "ascus": 1449,
      "ouver": 1450,
      "ulfonic": 1451,
      "ĠMonique": 1452,
      "openList": 1453,
      "TimeControl": 1454,
      "Ġcorr": 1455,
      "ĠFlemish": 1456,
      "abilistic": 1457,
      "Consent": 1458,
      "ĠZoro": 1459,
      "ĠRayle": 1460,
      "ĠRayleigh": 1461,
      "details": 1462,
      "alh": 1463,
      "aben": 1464,
      "clientsdetails": 1465,
      "egar": 1466,
      "Ġejac": 1467,
      "Consentiti": 1468,
      "iming": 1469,
      "Swagger": 1470,
      "Ġsav": 1471,
      "ĠSheppard": 1472,
      "ĠUser": 1473,
      "GFP": 1474,
      "PhotoMode": 1475,
      "Ġveni": 1476,
      "Ġveniam": 1477,
      "Ġapric": 1478,
      "Ġpercentuale": 1479,
      "getSave": 1480,
      "Ġkarst": 1481,
      "ĠSus": 1482,
      "ĠBerger": 1483,
      "Ġsobren": 1484,
      "Ġliquidated": 1485,
      "ĠStellen": 1486,
      "inale": 1487,
      "epoint": 1488,
      "timepoint": 1489,
      "Ġrepell": 1490,
      "Ġaasta": 1491,
      "Ġraz": 1492,
      "Ġbreech": 1493,
      "Ġejaculation": 1494,
      "mainloop": 1495,
      "ĠRomney": 1496,
      "rition": 1497,
      "ĠAlten": 1498,
      "ĠRxg": 1499,
      "aTag": 1500,
      "metaTag": 1501,
      "cian": 1502,
      "Ġgql": 1503,
      "ĠtagReport": 1504,
      "garian": 1505,
      "Ġexponentes": 1506,
      "ĠShub": 1507,
      "prj": 1508,
      "uncie": 1509,
      "ĠWillow": 1510,
      "Ġdico": 1511,
      "ĠMadeira": 1512,
      "ostock": 1513,
      "Ġunre": 1514,
      "InfoHeader": 1515,
      "ĠHoboken": 1516,
      "erah": 1517,
      "irati": 1518,
      "atement": 1519,
      "urar": 1520,
      "ooks": 1521,
      "Ġgneiss": 1522,
      "percentages": 1523,
      "static": 1524,
      "Lyc": 1525,
      "Lycodon": 1526,
      "Repeat": 1527,
      "xsl": 1528,
      "Ġdead": 1529,
      "addSprite": 1530,
      "bose": 1531,
      "oua": 1532,
      "OUGH": 1533,
      "Ġha": 1534,
      "Ġdeadlock": 1535,
      "anse": 1536,
      "Ġlaget": 1537,
      "ibulum": 1538,
      "Ġvestibulum": 1539,
      "SOURCE": 1540,
      "Ġsmears": 1541,
      "reonine": 1542,
      "igur": 1543,
      "Ġapricots": 1544,
      "ĠBOP": 1545,
      "ĠMoc": 1546,
      "aing": 1547,
      "ĠChatt": 1548,
      "Ġhypert": 1549,
      "ĠBingham": 1550,
      "ĠAlic": 1551,
      "ĠPDA": 1552,
      "portun": 1553,
      "Ġinhabited": 1554,
      "toggler": 1555,
      "Ġopportun": 1556,
      "icherweise": 1557,
      "Ġcunt": 1558,
      "ĠCANT": 1559,
      "Ġenteral": 1560,
      "Ġopportunistic": 1561,
      "urist": 1562,
      "oka": 1563,
      "ĠUTA": 1564,
      "dach": 1565,
      "osw": 1566,
      "Ġstrok": 1567,
      "Ġstroked": 1568,
      "arenko": 1569,
      "Duel": 1570,
      "TOK": 1571,
      "Ġcohom": 1572,
      "ĠTTS": 1573,
      "Ġrest": 1574,
      "Ġdesorption": 1575,
      "uirre": 1576,
      "Ġawhile": 1577,
      "xxx": 1578,
      "aneity": 1579,
      "ĠLeland": 1580,
      "ynaptic": 1581,
      "amenti": 1582,
      "ĠRMB": 1583,
      "Ġterp": 1584,
      "umeric": 1585,
      "Ġgarnished": 1586,
      "znak": 1587,
      "asius": 1588,
      "ainsKey": 1589,
      "antra": 1590,
      "ĠHarrier": 1591,
      "Ġoid": 1592,
      "Ġmolybdenum": 1593,
      "AlertDialog": 1594,
      "Ġrato": 1595,
      "faite": 1596,
      "Backend": 1597,
      "Ġsfai": 1598,
      "yim": 1599,
      "endio": 1600,
      "Ġrealizz": 1601,
      "ossip": 1602,
      "Ġtum": 1603,
      "adie": 1604,
      "kinen": 1605,
      "mazione": 1606,
      "ostridium": 1607,
      "Ġpong": 1608,
      "emons": 1609,
      "CompliancePolicy": 1610,
      "efire": 1611,
      "Ġceasefire": 1612,
      "azole": 1613,
      "Ġthuringiensis": 1614,
      "ĠKeci": 1615,
      "ĠNLP": 1616,
      "Ġmens": 1617,
      "odil": 1618,
      "Ġheredit": 1619,
      "irent": 1620,
      "erex": 1621,
      "Ġprolog": 1622,
      "ĠAmen": 1623,
      "jske": 1624,
      "Ġconsolid": 1625,
      "ĠMTT": 1626,
      "ĠByrne": 1627,
      "Ġnerv": 1628,
      "radle": 1629,
      "Ġrealizzata": 1630,
      "Ġland": 1631,
      "ĠTej": 1632,
      "ostatic": 1633,
      "ĠSnap": 1634,
      "rimazole": 1635,
      "vered": 1636,
      "ĠIngram": 1637,
      "ajana": 1638,
      "dragon": 1639,
      "ĠSnapdragon": 1640,
      "opatra": 1641,
      "aranth": 1642,
      "yek": 1643,
      "dbo": 1644,
      "Yvette": 1645,
      "const": 1646,
      "close": 1647,
      "ClientRect": 1648,
      "ultimo": 1649,
      "niku": 1650,
      "Ġbushel": 1651,
      "ĠLyle": 1652,
      "wach": 1653,
      "Ġmethotrexate": 1654,
      "alo": 1655,
      "ĠCas": 1656,
      "ĠMBBS": 1657,
      "ĠVij": 1658,
      "toml": 1659,
      "help": 1660,
      "ImageQueue": 1661,
      "EditorG": 1662,
      "EditorGUI": 1663,
      "ĠERK": 1664,
      "gic": 1665,
      "Ġegy": 1666,
      "ĠKal": 1667,
      "isive": 1668,
      "idina": 1669,
      "Generator": 1670,
      "ĠdataGenerator": 1671,
      "brainer": 1672,
      "USH": 1673,
      "Colleg": 1674,
      "heading": 1675,
      "Ġbract": 1676,
      "ĠHur": 1677,
      "Ġsubheading": 1678,
      "Ġprothorax": 1679,
      "anganese": 1680,
      "ĠOTA": 1681,
      "ensk": 1682,
      "Nexus": 1683,
      "ĠDis": 1684,
      "Ġthok": 1685,
      "zij": 1686,
      "Ġrecycler": 1687,
      "ĠCle": 1688,
      "acuda": 1689,
      "abang": 1690,
      "LFT": 1691,
      "ĠScalar": 1692,
      "ĠLowell": 1693,
      "ĠCleopatra": 1694,
      "Ġlengthwise": 1695,
      "Ġblasp": 1696,
      "Ġtomonidan": 1697,
      "esseract": 1698,
      "atibus": 1699,
      "Criteria": 1700,
      "ĠVerein": 1701,
      "CriteriaUtils": 1702,
      "Ġwob": 1703,
      "emanager": 1704,
      "thememanager": 1705,
      "lge": 1706,
      "ĠIngrid": 1707,
      "ĠNDP": 1708,
      "dab": 1709,
      "Ġarm": 1710,
      "ĠHul": 1711,
      "ijken": 1712,
      "Ġplea": 1713,
      "ĠsetTo": 1714,
      "Ġmaxlength": 1715,
      "Ġcomponent": 1716,
      "Ġbals": 1717,
      "rotnie": 1718,
      "amesh": 1719,
      "itched": 1720,
      "ĠmaxSize": 1721,
      "getMinim": 1722,
      "getMinimum": 1723,
      "gson": 1724,
      "SRPI": 1725,
      "argaan": 1726,
      "ĠWasser": 1727,
      "ĠEuclid": 1728,
      "Assemb": 1729,
      "ĠWasserstein": 1730,
      "ĠSCGS": 1731,
      "nofollow": 1732,
      "Ġprennent": 1733,
      "Ġtors": 1734,
      "eroy": 1735,
      "ĠGrab": 1736,
      "Ġinhe": 1737,
      "Ġcie": 1738,
      "ĠVON": 1739,
      "ĠAch": 1740,
      "ukka": 1741,
      "rieben": 1742,
      "iuser": 1743,
      "Ġmultiuser": 1744,
      "lsp": 1745,
      "Ġtuss": 1746,
      "chol": 1747,
      "Ġva": 1748,
      "nji": 1749,
      "gerald": 1750,
      "Extension": 1751,
      "oxys": 1752,
      "ceph": 1753,
      "ĠDef": 1754,
      "Ġparalyzed": 1755,
      "auft": 1756,
      "ouncer": 1757,
      "barkeit": 1758,
      "ĠMald": 1759,
      "Ġgerade": 1760,
      "chno": 1761,
      "epa": 1762,
      "ĠQMessageBox": 1763,
      "jiang": 1764,
      "getSaveLocation": 1765,
      "Ġsoliton": 1766,
      "WithString": 1767,
      "Ġzeuden": 1768,
      "Ġpariy": 1769,
      "filesystem": 1770,
      "sonic": 1771,
      "ienie": 1772,
      "ĠMahmud": 1773,
      "ĠIAA": 1774,
      "lst": 1775,
      "env": 1776,
      "ostomy": 1777,
      "icki": 1778,
      "ĠQian": 1779,
      "ensen": 1780,
      "mitt": 1781,
      "OEt": 1782,
      "Ġincon": 1783,
      "ĠgetName": 1784,
      "ilable": 1785,
      "oshi": 1786,
      "Ġdispatch": 1787,
      "Ġaceton": 1788,
      "Ġacetonitrile": 1789,
      "Ġazi": 1790,
      "Ġstint": 1791,
      "ĠWight": 1792,
      "Ġwel": 1793,
      "Ġrepetition": 1794,
      "ĠShea": 1795,
      "ForegroundColor": 1796,
      "ĠConway": 1797,
      "Ġintrac": 1798,
      "ĠHens": 1799,
      "ysteine": 1800,
      "ĠCarn": 1801,
      "enschap": 1802,
      "kelly": 1803,
      "infoHeader": 1804,
      "Ġprospective": 1805,
      "ĠBAF": 1806,
      "Warm": 1807,
      "Ġstagn": 1808,
      "getJSON": 1809,
      "ĠCarney": 1810,
      "ĠGett": 1811,
      "skjaer": 1812,
      "Ġburlap": 1813,
      "SwisTrackCore": 1814,
      "qttrvm": 1815,
      "ĠGettys": 1816,
      "currentSprite": 1817,
      "inske": 1818,
      "ĠGDP": 1819,
      "Mip": 1820,
      "cznym": 1821,
      "Motion": 1822,
      "ĠOmphalodes": 1823,
      "Ġpasal": 1824,
      "apunov": 1825,
      "oscut": 1826,
      "ĠRedding": 1827,
      "Ġts": 1828,
      "MotionEvent": 1829,
      "subTest": 1830,
      "ylmethylsulfanyl": 1831,
      "latency": 1832,
      "oof": 1833,
      "ĠYee": 1834,
      "ĠPuy": 1835,
      "elics": 1836,
      "ĠLong": 1837,
      "Ġdug": 1838,
      "testGet": 1839,
      "sprechend": 1840,
      "ikova": 1841,
      "CONDS": 1842,
      "scrollbar": 1843,
      "Ġunbek": 1844,
      "ĠAnnot": 1845,
      "Ġcorpore": 1846,
      "Ġcarin": 1847,
      "Ġjust": 1848,
      "assertEqual": 1849,
      "ĠEsteban": 1850,
      "paralle": 1851,
      "rlich": 1852,
      "ĠLongNumber": 1853,
      "ipasi": 1854,
      "owanych": 1855,
      "POSIT": 1856,
      "Ġtah": 1857,
      "ĠTrish": 1858,
      "Ġsediment": 1859,
      "ofe": 1860,
      "tm": 1861,
      "merz": 1862,
      "Ġmerhaba": 1863,
      "winfx": 1864,
      "ĠCTR": 1865,
      "ĠBor": 1866,
      "Ġmse": 1867,
      "getMainUI": 1868,
      "Ġbarb": 1869,
      "ochrome": 1870,
      "Ġlicking": 1871,
      "Ġlon": 1872,
      "ĠHilde": 1873,
      "ĠWall": 1874,
      "unoscut": 1875,
      "ĠGarza": 1876,
      "itions": 1877,
      "Ġdisag": 1878,
      "ussians": 1879,
      "istos": 1880,
      "OperationContext": 1881,
      "ĠMinnie": 1882,
      "unknown": 1883,
      "ĠIBS": 1884,
      "ĠnField": 1885,
      "ĠOD": 1886,
      "ĠVys": 1887,
      "CISE": 1888,
      "Ġmario": 1889,
      "gain": 1890,
      "ordial": 1891,
      "gainville": 1892,
      "ĠFourn": 1893,
      "ĠFournier": 1894,
      "emma": 1895,
      "Ġdesper": 1896,
      "evole": 1897,
      "ĠGolub": 1898,
      "ionless": 1899,
      "Ġuplink": 1900,
      "Ġtsrecl": 1901,
      "CHEMY": 1902,
      "ardust": 1903,
      "oodle": 1904,
      "Volume": 1905,
      "ĠDAB": 1906,
      "ipes": 1907,
      "hrVolume": 1908,
      "ĠPengu": 1909,
      "AllRef": 1910,
      "herence": 1911,
      "ĠEpic": 1912,
      "RESOURCE": 1913,
      "INTRESOURCE": 1914,
      "macosx": 1915,
      "Ġbir": 1916,
      "ertian": 1917,
      "WAM": 1918,
      "ĠTUM": 1919,
      "thed": 1920,
      "ĠFerg": 1921,
      "SED": 1922,
      "erences": 1923,
      "ĠChronicle": 1924,
      "calupcounter": 1925,
      "oded": 1926,
      "spider": 1927,
      "Ġdivaric": 1928,
      "Ġsyph": 1929,
      "ĠWharton": 1930,
      "spiderX": 1931,
      "ALCHEMY": 1932,
      "Format": 1933,
      "Ġshaders": 1934,
      "ĠImmobil": 1935,
      "irond": 1936,
      "ĠBlair": 1937,
      "Ġzab": 1938,
      "ountains": 1939,
      "ĠWarren": 1940,
      "ĠRandom": 1941,
      "Ġvym": 1942,
      "ensos": 1943,
      "butan": 1944,
      "Ġbutadiene": 1945,
      "ĠAkin": 1946,
      "ĠVidy": 1947,
      "aiu": 1948,
      "Ġtane": 1949,
      "FhirExtension": 1950,
      "Ġkimi": 1951,
      "amation": 1952,
      "Ġvakkh": 1953,
      "ĠWalpole": 1954,
      "dw": 1955,
      "dwRetJpegLen": 1956,
      "Ġehe": 1957,
      "Ġunver": 1958,
      "ĠCullen": 1959,
      "Phe": 1960,
      "ĠRichter": 1961,
      "ĠWey": 1962,
      "hadow": 1963,
      "ĠPAX": 1964,
      "alum": 1965,
      "Ġletz": 1966,
      "ĠToggle": 1967,
      "Percentages": 1968,
      "omitem": 1969,
      "Ġreins": 1970,
      "Ġvalet": 1971,
      "igate": 1972,
      "roth": 1973,
      "xiv": 1974,
      "Ġtantalum": 1975,
      "ĠBHK": 1976,
      "dan": 1977,
      "rup": 1978,
      "oidal": 1979,
      "usha": 1980,
      "Users": 1981,
      "ĠSpence": 1982,
      "scribe": 1983,
      "Ġunderwriters": 1984,
      "ĠTuch": 1985,
      "ĠTuchel": 1986,
      "ĠShaf": 1987,
      "Ġabo": 1988,
      "ĠgetUsers": 1989,
      "Ġegyik": 1990,
      "ahal": 1991,
      "ermek": 1992,
      "Ġspraying": 1993,
      "Ġaste": 1994,
      "paren": 1995,
      "inputValue": 1996,
      "ĠTool": 1997,
      "Ġgust": 1998,
      "bottom": 1999,
      "urtle": 2000,
      "Ġpreterm": 2001,
      "ransfer": 2002,
      "bottomMargin": 2003,
      "Ġstimmen": 2004,
      "inare": 2005,
      "ĠEros": 2006,
      "ĠgetUsersBy": 2007,
      "Ġmuit": 2008,
      "findIndex": 2009,
      "Ġallevi": 2010,
      "Ġsott": 2011,
      "uyente": 2012,
      "raines": 2013,
      "midd": 2014,
      "adien": 2015,
      "ĠSequ": 2016,
      "Ġcholin": 2017,
      "Ġcholinergic": 2018,
      "ĠToolbar": 2019,
      "prol": 2020,
      "proliferation": 2021,
      "tg": 2022,
      "Ġisotherm": 2023,
      "ĠUrs": 2024,
      "ĠUrsula": 2025,
      "chitz": 2026,
      "Ġpanc": 2027,
      "LEX": 2028,
      "ĠNoronha": 2029,
      "kfollowers": 2030,
      "unggu": 2031,
      "Ġcrois": 2032,
      "Ġtaz": 2033,
      "ĠMiser": 2034,
      "Ġalign": 2035,
      "Ġdesperate": 2036,
      "Ġsniping": 2037,
      "finex": 2038,
      "ĠWhitt": 2039,
      "Ġoverhang": 2040,
      "Ġrepeats": 2041,
      "Ġvipp": 2042,
      "Ġvezet": 2043,
      "arkeit": 2044,
      "iatica": 2045,
      "Ġyatha": 2046,
      "Ġdje": 2047,
      "aaf": 2048,
      "Ġshel": 2049,
      "RGBA": 2050,
      "ĠDab": 2051,
      "ĠEmber": 2052,
      "ĠMur": 2053,
      "Dependent": 2054,
      "Upon": 2055,
      "DependentUpon": 2056,
      "ynt": 2057,
      "ngt": 2058,
      "Ġtiled": 2059,
      "ocIndex": 2060,
      "ubarb": 2061,
      "Ġskr": 2062,
      "ĠCun": 2063,
      "subscribe": 2064,
      "Ġhern": 2065,
      "Ġdoodle": 2066,
      "ĠLec": 2067,
      "elung": 2068,
      "Ġtornare": 2069,
      "ReturnType": 2070,
      "Ġporoz": 2071,
      "adhar": 2072,
      "ciaux": 2073,
      "waved": 2074,
      "Ġpomen": 2075,
      "ĠconfigFile": 2076,
      "Norm": 2077,
      "ĠGibbons": 2078,
      "Ġkho": 2079,
      "iposa": 2080,
      "enska": 2081,
      "ĠHrv": 2082,
      "Collegamenti": 2083,
      "ĠHrvat": 2084,
      "ĠPLN": 2085,
      "ifty": 2086,
      "socIndex": 2087,
      "blo": 2088,
      "unsubscribe": 2089,
      "Ġmenschen": 2090,
      "alted": 2091,
      "SIAN": 2092,
      "Ġvaikut": 2093,
      "ĠFRG": 2094,
      "Ġsacrificing": 2095,
      "Ġrepellat": 2096,
      "antel": 2097,
      "ĠHudson": 2098,
      "icza": 2099,
      "ignIn": 2100,
      "imizu": 2101,
      "Ġtasteless": 2102,
      "Ġbodega": 2103,
      "addColor": 2104,
      "headless": 2105,
      "Ġdip": 2106,
      "Ġlemma": 2107,
      "Ġheinous": 2108,
      "ettes": 2109,
      "Ġplex": 2110,
      "Ġtwelve": 2111,
      "callow": 2112,
      "Ġplexus": 2113,
      "noe": 2114,
      "ĠDrav": 2115,
      "ĠDrake": 2116,
      "oblasts": 2117,
      "zyn": 2118,
      "unea": 2119,
      "eterminate": 2120,
      "ĠRandomized": 2121,
      "film": 2122,
      "Ġtyran": 2123,
      "Operator": 2124,
      "ĠbyteArray": 2125,
      "ĠSora": 2126,
      "dfsonic": 2127,
      "anson": 2128,
      "ernel": 2129,
      "MathOperator": 2130,
      "aces": 2131,
      "urai": 2132,
      "bors": 2133,
      "indan": 2134,
      "Ġhandover": 2135,
      "DOWN": 2136,
      "amas": 2137,
      "Ġdivalent": 2138,
      "ĠHrvats": 2139,
      "datedAt": 2140,
      "ĠcomponentDid": 2141,
      "Ġscouting": 2142,
      "ĠBella": 2143,
      "Authent": 2144,
      "tcp": 2145,
      "Ġric": 2146,
      "uiden": 2147,
      "gus": 2148,
      "ĠView": 2149,
      "ajaran": 2150,
      "eyiz": 2151,
      "garakan": 2152,
      "ĠWinch": 2153,
      "ĠWinchester": 2154,
      "FI": 2155,
      "ĠMinden": 2156,
      "Ġrefl": 2157,
      "Ġtiga": 2158,
      "BackendAuth": 2159,
      "tcpUniqueID": 2160,
      "ayne": 2161,
      "armafit": 2162,
      "DOUT": 2163,
      "ĠNLR": 2164,
      "arxiv": 2165,
      "Ġrys": 2166,
      "menu": 2167,
      "ĠSylvester": 2168,
      "Ġcnt": 2169,
      "SDL": 2170,
      "KEYDOWN": 2171,
      "auche": 2172,
      "Ġrazlik": 2173,
      "ipede": 2174,
      "ĠUnidas": 2175,
      "haven": 2176,
      "ĠBrookhaven": 2177,
      "ĠRetValue": 2178,
      "pkt": 2179,
      "gdockdict": 2180,
      "DataAccess": 2181,
      "sylvania": 2182,
      "ĠSRL": 2183,
      "wohner": 2184,
      "Ġaikana": 2185,
      "ĠRomain": 2186,
      "Ġfurtherance": 2187,
      "Ġclung": 2188,
      "Ġunbeliev": 2189,
      "ĠBhi": 2190,
      "ĠWenger": 2191,
      "uxxxx": 2192,
      "Ġcorne": 2193,
      "rake": 2194,
      "Werk": 2195,
      "CLES": 2196,
      "isEmpty": 2197,
      "Ġjost": 2198,
      "ĠSart": 2199,
      "ĠAndreev": 2200,
      "akami": 2201,
      "ĠAchilles": 2202,
      "ĠSartre": 2203,
      "ĠBryn": 2204,
      "rset": 2205,
      "pol": 2206,
      "peh": 2207,
      "Ġmat": 2208,
      "poiler": 2209,
      "lbrakk": 2210,
      "ocol": 2211,
      "CHCl": 2212,
      "ĠPetri": 2213,
      "Ġtermite": 2214,
      "Ġsetw": 2215,
      "iong": 2216,
      "ĠInclude": 2217,
      "ĠIncludeField": 2218,
      "ĠAdriana": 2219,
      "iyasi": 2220,
      "Ttest": 2221,
      "itles": 2222,
      "ĠRockwell": 2223,
      "ĠKad": 2224,
      "getti": 2225,
      "ĠKaduna": 2226,
      "ĠindexBuffer": 2227,
      "ĠXiong": 2228,
      "cus": 2229,
      "ĠBAFTA": 2230,
      "AMILY": 2231,
      "document": 2232,
      "ĠBess": 2233,
      "ugoslav": 2234,
      "rious": 2235,
      "Fitz": 2236,
      "side": 2237,
      "ĠMacy": 2238,
      "icina": 2239,
      "verture": 2240,
      "Ġappreci": 2241,
      "ĠItemStack": 2242,
      "stahl": 2243,
      "Ġpousser": 2244,
      "Ġpeng": 2245,
      "ĠAppCompatTheme": 2246,
      "tsprec": 2247,
      "Ġwagg": 2248,
      "ĠBrownian": 2249,
      "Ġprodig": 2250,
      "odal": 2251,
      "asambhavam": 2252,
      "Ġprotrusion": 2253,
      "FRING": 2254,
      "orrag": 2255,
      "middot": 2256,
      "ipit": 2257,
      "Ġfrapp": 2258,
      "Duncan": 2259,
      "ease": 2260,
      "fromJson": 2261,
      "mprj": 2262,
      "Ġchopp": 2263,
      "ĠThunderbird": 2264,
      "ksc": 2265,
      "CPksc": 2266,
      "CBCPksc": 2267,
      "phosph": 2268,
      "ĠUwe": 2269,
      "pinephrine": 2270,
      "Ġinund": 2271,
      "DeferredGroup": 2272,
      "Ġscheming": 2273,
      "Ġhemolytic": 2274,
      "Ġrostrum": 2275,
      "Ġgall": 2276,
      "ĠobjectAtIndex": 2277,
      "ĠTess": 2278,
      "iddy": 2279,
      "robin": 2280,
      "Ġplantel": 2281,
      "Cav": 2282,
      "arno": 2283,
      "ĠYangzhou": 2284,
      "Ġproceed": 2285,
      "oley": 2286,
      "acol": 2287,
      "ecimiento": 2288,
      "ferenz": 2289,
      "ĠWale": 2290,
      "Ġsottop": 2291,
      "tikz": 2292,
      "zynarod": 2293,
      "ĠIsp": 2294,
      "avidin": 2295,
      "nehmens": 2296,
      "pgamma": 2297,
      "yana": 2298,
      "Ġgrinder": 2299,
      "imala": 2300,
      "nemonic": 2301,
      "agos": 2302,
      "Ġevitar": 2303,
      "Whole": 2304,
      "encias": 2305,
      "otch": 2306,
      "hdr": 2307,
      "WholeProgram": 2308,
      "ĠSpoiler": 2309,
      "ĠArun": 2310,
      "Ġiphdr": 2311,
      "ypter": 2312,
      "ansk": 2313,
      "ĠRut": 2314,
      "Ġchom": 2315,
      "ordano": 2316,
      "Ġshafts": 2317,
      "eid": 2318,
      "skip": 2319,
      "ĠGiordano": 2320,
      "ĠSIINFEK": 2321,
      "Mapper": 2322,
      "ĠautoComplete": 2323,
      "rugada": 2324,
      "Ġidxf": 2325,
      "ĠWebster": 2326,
      "Ġgamanam": 2327,
      "IUpdate": 2328,
      "enumber": 2329,
      "atia": 2330,
      "ochial": 2331,
      "Ġphotocurrent": 2332,
      "macro": 2333,
      "parenmacro": 2334,
      "IGNORE": 2335,
      "client": 2336,
      "eleration": 2337,
      "Ġberken": 2338,
      "ĠMartina": 2339,
      "ĠAub": 2340,
      "Ġerab": 2341,
      "ĠDelo": 2342,
      "ĠDeloitte": 2343,
      "Try": 2344,
      "ĠHHS": 2345,
      "eutic": 2346,
      "Ġimshow": 2347,
      "hera": 2348,
      "ĠFIC": 2349,
      "ĠLGA": 2350,
      "hub": 2351,
      "ĠSaunders": 2352,
      "ĠAstros": 2353,
      "book": 2354,
      "ĠTinker": 2355,
      "Ġchills": 2356,
      "Ġadunay": 2357,
      "Widgets": 2358,
      "acrylic": 2359,
      "Ġcorneal": 2360,
      "ĠAdirond": 2361,
      "ĠSokol": 2362,
      "vy": 2363,
      "ĠCarm": 2364,
      "Bing": 2365,
      "Ġcmd": 2366,
      "Ġknockout": 2367,
      "reso": 2368,
      "destructive": 2369,
      "MainNavShow": 2370,
      "backslash": 2371,
      "ĠGross": 2372,
      "GAM": 2373,
      "ty": 2374,
      "ĠCost": 2375,
      "ĠTallinn": 2376,
      "ĠBit": 2377,
      "lej": 2378,
      "udio": 2379,
      "Ġprick": 2380,
      "otification": 2381,
      "ĠRutland": 2382,
      "uski": 2383,
      "ĠReverso": 2384,
      "authent": 2385,
      "gers": 2386,
      "Ġanuv": 2387,
      "Ġhemi": 2388,
      "rate": 2389,
      "ĠIDA": 2390,
      "inputSet": 2391,
      "StarSXmlBody": 2392,
      "ĠUSAF": 2393,
      "earson": 2394,
      "Pearson": 2395,
      "ĠBretagne": 2396,
      "agio": 2397,
      "rbrakk": 2398,
      "ĠMinerva": 2399,
      "IELD": 2400,
      "RxDocumentBase": 2401,
      "ĠfillColor": 2402,
      "GAMMA": 2403,
      "Ġtyr": 2404,
      "Ġdivaricatis": 2405,
      "Ġsuck": 2406,
      "SPT": 2407,
      "Close": 2408,
      "akeCubeSize": 2409,
      "affe": 2410,
      "hlung": 2411,
      "QUEUE": 2412,
      "Ġmne": 2413,
      "igd": 2414,
      "NLP": 2415,
      "ĠEmoji": 2416,
      "ĠBursa": 2417,
      "ĠGazi": 2418,
      "ĠChristus": 2419,
      "asih": 2420,
      "shall": 2421,
      "Ġrhyth": 2422,
      "Ġbisque": 2423,
      "owa": 2424,
      "Ġregular": 2425,
      "Ġaead": 2426,
      "Ġjwt": 2427,
      "gina": 2428,
      "Ġcate": 2429,
      "ĠACA": 2430,
      "WebServlet": 2431,
      "ulares": 2432,
      "propertyName": 2433,
      "frameN": 2434,
      "uffs": 2435,
      "locationY": 2436,
      "imidazole": 2437,
      "uiu": 2438,
      "alade": 2439,
      "Ġregularization": 2440,
      "olactone": 2441,
      "ĠSCD": 2442,
      "ekhar": 2443,
      "Ġpak": 2444,
      "ĠLoew": 2445,
      "banks": 2446,
      "Ġtrav": 2447,
      "ĠFairbanks": 2448,
      "ToEnd": 2449,
      "ucar": 2450,
      "DaysGE": 2451,
      "brit": 2452,
      "axanthin": 2453,
      "oses": 2454,
      "Salle": 2455,
      "ĠLaSalle": 2456,
      "ĠjsonData": 2457,
      "LAY": 2458,
      "Ġcaust": 2459,
      "Ġcaustic": 2460,
      "Issled": 2461,
      "Ġunrel": 2462,
      "Issledovatel": 2463,
      "Jasper": 2464,
      "backer": 2465,
      "eis": 2466,
      "ĠAz": 2467,
      "mbH": 2468,
      "Ġnervioso": 2469,
      "Ġtrig": 2470,
      "mek": 2471,
      "vanje": 2472,
      "ĠPre": 2473,
      "Ġedecek": 2474,
      "elenggarakan": 2475,
      "alkan": 2476,
      "empot": 2477,
      "Ġrudhad": 2478,
      "amay": 2479,
      "Ġsare": 2480,
      "Ġpakas": 2481,
      "ĠHenrik": 2482,
      "ĠNXT": 2483,
      "ĠPAT": 2484,
      "antung": 2485,
      "ĠWarp": 2486,
      "Preferences": 2487,
      "Ġflower": 2488,
      "bolinks": 2489,
      "inced": 2490,
      "Ġfirmer": 2491,
      "quiera": 2492,
      "newcommand": 2493,
      "cdn": 2494,
      "Ġfoil": 2495,
      "ĠFors": 2496,
      "tyn": 2497,
      "aredPreferences": 2498,
      "ostr": 2499,
      "dice": 2500,
      "IntVar": 2501,
      "Ġyathasambhavam": 2502,
      "housing": 2503,
      "ĠDodgers": 2504,
      "ĠNase": 2505,
      "Ġvacanam": 2506,
      "Ġlocomotion": 2507,
      "ĠNVARCHAR": 2508,
      "adastro": 2509,
      "ĠDamascus": 2510,
      "ĠAirt": 2511,
      "hmC": 2512,
      "ĠMaced": 2513,
      "ĠsearchQuery": 2514,
      "ĠNOC": 2515,
      "psie": 2516,
      "ĠTDC": 2517,
      "pector": 2518,
      "ĠSargent": 2519,
      "comment": 2520,
      "pture": 2521,
      "ĠHeer": 2522,
      "ĠMILLER": 2523,
      "arita": 2524,
      "endish": 2525,
      "Ġzero": 2526,
      "Ġquis": 2527,
      "oye": 2528,
      "Ġquenched": 2529,
      "Ġrepetir": 2530,
      "ĠICF": 2531,
      "Ġsajana": 2532,
      "sil": 2533,
      "resses": 2534,
      "ttu": 2535,
      "itik": 2536,
      "ĠFlyn": 2537,
      "ĠFlynn": 2538,
      "GetAsyncKeyState": 2539,
      "ĠHusk": 2540,
      "ĠBarbados": 2541,
      "ikaner": 2542,
      "routeName": 2543,
      "Ġsen": 2544,
      "ĠAnn": 2545,
      "ikleri": 2546,
      "ĠBagh": 2547,
      "ĠArcadia": 2548,
      "rsp": 2549,
      "unting": 2550,
      "ĠMBE": 2551,
      "ĠflowerTotal": 2552,
      "ĠAdj": 2553,
      "ĠinputArray": 2554,
      "agnes": 2555,
      "ControlEvents": 2556,
      "ĠCMOS": 2557,
      "arran": 2558,
      "ayev": 2559,
      "Ġolacak": 2560,
      "Ġwebbrowser": 2561,
      "ĠHuskies": 2562,
      "issi": 2563,
      "ometer": 2564,
      "geolocation": 2565,
      "oxyd": 2566,
      "iseum": 2567,
      "Ġleaching": 2568,
      "ĠFergus": 2569,
      "urro": 2570,
      "putted": 2571,
      "Ġthe": 2572,
      "Ġrepudiandae": 2573,
      "ĠUlrich": 2574,
      "Ġamet": 2575,
      "ĠTaj": 2576,
      "Have": 2577,
      "clerc": 2578,
      "atrol": 2579,
      "ĠATF": 2580,
      "ĠEber": 2581,
      "triangleright": 2582,
      "nashville": 2583,
      "ĠEL": 2584,
      "nashvillehousing": 2585,
      "Ġchunk": 2586,
      "ResultMessage": 2587,
      "itarian": 2588,
      "obal": 2589,
      "Ġizquier": 2590,
      "ĠParm": 2591,
      "ĠfieldContext": 2592,
      "auto": 2593,
      "autoarima": 2594,
      "Ġscut": 2595,
      "igio": 2596,
      "vard": 2597,
      "unty": 2598,
      "ĠPoE": 2599,
      "nemidophorus": 2600,
      "Ġmilion": 2601,
      "ĠYamada": 2602,
      "PropertyList": 2603,
      "loss": 2604,
      "iddel": 2605,
      "Insert": 2606,
      "ErrorReport": 2607,
      "ĠVersch": 2608,
      "OURCE": 2609,
      "Ġdwa": 2610,
      "Attk": 2611,
      "wir": 2612,
      "ĠNob": 2613,
      "lebot": 2614,
      "Ġnasal": 2615,
      "Ġklant": 2616,
      "toire": 2617,
      "pecies": 2618,
      "Ġpunch": 2619,
      "InsertInt": 2620,
      "IPTOR": 2621,
      "Ġaesthetics": 2622,
      "Repe": 2623,
      "ĠMurakami": 2624,
      "ĠErickson": 2625,
      "ĠTou": 2626,
      "ĠMhm": 2627,
      "Ġmint": 2628,
      "ĠAguirre": 2629,
      "Ġpercents": 2630,
      "Ġmegawatts": 2631,
      "ajati": 2632,
      "Ġbeserta": 2633,
      "PosX": 2634,
      "uno": 2635,
      "Ġbeant": 2636,
      "ĠStock": 2637,
      "Ġcheeky": 2638,
      "ĠStockton": 2639,
      "ĠHain": 2640,
      "ĠGuill": 2641,
      "ĠBLM": 2642,
      "underland": 2643,
      "ĠCora": 2644,
      "ĠEel": 2645,
      "elben": 2646,
      "legenheit": 2647,
      "ĠJOptionPane": 2648,
      "ĠTele": 2649,
      "ĠAit": 2650,
      "ĠJorg": 2651,
      "arlal": 2652,
      "olone": 2653,
      "ĠPlastic": 2654,
      "ĠLUMPUR": 2655,
      "fire": 2656,
      "abo": 2657,
      "Ġmicrofilm": 2658,
      "hass": 2659,
      "ĠSabha": 2660,
      "aarr": 2661,
      "Ġvych": 2662,
      "eryth": 2663,
      "ĠBlynk": 2664,
      "Ġpronouns": 2665,
      "ĠRoc": 2666,
      "Flower": 2667,
      "Ġchale": 2668,
      "pei": 2669,
      "fireFlower": 2670,
      "ĠBak": 2671,
      "Agar": 2672,
      "ĠBSP": 2673,
      "ĠDaven": 2674,
      "ĠMarlene": 2675,
      "cona": 2676,
      "ĠUSO": 2677,
      "ĠscreenSize": 2678,
      "IsNullOr": 2679,
      "IsNullOrEmpty": 2680,
      "Wak": 2681,
      "ĠWikis": 2682,
      "Ġrameaux": 2683,
      "ĠBypass": 2684,
      "Ġmad": 2685,
      "Ġzat": 2686,
      "ĠWikispecies": 2687,
      "ĠSim": 2688,
      "finity": 2689,
      "trrecl": 2690,
      "uta": 2691,
      "CAO": 2692,
      "Ġlangu": 2693,
      "ĠBLU": 2694,
      "oved": 2695,
      "ĠRandall": 2696,
      "ĠBLUEN": 2697,
      "Ġfprintf": 2698,
      "interpret": 2699,
      "edics": 2700,
      "Ġexplicabo": 2701,
      "days": 2702,
      "urea": 2703,
      "ĠSNMP": 2704,
      "ĠAf": 2705,
      "entrySet": 2706,
      "ĠSaito": 2707,
      "Ġeryth": 2708,
      "foregroundColor": 2709,
      "Ġmanoeuvre": 2710,
      "olation": 2711,
      "obian": 2712,
      "Ġmastect": 2713,
      "Ġgreenhouse": 2714,
      "tenberg": 2715,
      "Riley": 2716,
      "ĠVi": 2717,
      "Ġsettim": 2718,
      "EFI": 2719,
      "ĠGober": 2720,
      "Ġspett": 2721,
      "ĠBridget": 2722,
      "searchInput": 2723,
      "innon": 2724,
      "ĠGideon": 2725,
      "ression": 2726,
      "ĠMaxim": 2727,
      "Incrementor": 2728,
      "Ġpliers": 2729,
      "Seqlist": 2730,
      "LetterLocation": 2731,
      "ĠApi": 2732,
      "Ġlemn": 2733,
      "Ġcurrant": 2734,
      "destroy": 2735,
      "noduch": 2736,
      "orest": 2737,
      "ĠUtrecht": 2738,
      "ĠMehta": 2739,
      "itons": 2740,
      "Ġauguri": 2741,
      "Parking": 2742,
      "uniti": 2743,
      "Ġtani": 2744,
      "witter": 2745,
      "jd": 2746,
      "etts": 2747,
      "Ġparlato": 2748,
      "apa": 2749,
      "Ġspores": 2750,
      "alee": 2751,
      "utos": 2752,
      "ĠEps": 2753,
      "ĠVCO": 2754,
      "Ġopus": 2755,
      "ĠLeid": 2756,
      "rmsg": 2757,
      "ovskii": 2758,
      "isted": 2759,
      "lod": 2760,
      "Ġdefe": 2761,
      "rikt": 2762,
      "SSION": 2763,
      "ĠPaterson": 2764,
      "ĠUSDA": 2765,
      "Ġsonda": 2766,
      "ĠVIC": 2767,
      "ĠHollande": 2768,
      "ĠVenezia": 2769,
      "etermin": 2770,
      "Ġcua": 2771,
      "anyol": 2772,
      "ĠCSU": 2773,
      "CRM": 2774,
      "ĠBurbank": 2775,
      "obank": 2776,
      "Ġadec": 2777,
      "forEach": 2778,
      "Ġzit": 2779,
      "destroyEach": 2780,
      "ĠLucie": 2781,
      "RESSION": 2782,
      "ĠTextInput": 2783,
      "emporal": 2784,
      "ĠAirtel": 2785,
      "ilians": 2786,
      "SRPBinBuf": 2787,
      "Markup": 2788,
      "Monica": 2789,
      "ĠGand": 2790,
      "ParkingSpot": 2791,
      "errick": 2792,
      "reiben": 2793,
      "Ġlud": 2794,
      "Ġadjour": 2795,
      "rolysis": 2796,
      "MERS": 2797,
      "Equatable": 2798,
      "Ġcorners": 2799,
      "ĠHill": 2800,
      "Ġvudd": 2801,
      "Ġahuv": 2802,
      "egra": 2803,
      "Ġdeluge": 2804,
      "Ġpformat": 2805,
      "ĠthePack": 2806,
      "labeltree": 2807,
      "ehm": 2808,
      "LabelTool": 2809,
      "Ġjana": 2810,
      "hrPercent": 2811,
      "ugated": 2812,
      "Ġcorrugated": 2813,
      "Ġviss": 2814,
      "azzo": 2815,
      "urlString": 2816,
      "inyl": 2817,
      "rester": 2818,
      "Ġtuk": 2819,
      "Ġaxiom": 2820,
      "ecocond": 2821,
      "ĠRally": 2822,
      "Ġwe": 2823,
      "Ġcmdlet": 2824,
      "ĠDuan": 2825,
      "hipi": 2826,
      "ĠCavendish": 2827,
      "Ġstaking": 2828,
      "eteor": 2829,
      "Ġlymphoc": 2830,
      "isection": 2831,
      "Ġlymphocytic": 2832,
      "roit": 2833,
      "irical": 2834,
      "KeyboardMarkup": 2835,
      "rocities": 2836,
      "ovy": 2837,
      "ĠSalazar": 2838,
      "ĠELLE": 2839,
      "ĠJack": 2840,
      "COTT": 2841,
      "fromCharCode": 2842,
      "runOnUiThread": 2843,
      "Ġlou": 2844,
      "othered": 2845,
      "Ġrefrained": 2846,
      "reprise": 2847,
      "TypeDef": 2848,
      "ĠEdd": 2849,
      "nym": 2850,
      "AdType": 2851,
      "roda": 2852,
      "Ġprostat": 2853,
      "Ġpim": 2854,
      "ipl": 2855,
      "axial": 2856,
      "ĠEust": 2857,
      "Ġgini": 2858,
      "ĠRuhr": 2859,
      "asem": 2860,
      "ĠKarlsruhe": 2861,
      "Ġphenol": 2862,
      "yra": 2863,
      "MORD": 2864,
      "Ġpergunt": 2865,
      "moid": 2866,
      "Ġpihak": 2867,
      "ĠMaximilian": 2868,
      "iobium": 2869,
      "ipin": 2870,
      "Oste": 2871,
      "ERNAL": 2872,
      "ĠCornelia": 2873,
      "Ġauthoritarian": 2874,
      "liye": 2875,
      "ĠEIA": 2876,
      "WE": 2877,
      "imah": 2878,
      "ouring": 2879,
      "ĠArroyo": 2880,
      "ĠIndians": 2881,
      "ĠToot": 2882,
      "ĠDorset": 2883,
      "enov": 2884,
      "ĠFlora": 2885,
      "ĠOpenAI": 2886,
      "vertine": 2887,
      "ĠComte": 2888,
      "ĠBany": 2889,
      "Ġobed": 2890,
      "Trim": 2891,
      "zig": 2892,
      "ocyst": 2893,
      "Ġbedeut": 2894,
      "ierge": 2895,
      "ĠZoll": 2896,
      "ĠitemView": 2897,
      "reinterpret": 2898,
      "ĠCMR": 2899,
      "Ġdehydrogen": 2900,
      "ĠxhrObj": 2901,
      "Ġtiter": 2902,
      "ĠgetNode": 2903,
      "ĠRwanda": 2904,
      "ĠGTEST": 2905,
      "Ġwacht": 2906,
      "Parker": 2907,
      "atem": 2908,
      "iprop": 2909,
      "izi": 2910,
      "hesia": 2911,
      "Ġconsens": 2912,
      "ĠWhelan": 2913,
      "ĠCSR": 2914,
      "ESH": 2915,
      "CharPtr": 2916,
      "owie": 2917,
      "NF": 2918,
      "startX": 2919,
      "voj": 2920,
      "omyces": 2921,
      "ĠNIS": 2922,
      "medi": 2923,
      "Ġcy": 2924,
      "eppo": 2925,
      "vasion": 2926,
      "ĠJackman": 2927,
      "ulia": 2928,
      "Ġsaludos": 2929,
      "Ġcytochrome": 2930,
      "ĠUIKit": 2931,
      "Jeh": 2932,
      "Ġscaffold": 2933,
      "ixon": 2934,
      "Ġpari": 2935,
      "ANK": 2936,
      "ĠAnnette": 2937,
      "rored": 2938,
      "NgramModel": 2939,
      "arsa": 2940,
      "processing": 2941,
      "Ġmex": 2942,
      "rivi": 2943,
      "coding": 2944,
      "Ġpra": 2945,
      "crypt": 2946,
      "Ġrepetitions": 2947,
      "WithObjects": 2948,
      "Ġvisceral": 2949,
      "Ġchitin": 2950,
      "ĠSpare": 2951,
      "uas": 2952,
      "Ġbcrypt": 2953,
      "idak": 2954,
      "nesdays": 2955,
      "Pda": 2956,
      "meld": 2957,
      "Flash": 2958,
      "FlashValue": 2959,
      "opencamer": 2960,
      "ĠCTRL": 2961,
      "ĠParisi": 2962,
      "Ġdry": 2963,
      "centage": 2964,
      "ĠINumber": 2965,
      "odeal": 2966,
      "ĠSas": 2967,
      "ĠCVE": 2968,
      "ĠMiyazaki": 2969,
      "ĠAfgh": 2970,
      "Ġdrywall": 2971,
      "Ġster": 2972,
      "ĠSia": 2973,
      "oltzmann": 2974,
      "Ġbezier": 2975,
      "invasion": 2976,
      "Ġacqu": 2977,
      "oled": 2978,
      "soir": 2979,
      "Ġvertebr": 2980,
      "toHave": 2981,
      "ommunity": 2982,
      "Benzo": 2983,
      "Ġlayak": 2984,
      "ramiento": 2985,
      "Ġresc": 2986,
      "skine": 2987,
      "WMNMDA": 2988,
      "Ġmenik": 2989,
      "dym": 2990,
      "ĠBestand": 2991,
      "Ġfrom": 2992,
      "ĠOmni": 2993,
      "Mobs": 2994,
      "ĠDudley": 2995,
      "ĠtoString": 2996,
      "Ġdebug": 2997,
      "invasionMobs": 2998,
      "gridLayout": 2999,
      "hash": 3000,
      "Ġbirl": 3001,
      "Ġbeden": 3002,
      "errorMessage": 3003,
      "ĠPandey": 3004,
      "Ġfromi": 3005,
      "cary": 3006,
      "ĠHatton": 3007,
      "Ġong": 3008,
      "ottle": 3009,
      "codingPath": 3010,
      "Alder": 3011,
      "ĠStreck": 3012,
      "ĠStrecke": 3013,
      "Ġpraising": 3014,
      "rika": 3015,
      "ĠAfghans": 3016,
      "ĠIndus": 3017,
      "ĠSMITH": 3018,
      "Ġgetline": 3019,
      "etok": 3020,
      "ĠEdson": 3021,
      "ĠRup": 3022,
      "quei": 3023,
      "UTCTime": 3024,
      "eshi": 3025,
      "ĠPawan": 3026,
      "Ġcoloquei": 3027,
      "Ġpelota": 3028,
      "ĠVCS": 3029,
      "iyah": 3030,
      "eveer": 3031,
      "Ġongeveer": 3032,
      "adian": 3033,
      "artifact": 3034,
      "azen": 3035,
      "icksburg": 3036,
      "Ġrevital": 3037,
      "Ġdea": 3038,
      "rustic": 3039,
      "ousand": 3040,
      "Ġpaprika": 3041,
      "Ġvane": 3042,
      "itzen": 3043,
      "ĠDutta": 3044,
      "Ġration": 3045,
      "ippers": 3046,
      "ĠCapricorn": 3047,
      "oron": 3048,
      "orneys": 3049,
      "veg": 3050,
      "CHK": 3051,
      "irsty": 3052,
      "Ġvoluptates": 3053,
      "dataPath": 3054,
      "ouk": 3055,
      "asadd": 3056,
      "Ġagon": 3057,
      "ovol": 3058,
      "ĠHelmut": 3059,
      "elah": 3060,
      "rinth": 3061,
      "RowFilter": 3062,
      "VIDOR": 3063,
      "Lap": 3064,
      "irana": 3065,
      "ĠDMA": 3066,
      "ĠCeline": 3067,
      "yal": 3068,
      "ĠMelo": 3069,
      "pick": 3070,
      "interview": 3071,
      "Ġdissoci": 3072,
      "Ġtuples": 3073,
      "DCTask": 3074,
      "Downward": 3075,
      "ĠAlbania": 3076,
      "xpath": 3077,
      "Ġsayam": 3078,
      "setAuto": 3079,
      "ĠDSO": 3080,
      "vegarde": 3081,
      "fullName": 3082,
      "Ġfleshy": 3083,
      "ĠFian": 3084,
      "snakeCubeSize": 3085,
      "ĠAubrey": 3086,
      "ln": 3087,
      "ahui": 3088,
      "Ġporcentaje": 3089,
      "itime": 3090,
      "ethylsulfanyl": 3091,
      "artifactId": 3092,
      "ĠSchneider": 3093,
      "ApiResponse": 3094,
      "ensement": 3095,
      "Ġrecensement": 3096,
      "documentclass": 3097,
      "getActive": 3098,
      "Ġerop": 3099,
      "ĠSatt": 3100,
      "Ġpenguin": 3101,
      "ĠBlond": 3102,
      "Ġpotenci": 3103,
      "ĠEAS": 3104,
      "Ġaux": 3105,
      "ĠJaneiro": 3106,
      "mend": 3107,
      "PW": 3108,
      "PathOf": 3109,
      "MID": 3110,
      "ĠGartner": 3111,
      "Ġcoaxial": 3112,
      "Ġauxqu": 3113,
      "hood": 3114,
      "ĠPMID": 3115,
      "Ġbothered": 3116,
      "otur": 3117,
      "Ġherm": 3118,
      "ĠdwRes": 3119,
      "ueta": 3120,
      "kok": 3121,
      "PWM": 3122,
      "bben": 3123,
      "Ġidam": 3124,
      "lenburg": 3125,
      "ĠinputValue": 3126,
      "ucidation": 3127,
      "jskich": 3128,
      "arly": 3129,
      "ĠAccra": 3130,
      "ĠNSF": 3131,
      "erschaft": 3132,
      "Ġwavelet": 3133,
      "Przyp": 3134,
      "ommission": 3135,
      "ammak": 3136,
      "ĠVasco": 3137,
      "NIK": 3138,
      "Ġfloss": 3139,
      "Ġswipes": 3140,
      "mAb": 3141,
      "kowo": 3142,
      "Material": 3143,
      "ruvate": 3144,
      "ĠDub": 3145,
      "convolveMaterial": 3146,
      "Ġtemer": 3147,
      "ems": 3148,
      "Ġdecommission": 3149,
      "Ġcinereo": 3150,
      "ĠGustav": 3151,
      "ipedi": 3152,
      "Ġwhe": 3153,
      "ermObjectDefer": 3154,
      "tls": 3155,
      "Dtls": 3156,
      "VerFile": 3157,
      "just": 3158,
      "ĠAMA": 3159,
      "ĠAMAZ": 3160,
      "ĠSVP": 3161,
      "Ġtel": 3162,
      "ROR": 3163,
      "Ġdecommissioning": 3164,
      "ActivityResult": 3165,
      "ĠInputDecoration": 3166,
      "lice": 3167,
      "ayah": 3168,
      "uddled": 3169,
      "Ġseptembre": 3170,
      "ibi": 3171,
      "niac": 3172,
      "cript": 3173,
      "kop": 3174,
      "ĠEdmunds": 3175,
      "Celeron": 3176,
      "ogan": 3177,
      "zone": 3178,
      "dor": 3179,
      "ĠAuguste": 3180,
      "dorff": 3181,
      "Ġfris": 3182,
      "ĠHana": 3183,
      "ieri": 3184,
      "geb": 3185,
      "ajoz": 3186,
      "Ġunitar": 3187,
      "Ġunitarity": 3188,
      "Ġsubcl": 3189,
      "Ġbirbir": 3190,
      "Ġtyrann": 3191,
      "osterior": 3192,
      "ĠSzym": 3193,
      "Ġchol": 3194,
      "Ġimpasse": 3195,
      "Ġrallying": 3196,
      "Ġolsun": 3197,
      "ĠLockheed": 3198,
      "umbent": 3199,
      "messe": 3200,
      "infeld": 3201,
      "arses": 3202,
      "ceptible": 3203,
      "work": 3204,
      "okk": 3205,
      "Ġexpedi": 3206,
      "ĠBBS": 3207,
      "ledged": 3208,
      "abinieri": 3209,
      "ĠscrollBody": 3210,
      "ĠNIH": 3211,
      "Ġresuspended": 3212,
      "quire": 3213,
      "Ġpariatur": 3214,
      "ĠLaf": 3215,
      "Ġwo": 3216,
      "Ġtattooed": 3217,
      "ĠStrath": 3218,
      "ĠBurgund": 3219,
      "Ġgyr": 3220,
      "Ġprej": 3221,
      "mberg": 3222,
      "getFrom": 3223,
      "Ġunsub": 3224,
      "ĠArach": 3225,
      "ĠYue": 3226,
      "findpost": 3227,
      "ĠparamInt": 3228,
      "Ġmosa": 3229,
      "Ġlocation": 3230,
      "Hex": 3231,
      "ptica": 3232,
      "decyd": 3233,
      "ouml": 3234,
      "ĠTilly": 3235,
      "ĠTsch": 3236,
      "abody": 3237,
      "ManagerPortal": 3238,
      "ĠNeem": 3239,
      "mios": 3240,
      "splitLength": 3241,
      "eaa": 3242,
      "PlatformVersion": 3243,
      "ĠFET": 3244,
      "ĠJawah": 3245,
      "acd": 3246,
      "RICAL": 3247,
      "ĠJawaharlal": 3248,
      "ĠClyde": 3249,
      "ducible": 3250,
      "callowcounter": 3251,
      "ANCIS": 3252,
      "Ġmagma": 3253,
      "elace": 3254,
      "Ġduke": 3255,
      "ĠAmbro": 3256,
      "ĠBaud": 3257,
      "elleen": 3258,
      "ixi": 3259,
      "cribable": 3260,
      "VIA": 3261,
      "rinsic": 3262,
      "wani": 3263,
      "etype": 3264,
      "Ġslotted": 3265,
      "ĠHough": 3266,
      "aceous": 3267,
      "Ġmoth": 3268,
      "Ġmoat": 3269,
      "celet": 3270,
      "enties": 3271,
      "bracelet": 3272,
      "ValueLayout": 3273,
      "ĠScreens": 3274,
      "ĠOSError": 3275,
      "ĠCYAN": 3276,
      "ĠSebastian": 3277,
      "itelist": 3278,
      "ĠBranche": 3279,
      "uttaa": 3280,
      "unit": 3281,
      "ĠKotlin": 3282,
      "Ġmerc": 3283,
      "Ġsuscipit": 3284,
      "idesp": 3285,
      "idespread": 3286,
      "Ġvadama": 3287,
      "acane": 3288,
      "Ġdemur": 3289,
      "ogon": 3290,
      "icznego": 3291,
      "hyst": 3292,
      "ĠlocationManager": 3293,
      "ainya": 3294,
      "Ġretirer": 3295,
      "ĠClayton": 3296,
      "aryn": 3297,
      "ĠMTA": 3298,
      "rivial": 3299,
      "ocyanate": 3300,
      "IBAction": 3301,
      "Ġpersec": 3302,
      "ĠAmbrose": 3303,
      "ĠTeg": 3304,
      "ĠHyatt": 3305,
      "onnay": 3306,
      "oterapia": 3307,
      "Ġskul": 3308,
      "Rel": 3309,
      "ĠVag": 3310,
      "ostar": 3311,
      "Ġspear": 3312,
      "venor": 3313,
      "ProjectGuid": 3314,
      "huang": 3315,
      "jeron": 3316,
      "TIM": 3317,
      "ĠgetNodeId": 3318,
      "bev": 3319,
      "avimo": 3320,
      "ĠWebDriver": 3321,
      "mathml": 3322,
      "jdbc": 3323,
      "SourceIP": 3324,
      "itchfield": 3325,
      "ĠMilne": 3326,
      "ĠhandleDelete": 3327,
      "Ġwarmer": 3328,
      "ĠMAL": 3329,
      "ĠMALDI": 3330,
      "Ġdope": 3331,
      "onActivityResult": 3332,
      "Ġtac": 3333,
      "lesias": 3334,
      "cloud": 3335,
      "weni": 3336,
      "JsonProperty": 3337,
      "Acceler": 3338,
      "ĠViitattu": 3339,
      "jero": 3340,
      "lington": 3341,
      "Ġgesp": 3342,
      "ĠBrooks": 3343,
      "Ġfiled": 3344,
      "Ġbody": 3345,
      "mlx": 3346,
      "uum": 3347,
      "uncParamNum": 3348,
      "Ġorale": 3349,
      "ĠEz": 3350,
      "yfikac": 3351,
      "ĠFDI": 3352,
      "ĠKir": 3353,
      "Encom": 3354,
      "Ġenjo": 3355,
      "Ġthorium": 3356,
      "ĠSchoen": 3357,
      "navbar": 3358,
      "ĠUNDP": 3359,
      "ĠGDPPC": 3360,
      "Ġgelang": 3361,
      "ĠMilford": 3362,
      "Bot": 3363,
      "Ġbunt": 3364,
      "nina": 3365,
      "ĠMissy": 3366,
      "opardy": 3367,
      "ourent": 3368,
      "Chess": 3369,
      "ĠCho": 3370,
      "Ġfiledialog": 3371,
      "ChessBot": 3372,
      "ĠEvel": 3373,
      "ĠHerod": 3374,
      "pubmed": 3375,
      "ĠVLC": 3376,
      "ytte": 3377,
      "ĠPaston": 3378,
      "ĠRepeat": 3379,
      "ĠKavan": 3380,
      "ĠNONCLUSTERED": 3381,
      "SPLAY": 3382,
      "Ġud": 3383,
      "Elvis": 3384,
      "URF": 3385,
      "ĠDISPLAY": 3386,
      "stdint": 3387,
      "Ġpercentage": 3388,
      "Ign": 3389,
      "ĠDISPLAYS": 3390,
      "ĠDISPLAYSURF": 3391,
      "adine": 3392,
      "Ġajal": 3393,
      "Ignore": 3394,
      "Ġtariffs": 3395,
      "unzione": 3396,
      "arris": 3397,
      "IgnoreCase": 3398,
      "typicode": 3399,
      "Ġcysteine": 3400,
      "RestController": 3401,
      "Relative": 3402,
      "Ġfas": 3403,
      "ĠCharlton": 3404,
      "Essex": 3405,
      "Ġbevy": 3406,
      "Ġnoqa": 3407,
      "Ġinert": 3408,
      "TableCell": 3409,
      "derick": 3410,
      "flowLayoutPanel": 3411,
      "ĠAgung": 3412,
      "ĠLombardi": 3413,
      "CHS": 3414,
      "getCustomer": 3415,
      "Ġjesus": 3416,
      "Ġhotspots": 3417,
      "Ġcongenital": 3418,
      "Ġweit": 3419,
      "intell": 3420,
      "angent": 3421,
      "Ġlux": 3422,
      "uriken": 3423,
      "ĠNanjing": 3424,
      "urally": 3425,
      "ophthal": 3426,
      "ĠActiveRecord": 3427,
      "ĠHabana": 3428,
      "TWI": 3429,
      "vient": 3430,
      "Ġausges": 3431,
      "ulkar": 3432,
      "ĠOtto": 3433,
      "Ġgins": 3434,
      "Ġpourcentage": 3435,
      "lobe": 3436,
      "gr": 3437,
      "arthen": 3438,
      "ĠRaquel": 3439,
      "Ġpostfix": 3440,
      "ĠPERCENT": 3441,
      "Ġuz": 3442,
      "constexpr": 3443,
      "Ġginseng": 3444,
      "ozzi": 3445,
      "ĠBoucher": 3446,
      "alus": 3447,
      "addTarget": 3448,
      "Ġdiodes": 3449,
      "Ġsamoglas": 3450,
      "yss": 3451,
      "ocera": 3452,
      "Ġdisqual": 3453,
      "gregate": 3454,
      "ĠHald": 3455,
      "ĠHIF": 3456,
      "ĠYud": 3457,
      "Sheila": 3458,
      "ramos": 3459,
      "colorControl": 3460,
      "MIT": 3461,
      "ĠKongo": 3462,
      "urum": 3463,
      "Ġmatt": 3464,
      "ustes": 3465,
      "ITATE": 3466,
      "iovas": 3467,
      "anud": 3468,
      "Ġtiu": 3469,
      "bow": 3470,
      "ĠglPopMatrix": 3471,
      "irrah": 3472,
      "leger": 3473,
      "Ġdarb": 3474,
      "nuxtjs": 3475,
      "amen": 3476,
      "ĠLap": 3477,
      "yilda": 3478,
      "Ġarbit": 3479,
      "Ġeee": 3480,
      "dml": 3481,
      "lede": 3482,
      "urnama": 3483,
      "ĠGri": 3484,
      "bsite": 3485,
      "ĠGriechen": 3486,
      "otherapist": 3487,
      "ĠHeide": 3488,
      "aupt": 3489,
      "iap": 3490,
      "throp": 3491,
      "FBSDKSettings": 3492,
      "annah": 3493,
      "imia": 3494,
      "uscar": 3495,
      "nione": 3496,
      "Ġtrest": 3497,
      "Ġunser": 3498,
      "ĠBxb": 3499,
      "rxjs": 3500,
      "Callbacks": 3501,
      "Ġgio": 3502,
      "Ġord": 3503,
      "Claude": 3504,
      "ĠBund": 3505,
      "saa": 3506,
      "ertino": 3507,
      "ĠAdS": 3508,
      "ECK": 3509,
      "bibfield": 3510,
      "estell": 3511,
      "Ġmartin": 3512,
      "CHECK": 3513,
      "Ġretro": 3514,
      "ĠHCI": 3515,
      "ĠIris": 3516,
      "asitriangular": 3517,
      "icious": 3518,
      "ĠinternalType": 3519,
      "autista": 3520,
      "adino": 3521,
      "Ġbitterly": 3522,
      "ĠBautista": 3523,
      "Ġendometri": 3524,
      "ISI": 3525,
      "mettre": 3526,
      "Ġdiscretionary": 3527,
      "ciente": 3528,
      "SECUR": 3529,
      "ĠBux": 3530,
      "ĠBuxton": 3531,
      "ilta": 3532,
      "ĠpTM": 3533,
      "ljen": 3534,
      "Ġvmax": 3535,
      "imli": 3536,
      "anit": 3537,
      "ĠClint": 3538,
      "ĠMDC": 3539,
      "ĠCao": 3540,
      "ltk": 3541,
      "Entity": 3542,
      "intellij": 3543,
      "ioButton": 3544,
      "Ġgestalt": 3545,
      "overflow": 3546,
      "Pair": 3547,
      "ĠModel": 3548,
      "ĠPlato": 3549,
      "ĠChongqing": 3550,
      "Prime": 3551,
      "isPrime": 3552,
      "tida": 3553,
      "iders": 3554,
      "paredStatement": 3555,
      "ruire": 3556,
      "CacheV": 3557,
      "Ġbalk": 3558,
      "Ġposet": 3559,
      "ĠIkat": 3560,
      "<UNK>": 3561
    },
    "old_vocab": {
      "!": 0,
      "\"": 1,
      "#": 2,
      "$": 3,
      "%": 4,
      "&": 5,
      "'": 6,
      "(": 7,
      ")": 8,
      "*": 9,
      "+": 10,
      ",": 11,
      "-": 12,
      ".": 13,
      "/": 14,
      "0": 15,
      "1": 16,
      "2": 17,
      "3": 18,
      "4": 19,
      "5": 20,
      "6": 21,
      "7": 22,
      "8": 23,
      "9": 24,
      ":": 25,
      ";": 26,
      "<": 27,
      "=": 28,
      ">": 29,
      "?": 30,
      "@": 31,
      "A": 32,
      "B": 33,
      "C": 34,
      "D": 35,
      "E": 36,
      "F": 37,
      "G": 38,
      "H": 39,
      "I": 40,
      "J": 41,
      "K": 42,
      "L": 43,
      "M": 44,
      "N": 45,
      "O": 46,
      "P": 47,
      "Q": 48,
      "R": 49,
      "S": 50,
      "T": 51,
      "U": 52,
      "V": 53,
      "W": 54,
      "X": 55,
      "Y": 56,
      "Z": 57,
      "[": 58,
      "\\": 59,
      "]": 60,
      "^": 61,
      "_": 62,
      "`": 63,
      "a": 64,
      "b": 65,
      "c": 66,
      "d": 67,
      "e": 68,
      "f": 69,
      "g": 70,
      "h": 71,
      "i": 72,
      "j": 73,
      "k": 74,
      "l": 75,
      "m": 76,
      "n": 77,
      "o": 78,
      "p": 79,
      "q": 80,
      "r": 81,
      "s": 82,
      "t": 83,
      "u": 84,
      "v": 85,
      "w": 86,
      "x": 87,
      "y": 88,
      "z": 89,
      "{": 90,
      "|": 91,
      "}": 92,
      "~": 93,
      "¡": 94,
      "¢": 95,
      "£": 96,
      "¤": 97,
      "¥": 98,
      "¦": 99,
      "§": 100,
      "¨": 101,
      "©": 102,
      "ª": 103,
      "«": 104,
      "¬": 105,
      "®": 106,
      "¯": 107,
      "°": 108,
      "±": 109,
      "²": 110,
      "³": 111,
      "´": 112,
      "µ": 113,
      "¶": 114,
      "·": 115,
      "¸": 116,
      "¹": 117,
      "º": 118,
      "»": 119,
      "¼": 120,
      "½": 121,
      "¾": 122,
      "¿": 123,
      "À": 124,
      "Á": 125,
      "Â": 126,
      "Ã": 127,
      "Ä": 128,
      "Å": 129,
      "Æ": 130,
      "Ç": 131,
      "È": 132,
      "É": 133,
      "Ê": 134,
      "Ë": 135,
      "Ì": 136,
      "Í": 137,
      "Î": 138,
      "Ï": 139,
      "Ð": 140,
      "Ñ": 141,
      "Ò": 142,
      "Ó": 143,
      "Ô": 144,
      "Õ": 145,
      "Ö": 146,
      "×": 147,
      "Ø": 148,
      "Ù": 149,
      "Ú": 150,
      "Û": 151,
      "Ü": 152,
      "Ý": 153,
      "Þ": 154,
      "ß": 155,
      "à": 156,
      "á": 157,
      "â": 158,
      "ã": 159,
      "ä": 160,
      "å": 161,
      "æ": 162,
      "ç": 163,
      "è": 164,
      "é": 165,
      "ê": 166,
      "ë": 167,
      "ì": 168,
      "í": 169,
      "î": 170,
      "ï": 171,
      "ð": 172,
      "ñ": 173,
      "ò": 174,
      "ó": 175,
      "ô": 176,
      "õ": 177,
      "ö": 178,
      "÷": 179,
      "ø": 180,
      "ù": 181,
      "ú": 182,
      "û": 183,
      "ü": 184,
      "ý": 185,
      "þ": 186,
      "ÿ": 187,
      "Ā": 188,
      "ā": 189,
      "Ă": 190,
      "ă": 191,
      "Ą": 192,
      "ą": 193,
      "Ć": 194,
      "ć": 195,
      "Ĉ": 196,
      "ĉ": 197,
      "Ċ": 198,
      "ċ": 199,
      "Č": 200,
      "č": 201,
      "Ď": 202,
      "ď": 203,
      "Đ": 204,
      "đ": 205,
      "Ē": 206,
      "ē": 207,
      "Ĕ": 208,
      "ĕ": 209,
      "Ė": 210,
      "ė": 211,
      "Ę": 212,
      "ę": 213,
      "Ě": 214,
      "ě": 215,
      "Ĝ": 216,
      "ĝ": 217,
      "Ğ": 218,
      "ğ": 219,
      "Ġ": 220,
      "ġ": 221,
      "Ģ": 222,
      "ģ": 223,
      "Ĥ": 224,
      "ĥ": 225,
      "Ħ": 226,
      "ħ": 227,
      "Ĩ": 228,
      "ĩ": 229,
      "Ī": 230,
      "ī": 231,
      "Ĭ": 232,
      "ĭ": 233,
      "Į": 234,
      "į": 235,
      "İ": 236,
      "ı": 237,
      "Ĳ": 238,
      "ĳ": 239,
      "Ĵ": 240,
      "ĵ": 241,
      "Ķ": 242,
      "ķ": 243,
      "ĸ": 244,
      "Ĺ": 245,
      "ĺ": 246,
      "Ļ": 247,
      "ļ": 248,
      "Ľ": 249,
      "ľ": 250,
      "Ŀ": 251,
      "ŀ": 252,
      "Ł": 253,
      "ł": 254,
      "Ń": 255,
      "er": 256,
      "an": 257,
      "in": 258,
      "en": 259,
      "on": 260,
      "ar": 261,
      "at": 262,
      "es": 263,
      "al": 264,
      "or": 265,
      "et": 266,
      "it": 267,
      "st": 268,
      "le": 269,
      "ic": 270,
      "el": 271,
      "ed": 272,
      "ch": 273,
      "am": 274,
      "ro": 275,
      "is": 276,
      "re": 277,
      "ad": 278,
      "Ġs": 279,
      "Ġp": 280,
      "un": 281,
      "il": 282,
      "ĠS": 283,
      "as": 284,
      "ing": 285,
      "ut": 286,
      "ĠC": 287,
      "ent": 288,
      "ol": 289,
      "ur": 290,
      "ĠM": 291,
      "us": 292,
      "ĠB": 293,
      "ra": 294,
      "ion": 295,
      "Ġc": 296,
      "id": 297,
      "Ġd": 298,
      "ĠP": 299,
      "ul": 300,
      "im": 301,
      "Ġt": 302,
      "Ġm": 303,
      "om": 304,
      "ĠA": 305,
      "ac": 306,
      "ag": 307,
      "em": 308,
      "ab": 309,
      "ĠD": 310,
      "os": 311,
      "ot": 312,
      "um": 313,
      "ig": 314,
      "ct": 315,
      "od": 316,
      "Ġb": 317,
      "ri": 318,
      "ĠT": 319,
      "ĠG": 320,
      "ĠR": 321,
      "ĠH": 322,
      "ap": 323,
      "ie": 324,
      "ak": 325,
      "oc": 326,
      "ir": 327,
      "ĠN": 328,
      "est": 329,
      "ĠL": 330,
      "ay": 331,
      "ow": 332,
      "Ġf": 333,
      "ĠE": 334,
      "Ġg": 335,
      "ex": 336,
      "op": 337,
      "Ġv": 338,
      "Ġh": 339,
      "and": 340,
      "th": 341,
      "ia": 342,
      "ĠK": 343,
      "ce": 344,
      "qu": 345,
      "Ġn": 346,
      "iv": 347,
      "ĠF": 348,
      "ate": 349,
      "av": 350,
      "ers": 351,
      "ĠW": 352,
      "ang": 353,
      "ation": 354,
      "og": 355,
      "Ġl": 356,
      "ant": 357,
      "In": 358,
      "ik": 359,
      "ov": 360,
      "ah": 361,
      "ec": 362,
      "eg": 363,
      "Ġk": 364,
      "ist": 365,
      "end": 366,
      "ub": 367,
      "ud": 368,
      "ter": 369,
      "ff": 370,
      "ine": 371,
      "ont": 372,
      "St": 373,
      "ob": 374,
      "ib": 375,
      "Ġr": 376,
      "up": 377,
      "ip": 378,
      "ton": 379,
      "ess": 380,
      "ath": 381,
      "iz": 382,
      "ian": 383,
      "ey": 384,
      "ell": 385,
      "ug": 386,
      "ect": 387,
      "ĠV": 388,
      "ĠI": 389,
      "ind": 390,
      "ard": 391,
      "ly": 392,
      "ert": 393,
      "ast": 394,
      "ĠJ": 395,
      "pe": 396,
      "ord": 397,
      "ph": 398,
      "ok": 399,
      "get": 400,
      "ill": 401,
      "Ġw": 402,
      "pt": 403,
      "art": 404,
      "ue": 405,
      "Ġre": 406,
      "uc": 407,
      "ne": 408,
      "ht": 409,
      "yl": 410,
      "age": 411,
      "Ġin": 412,
      "ĠU": 413,
      "ĠO": 414,
      "if": 415,
      "eb": 416,
      "te": 417,
      "ass": 418,
      "io": 419,
      "se": 420,
      "au": 421,
      "ung": 422,
      "all": 423,
      "ev": 424,
      "und": 425,
      "ek": 426,
      "ef": 427,
      "ep": 428,
      "ox": 429,
      "able": 430,
      "ile": 431,
      "ens": 432,
      "uk": 433,
      "aw": 434,
      "Ġst": 435,
      "Ġj": 436,
      "ext": 437,
      "ata": 438,
      "erm": 439,
      "ack": 440,
      "he": 441,
      "ult": 442,
      "out": 443,
      "ĠCh": 444,
      "set": 445,
      "int": 446,
      "ity": 447,
      "az": 448,
      "ew": 449,
      "ial": 450,
      "pl": 451,
      "ach": 452,
      "our": 453,
      "ies": 454,
      "ym": 455,
      "rop": 456,
      "ran": 457,
      "ou": 458,
      "sk": 459,
      "aj": 460,
      "ort": 461,
      "Ġch": 462,
      "ick": 463,
      "ame": 464,
      "ock": 465,
      "Ġa": 466,
      "ry": 467,
      "ann": 468,
      "Ġun": 469,
      "ost": 470,
      "ai": 471,
      "cl": 472,
      "Ġcon": 473,
      "sh": 474,
      "son": 475,
      "ĠMc": 476,
      "att": 477,
      "ive": 478,
      "pr": 479,
      "ust": 480,
      "ject": 481,
      "ment": 482,
      "iew": 483,
      "her": 484,
      "iel": 485,
      "yn": 486,
      "ll": 487,
      "ous": 488,
      "per": 489,
      "ele": 490,
      "ya": 491,
      "ier": 492,
      "ode": 493,
      "ype": 494,
      "ain": 495,
      "add": 496,
      "unt": 497,
      "erv": 498,
      "are": 499,
      "put": 500,
      "to": 501,
      "na": 502,
      "ich": 503,
      "ij": 504,
      "ish": 505,
      "ER": 506,
      "ong": 507,
      "eng": 508,
      "ite": 509,
      "lo": 510,
      "ax": 511,
      "ign": 512,
      "ond": 513,
      "Cont": 514,
      "sp": 515,
      "ring": 516,
      "pp": 517,
      "ber": 518,
      "ane": 519,
      "ull": 520,
      "ati": 521,
      "ore": 522,
      "ice": 523,
      "Val": 524,
      "ez": 525,
      "Ar": 526,
      "ire": 527,
      "ure": 528,
      "Ch": 529,
      "Ob": 530,
      "rom": 531,
      "ary": 532,
      "ild": 533,
      "ide": 534,
      "omp": 535,
      "To": 536,
      "man": 537,
      "ron": 538,
      "ash": 539,
      "ated": 540,
      "ST": 541,
      "oh": 542,
      "ru": 543,
      "ft": 544,
      "res": 545,
      "ime": 546,
      "ink": 547,
      "ett": 548,
      "Ġz": 549,
      "sc": 550,
      "ĠSh": 551,
      "iss": 552,
      "ight": 553,
      "nd": 554,
      "ana": 555,
      "err": 556,
      "ield": 557,
      "Ġpro": 558,
      "ark": 559,
      "enc": 560,
      "Object": 561,
      "Type": 562,
      "ge": 563,
      "ith": 564,
      "Con": 565,
      "ern": 566,
      "ize": 567,
      "Ġsp": 568,
      "eth": 569,
      "ere": 570,
      "own": 571,
      "ID": 572,
      "les": 573,
      "eh": 574,
      "Par": 575,
      "iy": 576,
      "tr": 577,
      "Cl": 578,
      "Ġe": 579,
      "orm": 580,
      "itt": 581,
      "ins": 582,
      "ene": 583,
      "View": 584,
      "ray": 585,
      "OR": 586,
      "Value": 587,
      "erc": 588,
      "oll": 589,
      "ley": 590,
      "oy": 591,
      "ON": 592,
      "ham": 593,
      "Ġle": 594,
      "Ġpr": 595,
      "ors": 596,
      "ale": 597,
      "AR": 598,
      "Res": 599,
      "ons": 600,
      "ma": 601,
      "co": 602,
      "EN": 603,
      "ium": 604,
      "UR": 605,
      "rr": 606,
      "Ġim": 607,
      "List": 608,
      "ka": 609,
      "IC": 610,
      "oj": 611,
      "ace": 612,
      "ient": 613,
      "Ex": 614,
      "ho": 615,
      "ss": 616,
      "ical": 617,
      "row": 618,
      "ction": 619,
      "tt": 620,
      "ina": 621,
      "ĠY": 622,
      "IN": 623,
      "Ġth": 624,
      "Path": 625,
      "old": 626,
      "ver": 627,
      "we": 628,
      "AN": 629,
      "ĠAr": 630,
      "act": 631,
      "ence": 632,
      "Pro": 633,
      "olor": 634,
      "ys": 635,
      "que": 636,
      "rit": 637,
      "SC": 638,
      "utton": 639,
      "ase": 640,
      "enn": 641,
      "ato": 642,
      "no": 643,
      "arg": 644,
      "ler": 645,
      "ram": 646,
      "Err": 647,
      "ĠSt": 648,
      "cept": 649,
      "ead": 650,
      "ni": 651,
      "one": 652,
      "ĠZ": 653,
      "atch": 654,
      "Ġqu": 655,
      "Ġex": 656,
      "Ġab": 657,
      "ald": 658,
      "Ġsc": 659,
      "ck": 660,
      "ole": 661,
      "tem": 662,
      "CC": 663,
      "Id": 664,
      "ood": 665,
      "ush": 666,
      "omm": 667,
      "sch": 668,
      "LE": 669,
      "Ġpl": 670,
      "Name": 671,
      "ans": 672,
      "ĠQ": 673,
      "Error": 674,
      "ee": 675,
      "oz": 676,
      "rent": 677,
      "bo": 678,
      "ric": 679,
      "ser": 680,
      "ance": 681,
      "of": 682,
      "ix": 683,
      "erg": 684,
      "ail": 685,
      "Data": 686,
      "Im": 687,
      "ari": 688,
      "Ġdis": 689,
      "ank": 690,
      "AL": 691,
      "app": 692,
      "Ġad": 693,
      "arl": 694,
      "CT": 695,
      "Sc": 696,
      "yd": 697,
      "anc": 698,
      "ado": 699,
      "ini": 700,
      "AT": 701,
      "Key": 702,
      "Ġal": 703,
      "uf": 704,
      "amp": 705,
      "Ġsub": 706,
      "yt": 707,
      "Comp": 708,
      "rid": 709,
      "uff": 710,
      "ĠSch": 711,
      "led": 712,
      "Serv": 713,
      "ĠAl": 714,
      "Button": 715,
      "ement": 716,
      "emb": 717,
      "SE": 718,
      "ret": 719,
      "ani": 720,
      "ait": 721,
      "Text": 722,
      "sl": 723,
      "ĠIn": 724,
      "af": 725,
      "orn": 726,
      "rav": 727,
      "arr": 728,
      "gen": 729,
      "AM": 730,
      "ator": 731,
      "fo": 732,
      "Ġy": 733,
      "equ": 734,
      "hen": 735,
      "ais": 736,
      "land": 737,
      "amb": 738,
      "SP": 739,
      "ings": 740,
      "val": 741,
      "IT": 742,
      "Size": 743,
      "yp": 744,
      "ear": 745,
      "eter": 746,
      "Array": 747,
      "String": 748,
      "ada": 749,
      "ford": 750,
      "air": 751,
      "RE": 752,
      "inn": 753,
      "iti": 754,
      "Item": 755,
      "ien": 756,
      "ions": 757,
      "esh": 758,
      "Co": 759,
      "SA": 760,
      "ren": 761,
      "Param": 762,
      "By": 763,
      "Of": 764,
      "ugh": 765,
      "ade": 766,
      "ott": 767,
      "Ġget": 768,
      "con": 769,
      "Ġsh": 770,
      "RP": 771,
      "kan": 772,
      "eck": 773,
      "inc": 774,
      "ein": 775,
      "cc": 776,
      "uj": 777,
      "utt": 778,
      "BS": 779,
      "ict": 780,
      "era": 781,
      "ica": 782,
      "over": 783,
      "Context": 784,
      "CS": 785,
      "ĠBl": 786,
      "ng": 787,
      "uss": 788,
      "yc": 789,
      "eat": 790,
      "vent": 791,
      "Ġpar": 792,
      "nt": 793,
      "ps": 794,
      "ory": 795,
      "rib": 796,
      "unc": 797,
      "ara": 798,
      "umb": 799,
      "oth": 800,
      "ke": 801,
      "Int": 802,
      "ics": 803,
      "onent": 804,
      "uth": 805,
      "urrent": 806,
      "arm": 807,
      "urs": 808,
      "ql": 809,
      "ena": 810,
      "uch": 811,
      "ger": 812,
      "lement": 813,
      "Pl": 814,
      "yst": 815,
      "ego": 816,
      "Field": 817,
      "Ġan": 818,
      "Ġen": 819,
      "Image": 820,
      "iro": 821,
      "ora": 822,
      "isc": 823,
      "osit": 824,
      "File": 825,
      "AC": 826,
      "ute": 827,
      "PS": 828,
      "ira": 829,
      "App": 830,
      "reate": 831,
      "reen": 832,
      "ih": 833,
      "roup": 834,
      "ama": 835,
      "Ġac": 836,
      "ze": 837,
      "ĠGu": 838,
      "ager": 839,
      "use": 840,
      "ater": 841,
      "CP": 842,
      "va": 843,
      "ala": 844,
      "Ġdes": 845,
      "str": 846,
      "Mod": 847,
      "Ġsl": 848,
      "ve": 849,
      "uto": 850,
      "umber": 851,
      "fl": 852,
      "Ġar": 853,
      "off": 854,
      "Ġap": 855,
      "Get": 856,
      "che": 857,
      "DA": 858,
      "uy": 859,
      "Ġset": 860,
      "ism": 861,
      "den": 862,
      "atth": 863,
      "ery": 864,
      "ĠX": 865,
      "Ġrec": 866,
      "Time": 867,
      "als": 868,
      "me": 869,
      "equest": 870,
      "Man": 871,
      "kh": 872,
      "roll": 873,
      "ress": 874,
      "IA": 875,
      "ise": 876,
      "State": 877,
      "par": 878,
      "ament": 879,
      "Ġper": 880,
      "dex": 881,
      "IS": 882,
      "po": 883,
      "ner": 884,
      "ille": 885,
      "urn": 886,
      "PC": 887,
      "itz": 888,
      "arc": 889,
      "uz": 890,
      "ates": 891,
      "Ġro": 892,
      "ular": 893,
      "orr": 894,
      "ech": 895,
      "let": 896,
      "ius": 897,
      "rad": 898,
      "order": 899,
      "ave": 900,
      "alt": 901,
      "raw": 902,
      "anj": 903,
      "ha": 904,
      "Color": 905,
      "fe": 906,
      "Sh": 907,
      "ets": 908,
      "arb": 909,
      "orb": 910,
      "du": 911,
      "Code": 912,
      "IL": 913,
      "iff": 914,
      "oph": 915,
      "ref": 916,
      "rev": 917,
      "ose": 918,
      "Index": 919,
      "lock": 920,
      "uv": 921,
      "Char": 922,
      "ource": 923,
      "DP": 924,
      "Fl": 925,
      "ES": 926,
      "ili": 927,
      "UT": 928,
      "rist": 929,
      "Ġres": 930,
      "Ġis": 931,
      "uh": 932,
      "gl": 933,
      "bar": 934,
      "pi": 935,
      "ml": 936,
      "iter": 937,
      "Component": 938,
      "MS": 939,
      "ks": 940,
      "kt": 941,
      "ied": 942,
      "ians": 943,
      "ruct": 944,
      "ych": 945,
      "ayout": 946,
      "ree": 947,
      "IP": 948,
      "Request": 949,
      "uan": 950,
      "ld": 951,
      "Ġmen": 952,
      "yr": 953,
      "ĠTh": 954,
      "ington": 955,
      "rack": 956,
      "CH": 957,
      "ii": 958,
      "omb": 959,
      "och": 960,
      "elect": 961,
      "sub": 962,
      "Out": 963,
      "rag": 964,
      "eme": 965,
      "ux": 966,
      "Set": 967,
      "All": 968,
      "ĠAm": 969,
      "ete": 970,
      "SI": 971,
      "rim": 972,
      "Call": 973,
      "MA": 974,
      "cz": 975,
      "CA": 976,
      "fig": 977,
      "ano": 978,
      "ae": 979,
      "abb": 980,
      "ao": 981,
      "rol": 982,
      "form": 983,
      "sw": 984,
      "Ġcont": 985,
      "ely": 986,
      "En": 987,
      "Event": 988,
      "Ref": 989,
      "ĠSc": 990,
      "Group": 991,
      "TR": 992,
      "ays": 993,
      "rans": 994,
      "go": 995,
      "ake": 996,
      "za": 997,
      "asc": 998,
      "ET": 999,
      "erd": 1000,
      "oxy": 1001,
      "Ġjed": 1002,
      "Box": 1003,
      "Ġod": 1004,
      "Action": 1005,
      "oid": 1006,
      "back": 1007,
      "yle": 1008,
      "Ġam": 1009,
      "red": 1010,
      "ros": 1011,
      "ĠLe": 1012,
      "riv": 1013,
      "ese": 1014,
      "oa": 1015,
      "ots": 1016,
      "la": 1017,
      "ork": 1018,
      "oo": 1019,
      "line": 1020,
      "Ġret": 1021,
      "Ġund": 1022,
      "aff": 1023,
      "Result": 1024,
      "UN": 1025,
      "atur": 1026,
      "Sp": 1027,
      "rt": 1028,
      "ĠCon": 1029,
      "ered": 1030,
      "Ġind": 1031,
      "indow": 1032,
      "ception": 1033,
      "Prop": 1034,
      "endo": 1035,
      "Input": 1036,
      "Manager": 1037,
      "Ġcom": 1038,
      "ĠBar": 1039,
      "Up": 1040,
      "MP": 1041,
      "Ġob": 1042,
      "rec": 1043,
      "Exception": 1044,
      "Ġant": 1045,
      "Service": 1046,
      "men": 1047,
      "ling": 1048,
      "ĠAd": 1049,
      "ump": 1050,
      "Count": 1051,
      "AG": 1052,
      "ester": 1053,
      "shire": 1054,
      "ĠEd": 1055,
      "unter": 1056,
      "uild": 1057,
      "ej": 1058,
      "Ad": 1059,
      "aya": 1060,
      "anam": 1061,
      "ios": 1062,
      "rl": 1063,
      "ĠEm": 1064,
      "Class": 1065,
      "els": 1066,
      "Ġimp": 1067,
      "ten": 1068,
      "ocal": 1069,
      "PA": 1070,
      "mer": 1071,
      "eut": 1072,
      "ower": 1073,
      "ats": 1074,
      "Layout": 1075,
      "Table": 1076,
      "ask": 1077,
      "ener": 1078,
      "uit": 1079,
      "ĠRe": 1080,
      "ars": 1081,
      "bur": 1082,
      "ĠAn": 1083,
      "TS": 1084,
      "For": 1085,
      "ocation": 1086,
      "amil": 1087,
      "Ġem": 1088,
      "idd": 1089,
      "my": 1090,
      "ione": 1091,
      "oss": 1092,
      "iqu": 1093,
      "As": 1094,
      "uck": 1095,
      "port": 1096,
      "elle": 1097,
      "ized": 1098,
      "ucle": 1099,
      "ange": 1100,
      "ule": 1101,
      "nik": 1102,
      "SM": 1103,
      "ound": 1104,
      "Ġtr": 1105,
      "ogg": 1106,
      "atic": 1107,
      "ual": 1108,
      "ility": 1109,
      "raph": 1110,
      "org": 1111,
      "ract": 1112,
      "Element": 1113,
      "ouse": 1114,
      "ette": 1115,
      "ED": 1116,
      "last": 1117,
      "pro": 1118,
      "With": 1119,
      "las": 1120,
      "Info": 1121,
      "Config": 1122,
      "DR": 1123,
      "pon": 1124,
      "ayer": 1125,
      "User": 1126,
      "anel": 1127,
      "AD": 1128,
      "lad": 1129,
      "AP": 1130,
      "Api": 1131,
      "berg": 1132,
      "iej": 1133,
      "Ġco": 1134,
      "Ġov": 1135,
      "Ġel": 1136,
      "BC": 1137,
      "Ġph": 1138,
      "ui": 1139,
      "ĠEl": 1140,
      "edi": 1141,
      "idth": 1142,
      "ino": 1143,
      "SS": 1144,
      "be": 1145,
      "icht": 1146,
      "ĠBr": 1147,
      "eader": 1148,
      "reg": 1149,
      "oto": 1150,
      "olic": 1151,
      "hi": 1152,
      "Al": 1153,
      "ome": 1154,
      "IM": 1155,
      "bit": 1156,
      "br": 1157,
      "Is": 1158,
      "unk": 1159,
      "map": 1160,
      "load": 1161,
      "cent": 1162,
      "Ġfl": 1163,
      "inal": 1164,
      "ral": 1165,
      "aut": 1166,
      "Window": 1167,
      "web": 1168,
      "iet": 1169,
      "lect": 1170,
      "CO": 1171,
      "ough": 1172,
      "EC": 1173,
      "ura": 1174,
      "ating": 1175,
      "Ġinc": 1176,
      "Ġent": 1177,
      "Ġon": 1178,
      "Ġx": 1179,
      "Ġed": 1180,
      "Ġsk": 1181,
      "wood": 1182,
      "path": 1183,
      "any": 1184,
      "SRP": 1185,
      "tn": 1186,
      "ali": 1187,
      "Ġang": 1188,
      "ior": 1189,
      "cht": 1190,
      "ski": 1191,
      "abel": 1192,
      "new": 1193,
      "IV": 1194,
      "DK": 1195,
      "Model": 1196,
      "erk": 1197,
      "Ġop": 1198,
      "ĠSal": 1199,
      "arn": 1200,
      "Test": 1201,
      "da": 1202,
      "anti": 1203,
      "PM": 1204,
      "eep": 1205,
      "uid": 1206,
      "rv": 1207,
      "ional": 1208,
      "rab": 1209,
      "Ġgr": 1210,
      "arch": 1211,
      "ENT": 1212,
      "aan": 1213,
      "ider": 1214,
      "Ġmult": 1215,
      "field": 1216,
      "ript": 1217,
      "board": 1218,
      "Ġuse": 1219,
      "aur": 1220,
      "Ph": 1221,
      "Log": 1222,
      "ulf": 1223,
      "fer": 1224,
      "ection": 1225,
      "iment": 1226,
      "Params": 1227,
      "ts": 1228,
      "ima": 1229,
      "BA": 1230,
      "oad": 1231,
      "ega": 1232,
      "ris": 1233,
      "MC": 1234,
      "udd": 1235,
      "lic": 1236,
      "ĠSp": 1237,
      "GF": 1238,
      "igh": 1239,
      "Ġint": 1240,
      "item": 1241,
      "etail": 1242,
      "erty": 1243,
      "US": 1244,
      "oke": 1245,
      "UM": 1246,
      "cal": 1247,
      "Node": 1248,
      "ible": 1249,
      "Ġdi": 1250,
      "Ġcl": 1251,
      "key": 1252,
      "ĠWil": 1253,
      "Panel": 1254,
      "enu": 1255,
      "ations": 1256,
      "olog": 1257,
      "anth": 1258,
      "OA": 1259,
      "ody": 1260,
      "ync": 1261,
      "by": 1262,
      "Ġout": 1263,
      "acter": 1264,
      "Stat": 1265,
      "kow": 1266,
      "HT": 1267,
      "leg": 1268,
      "At": 1269,
      "Map": 1270,
      "PT": 1271,
      "MD": 1272,
      "akan": 1273,
      "Ġra": 1274,
      "vert": 1275,
      "Bar": 1276,
      "sed": 1277,
      "ores": 1278,
      "emp": 1279,
      "Col": 1280,
      "bra": 1281,
      "oken": 1282,
      "je": 1283,
      "Ġbl": 1284,
      "for": 1285,
      "ĠSw": 1286,
      "ĠCl": 1287,
      "adi": 1288,
      "ĠCo": 1289,
      "CM": 1290,
      "hat": 1291,
      "iem": 1292,
      "Number": 1293,
      "ched": 1294,
      "ita": 1295,
      "mo": 1296,
      "Ġau": 1297,
      "Un": 1298,
      "icul": 1299,
      "Ġol": 1300,
      "date": 1301,
      "Start": 1302,
      "eron": 1303,
      "zy": 1304,
      "aud": 1305,
      "ny": 1306,
      "ethod": 1307,
      "ĠMcC": 1308,
      "atri": 1309,
      "CI": 1310,
      "Ġconv": 1311,
      "Or": 1312,
      "aro": 1313,
      "iri": 1314,
      "Ġmax": 1315,
      "Ġpost": 1316,
      "ils": 1317,
      "Content": 1318,
      "TE": 1319,
      "lin": 1320,
      "aa": 1321,
      "Const": 1322,
      "ercent": 1323,
      "Em": 1324,
      "IB": 1325,
      "onic": 1326,
      "ĠBur": 1327,
      "ument": 1328,
      "ponse": 1329,
      "Width": 1330,
      "ĠBh": 1331,
      "omer": 1332,
      "Ġult": 1333,
      "zt": 1334,
      "rich": 1335,
      "alk": 1336,
      "net": 1337,
      "ook": 1338,
      "aus": 1339,
      "Arg": 1340,
      "ua": 1341,
      "CE": 1342,
      "Block": 1343,
      "Date": 1344,
      "SR": 1345,
      "ms": 1346,
      "eer": 1347,
      "ido": 1348,
      "amente": 1349,
      "Ġtrans": 1350,
      "ero": 1351,
      "ona": 1352,
      "On": 1353,
      "etri": 1354,
      "Line": 1355,
      "hr": 1356,
      "Header": 1357,
      "FA": 1358,
      "ender": 1359,
      "Ġas": 1360,
      "OM": 1361,
      "Star": 1362,
      "ommand": 1363,
      "het": 1364,
      "jsk": 1365,
      "Auto": 1366,
      "Ġinter": 1367,
      "lor": 1368,
      "ĠPal": 1369,
      "its": 1370,
      "ois": 1371,
      "AS": 1372,
      "IR": 1373,
      "win": 1374,
      "Ġvol": 1375,
      "Ġer": 1376,
      "Off": 1377,
      "ative": 1378,
      "read": 1379,
      "Server": 1380,
      "imp": 1381,
      "EL": 1382,
      "Ġpot": 1383,
      "DC": 1384,
      "ialog": 1385,
      "ethyl": 1386,
      "stra": 1387,
      "IF": 1388,
      "essage": 1389,
      "Mode": 1390,
      "Output": 1391,
      "js": 1392,
      "UI": 1393,
      "osh": 1394,
      "de": 1395,
      "db": 1396,
      "utter": 1397,
      "aster": 1398,
      "CL": 1399,
      "Ġsw": 1400,
      "urt": 1401,
      "orth": 1402,
      "xc": 1403,
      "rob": 1404,
      "An": 1405,
      "Menu": 1406,
      "itor": 1407,
      "less": 1408,
      "iles": 1409,
      "aks": 1410,
      "ipp": 1411,
      "Mut": 1412,
      "Ġdec": 1413,
      "acch": 1414,
      "Ġto": 1415,
      "LO": 1416,
      "li": 1417,
      "round": 1418,
      "Ġadd": 1419,
      "ouch": 1420,
      "thor": 1421,
      "erson": 1422,
      "aki": 1423,
      "DB": 1424,
      "Pop": 1425,
      "Ġep": 1426,
      "Ġber": 1427,
      "lex": 1428,
      "Ġtest": 1429,
      "ven": 1430,
      "pen": 1431,
      "lar": 1432,
      "Ġjedn": 1433,
      "uffer": 1434,
      "ocus": 1435,
      "Ġbh": 1436,
      "der": 1437,
      "ycl": 1438,
      "ition": 1439,
      "orph": 1440,
      "icz": 1441,
      "MB": 1442,
      "box": 1443,
      "asi": 1444,
      "esp": 1445,
      "Go": 1446,
      "illa": 1447,
      "Ġsal": 1448,
      "ency": 1449,
      "atan": 1450,
      "ols": 1451,
      "ength": 1452,
      "vi": 1453,
      "Ġdef": 1454,
      "raz": 1455,
      "TA": 1456,
      "PE": 1457,
      "ami": 1458,
      "Ġag": 1459,
      "roph": 1460,
      "zo": 1461,
      "PR": 1462,
      "Url": 1463,
      "arth": 1464,
      "ING": 1465,
      "min": 1466,
      "KA": 1467,
      "edia": 1468,
      "eight": 1469,
      "TC": 1470,
      "ious": 1471,
      "aire": 1472,
      "udent": 1473,
      "ola": 1474,
      "met": 1475,
      "ities": 1476,
      "com": 1477,
      "aul": 1478,
      "Conn": 1479,
      "Nav": 1480,
      "bl": 1481,
      "ĠWh": 1482,
      "econd": 1483,
      "amera": 1484,
      "ault": 1485,
      "Av": 1486,
      "cess": 1487,
      "ymb": 1488,
      "ĠQu": 1489,
      "input": 1490,
      "Dialog": 1491,
      "Ġsm": 1492,
      "Ġsch": 1493,
      "ĠPr": 1494,
      "ĠMah": 1495,
      "Control": 1496,
      "ĠAg": 1497,
      "plic": 1498,
      "SO": 1499,
      "eli": 1500,
      "rey": 1501,
      "ĠDor": 1502,
      "ML": 1503,
      "eld": 1504,
      "well": 1505,
      "rain": 1506,
      "rap": 1507,
      "ca": 1508,
      "Ġrem": 1509,
      "ĠMcG": 1510,
      "Ġoc": 1511,
      "Qu": 1512,
      "amm": 1513,
      "IG": 1514,
      "rum": 1515,
      "Ġpal": 1516,
      "oot": 1517,
      "find": 1518,
      "ebug": 1519,
      "Bit": 1520,
      "ĠCB": 1521,
      "Ġrep": 1522,
      "Ġcurrent": 1523,
      "wa": 1524,
      "ĠKn": 1525,
      "ically": 1526,
      "ias": 1527,
      "onn": 1528,
      "Ġmil": 1529,
      "Resource": 1530,
      "uro": 1531,
      "ope": 1532,
      "raft": 1533,
      "Ġpre": 1534,
      "Response": 1535,
      "Init": 1536,
      "lu": 1537,
      "alle": 1538,
      "nya": 1539,
      "Ġapp": 1540,
      "New": 1541,
      "oi": 1542,
      "ability": 1543,
      "awa": 1544,
      "Ġnew": 1545,
      "ĠEr": 1546,
      "ĠWood": 1547,
      "ove": 1548,
      "Ġdel": 1549,
      "ukan": 1550,
      "FBS": 1551,
      "Buffer": 1552,
      "andle": 1553,
      "anz": 1554,
      "user": 1555,
      "Def": 1556,
      "eral": 1557,
      "ropri": 1558,
      "FBSDK": 1559,
      "Inter": 1560,
      "atis": 1561,
      "ream": 1562,
      "itri": 1563,
      "arget": 1564,
      "uer": 1565,
      "ava": 1566,
      "Focus": 1567,
      "van": 1568,
      "Ġsup": 1569,
      "angan": 1570,
      "Var": 1571,
      "aka": 1572,
      "ji": 1573,
      "Oper": 1574,
      "stein": 1575,
      "ĠApp": 1576,
      "ateg": 1577,
      "vis": 1578,
      "ĠBx": 1579,
      "ift": 1580,
      "imm": 1581,
      "OP": 1582,
      "Change": 1583,
      "SD": 1584,
      "Ġup": 1585,
      "ras": 1586,
      "anh": 1587,
      "apt": 1588,
      "oun": 1589,
      "Select": 1590,
      "ante": 1591,
      "Ġcreate": 1592,
      "rz": 1593,
      "cp": 1594,
      "pring": 1595,
      "acy": 1596,
      "ĠWar": 1597,
      "ever": 1598,
      "Ġmeng": 1599,
      "ĠCor": 1600,
      "ĠPh": 1601,
      "ization": 1602,
      "Ġter": 1603,
      "not": 1604,
      "ific": 1605,
      "ĠBro": 1606,
      "ector": 1607,
      "Client": 1608,
      "akt": 1609,
      "iki": 1610,
      "ila": 1611,
      "ste": 1612,
      "Ġleg": 1613,
      "Rec": 1614,
      "Page": 1615,
      "Message": 1616,
      "from": 1617,
      "AF": 1618,
      "type": 1619,
      "Ġgl": 1620,
      "ĠMan": 1621,
      "DI": 1622,
      "akkh": 1623,
      "Ġo": 1624,
      "aga": 1625,
      "Property": 1626,
      "ĠQx": 1627,
      "data": 1628,
      "Down": 1629,
      "current": 1630,
      "nal": 1631,
      "send": 1632,
      "oul": 1633,
      "TP": 1634,
      "do": 1635,
      "Ġact": 1636,
      "erence": 1637,
      "ges": 1638,
      "Ġinf": 1639,
      "vol": 1640,
      "IO": 1641,
      "alf": 1642,
      "eger": 1643,
      "igg": 1644,
      "cont": 1645,
      "ben": 1646,
      "End": 1647,
      "ster": 1648,
      "ION": 1649,
      "anyl": 1650,
      "isT": 1651,
      "erman": 1652,
      "eda": 1653,
      "ean": 1654,
      "CB": 1655,
      "ula": 1656,
      "AY": 1657,
      "uct": 1658,
      "open": 1659,
      "oma": 1660,
      "Detail": 1661,
      "ander": 1662,
      "gar": 1663,
      "Sw": 1664,
      "stit": 1665,
      "ibus": 1666,
      "ĠBe": 1667,
      "Cell": 1668,
      "aft": 1669,
      "ĠAt": 1670,
      "atha": 1671,
      "Sub": 1672,
      "kin": 1673,
      "ypes": 1674,
      "ersion": 1675,
      "DE": 1676,
      "itch": 1677,
      "cad": 1678,
      "ertex": 1679,
      "andler": 1680,
      "elly": 1681,
      "itth": 1682,
      "ages": 1683,
      "And": 1684,
      "RG": 1685,
      "ko": 1686,
      "arks": 1687,
      "oles": 1688,
      "CD": 1689,
      "tot": 1690,
      "ignment": 1691,
      "Ġev": 1692,
      "rat": 1693,
      "ww": 1694,
      "EM": 1695,
      "ĠVill": 1696,
      "down": 1697,
      "Ġcor": 1698,
      "rin": 1699,
      "ney": 1700,
      "ged": 1701,
      "yan": 1702,
      "ced": 1703,
      "MR": 1704,
      "uel": 1705,
      "ants": 1706,
      "Ġir": 1707,
      "ĠMar": 1708,
      "Ġpor": 1709,
      "sm": 1710,
      "Location": 1711,
      "ĠEn": 1712,
      "inch": 1713,
      "imb": 1714,
      "Web": 1715,
      "start": 1716,
      "older": 1717,
      "Main": 1718,
      "ando": 1719,
      "ico": 1720,
      "Att": 1721,
      "inate": 1722,
      "Ġman": 1723,
      "Ġhem": 1724,
      "Ġpat": 1725,
      "imento": 1726,
      "oder": 1727,
      "odes": 1728,
      "asm": 1729,
      "Null": 1730,
      "Ġend": 1731,
      "PP": 1732,
      "Back": 1733,
      "ues": 1734,
      "ĠAb": 1735,
      "roc": 1736,
      "yte": 1737,
      "ken": 1738,
      "TT": 1739,
      "ttp": 1740,
      "Buf": 1741,
      "nam": 1742,
      "patch": 1743,
      "Link": 1744,
      "oint": 1745,
      "ĠRock": 1746,
      "Dis": 1747,
      "ices": 1748,
      "Spr": 1749,
      "ye": 1750,
      "Ġav": 1751,
      "acc": 1752,
      "Status": 1753,
      "ĠSm": 1754,
      "ova": 1755,
      "Form": 1756,
      "ved": 1757,
      "GC": 1758,
      "icks": 1759,
      "Json": 1760,
      "LU": 1761,
      "Card": 1762,
      "enz": 1763,
      "HP": 1764,
      "ja": 1765,
      "Ġexp": 1766,
      "ĠMcK": 1767,
      "Ġmon": 1768,
      "riff": 1769,
      "ĠMon": 1770,
      "Height": 1771,
      "auc": 1772,
      "uen": 1773,
      "rip": 1774,
      "yth": 1775,
      "fs": 1776,
      "Pref": 1777,
      "earch": 1778,
      "ĠRo": 1779,
      "MN": 1780,
      "Posit": 1781,
      "qual": 1782,
      "Debug": 1783,
      "Rect": 1784,
      "rac": 1785,
      "Ed": 1786,
      "umer": 1787,
      "ĠMcD": 1788,
      "var": 1789,
      "mm": 1790,
      "Ġpay": 1791,
      "ather": 1792,
      "irt": 1793,
      "Ġkn": 1794,
      "stance": 1795,
      "Ġrel": 1796,
      "oft": 1797,
      "Ġne": 1798,
      "Ġip": 1799,
      "ally": 1800,
      "Row": 1801,
      "ella": 1802,
      "ente": 1803,
      "sb": 1804,
      "rif": 1805,
      "mp": 1806,
      "iev": 1807,
      "Ġur": 1808,
      "aps": 1809,
      "name": 1810,
      "etry": 1811,
      "text": 1812,
      "Build": 1813,
      "ĠMad": 1814,
      "ahan": 1815,
      "Ġsol": 1816,
      "Ġut": 1817,
      "oin": 1818,
      "elt": 1819,
      "TL": 1820,
      "Exp": 1821,
      "play": 1822,
      "Ġadj": 1823,
      "Find": 1824,
      "ci": 1825,
      "Ġver": 1826,
      "eta": 1827,
      "omen": 1828,
      "Sync": 1829,
      "point": 1830,
      "ison": 1831,
      "ivity": 1832,
      "awn": 1833,
      "ĠCar": 1834,
      "pty": 1835,
      "adr": 1836,
      "yk": 1837,
      "pond": 1838,
      "lay": 1839,
      "igest": 1840,
      "HDR": 1841,
      "ĠVer": 1842,
      "Ġcons": 1843,
      "itter": 1844,
      "ination": 1845,
      "Open": 1846,
      "eni": 1847,
      "From": 1848,
      "usc": 1849,
      "ĠAng": 1850,
      "ĠRx": 1851,
      "unch": 1852,
      "urb": 1853,
      "aug": 1854,
      "lob": 1855,
      "ted": 1856,
      "inu": 1857,
      "han": 1858,
      "Length": 1859,
      "ĠNew": 1860,
      "eit": 1861,
      "ĠMont": 1862,
      "ader": 1863,
      "getB": 1864,
      "ushed": 1865,
      "Method": 1866,
      "utto": 1867,
      "odel": 1868,
      "UC": 1869,
      "RC": 1870,
      "print": 1871,
      "Dec": 1872,
      "anda": 1873,
      "file": 1874,
      "ape": 1875,
      "chen": 1876,
      "ĠFl": 1877,
      "lection": 1878,
      "agn": 1879,
      "Create": 1880,
      "init": 1881,
      "HA": 1882,
      "ctive": 1883,
      "Ġcur": 1884,
      "Ġes": 1885,
      "Query": 1886,
      "Cho": 1887,
      "idaz": 1888,
      "ĠRed": 1889,
      "Ġnot": 1890,
      "igned": 1891,
      "ville": 1892,
      "Num": 1893,
      "Auth": 1894,
      "ersh": 1895,
      "hou": 1896,
      "ustom": 1897,
      "Ġimm": 1898,
      "iya": 1899,
      "sel": 1900,
      "omot": 1901,
      "lem": 1902,
      "mat": 1903,
      "Student": 1904,
      "md": 1905,
      "Ġprz": 1906,
      "way": 1907,
      "ĠOr": 1908,
      "apter": 1909,
      "Update": 1910,
      "mann": 1911,
      "ĠPar": 1912,
      "ĠUn": 1913,
      "oard": 1914,
      "iver": 1915,
      "eto": 1916,
      "Ġemb": 1917,
      "Ġpart": 1918,
      "ei": 1919,
      "SX": 1920,
      "word": 1921,
      "gu": 1922,
      "raf": 1923,
      "ollow": 1924,
      "des": 1925,
      "xy": 1926,
      "riz": 1927,
      "UL": 1928,
      "room": 1929,
      "auf": 1930,
      "Per": 1931,
      "Ġover": 1932,
      "osa": 1933,
      "Ġoff": 1934,
      "GE": 1935,
      "mi": 1936,
      "LC": 1937,
      "del": 1938,
      "rea": 1939,
      "IST": 1940,
      "cop": 1941,
      "Game": 1942,
      "riter": 1943,
      "ines": 1944,
      "allow": 1945,
      "duct": 1946,
      "VC": 1947,
      "Ġfor": 1948,
      "ĠLor": 1949,
      "ful": 1950,
      "Label": 1951,
      "ĠMart": 1952,
      "roid": 1953,
      "ĠBel": 1954,
      "una": 1955,
      "olo": 1956,
      "Ġann": 1957,
      "eal": 1958,
      "Ġbil": 1959,
      "anch": 1960,
      "draw": 1961,
      "sa": 1962,
      "press": 1963,
      "Token": 1964,
      "ume": 1965,
      "irst": 1966,
      "Ġdem": 1967,
      "under": 1968,
      "ĠHar": 1969,
      "argin": 1970,
      "Asset": 1971,
      "Ġref": 1972,
      "ĠCol": 1973,
      "elles": 1974,
      "TH": 1975,
      "obj": 1976,
      "ellen": 1977,
      "vas": 1978,
      "ribute": 1979,
      "Not": 1980,
      "Sl": 1981,
      "Tool": 1982,
      "eks": 1983,
      "Ġneut": 1984,
      "vers": 1985,
      "DS": 1986,
      "atrix": 1987,
      "Style": 1988,
      "ĠSe": 1989,
      "Attribute": 1990,
      "hav": 1991,
      "counter": 1992,
      "Ġpol": 1993,
      "emia": 1994,
      "Ġspl": 1995,
      "ains": 1996,
      "ende": 1997,
      "unn": 1998,
      "gi": 1999,
      "ides": 2000,
      "color": 2001,
      "ba": 2002,
      "ĠFre": 2003,
      "embre": 2004,
      "Position": 2005,
      "ades": 2006,
      "Ġval": 2007,
      "ulfanyl": 2008,
      "Ġq": 2009,
      "space": 2010,
      "ared": 2011,
      "hel": 2012,
      "Builder": 2013,
      "sulfanyl": 2014,
      "Ġacc": 2015,
      "pie": 2016,
      "sal": 2017,
      "arat": 2018,
      "phen": 2019,
      "Full": 2020,
      "URN": 2021,
      "ense": 2022,
      "ĠEll": 2023,
      "ĠBlack": 2024,
      "len": 2025,
      "lov": 2026,
      "esthet": 2027,
      "Ġhum": 2028,
      "ives": 2029,
      "inst": 2030,
      "vel": 2031,
      "bu": 2032,
      "Cent": 2033,
      "Add": 2034,
      "esi": 2035,
      "perm": 2036,
      "Sprite": 2037,
      "Ġsn": 2038,
      "aat": 2039,
      "GR": 2040,
      "ijk": 2041,
      "onc": 2042,
      "api": 2043,
      "ourn": 2044,
      "ites": 2045,
      "Ġtri": 2046,
      "inding": 2047,
      "ungen": 2048,
      "ceed": 2049,
      "ote": 2050,
      "ents": 2051,
      "eton": 2052,
      "iego": 2053,
      "aires": 2054,
      "onne": 2055,
      "opp": 2056,
      "acute": 2057,
      "Ġfre": 2058,
      "irect": 2059,
      "Components": 2060,
      "ĠMor": 2061,
      "rone": 2062,
      "har": 2063,
      "angk": 2064,
      "Offset": 2065,
      "agen": 2066,
      "rog": 2067,
      "Ġtra": 2068,
      "itar": 2069,
      "enna": 2070,
      "cs": 2071,
      "Vertex": 2072,
      "view": 2073,
      "rie": 2074,
      "bb": 2075,
      "ĠWal": 2076,
      "war": 2077,
      "Now": 2078,
      "Ġcar": 2079,
      "bor": 2080,
      "link": 2081,
      "Th": 2082,
      "ugin": 2083,
      "OC": 2084,
      "prop": 2085,
      "sky": 2086,
      "sis": 2087,
      "aph": 2088,
      "ito": 2089,
      "EG": 2090,
      "test": 2091,
      "class": 2092,
      "Ġwh": 2093,
      "esto": 2094,
      "pton": 2095,
      "arsh": 2096,
      "eller": 2097,
      "itis": 2098,
      "ams": 2099,
      "SF": 2100,
      "Source": 2101,
      "Ġpres": 2102,
      "ucc": 2103,
      "iento": 2104,
      "eil": 2105,
      "iler": 2106,
      "ĠGal": 2107,
      "LP": 2108,
      "pos": 2109,
      "string": 2110,
      "isi": 2111,
      "ries": 2112,
      "ital": 2113,
      "sen": 2114,
      "oom": 2115,
      "ĠRaj": 2116,
      "ĠKe": 2117,
      "ĠMo": 2118,
      "ution": 2119,
      "Ġpret": 2120,
      "Port": 2121,
      "ohn": 2122,
      "ique": 2123,
      "Record": 2124,
      "uring": 2125,
      "Non": 2126,
      "rite": 2127,
      "CR": 2128,
      "ERN": 2129,
      "log": 2130,
      "hn": 2131,
      "Body": 2132,
      "Keys": 2133,
      "so": 2134,
      "Sett": 2135,
      "ĠRUT": 2136,
      "umn": 2137,
      "ranch": 2138,
      "Pos": 2139,
      "ĠUI": 2140,
      "ours": 2141,
      "ĠPol": 2142,
      "hab": 2143,
      "ĠHo": 2144,
      "Ġdist": 2145,
      "aker": 2146,
      "ilt": 2147,
      "Login": 2148,
      "akukan": 2149,
      "ideo": 2150,
      "emy": 2151,
      "El": 2152,
      "Video": 2153,
      "ueue": 2154,
      "inct": 2155,
      "Ġmy": 2156,
      "Marks": 2157,
      "review": 2158,
      "ymbol": 2159,
      "Ġpop": 2160,
      "lig": 2161,
      "eler": 2162,
      "ĠHe": 2163,
      "efont": 2164,
      "ĠGar": 2165,
      "eport": 2166,
      "elli": 2167,
      "Ġhab": 2168,
      "mond": 2169,
      "ocket": 2170,
      "Settings": 2171,
      "eft": 2172,
      "ĠEp": 2173,
      "ocalVar": 2174,
      "gg": 2175,
      "other": 2176,
      "TI": 2177,
      "Ġple": 2178,
      "bert": 2179,
      "page": 2180,
      "Sup": 2181,
      "yo": 2182,
      "atu": 2183,
      "etter": 2184,
      "ĠCav": 2185,
      "zn": 2186,
      "Script": 2187,
      "ahi": 2188,
      "annya": 2189,
      "Sal": 2190,
      "Did": 2191,
      "HL": 2192,
      "itle": 2193,
      "big": 2194,
      "ingen": 2195,
      "cher": 2196,
      "rel": 2197,
      "TO": 2198,
      "vo": 2199,
      "ĠCro": 2200,
      "uda": 2201,
      "Ġsur": 2202,
      "Screen": 2203,
      "Player": 2204,
      "Temp": 2205,
      "Ġmel": 2206,
      "ĠCont": 2207,
      "Rad": 2208,
      "FS": 2209,
      "ves": 2210,
      "Counter": 2211,
      "lich": 2212,
      "eston": 2213,
      "eva": 2214,
      "Types": 2215,
      "HS": 2216,
      "Show": 2217,
      "Ġvatt": 2218,
      "ĠIr": 2219,
      "Sql": 2220,
      "OU": 2221,
      "zin": 2222,
      "rvGroup": 2223,
      "ista": 2224,
      "MT": 2225,
      "Ġcyt": 2226,
      "ĠRh": 2227,
      "Queue": 2228,
      "Load": 2229,
      "ilde": 2230,
      "upt": 2231,
      "Ġaus": 2232,
      "count": 2233,
      "Para": 2234,
      "ĠHor": 2235,
      "right": 2236,
      "Ġcomp": 2237,
      "imi": 2238,
      "ude": 2239,
      "tils": 2240,
      "Items": 2241,
      "BE": 2242,
      "reens": 2243,
      "Dict": 2244,
      "ĠSom": 2245,
      "hd": 2246,
      "ashi": 2247,
      "Parameter": 2248,
      "lish": 2249,
      "Parser": 2250,
      "dl": 2251,
      "Ġstat": 2252,
      "ists": 2253,
      "yg": 2254,
      "RS": 2255,
      "ehyd": 2256,
      "illy": 2257,
      "nc": 2258,
      "ocument": 2259,
      "Compat": 2260,
      "yll": 2261,
      "htt": 2262,
      "vider": 2263,
      "Ġbr": 2264,
      "Ġconc": 2265,
      "ece": 2266,
      "omy": 2267,
      "Com": 2268,
      "Ġhot": 2269,
      "getC": 2270,
      "ystem": 2271,
      "aten": 2272,
      "osis": 2273,
      "rome": 2274,
      "gram": 2275,
      "iendo": 2276,
      "efore": 2277,
      "ones": 2278,
      "mouse": 2279,
      "ollis": 2280,
      "FT": 2281,
      "istic": 2282,
      "eed": 2283,
      "AB": 2284,
      "Ġins": 2285,
      "PL": 2286,
      "ki": 2287,
      "augh": 2288,
      "itte": 2289,
      "Ġtre": 2290,
      "atter": 2291,
      "Module": 2292,
      "ymph": 2293,
      "ĠGo": 2294,
      "Btn": 2295,
      "otrop": 2296,
      "ĠBerg": 2297,
      "ĠEst": 2298,
      "Ġele": 2299,
      "Bound": 2300,
      "FF": 2301,
      "create": 2302,
      "wick": 2303,
      "ika": 2304,
      "Wait": 2305,
      "Ġmin": 2306,
      "ĠPA": 2307,
      "Ġcontent": 2308,
      "URL": 2309,
      "irm": 2310,
      "ony": 2311,
      "ativ": 2312,
      "BL": 2313,
      "math": 2314,
      "aria": 2315,
      "une": 2316,
      "rine": 2317,
      "owan": 2318,
      "ĠPl": 2319,
      "aret": 2320,
      "Ġmast": 2321,
      "ici": 2322,
      "Plugin": 2323,
      "etta": 2324,
      "nej": 2325,
      "OL": 2326,
      "Ġpur": 2327,
      "imer": 2328,
      "icons": 2329,
      "BI": 2330,
      "ilit": 2331,
      "iley": 2332,
      "Ġmag": 2333,
      "ytes": 2334,
      "Ġenc": 2335,
      "iled": 2336,
      "hot": 2337,
      "AA": 2338,
      "hm": 2339,
      "ther": 2340,
      "GP": 2341,
      "ival": 2342,
      "ĠSte": 2343,
      "elet": 2344,
      "Ġconse": 2345,
      "obac": 2346,
      "aran": 2347,
      "Ġass": 2348,
      "SU": 2349,
      "ĠAy": 2350,
      "ache": 2351,
      "oen": 2352,
      "Struct": 2353,
      "allback": 2354,
      "andom": 2355,
      "ogen": 2356,
      "Ġcre": 2357,
      "Pk": 2358,
      "aint": 2359,
      "aler": 2360,
      "Operation": 2361,
      "Command": 2362,
      "Dev": 2363,
      "uml": 2364,
      "eek": 2365,
      "ĠAsh": 2366,
      "Ġtor": 2367,
      "zen": 2368,
      "bs": 2369,
      "Scroll": 2370,
      "atham": 2371,
      "uble": 2372,
      "iye": 2373,
      "bury": 2374,
      "Ġdham": 2375,
      "Ret": 2376,
      "Avg": 2377,
      "ited": 2378,
      "Sch": 2379,
      "ĠArch": 2380,
      "Ġpos": 2381,
      "Ġor": 2382,
      "imo": 2383,
      "osc": 2384,
      "Vis": 2385,
      "stock": 2386,
      "ayam": 2387,
      "Ġinv": 2388,
      "Font": 2389,
      "ample": 2390,
      "rou": 2391,
      "AE": 2392,
      "rug": 2393,
      "ether": 2394,
      "ĠPL": 2395,
      "eon": 2396,
      "Rout": 2397,
      "inf": 2398,
      "hal": 2399,
      "rown": 2400,
      "anja": 2401,
      "erto": 2402,
      "amo": 2403,
      "ulation": 2404,
      "Ġstr": 2405,
      "Ġpe": 2406,
      "mas": 2407,
      "roller": 2408,
      "tim": 2409,
      "opl": 2410,
      "Right": 2411,
      "ike": 2412,
      "tered": 2413,
      "Ġreg": 2414,
      "kit": 2415,
      "osph": 2416,
      "ristian": 2417,
      "rowser": 2418,
      "Ġvel": 2419,
      "ga": 2420,
      "ĠNag": 2421,
      "ogram": 2422,
      "ework": 2423,
      "Pack": 2424,
      "Top": 2425,
      "eco": 2426,
      "ogo": 2427,
      "ness": 2428,
      "olson": 2429,
      "vation": 2430,
      "ND": 2431,
      "Ptr": 2432,
      "ĠReg": 2433,
      "ĠRos": 2434,
      "outs": 2435,
      "Ġpers": 2436,
      "etch": 2437,
      "ono": 2438,
      "ados": 2439,
      "unsch": 2440,
      "GS": 2441,
      "asis": 2442,
      "CF": 2443,
      "Press": 2444,
      "face": 2445,
      "olicy": 2446,
      "nem": 2447,
      "Ġsil": 2448,
      "Task": 2449,
      "Ġduk": 2450,
      "lav": 2451,
      "oggle": 2452,
      "Ġmer": 2453,
      "ania": 2454,
      "ĠGir": 2455,
      "iol": 2456,
      "SXml": 2457,
      "Version": 2458,
      "ĠEM": 2459,
      "image": 2460,
      "assa": 2461,
      "umph": 2462,
      "czn": 2463,
      "oup": 2464,
      "Ġloc": 2465,
      "lj": 2466,
      "Search": 2467,
      "hes": 2468,
      "obb": 2469,
      "UID": 2470,
      "ĠMcInt": 2471,
      "Navig": 2472,
      "Http": 2473,
      "Equal": 2474,
      "Gl": 2475,
      "Ġsput": 2476,
      "Instance": 2477,
      "edit": 2478,
      "akes": 2479,
      "oji": 2480,
      "Character": 2481,
      "Ġinput": 2482,
      "Connection": 2483,
      "Unary": 2484,
      "olm": 2485,
      "illes": 2486,
      "lio": 2487,
      "Ġrect": 2488,
      "ilda": 2489,
      "Ġdo": 2490,
      "rame": 2491,
      "ĠDom": 2492,
      "atform": 2493,
      "angu": 2494,
      "asena": 2495,
      "ĠBer": 2496,
      "onucle": 2497,
      "Ġaf": 2498,
      "Props": 2499,
      "ĠEx": 2500,
      "aton": 2501,
      "Ġbul": 2502,
      "icker": 2503,
      "Ġext": 2504,
      "SON": 2505,
      "ĠMcL": 2506,
      "atas": 2507,
      "ART": 2508,
      "aron": 2509,
      "erred": 2510,
      "Ġing": 2511,
      "cre": 2512,
      "racket": 2513,
      "asal": 2514,
      "Pix": 2515,
      "uced": 2516,
      "getM": 2517,
      "Camera": 2518,
      "ology": 2519,
      "rew": 2520,
      "irl": 2521,
      "Ġparab": 2522,
      "Empty": 2523,
      "OW": 2524,
      "Ġsam": 2525,
      "ify": 2526,
      "screen": 2527,
      "Ġlle": 2528,
      "Mutability": 2529,
      "Ġsymbol": 2530,
      "head": 2531,
      "econds": 2532,
      "PD": 2533,
      "idden": 2534,
      "aliz": 2535,
      "idazole": 2536,
      "Ġmic": 2537,
      "Interface": 2538,
      "isTrack": 2539,
      "ador": 2540,
      "Ġgi": 2541,
      "ori": 2542,
      "ained": 2543,
      "alan": 2544,
      "rep": 2545,
      "arant": 2546,
      "cy": 2547,
      "ILL": 2548,
      "hy": 2549,
      "Ow": 2550,
      "apping": 2551,
      "ĠHay": 2552,
      "DL": 2553,
      "Fit": 2554,
      "ground": 2555,
      "Push": 2556,
      "azar": 2557,
      "Ġred": 2558,
      "rod": 2559,
      "ective": 2560,
      "Policy": 2561,
      "miss": 2562,
      "EP": 2563,
      "ury": 2564,
      "ikt": 2565,
      "Ġkar": 2566,
      "ĠLuc": 2567,
      "ials": 2568,
      "Target": 2569,
      "pm": 2570,
      "VCT": 2571,
      "Ġte": 2572,
      "ske": 2573,
      "lectic": 2574,
      "BP": 2575,
      "Ġfo": 2576,
      "Ġde": 2577,
      "ief": 2578,
      "ORT": 2579,
      "enden": 2580,
      "ĠCH": 2581,
      "osk": 2582,
      "nav": 2583,
      "FC": 2584,
      "raven": 2585,
      "Board": 2586,
      "eros": 2587,
      "Bl": 2588,
      "Callback": 2589,
      "bad": 2590,
      "RA": 2591,
      "oor": 2592,
      "Project": 2593,
      "iana": 2594,
      "vr": 2595,
      "Ġcol": 2596,
      "Handler": 2597,
      "rows": 2598,
      "ĠGi": 2599,
      "ister": 2600,
      "amily": 2601,
      "appe": 2602,
      "PO": 2603,
      "Device": 2604,
      "Sample": 2605,
      "ingham": 2606,
      "ĠSk": 2607,
      "race": 2608,
      "ytic": 2609,
      "inde": 2610,
      "ondo": 2611,
      "idin": 2612,
      "Ġpercent": 2613,
      "erno": 2614,
      "ardi": 2615,
      "char": 2616,
      "Ġviv": 2617,
      "Fact": 2618,
      "Flight": 2619,
      "arker": 2620,
      "eground": 2621,
      "esus": 2622,
      "ife": 2623,
      "Used": 2624,
      "Ġvutt": 2625,
      "ĠKx": 2626,
      "Ġmeg": 2627,
      "atiti": 2628,
      "ersch": 2629,
      "ĠBad": 2630,
      "code": 2631,
      "esse": 2632,
      "umann": 2633,
      "Ġbet": 2634,
      "Ġsu": 2635,
      "search": 2636,
      "oney": 2637,
      "ĠMax": 2638,
      "peat": 2639,
      "PI": 2640,
      "imple": 2641,
      "Ġmost": 2642,
      "ungs": 2643,
      "itone": 2644,
      "Ġferr": 2645,
      "Ġren": 2646,
      "Ġgel": 2647,
      "ilis": 2648,
      "wise": 2649,
      "ired": 2650,
      "pear": 2651,
      "inner": 2652,
      "Ġfamil": 2653,
      "ordan": 2654,
      "Ġdiss": 2655,
      "rift": 2656,
      "Ġknock": 2657,
      "rish": 2658,
      "Details": 2659,
      "ĠMaur": 2660,
      "ursor": 2661,
      "ushroom": 2662,
      "ergic": 2663,
      "ĠAll": 2664,
      "osi": 2665,
      "oon": 2666,
      "ĠGall": 2667,
      "eza": 2668,
      "Ġic": 2669,
      "outh": 2670,
      "Ġdata": 2671,
      "ĠBeat": 2672,
      "aze": 2673,
      "burg": 2674,
      "angle": 2675,
      "ahu": 2676,
      "aim": 2677,
      "anny": 2678,
      "DT": 2679,
      "zi": 2680,
      "ilm": 2681,
      "ĠRUTAR": 2682,
      "Save": 2683,
      "url": 2684,
      "ĠOb": 2685,
      "FR": 2686,
      "sid": 2687,
      "ahul": 2688,
      "ague": 2689,
      "rot": 2690,
      "ida": 2691,
      "Ġsubt": 2692,
      "urope": 2693,
      "roke": 2694,
      "lyn": 2695,
      "Ġphen": 2696,
      "tha": 2697,
      "ebra": 2698,
      "Bin": 2699,
      "eres": 2700,
      "stream": 2701,
      "OH": 2702,
      "Ġcle": 2703,
      "UD": 2704,
      "Ġbro": 2705,
      "ures": 2706,
      "ikan": 2707,
      "yatt": 2708,
      "stone": 2709,
      "Ext": 2710,
      "ĠBuk": 2711,
      "Provider": 2712,
      "Ġax": 2713,
      "Ġhead": 2714,
      "owell": 2715,
      "had": 2716,
      "ĠGh": 2717,
      "Wall": 2718,
      "ĠShe": 2719,
      "Adapter": 2720,
      "ĠBoy": 2721,
      "amine": 2722,
      "abbam": 2723,
      "Ġdign": 2724,
      "rust": 2725,
      "Args": 2726,
      "igo": 2727,
      "Ġposit": 2728,
      "amento": 2729,
      "ĠDal": 2730,
      "ĠAnd": 2731,
      "olver": 2732,
      "Des": 2733,
      "Ġmot": 2734,
      "ĠHumph": 2735,
      "tb": 2736,
      "mult": 2737,
      "Flag": 2738,
      "him": 2739,
      "odor": 2740,
      "rant": 2741,
      "ward": 2742,
      "uls": 2743,
      "NS": 2744,
      "Center": 2745,
      "iers": 2746,
      "arah": 2747,
      "Ġvert": 2748,
      "ĠCR": 2749,
      "sad": 2750,
      "ERC": 2751,
      "Ġhand": 2752,
      "Utils": 2753,
      "Ġprop": 2754,
      "Ġcr": 2755,
      "alam": 2756,
      "ffen": 2757,
      "EY": 2758,
      "raul": 2759,
      "Ġtot": 2760,
      "alar": 2761,
      "allel": 2762,
      "stant": 2763,
      "ational": 2764,
      "ĠMarg": 2765,
      "ranc": 2766,
      "urd": 2767,
      "aye": 2768,
      "umm": 2769,
      "VER": 2770,
      "ieg": 2771,
      "Ġmill": 2772,
      "ĠGr": 2773,
      "Controller": 2774,
      "Tab": 2775,
      "alm": 2776,
      "eno": 2777,
      "eless": 2778,
      "tol": 2779,
      "edd": 2780,
      "Ġabh": 2781,
      "ĠCorn": 2782,
      "Ġdil": 2783,
      "Str": 2784,
      "Ass": 2785,
      "ĠNorth": 2786,
      "ĠUt": 2787,
      "ello": 2788,
      "Ġkey": 2789,
      "Dto": 2790,
      "Ġexc": 2791,
      "por": 2792,
      "ĠNL": 2793,
      "uest": 2794,
      "Del": 2795,
      "Opt": 2796,
      "Ġten": 2797,
      "BT": 2798,
      "bre": 2799,
      "revi": 2800,
      "akespe": 2801,
      "wrap": 2802,
      "kar": 2803,
      "itrile": 2804,
      "Current": 2805,
      "Ġvucc": 2806,
      "aad": 2807,
      "ĠBa": 2808,
      "dk": 2809,
      "Ġat": 2810,
      "Ġkah": 2811,
      "Radius": 2812,
      "auer": 2813,
      "pop": 2814,
      "Ġmyc": 2815,
      "sche": 2816,
      "Ġprim": 2817,
      "ĠUIC": 2818,
      "inder": 2819,
      "Ġunder": 2820,
      "itting": 2821,
      "endez": 2822,
      "sy": 2823,
      "reet": 2824,
      "ryst": 2825,
      "fordshire": 2826,
      "VS": 2827,
      "anger": 2828,
      "trl": 2829,
      "esu": 2830,
      "idad": 2831,
      "ĠMull": 2832,
      "oster": 2833,
      "si": 2834,
      "ĠCan": 2835,
      "ily": 2836,
      "Beat": 2837,
      "ĠGreen": 2838,
      "Vector": 2839,
      "ches": 2840,
      "imation": 2841,
      "ommon": 2842,
      "sn": 2843,
      "iaz": 2844,
      "sec": 2845,
      "eder": 2846,
      "Ġven": 2847,
      "Ġsem": 2848,
      "house": 2849,
      "Dir": 2850,
      "Child": 2851,
      "aird": 2852,
      "Re": 2853,
      "atir": 2854,
      "Chang": 2855,
      "icate": 2856,
      "obil": 2857,
      "Popup": 2858,
      "andal": 2859,
      "eze": 2860,
      "struct": 2861,
      "ĠComp": 2862,
      "ĠTon": 2863,
      "Photo": 2864,
      "ĠStaff": 2865,
      "Stack": 2866,
      "ĠStr": 2867,
      "One": 2868,
      "Ġtub": 2869,
      "ences": 2870,
      "ging": 2871,
      "acht": 2872,
      "ĠWeb": 2873,
      "quier": 2874,
      "System": 2875,
      "nes": 2876,
      "drop": 2877,
      "fol": 2878,
      "ypt": 2879,
      "bum": 2880,
      "Byte": 2881,
      "alur": 2882,
      "ĠBarcl": 2883,
      "ĠSab": 2884,
      "ilib": 2885,
      "enie": 2886,
      "INT": 2887,
      "lia": 2888,
      "ĠAp": 2889,
      "ije": 2890,
      "Keyboard": 2891,
      "brevi": 2892,
      "Ġwarm": 2893,
      "ĠFerr": 2894,
      "Ġconf": 2895,
      "Ġest": 2896,
      "cor": 2897,
      "quam": 2898,
      "ayan": 2899,
      "ska": 2900,
      "ĠHer": 2901,
      "ulin": 2902,
      "Mov": 2903,
      "iros": 2904,
      "orum": 2905,
      "Route": 2906,
      "iyet": 2907,
      "has": 2908,
      "iller": 2909,
      "azi": 2910,
      "sql": 2911,
      "Ġet": 2912,
      "abs": 2913,
      "sman": 2914,
      "ME": 2915,
      "Aud": 2916,
      "Case": 2917,
      "eman": 2918,
      "ĠMain": 2919,
      "Ġbe": 2920,
      "uchi": 2921,
      "zym": 2922,
      "orrh": 2923,
      "ikum": 2924,
      "Ġfile": 2925,
      "jel": 2926,
      "ĠsubTest": 2927,
      "olds": 2928,
      "elf": 2929,
      "RAN": 2930,
      "ĠMa": 2931,
      "Ġrup": 2932,
      "ements": 2933,
      "Ġeg": 2934,
      "Percent": 2935,
      "lt": 2936,
      "QL": 2937,
      "uang": 2938,
      "Document": 2939,
      "Product": 2940,
      "ĠFair": 2941,
      "Ġatth": 2942,
      "ewer": 2943,
      "Ġodp": 2944,
      "Ġcin": 2945,
      "Ac": 2946,
      "Ġtem": 2947,
      "iner": 2948,
      "ators": 2949,
      "asp": 2950,
      "Ġmet": 2951,
      "Ġbo": 2952,
      "GA": 2953,
      "ĠHein": 2954,
      "ube": 2955,
      "ĠGer": 2956,
      "Ġmod": 2957,
      "ehen": 2958,
      "wen": 2959,
      "erre": 2960,
      "Ġaff": 2961,
      "kk": 2962,
      "arra": 2963,
      "ĠGro": 2964,
      "cd": 2965,
      "inh": 2966,
      "ĠLut": 2967,
      "aste": 2968,
      "aries": 2969,
      "ograph": 2970,
      "spl": 2971,
      "DF": 2972,
      "onda": 2973,
      "aris": 2974,
      "vach": 2975,
      "wt": 2976,
      "iper": 2977,
      "olt": 2978,
      "Pass": 2979,
      "ieht": 2980,
      "atin": 2981,
      "elo": 2982,
      "ĠCam": 2983,
      "aneu": 2984,
      "ramework": 2985,
      "ission": 2986,
      "ryl": 2987,
      "XY": 2988,
      "ĠAss": 2989,
      "We": 2990,
      "ĠRad": 2991,
      "rach": 2992,
      "ĠEng": 2993,
      "rik": 2994,
      "Navigator": 2995,
      "ĠHaw": 2996,
      "ruff": 2997,
      "webElement": 2998,
      "ermi": 2999,
      "Tree": 3000,
      "inden": 3001,
      "Ġdev": 3002,
      "unct": 3003,
      "stat": 3004,
      "Ġmit": 3005,
      "ofar": 3006,
      "iser": 3007,
      "arin": 3008,
      "ongo": 3009,
      "ĠSur": 3010,
      "igan": 3011,
      "yloxy": 3012,
      "col": 3013,
      "Area": 3014,
      "align": 3015,
      "lands": 3016,
      "sun": 3017,
      "ibb": 3018,
      "phal": 3019,
      "YPE": 3020,
      "romo": 3021,
      "iko": 3022,
      "Each": 3023,
      "Unit": 3024,
      "write": 3025,
      "Kind": 3026,
      "ĠMal": 3027,
      "Core": 3028,
      "If": 3029,
      "VP": 3030,
      "ĠUl": 3031,
      "adam": 3032,
      "Ab": 3033,
      "ĠPet": 3034,
      "ells": 3035,
      "ky": 3036,
      "feit": 3037,
      "Ġart": 3038,
      "def": 3039,
      "iph": 3040,
      "ool": 3041,
      "ĠBrit": 3042,
      "Cap": 3043,
      "Ġoct": 3044,
      "atts": 3045,
      "ela": 3046,
      "rex": 3047,
      "nown": 3048,
      "Ġand": 3049,
      "lis": 3050,
      "Ġid": 3051,
      "rypt": 3052,
      "olid": 3053,
      "hens": 3054,
      "ĠFA": 3055,
      "list": 3056,
      "Grid": 3057,
      "ucleaires": 3058,
      "UE": 3059,
      "umble": 3060,
      "LAG": 3061,
      "Ap": 3062,
      "agger": 3063,
      "etz": 3064,
      "ysz": 3065,
      "posit": 3066,
      "Preview": 3067,
      "greg": 3068,
      "Pane": 3069,
      "ĠSL": 3070,
      "owe": 3071,
      "ubs": 3072,
      "urk": 3073,
      "angs": 3074,
      "rote": 3075,
      "oku": 3076,
      "Ġauto": 3077,
      "ising": 3078,
      "Ġrealiz": 3079,
      "Drop": 3080,
      "Ġmar": 3081,
      "0x": 3082,
      "<0x": 3083,
      "Ġcond": 3084,
      "ĠWill": 3085,
      "etic": 3086,
      "RGB": 3087,
      "IK": 3088,
      "resh": 3089,
      "ĠGab": 3090,
      "iffer": 3091,
      "Ġther": 3092,
      "Rx": 3093,
      "RxDocument": 3094,
      "Ġatt": 3095,
      "rict": 3096,
      "comstock": 3097,
      "ĠSRP": 3098,
      "Asp": 3099,
      "icle": 3100,
      "ahl": 3101,
      "ekt": 3102,
      "Support": 3103,
      "chn": 3104,
      "agon": 3105,
      "Ġbre": 3106,
      "ĠYam": 3107,
      "kinson": 3108,
      "ĠMaj": 3109,
      "Ġnov": 3110,
      "phenyl": 3111,
      "Ġbeg": 3112,
      "ĠAug": 3113,
      "thorax": 3114,
      "igation": 3115,
      "Events": 3116,
      "rane": 3117,
      "ToProps": 3118,
      "iddle": 3119,
      "ĠBal": 3120,
      "anes": 3121,
      "ĠFitz": 3122,
      "erial": 3123,
      "illus": 3124,
      "Concept": 3125,
      "YY": 3126,
      "Ġtw": 3127,
      "Ġmand": 3128,
      "Graph": 3129,
      "ĠPad": 3130,
      "beat": 3131,
      "ATIV": 3132,
      "Perm": 3133,
      "ophor": 3134,
      "xx": 3135,
      "http": 3136,
      "rington": 3137,
      "follow": 3138,
      "ĠBern": 3139,
      "Ġrev": 3140,
      "agin": 3141,
      "uana": 3142,
      "Ġla": 3143,
      "illon": 3144,
      "Ġneg": 3145,
      "aved": 3146,
      "isms": 3147,
      "Ent": 3148,
      "Ġhalf": 3149,
      "cup": 3150,
      "Ġped": 3151,
      "expr": 3152,
      "Ġcele": 3153,
      "Ġgacch": 3154,
      "oe": 3155,
      "onom": 3156,
      "Ġfast": 3157,
      "Compl": 3158,
      "ermin": 3159,
      "ĠLiv": 3160,
      "hook": 3161,
      "Edit": 3162,
      "She": 3163,
      "Choice": 3164,
      "Ġju": 3165,
      "Root": 3166,
      "acet": 3167,
      "Ġport": 3168,
      "iot": 3169,
      "anche": 3170,
      "Trans": 3171,
      "ĠKais": 3172,
      "imiz": 3173,
      "Br": 3174,
      "GT": 3175,
      "XYZ": 3176,
      "Ġsob": 3177,
      "wan": 3178,
      "exec": 3179,
      "irth": 3180,
      "Matrix": 3181,
      "Dispatch": 3182,
      "ommod": 3183,
      "SL": 3184,
      "ently": 3185,
      "Shape": 3186,
      "cul": 3187,
      "ĠCyr": 3188,
      "iat": 3189,
      "arded": 3190,
      "etr": 3191,
      "onna": 3192,
      "yer": 3193,
      "ikut": 3194,
      "iert": 3195,
      "Ġbas": 3196,
      "idget": 3197,
      "ĠBog": 3198,
      "offset": 3199,
      "uge": 3200,
      "ympt": 3201,
      "Lua": 3202,
      "plot": 3203,
      "method": 3204,
      "egu": 3205,
      "corr": 3206,
      "BU": 3207,
      "Ġinst": 3208,
      "thol": 3209,
      "iary": 3210,
      "rek": 3211,
      "esz": 3212,
      "ctivity": 3213,
      "sie": 3214,
      "bib": 3215,
      "Ġtro": 3216,
      "II": 3217,
      "SH": 3218,
      "Ġwa": 3219,
      "ĠLak": 3220,
      "quare": 3221,
      "ried": 3222,
      "icles": 3223,
      "ĠPe": 3224,
      "anvas": 3225,
      "obe": 3226,
      "BR": 3227,
      "ateral": 3228,
      "ĠPro": 3229,
      "nego": 3230,
      "ĠEug": 3231,
      "adal": 3232,
      "Ġfe": 3233,
      "rig": 3234,
      "Base": 3235,
      "Column": 3236,
      "ydro": 3237,
      "unes": 3238,
      "sor": 3239,
      "erecht": 3240,
      "iran": 3241,
      "Ġall": 3242,
      "ĠDown": 3243,
      "apsed": 3244,
      "jal": 3245,
      "urity": 3246,
      "DM": 3247,
      "Factory": 3248,
      "Ġbase": 3249,
      "okat": 3250,
      "etto": 3251,
      "ĠDod": 3252,
      "Before": 3253,
      "IZ": 3254,
      "param": 3255,
      "Platform": 3256,
      "iber": 3257,
      "asus": 3258,
      "Ġdep": 3259,
      "ĠDh": 3260,
      "Ġyath": 3261,
      "iven": 3262,
      "ĠAugust": 3263,
      "itten": 3264,
      "Ġnaj": 3265,
      "itim": 3266,
      "Arch": 3267,
      "hatu": 3268,
      "imet": 3269,
      "yb": 3270,
      "anne": 3271,
      "then": 3272,
      "namefont": 3273,
      "Canvas": 3274,
      "udan": 3275,
      "mund": 3276,
      "evel": 3277,
      "opy": 3278,
      "mont": 3279,
      "ullam": 3280,
      "post": 3281,
      "rade": 3282,
      "CTOR": 3283,
      "Background": 3284,
      "Sort": 3285,
      "Ġphot": 3286,
      "Enc": 3287,
      "ĠOl": 3288,
      "Space": 3289,
      "ĠlocalVar": 3290,
      "ottom": 3291,
      "ĠViv": 3292,
      "ublic": 3293,
      "game": 3294,
      "ĠNP": 3295,
      "oja": 3296,
      "ARR": 3297,
      "Folder": 3298,
      "cest": 3299,
      "Texture": 3300,
      "dd": 3301,
      "organ": 3302,
      "ivo": 3303,
      "Level": 3304,
      "erme": 3305,
      "adis": 3306,
      "Ġdob": 3307,
      "Activity": 3308,
      "engu": 3309,
      "encent": 3310,
      "ASE": 3311,
      "ĠPel": 3312,
      "ungan": 3313,
      "arbox": 3314,
      "ELE": 3315,
      "ĠBo": 3316,
      "ipe": 3317,
      "ĠIN": 3318,
      "ĠKey": 3319,
      "ousse": 3320,
      "Scale": 3321,
      "ELEASE": 3322,
      "Ġitem": 3323,
      "rech": 3324,
      "eben": 3325,
      "SrvGroup": 3326,
      "rij": 3327,
      "Tmp": 3328,
      "ĠSpring": 3329,
      "Ġconsequ": 3330,
      "ential": 3331,
      "cel": 3332,
      "ple": 3333,
      "odh": 3334,
      "time": 3335,
      "ept": 3336,
      "Ġaliqu": 3337,
      "www": 3338,
      "wwwpond": 3339,
      "ento": 3340,
      "Ġlib": 3341,
      "Ġdrag": 3342,
      "andl": 3343,
      "ctx": 3344,
      "Post": 3345,
      "Ġmultic": 3346,
      "iam": 3347,
      "Match": 3348,
      "CPP": 3349,
      "ĠInput": 3350,
      "ĠKish": 3351,
      "AI": 3352,
      "Ġlab": 3353,
      "ĠPap": 3354,
      "antile": 3355,
      "urry": 3356,
      "erton": 3357,
      "ĠMH": 3358,
      "gd": 3359,
      "RAM": 3360,
      "loud": 3361,
      "uses": 3362,
      "ARG": 3363,
      "max": 3364,
      "cos": 3365,
      "ĠJac": 3366,
      "dis": 3367,
      "Package": 3368,
      "Idle": 3369,
      "vm": 3370,
      "IdleSync": 3371,
      "Pkg": 3372,
      "ParaPkg": 3373,
      "lus": 3374,
      "ĠBrid": 3375,
      "Ġrh": 3376,
      "dam": 3377,
      "uman": 3378,
      "aras": 3379,
      "Ġlu": 3380,
      "Ġgah": 3381,
      "nah": 3382,
      "ALL": 3383,
      "otlin": 3384,
      "icture": 3385,
      "Ġsac": 3386,
      "henium": 3387,
      "iom": 3388,
      "buf": 3389,
      "ĠHeid": 3390,
      "fu": 3391,
      "Ġtran": 3392,
      "awks": 3393,
      "Take": 3394,
      "ship": 3395,
      "ĠWat": 3396,
      "feat": 3397,
      "ENUM": 3398,
      "NewUrl": 3399,
      "formed": 3400,
      "Ġgahet": 3401,
      "Ġmicro": 3402,
      "ĠhalfCanvas": 3403,
      "amos": 3404,
      "Ġmem": 3405,
      "omes": 3406,
      "ĠAv": 3407,
      "ershire": 3408,
      "usp": 3409,
      "ĠVen": 3410,
      "arlene": 3411,
      "MethodBeat": 3412,
      "mit": 3413,
      "coprote": 3414,
      "Ġanis": 3415,
      "gn": 3416,
      "Raw": 3417,
      "Ġneutral": 3418,
      "Ġgol": 3419,
      "ĠPat": 3420,
      "Ġmorph": 3421,
      "ĠMerc": 3422,
      "aric": 3423,
      "enny": 3424,
      "ĠAst": 3425,
      "job": 3426,
      "enia": 3427,
      "osin": 3428,
      "apped": 3429,
      "Do": 3430,
      "sten": 3431,
      "ĠMod": 3432,
      "ober": 3433,
      "OCC": 3434,
      "Point": 3435,
      "aniy": 3436,
      "uo": 3437,
      "rar": 3438,
      "NN": 3439,
      "alg": 3440,
      "size": 3441,
      "fill": 3442,
      "Ġsett": 3443,
      "Ġinterview": 3444,
      "Ġsle": 3445,
      "enth": 3446,
      "ĠBang": 3447,
      "abbo": 3448,
      "ĠPfe": 3449,
      "FER": 3450,
      "ago": 3451,
      "tin": 3452,
      "Ġus": 3453,
      "otherm": 3454,
      "esting": 3455,
      "WMN": 3456,
      "sz": 3457,
      "atory": 3458,
      "hed": 3459,
      "orman": 3460,
      "Put": 3461,
      "alaikum": 3462,
      "ĠPear": 3463,
      "orrent": 3464,
      "ehyde": 3465,
      "ordon": 3466,
      "EE": 3467,
      "ĠCov": 3468,
      "VOA": 3469,
      "lr": 3470,
      "ilian": 3471,
      "lef": 3472,
      "ungk": 3473,
      "StructOf": 3474,
      "ĠPay": 3475,
      "ycle": 3476,
      "iente": 3477,
      "jug": 3478,
      "ĠMcM": 3479,
      "Archive": 3480,
      "curs": 3481,
      "Left": 3482,
      "stm": 3483,
      "keit": 3484,
      "ified": 3485,
      "egen": 3486,
      "inter": 3487,
      "Pressed": 3488,
      "piece": 3489,
      "bed": 3490,
      "ĠLD": 3491,
      "ilon": 3492,
      "erat": 3493,
      "Ġrepet": 3494,
      "band": 3495,
      "ued": 3496,
      "utte": 3497,
      "LAN": 3498,
      "ohl": 3499,
      "burn": 3500,
      "ĠHod": 3501,
      "command": 3502,
      "imura": 3503,
      "Ġher": 3504,
      "DBOutput": 3505,
      "Ġcal": 3506,
      "river": 3507,
      "akam": 3508,
      "Ġprec": 3509,
      "Mapping": 3510,
      "rizz": 3511,
      "arts": 3512,
      "ongs": 3513,
      "ategory": 3514,
      "dal": 3515,
      "ummy": 3516,
      "ĠInd": 3517,
      "ivers": 3518,
      "Values": 3519,
      "Ġu": 3520,
      "ĠMcKin": 3521,
      "Ġtop": 3522,
      "aty": 3523,
      "amom": 3524,
      "Max": 3525,
      "itu": 3526,
      "ifier": 3527,
      "arshal": 3528,
      "exual": 3529,
      "ugo": 3530,
      "oxic": 3531,
      "EO": 3532,
      "estruct": 3533,
      "ĠLour": 3534,
      "slide": 3535,
      "BitCount": 3536,
      "Ġodb": 3537,
      "mic": 3538,
      "ĠDomin": 3539,
      "uration": 3540,
      "atal": 3541,
      "Ġdisc": 3542,
      "estro": 3543,
      "Ġsadd": 3544,
      "Findings": 3545,
      "idu": 3546,
      "ying": 3547,
      "ateMutability": 3548,
      "ously": 3549,
      "eps": 3550,
      "ĠGod": 3551,
      "ardin": 3552,
      "Ġaut": 3553,
      "ByURL": 3554,
      "ĠSa": 3555,
      "Ġausten": 3556,
      "ĠMend": 3557,
      "amanam": 3558,
      "edRight": 3559,
      "Ġit": 3560,
      "ĠLev": 3561,
      "aking": 3562,
      "hang": 3563,
      "setF": 3564,
      "border": 3565,
      "Ok": 3566,
      "Ġprimary": 3567,
      "phrine": 3568,
      "Ġselect": 3569,
      "Ġiz": 3570,
      "dev": 3571,
      "zhou": 3572,
      "ĠSlov": 3573,
      "ĠAri": 3574,
      "ature": 3575,
      "Ġtuberc": 3576,
      "Bib": 3577,
      "uncul": 3578,
      "ected": 3579,
      "este": 3580,
      "ariant": 3581,
      "Ġnam": 3582,
      "ATE": 3583,
      "Ant": 3584,
      "iesz": 3585,
      "iga": 3586,
      "Listener": 3587,
      "assing": 3588,
      "ĠEnd": 3589,
      "methyl": 3590,
      "mak": 3591,
      "uent": 3592,
      "egan": 3593,
      "Nam": 3594,
      "uje": 3595,
      "ĠGust": 3596,
      "Ġflav": 3597,
      "aldehyde": 3598,
      "ĠBos": 3599,
      "Rew": 3600,
      "Ġkon": 3601,
      "rained": 3602,
      "abin": 3603,
      "iao": 3604,
      "Ġbit": 3605,
      "ĠNor": 3606,
      "elia": 3607,
      "hatt": 3608,
      "ĠServ": 3609,
      "aq": 3610,
      "Delete": 3611,
      "olan": 3612,
      "Ġbes": 3613,
      "spec": 3614,
      "UND": 3615,
      "hut": 3616,
      "Ġpinch": 3617,
      "atholic": 3618,
      "Mat": 3619,
      "iance": 3620,
      "Ġpri": 3621,
      "ĠSil": 3622,
      "findBy": 3623,
      "ĠSomers": 3624,
      "calright": 3625,
      "erken": 3626,
      "Preference": 3627,
      "dPar": 3628,
      "flow": 3629,
      "ibility": 3630,
      "oza": 3631,
      "BUR": 3632,
      "anas": 3633,
      "ĠGen": 3634,
      "ĠObject": 3635,
      "overe": 3636,
      "Ġhomot": 3637,
      "eff": 3638,
      "mooth": 3639,
      "alBlock": 3640,
      "uzz": 3641,
      "Guid": 3642,
      "Ġnek": 3643,
      "utan": 3644,
      "election": 3645,
      "cell": 3646,
      "resc": 3647,
      "Fields": 3648,
      "unci": 3649,
      "ĠNo": 3650,
      "getR": 3651,
      "Selection": 3652,
      "arik": 3653,
      "adow": 3654,
      "arkar": 3655,
      "aily": 3656,
      "STR": 3657,
      "inger": 3658,
      "Ġfont": 3659,
      "Ġdiff": 3660,
      "qt": 3661,
      "utta": 3662,
      "Ġdek": 3663,
      "empor": 3664,
      "kes": 3665,
      "ymp": 3666,
      "cation": 3667,
      "sem": 3668,
      "Visual": 3669,
      "rival": 3670,
      "ird": 3671,
      "Ġparl": 3672,
      "abc": 3673,
      "ITH": 3674,
      "ĠIP": 3675,
      "Ġunb": 3676,
      "ĠEhn": 3677,
      "ĠEhnerg": 3678,
      "rident": 3679,
      "ĠSyl": 3680,
      "esti": 3681,
      "oving": 3682,
      "ĠData": 3683,
      "eled": 3684,
      "ĠPack": 3685,
      "wyn": 3686,
      "yar": 3687,
      "ĠDer": 3688,
      "Ġexceed": 3689,
      "thal": 3690,
      "Ġgo": 3691,
      "ueva": 3692,
      "enda": 3693,
      "idal": 3694,
      "mn": 3695,
      "Pen": 3696,
      "nail": 3697,
      "nique": 3698,
      "Password": 3699,
      "ored": 3700,
      "ointer": 3701,
      "ĠRam": 3702,
      "hole": 3703,
      "LOT": 3704,
      "enberg": 3705,
      "Unique": 3706,
      "CV": 3707,
      "Picker": 3708,
      "ulu": 3709,
      "VR": 3710,
      "ensch": 3711,
      "FieldContext": 3712,
      "owied": 3713,
      "ollo": 3714,
      "issions": 3715,
      "Owner": 3716,
      "thel": 3717,
      "Okno": 3718,
      "ORN": 3719,
      "Ġthrom": 3720,
      "ĠDon": 3721,
      "ĠHan": 3722,
      "build": 3723,
      "Ġaug": 3724,
      "etty": 3725,
      "ylate": 3726,
      "Ġline": 3727,
      "eca": 3728,
      "ĠTim": 3729,
      "Ġcheck": 3730,
      "lg": 3731,
      "Ġnucle": 3732,
      "vey": 3733,
      "wd": 3734,
      "hl": 3735,
      "gh": 3736,
      "acher": 3737,
      "ibul": 3738,
      "ahon": 3739,
      "assel": 3740,
      "Ġprob": 3741,
      "ceptron": 3742,
      "noc": 3743,
      "ĠMcGu": 3744,
      "Ġps": 3745,
      "non": 3746,
      "orbid": 3747,
      "ĠNau": 3748,
      "ĠLob": 3749,
      "agy": 3750,
      "Ġtend": 3751,
      "Cycle": 3752,
      "Ġsoft": 3753,
      "Spec": 3754,
      "EF": 3755,
      "Ġanth": 3756,
      "Ġcap": 3757,
      "ondition": 3758,
      "Ġhandle": 3759,
      "akespeare": 3760,
      "oration": 3761,
      "dec": 3762,
      "ogn": 3763,
      "ĠBru": 3764,
      "chester": 3765,
      "atherm": 3766,
      "args": 3767,
      "json": 3768,
      "handle": 3769,
      "ĠGold": 3770,
      "ĠSn": 3771,
      "arca": 3772,
      "Ġstock": 3773,
      "jac": 3774,
      "HE": 3775,
      "bro": 3776,
      "ĠNe": 3777,
      "erea": 3778,
      "orod": 3779,
      "assert": 3780,
      "Ġguz": 3781,
      "uden": 3782,
      "Ġpron": 3783,
      "ĠdSample": 3784,
      "Selector": 3785,
      "acles": 3786,
      "BD": 3787,
      "next": 3788,
      "adas": 3789,
      "No": 3790,
      "Te": 3791,
      "valid": 3792,
      "asmim": 3793,
      "rivalTime": 3794,
      "Order": 3795,
      "Ġprof": 3796,
      "igen": 3797,
      "heel": 3798,
      "lid": 3799,
      "ĠKar": 3800,
      "plication": 3801,
      "Ġmal": 3802,
      "Display": 3803,
      "BinBuf": 3804,
      "ahin": 3805,
      "attha": 3806,
      "itre": 3807,
      "cpHeader": 3808,
      "slate": 3809,
      "Ġuser": 3810,
      "Ġaw": 3811,
      "ban": 3812,
      "eln": 3813,
      "eo": 3814,
      "Ġdigest": 3815,
      "ĠCom": 3816,
      "Condition": 3817,
      "thorace": 3818,
      "used": 3819,
      "uted": 3820,
      "ught": 3821,
      "ican": 3822,
      "icher": 3823,
      "ims": 3824,
      "agi": 3825,
      "aid": 3826,
      "action": 3827,
      "bin": 3828,
      "Ġstri": 3829,
      "MVC": 3830,
      "epo": 3831,
      "occo": 3832,
      "swire": 3833,
      "Ġsig": 3834,
      "aldo": 3835,
      "ĠDav": 3836,
      "ĠBag": 3837,
      "astic": 3838,
      "bi": 3839,
      "ĠDun": 3840,
      "ozz": 3841,
      "Ġist": 3842,
      "ĠImm": 3843,
      "xim": 3844,
      "haman": 3845,
      "ĠBis": 3846,
      "oda": 3847,
      "Penis": 3848,
      "ERS": 3849,
      "ĠSy": 3850,
      "anguage": 3851,
      "aux": 3852,
      "BURTS": 3853,
      "addington": 3854,
      "foreground": 3855,
      "marshal": 3856,
      "Ġung": 3857,
      "pre": 3858,
      "Ġpon": 3859,
      "tik": 3860,
      "Accept": 3861,
      "ecode": 3862,
      "Ġwav": 3863,
      "Ġform": 3864,
      "ustomer": 3865,
      "dom": 3866,
      "arp": 3867,
      "ĠRen": 3868,
      "tf": 3869,
      "uba": 3870,
      "Ġpartur": 3871,
      "Ġadh": 3872,
      "Proxy": 3873,
      "iquid": 3874,
      "erche": 3875,
      "MO": 3876,
      "eming": 3877,
      "info": 3878,
      "ewise": 3879,
      "ĠText": 3880,
      "ided": 3881,
      "enumer": 3882,
      "Ġtet": 3883,
      "oper": 3884,
      "adig": 3885,
      "eronica": 3886,
      "omon": 3887,
      "vid": 3888,
      "JSON": 3889,
      "VCTarget": 3890,
      "ieben": 3891,
      "inds": 3892,
      "irs": 3893,
      "izer": 3894,
      "furt": 3895,
      "lass": 3896,
      "Ġanesthet": 3897,
      "hib": 3898,
      "ĠReich": 3899,
      "afa": 3900,
      "rave": 3901,
      "bracket": 3902,
      "ku": 3903,
      "ĠPrit": 3904,
      "ulpt": 3905,
      "riend": 3906,
      "Ġsmear": 3907,
      "leps": 3908,
      "usses": 3909,
      "ares": 3910,
      "braith": 3911,
      "select": 3912,
      "vationMap": 3913,
      "eas": 3914,
      "Pr": 3915,
      "ĠMcGr": 3916,
      "alde": 3917,
      "inz": 3918,
      "olut": 3919,
      "lyPlugin": 3920,
      "Ġri": 3921,
      "wait": 3922,
      "model": 3923,
      "oso": 3924,
      "astian": 3925,
      "ĠInt": 3926,
      "Options": 3927,
      "ipal": 3928,
      "odnik": 3929,
      "span": 3930,
      "ĠAF": 3931,
      "oring": 3932,
      "pg": 3933,
      "Face": 3934,
      "Ġvolt": 3935,
      "recht": 3936,
      "epin": 3937,
      "ECT": 3938,
      "opic": 3939,
      "obec": 3940,
      "ritz": 3941,
      "ĠRoan": 3942,
      "Ġnum": 3943,
      "Theme": 3944,
      "thar": 3945,
      "Dep": 3946,
      "recl": 3947,
      "CU": 3948,
      "ables": 3949,
      "LL": 3950,
      "ĠPand": 3951,
      "illian": 3952,
      "Math": 3953,
      "Ġlymph": 3954,
      "ply": 3955,
      "inander": 3956,
      "cm": 3957,
      "mid": 3958,
      "reten": 3959,
      "Ġfauc": 3960,
      "FO": 3961,
      "itro": 3962,
      "Enum": 3963,
      "adani": 3964,
      "Ġug": 3965,
      "eiro": 3966,
      "utor": 3967,
      "idunt": 3968,
      "rm": 3969,
      "anis": 3970,
      "isting": 3971,
      "ICK": 3972,
      "scale": 3973,
      "yz": 3974,
      "ĠPic": 3975,
      "enko": 3976,
      "Bad": 3977,
      "ĠAT": 3978,
      "athy": 3979,
      "ĠHait": 3980,
      "ICAL": 3981,
      "Cle": 3982,
      "ĠRUTARE": 3983,
      "ĠSales": 3984,
      "Ins": 3985,
      "ingan": 3986,
      "Ġmenjal": 3987,
      "ige": 3988,
      "VID": 3989,
      "Long": 3990,
      "ĠBST": 3991,
      "ĠNST": 3992,
      "return": 3993,
      "Ġmont": 3994,
      "inia": 3995,
      "Ġphotoc": 3996,
      "Ġmart": 3997,
      "zej": 3998,
      "nest": 3999,
      "VIC": 4000,
      "Ġperj": 4001,
      "lyph": 4002,
      "ĠSey": 4003,
      "ocz": 4004,
      "Ġcard": 4005,
      "apkan": 4006,
      "Active": 4007,
      "Ġunt": 4008,
      "irc": 4009,
      "INE": 4010,
      "apar": 4011,
      "Ġdeg": 4012,
      "ecz": 4013,
      "Ġdiv": 4014,
      "Ġkahel": 4015,
      "ollision": 4016,
      "warl": 4017,
      "ened": 4018,
      "acer": 4019,
      "Collision": 4020,
      "OSS": 4021,
      "Construct": 4022,
      "mington": 4023,
      "weatherm": 4024,
      "ĠHerm": 4025,
      "KR": 4026,
      "GFS": 4027,
      "ĠVerd": 4028,
      "Ġback": 4029,
      "ĠWarwick": 4030,
      "ĠGerr": 4031,
      "ocyan": 4032,
      "DialogOpen": 4033,
      "Art": 4034,
      "Integer": 4035,
      "ety": 4036,
      "obacter": 4037,
      "append": 4038,
      "ments": 4039,
      "orld": 4040,
      "usive": 4041,
      "amer": 4042,
      "hin": 4043,
      "vonne": 4044,
      "Ġvedit": 4045,
      "ITT": 4046,
      "ojo": 4047,
      "ĠTol": 4048,
      "uts": 4049,
      "Ġrib": 4050,
      "olyb": 4051,
      "Ġview": 4052,
      "ycler": 4053,
      "ĠDev": 4054,
      "ĠCur": 4055,
      "ublicKey": 4056,
      "omn": 4057,
      "brado": 4058,
      "Mutex": 4059,
      "Ġsat": 4060,
      "Ġhe": 4061,
      "nung": 4062,
      "yne": 4063,
      "olytic": 4064,
      "Extens": 4065,
      "Days": 4066,
      "oding": 4067,
      "ĠNich": 4068,
      "Ġplead": 4069,
      "NonUser": 4070,
      "MBT": 4071,
      "aine": 4072,
      "ĠVillar": 4073,
      "idas": 4074,
      "Modal": 4075,
      "inas": 4076,
      "onuclear": 4077,
      "anal": 4078,
      "ounc": 4079,
      "CON": 4080,
      "azz": 4081,
      "ns": 4082,
      "ĠHert": 4083,
      "ourg": 4084,
      "ĠRet": 4085,
      "property": 4086,
      "here": 4087,
      "ovi": 4088,
      "UV": 4089,
      "Ġot": 4090,
      "Ġsag": 4091,
      "ynth": 4092,
      "Ġerg": 4093,
      "UVW": 4094,
      "ancy": 4095,
      "Ġvolupt": 4096,
      "ĠChron": 4097,
      "esso": 4098,
      "nalia": 4099,
      "ĠMich": 4100,
      "Ġng": 4101,
      "jee": 4102,
      "child": 4103,
      "atat": 4104,
      "ocalObject": 4105,
      "issense": 4106,
      "ORD": 4107,
      "wall": 4108,
      "Ġbland": 4109,
      "Ġpunct": 4110,
      "aina": 4111,
      "ĠNA": 4112,
      "owski": 4113,
      "oughton": 4114,
      "irectory": 4115,
      "itoneal": 4116,
      "ĠMiy": 4117,
      "aje": 4118,
      "jiwarl": 4119,
      "umberland": 4120,
      "bark": 4121,
      "token": 4122,
      "ĠgetDate": 4123,
      "uster": 4124,
      "Ġho": 4125,
      "erog": 4126,
      "Ġdess": 4127,
      "ĠCap": 4128,
      "ĠBhag": 4129,
      "anje": 4130,
      "Ġsb": 4131,
      "ĠMin": 4132,
      "obic": 4133,
      "toch": 4134,
      "Letter": 4135,
      "thur": 4136,
      "ĠCant": 4137,
      "akar": 4138,
      "ĠCal": 4139,
      "aught": 4140,
      "ParamNum": 4141,
      "ortal": 4142,
      "YAN": 4143,
      "double": 4144,
      "ĠDord": 4145,
      "eri": 4146,
      "Part": 4147,
      "Files": 4148,
      "enean": 4149,
      "ringe": 4150,
      "ĠFo": 4151,
      "urul": 4152,
      "gress": 4153,
      "Ġspray": 4154,
      "loria": 4155,
      "untamento": 4156,
      "ĠAs": 4157,
      "ĠMN": 4158,
      "ĠIng": 4159,
      "UniqueID": 4160,
      "Async": 4161,
      "Ġok": 4162,
      "unay": 4163,
      "arras": 4164,
      "multi": 4165,
      "pat": 4166,
      "Ġcul": 4167,
      "etti": 4168,
      "was": 4169,
      "ullie": 4170,
      "Ġpen": 4171,
      "ĠVillan": 4172,
      "ession": 4173,
      "Ġhor": 4174,
      "CharCode": 4175,
      "permal": 4176,
      "Store": 4177,
      "Ġfort": 4178,
      "ieter": 4179,
      "quest": 4180,
      "Ġadjourn": 4181,
      "Ġsph": 4182,
      "Ġchamp": 4183,
      "ĠChong": 4184,
      "Strip": 4185,
      "akath": 4186,
      "ĠSql": 4187,
      "hile": 4188,
      "Mesh": 4189,
      "alph": 4190,
      "Ġmut": 4191,
      "ancho": 4192,
      "ĠBelle": 4193,
      "ĠBellev": 4194,
      "asuk": 4195,
      "ĠGunn": 4196,
      "oauth": 4197,
      "Reader": 4198,
      "esc": 4199,
      "Keep": 4200,
      "Cube": 4201,
      "ymplectic": 4202,
      "CubeSize": 4203,
      "prot": 4204,
      "ycin": 4205,
      "reas": 4206,
      "Ġold": 4207,
      "Ġquin": 4208,
      "attoo": 4209,
      "gramModel": 4210,
      "ourier": 4211,
      "ubro": 4212,
      "dig": 4213,
      "pec": 4214,
      "ousel": 4215,
      "yak": 4216,
      "ĠBow": 4217,
      "vec": 4218,
      "ront": 4219,
      "kut": 4220,
      "ymi": 4221,
      "Media": 4222,
      "ĠGood": 4223,
      "ker": 4224,
      "Spawn": 4225,
      "ayashi": 4226,
      "etering": 4227,
      "Ġsv": 4228,
      "gou": 4229,
      "iw": 4230,
      "ories": 4231,
      "paths": 4232,
      "Xpaths": 4233,
      "adt": 4234,
      "Ġvad": 4235,
      "Ġplayer": 4236,
      "ieurs": 4237,
      "erce": 4238,
      "tree": 4239,
      "apur": 4240,
      "Ġwax": 4241,
      "full": 4242,
      "StarSXml": 4243,
      "qttr": 4244,
      "coni": 4245,
      "Servlet": 4246,
      "Ġak": 4247,
      "ĠNad": 4248,
      "Choose": 4249,
      "ĠKra": 4250,
      "ruz": 4251,
      "DBG": 4252,
      "ATION": 4253,
      "ĠBhagav": 4254,
      "pay": 4255,
      "aver": 4256,
      "enner": 4257,
      "jav": 4258,
      "OUG": 4259,
      "ismar": 4260,
      "aucer": 4261,
      "WT": 4262,
      "estown": 4263,
      "acanam": 4264,
      "adiene": 4265,
      "ostrum": 4266,
      "Move": 4267,
      "utable": 4268,
      "ĠAngel": 4269,
      "Has": 4270,
      "ssex": 4271,
      "aked": 4272,
      "inity": 4273,
      "wer": 4274,
      "ĠHil": 4275,
      "ifolds": 4276,
      "ĠSam": 4277,
      "Ġhal": 4278,
      "rout": 4279,
      "LM": 4280,
      "ĠSylv": 4281,
      "atz": 4282,
      "ĠChrist": 4283,
      "oten": 4284,
      "lc": 4285,
      "ĠHen": 4286,
      "ately": 4287,
      "ĠRCL": 4288,
      "ĠNav": 4289,
      "exus": 4290,
      "ĠGren": 4291,
      "Ġlo": 4292,
      "ĠSad": 4293,
      "encia": 4294,
      "ittam": 4295,
      "LogRow": 4296,
      "Ġproced": 4297,
      "abat": 4298,
      "izz": 4299,
      "aunch": 4300,
      "tri": 4301,
      "ĠEuc": 4302,
      "urst": 4303,
      "azy": 4304,
      "onyl": 4305,
      "Writer": 4306,
      "aise": 4307,
      "cha": 4308,
      "ĠRUD": 4309,
      "Ġprinc": 4310,
      "MainNav": 4311,
      "esch": 4312,
      "yles": 4313,
      "etric": 4314,
      "apet": 4315,
      "ĠEdmond": 4316,
      "ĠLo": 4317,
      "Fold": 4318,
      "ĠDur": 4319,
      "Ġlepton": 4320,
      "ĠHab": 4321,
      "ĠDeep": 4322,
      "ahang": 4323,
      "ranche": 4324,
      "Sec": 4325,
      "URNIZ": 4326,
      "Ġgew": 4327,
      "ady": 4328,
      "umbnail": 4329,
      "ogs": 4330,
      "yw": 4331,
      "andt": 4332,
      "ynch": 4333,
      "idean": 4334,
      "Ġequ": 4335,
      "instr": 4336,
      "ĠStafford": 4337,
      "instrList": 4338,
      "ropy": 4339,
      "ĠCons": 4340,
      "ripper": 4341,
      "MDA": 4342,
      "ithdraw": 4343,
      "ards": 4344,
      "ota": 4345,
      "sum": 4346,
      "illColor": 4347,
      "ĠJordan": 4348,
      "ĠPer": 4349,
      "Preferred": 4350,
      "ansing": 4351,
      "ĠGuil": 4352,
      "ApiPath": 4353,
      "CharArray": 4354,
      "Muc": 4355,
      "endale": 4356,
      "Inset": 4357,
      "Ġfur": 4358,
      "inho": 4359,
      "Ġparthen": 4360,
      "Ġcro": 4361,
      "ancell": 4362,
      "arrow": 4363,
      "iale": 4364,
      "tochrome": 4365,
      "seur": 4366,
      "olare": 4367,
      "herent": 4368,
      "Min": 4369,
      "skii": 4370,
      "eq": 4371,
      "rait": 4372,
      "Mar": 4373,
      "Ġpower": 4374,
      "ĠPop": 4375,
      "Sdk": 4376,
      "olves": 4377,
      "arantad": 4378,
      "irg": 4379,
      "QR": 4380,
      "ĠHick": 4381,
      "detail": 4382,
      "Ġfield": 4383,
      "abic": 4384,
      "innie": 4385,
      "ĠDar": 4386,
      "ppo": 4387,
      "GM": 4388,
      "zan": 4389,
      "emon": 4390,
      "isR": 4391,
      "ĠPrab": 4392,
      "asan": 4393,
      "Glare": 4394,
      "ĠMerr": 4395,
      "lens": 4396,
      "tres": 4397,
      "AU": 4398,
      "cer": 4399,
      "oslav": 4400,
      "Ald": 4401,
      "unted": 4402,
      "Arr": 4403,
      "Bibitem": 4404,
      "itable": 4405,
      "ĠPa": 4406,
      "nst": 4407,
      "Ġfra": 4408,
      "Ġuns": 4409,
      "egi": 4410,
      "sent": 4411,
      "Ġec": 4412,
      "OrderFlight": 4413,
      "ĠWor": 4414,
      "ĠNiet": 4415,
      "Ġuit": 4416,
      "Security": 4417,
      "ĠJoh": 4418,
      "ĠOut": 4419,
      "ridge": 4420,
      "addassa": 4421,
      "andan": 4422,
      "auff": 4423,
      "ĠTr": 4424,
      "illing": 4425,
      "GoObject": 4426,
      "Default": 4427,
      "Seconds": 4428,
      "Ġtok": 4429,
      "Foldout": 4430,
      "ichen": 4431,
      "ĠHel": 4432,
      "Encoder": 4433,
      "tain": 4434,
      "Ġvan": 4435,
      "Ġinfl": 4436,
      "ĠRey": 4437,
      "ĠFern": 4438,
      "Ġunw": 4439,
      "tti": 4440,
      "lytres": 4441,
      "emi": 4442,
      "ĠPey": 4443,
      "waard": 4444,
      "ariable": 4445,
      "ingu": 4446,
      "ignore": 4447,
      "ema": 4448,
      "Ġhy": 4449,
      "Ġfac": 4450,
      "ĠList": 4451,
      "oton": 4452,
      "ridLayout": 4453,
      "lik": 4454,
      "Ġbed": 4455,
      "ĠDel": 4456,
      "ĠBeck": 4457,
      "Ġcall": 4458,
      "rvats": 4459,
      "icular": 4460,
      "show": 4461,
      "ĠLaksh": 4462,
      "convol": 4463,
      "onian": 4464,
      "ĠCarl": 4465,
      "iales": 4466,
      "AutoScale": 4467,
      "sprech": 4468,
      "Ġchem": 4469,
      "ipher": 4470,
      "ĠCorb": 4471,
      "ocs": 4472,
      "into": 4473,
      "ardo": 4474,
      "awar": 4475,
      "ĠMidd": 4476,
      "ived": 4477,
      "ĠAcc": 4478,
      "ĠPDP": 4479,
      "ĠActive": 4480,
      "iping": 4481,
      "atches": 4482,
      "nab": 4483,
      "houette": 4484,
      "ĠGog": 4485,
      "ĠUly": 4486,
      "ĠAS": 4487,
      "xin": 4488,
      "ĠMats": 4489,
      "entz": 4490,
      "ends": 4491,
      "Custom": 4492,
      "VA": 4493,
      "Fil": 4494,
      "phalodes": 4495,
      "ĠEle": 4496,
      "Grad": 4497,
      "ĠKier": 4498,
      "ranian": 4499,
      "olg": 4500,
      "riendo": 4501,
      "ufen": 4502,
      "ĠLorentz": 4503,
      "ifer": 4504,
      "asey": 4505,
      "Danh": 4506,
      "aused": 4507,
      "ips": 4508,
      "DanhMuc": 4509,
      "ismarck": 4510,
      "Ġrun": 4511,
      "zet": 4512,
      "uri": 4513,
      "Ġwyk": 4514,
      "DO": 4515,
      "PTV": 4516,
      "estin": 4517,
      "Ġalle": 4518,
      "titor": 4519,
      "ucid": 4520,
      "Ġforb": 4521,
      "nash": 4522,
      "Ġyoj": 4523,
      "mac": 4524,
      "rogen": 4525,
      "Ġlegal": 4526,
      "Ġtart": 4527,
      "ĠCCS": 4528,
      "urp": 4529,
      "Animation": 4530,
      "Ġiccad": 4531,
      "vrd": 4532,
      "unov": 4533,
      "constra": 4534,
      "dn": 4535,
      "uncan": 4536,
      "constraint": 4537,
      "Ġdesp": 4538,
      "atthav": 4539,
      "rystall": 4540,
      "Ġdisorder": 4541,
      "hold": 4542,
      "irra": 4543,
      "iggins": 4544,
      "Antae": 4545,
      "First": 4546,
      "Ġdred": 4547,
      "Ary": 4548,
      "iliated": 4549,
      "tone": 4550,
      "arking": 4551,
      "rial": 4552,
      "irtual": 4553,
      "smith": 4554,
      "isia": 4555,
      "Ġlist": 4556,
      "uatu": 4557,
      "ĠPlast": 4558,
      "ĠTul": 4559,
      "eland": 4560,
      "isa": 4561,
      "btn": 4562,
      "process": 4563,
      "artz": 4564,
      "heed": 4565,
      "Lint": 4566,
      "getString": 4567,
      "Exists": 4568,
      "Clr": 4569,
      "Ġpok": 4570,
      "Ġof": 4571,
      "ĠEver": 4572,
      "kov": 4573,
      "ĠMag": 4574,
      "rer": 4575,
      "dy": 4576,
      "QAry": 4577,
      "ĠVan": 4578,
      "ĠConstant": 4579,
      "ocr": 4580,
      "StateToProps": 4581,
      "ucker": 4582,
      "ylic": 4583,
      "onal": 4584,
      "Ġey": 4585,
      "leton": 4586,
      "toL": 4587,
      "index": 4588,
      "engk": 4589,
      "amin": 4590,
      "Title": 4591,
      "oter": 4592,
      "ikkh": 4593,
      "Ġcustom": 4594,
      "ĠDra": 4595,
      "ĠId": 4596,
      "ĠMed": 4597,
      "Ġton": 4598,
      "arma": 4599,
      "ounce": 4600,
      "NO": 4601,
      "ĠLomb": 4602,
      "ĠWolver": 4603,
      "ĠMcF": 4604,
      "asser": 4605,
      "Ġsab": 4606,
      "Ġmaneu": 4607,
      "Plus": 4608,
      "Ġchew": 4609,
      "Ġunim": 4610,
      "Ġhotsp": 4611,
      "DER": 4612,
      "XR": 4613,
      "ember": 4614,
      "erview": 4615,
      "ENC": 4616,
      "empl": 4617,
      "Ġdib": 4618,
      "urch": 4619,
      "ipped": 4620,
      "igence": 4621,
      "rung": 4622,
      "ipboard": 4623,
      "ĠSar": 4624,
      "ractor": 4625,
      "enian": 4626,
      "avor": 4627,
      "awatts": 4628,
      "ĠGra": 4629,
      "ĠShel": 4630,
      "orage": 4631,
      "ĠWest": 4632,
      "Ġdisappe": 4633,
      "ioc": 4634,
      "ished": 4635,
      "ielding": 4636,
      "otherap": 4637,
      "Ġrut": 4638,
      "acak": 4639,
      "ayette": 4640,
      "Ġbif": 4641,
      "abled": 4642,
      "ĠAlb": 4643,
      "Ver": 4644,
      "itya": 4645,
      "iu": 4646,
      "DKEY": 4647,
      "onese": 4648,
      "ExpNow": 4649,
      "Ġswe": 4650,
      "anos": 4651,
      "rough": 4652,
      "beit": 4653,
      "urkish": 4654,
      "agher": 4655,
      "chym": 4656,
      "ynucleaires": 4657,
      "usen": 4658,
      "emes": 4659,
      "Bsky": 4660,
      "lysis": 4661,
      "ĠBrook": 4662,
      "aal": 4663,
      "xt": 4664,
      "arkan": 4665,
      "ĠVol": 4666,
      "ires": 4667,
      "Ġbhikkh": 4668,
      "Ġemanc": 4669,
      "Cart": 4670,
      "arif": 4671,
      "ashing": 4672,
      "asta": 4673,
      "ailles": 4674,
      "illet": 4675,
      "wm": 4676,
      "rony": 4677,
      "TING": 4678,
      "Ġbu": 4679,
      "lobulin": 4680,
      "ryn": 4681,
      "Ġtab": 4682,
      "serv": 4683,
      "NAM": 4684,
      "PlusEvents": 4685,
      "Criter": 4686,
      "Ġtant": 4687,
      "ĠWord": 4688,
      "Ġullam": 4689,
      "ophen": 4690,
      "Ġauth": 4691,
      "lier": 4692,
      "Ġzoom": 4693,
      "inos": 4694,
      "ĠMil": 4695,
      "getMain": 4696,
      "IUN": 4697,
      "Ġbel": 4698,
      "ords": 4699,
      "rick": 4700,
      "graph": 4701,
      "inca": 4702,
      "ĠKeat": 4703,
      "ydraul": 4704,
      "Acc": 4705,
      "ĠPry": 4706,
      "uku": 4707,
      "ĠCly": 4708,
      "popup": 4709,
      "vc": 4710,
      "PEG": 4711,
      "issy": 4712,
      "jati": 4713,
      "Net": 4714,
      "ause": 4715,
      "ruc": 4716,
      "BUGFS": 4717,
      "atedBy": 4718,
      "gax": 4719,
      "MSFont": 4720,
      "Ġbook": 4721,
      "rank": 4722,
      "Ġme": 4723,
      "Alignment": 4724,
      "asa": 4725,
      "arius": 4726,
      "ĠUS": 4727,
      "roir": 4728,
      "ĠMann": 4729,
      "Ġmj": 4730,
      "onti": 4731,
      "Ġpabb": 4732,
      "ambra": 4733,
      "eneg": 4734,
      "Handle": 4735,
      "ĠFig": 4736,
      "Ġrepe": 4737,
      "ould": 4738,
      "ĠBrom": 4739,
      "ĠBrent": 4740,
      "IsNull": 4741,
      "acion": 4742,
      "Ġhorr": 4743,
      "olit": 4744,
      "ukannya": 4745,
      "ande": 4746,
      "akukannya": 4747,
      "ennes": 4748,
      "erta": 4749,
      "anca": 4750,
      "IGHT": 4751,
      "WI": 4752,
      "width": 4753,
      "left": 4754,
      "mar": 4755,
      "ycop": 4756,
      "otheli": 4757,
      "romed": 4758,
      "lep": 4759,
      "Tag": 4760,
      "ĠUSA": 4761,
      "Ġrad": 4762,
      "Ġtag": 4763,
      "eback": 4764,
      "ĠSI": 4765,
      "Ziel": 4766,
      "Ġzir": 4767,
      "gest": 4768,
      "ktCap": 4769,
      "idata": 4770,
      "Java": 4771,
      "Middle": 4772,
      "Ġplur": 4773,
      "zem": 4774,
      "Ġkeh": 4775,
      "ikidata": 4776,
      "trash": 4777,
      "amble": 4778,
      "ullo": 4779,
      "ĠSmack": 4780,
      "ĠMcCle": 4781,
      "Cache": 4782,
      "Na": 4783,
      "Ġbron": 4784,
      "mett": 4785,
      "ĠSH": 4786,
      "Ġindem": 4787,
      "Ġbronch": 4788,
      "Ġbip": 4789,
      "Ġtrit": 4790,
      "emat": 4791,
      "itian": 4792,
      "vors": 4793,
      "udy": 4794,
      "scroll": 4795,
      "getSt": 4796,
      "peng": 4797,
      "ensa": 4798,
      "Rest": 4799,
      "ĠGewer": 4800,
      "ĠAdri": 4801,
      "heim": 4802,
      "chiev": 4803,
      "gio": 4804,
      "ĠGret": 4805,
      "asper": 4806,
      "Ġprincipal": 4807,
      "gdock": 4808,
      "Statement": 4809,
      "NumConst": 4810,
      "KY": 4811,
      "ĠBere": 4812,
      "ĠUml": 4813,
      "anim": 4814,
      "Ġmo": 4815,
      "ihad": 4816,
      "acul": 4817,
      "FP": 4818,
      "Track": 4819,
      "zia": 4820,
      "ikk": 4821,
      "iejsc": 4822,
      "TM": 4823,
      "ĠCheck": 4824,
      "Ġyl": 4825,
      "location": 4826,
      "anya": 4827,
      "Reference": 4828,
      "olean": 4829,
      "ĠThess": 4830,
      "ekar": 4831,
      "enched": 4832,
      "Ġgri": 4833,
      "ĠService": 4834,
      "ĠTob": 4835,
      "abr": 4836,
      "Ġoverd": 4837,
      "ILLI": 4838,
      "Cleared": 4839,
      "ĠObit": 4840,
      "ClearedBy": 4841,
      "arod": 4842,
      "olocation": 4843,
      "Obj": 4844,
      "ĠCG": 4845,
      "achen": 4846,
      "xis": 4847,
      "Need": 4848,
      "setKeep": 4849,
      "undle": 4850,
      "EOUS": 4851,
      "acon": 4852,
      "ighton": 4853,
      "ĠChin": 4854,
      "Movie": 4855,
      "ĠTij": 4856,
      "acao": 4857,
      "ĠRev": 4858,
      "zat": 4859,
      "Ġhas": 4860,
      "COc": 4861,
      "ictureBox": 4862,
      "abri": 4863,
      "ramp": 4864,
      "Ġprecinct": 4865,
      "Ġdesc": 4866,
      "azon": 4867,
      "orough": 4868,
      "UTH": 4869,
      "wyd": 4870,
      "edTest": 4871,
      "Category": 4872,
      "elijk": 4873,
      "DropDown": 4874,
      "Ġnag": 4875,
      "renzia": 4876,
      "Read": 4877,
      "neider": 4878,
      "otrex": 4879,
      "socket": 4880,
      "uffy": 4881,
      "SFER": 4882,
      "ĠTN": 4883,
      "aio": 4884,
      "onka": 4885,
      "itud": 4886,
      "ĠBrug": 4887,
      "witz": 4888,
      "itin": 4889,
      "Ġinform": 4890,
      "Mont": 4891,
      "ĠVers": 4892,
      "margin": 4893,
      "ĠShah": 4894,
      "ouri": 4895,
      "angzhou": 4896,
      "Launch": 4897,
      "Ġpav": 4898,
      "TakeVideo": 4899,
      "ĠGreens": 4900,
      "Stream": 4901,
      "yped": 4902,
      "part": 4903,
      "ertools": 4904,
      "athed": 4905,
      "low": 4906,
      "borough": 4907,
      "OUR": 4908,
      "Prz": 4909,
      "Dom": 4910,
      "Ġpadam": 4911,
      "instag": 4912,
      "arrer": 4913,
      "Ġindemn": 4914,
      "ACTOR": 4915,
      "IH": 4916,
      "nder": 4917,
      "iram": 4918,
      "mous": 4919,
      "Scaler": 4920,
      "Ġvisc": 4921,
      "elon": 4922,
      "vind": 4923,
      "arted": 4924,
      "poetry": 4925,
      "ĠHaz": 4926,
      "Missense": 4927,
      "Check": 4928,
      "ieder": 4929,
      "ĠISP": 4930,
      "Ġmez": 4931,
      "ĠTRAN": 4932,
      "esehen": 4933,
      "Ġsim": 4934,
      "Ġrandom": 4935,
      "button": 4936,
      "Ġpel": 4937,
      "ilig": 4938,
      "Ġrecept": 4939,
      "Ġbez": 4940,
      "ĠBon": 4941,
      "entry": 4942,
      "hir": 4943,
      "Ġsequest": 4944,
      "schl": 4945,
      "ĠSN": 4946,
      "Ġincub": 4947,
      "rast": 4948,
      "onitrile": 4949,
      "isor": 4950,
      "Ġalter": 4951,
      "esthetics": 4952,
      "arlton": 4953,
      "ĠFal": 4954,
      "ĠFull": 4955,
      "utup": 4956,
      "ĠMSC": 4957,
      "script": 4958,
      "Ġdefault": 4959,
      "Fullscreen": 4960,
      "JECT": 4961,
      "annie": 4962,
      "ĠGiul": 4963,
      "Entry": 4964,
      "CCCC": 4965,
      "icon": 4966,
      "Audio": 4967,
      "ĠGuild": 4968,
      "ysis": 4969,
      "gue": 4970,
      "ĠBenn": 4971,
      "ĠAk": 4972,
      "icio": 4973,
      "iyesi": 4974,
      "Kill": 4975,
      "addKill": 4976,
      "Ġdik": 4977,
      "HTree": 4978,
      "IndexOf": 4979,
      "aruh": 4980,
      "fter": 4981,
      "Ġsev": 4982,
      "lal": 4983,
      "upu": 4984,
      "ĠCO": 4985,
      "Bottom": 4986,
      "rya": 4987,
      "Ġgrant": 4988,
      "Constants": 4989,
      "ython": 4990,
      "inite": 4991,
      "Ġml": 4992,
      "iels": 4993,
      "Ġbifur": 4994,
      "attu": 4995,
      "Ġenj": 4996,
      "itattu": 4997,
      "ĠWalth": 4998,
      "peg": 4999,
      "STM": 5000,
      "StarObject": 5001,
      "Ġsuper": 5002,
      "inuous": 5003,
      "itas": 5004,
      "ĠMey": 5005,
      "UIA": 5006,
      "olls": 5007,
      "InCM": 5008,
      "rass": 5009,
      "ients": 5010,
      "ĠEt": 5011,
      "ĠBarang": 5012,
      "unken": 5013,
      "Ġtherm": 5014,
      "ĠString": 5015,
      "asu": 5016,
      "ieron": 5017,
      "ĠDi": 5018,
      "Return": 5019,
      "Ġtransf": 5020,
      "Ġeyel": 5021,
      "AspNet": 5022,
      "LOR": 5023,
      "iffe": 5024,
      "orie": 5025,
      "ObjectID": 5026,
      "ascular": 5027,
      "agg": 5028,
      "unton": 5029,
      "existing": 5030,
      "fx": 5031,
      "Ġrecomb": 5032,
      "ĠMedia": 5033,
      "ĠBurg": 5034,
      "Ġvij": 5035,
      "Ġpengu": 5036,
      "estroy": 5037,
      "Ġovip": 5038,
      "aia": 5039,
      "ended": 5040,
      "Ġtep": 5041,
      "ainer": 5042,
      "onnie": 5043,
      "Ġtool": 5044,
      "ably": 5045,
      "Ġcongen": 5046,
      "obacz": 5047,
      "Ġnozz": 5048,
      "aper": 5049,
      "ĠTah": 5050,
      "ĠBernad": 5051,
      "sia": 5052,
      "ersen": 5053,
      "Alert": 5054,
      "zok": 5055,
      "Ġadjud": 5056,
      "astan": 5057,
      "NewUrlParser": 5058,
      "bai": 5059,
      "Hash": 5060,
      "genstein": 5061,
      "PTMR": 5062,
      "DidLoad": 5063,
      "can": 5064,
      "De": 5065,
      "ĠJama": 5066,
      "utsch": 5067,
      "udi": 5068,
      "Ġoffset": 5069,
      "ocity": 5070,
      "atakan": 5071,
      "agles": 5072,
      "Op": 5073,
      "Leg": 5074,
      "camera": 5075,
      "Ġfind": 5076,
      "NA": 5077,
      "Ġkap": 5078,
      "ĠBey": 5079,
      "ZielPanel": 5080,
      "ĠSher": 5081,
      "ĠPo": 5082,
      "Ġmasc": 5083,
      "olph": 5084,
      "ĠWel": 5085,
      "ĠRw": 5086,
      "Ġig": 5087,
      "ibals": 5088,
      "radio": 5089,
      "rlen": 5090,
      "Ġpern": 5091,
      "ĠKeen": 5092,
      "ĠDIC": 5093,
      "ural": 5094,
      "Ġhed": 5095,
      "uity": 5096,
      "uffered": 5097,
      "omyc": 5098,
      "Ġtes": 5099,
      "itted": 5100,
      "ĠCoch": 5101,
      "yllium": 5102,
      "otia": 5103,
      "elius": 5104,
      "oking": 5105,
      "OnInit": 5106,
      "Bundle": 5107,
      "ALT": 5108,
      "centaje": 5109,
      "Ġbhav": 5110,
      "oblast": 5111,
      "ellular": 5112,
      "ikian": 5113,
      "aliana": 5114,
      "ĠHu": 5115,
      "ĠMuk": 5116,
      "mey": 5117,
      "ĠPatt": 5118,
      "IAN": 5119,
      "ĠMos": 5120,
      "Ġgreen": 5121,
      "LOTRE": 5122,
      "Ġpotenc": 5123,
      "ollah": 5124,
      "egal": 5125,
      "Ġlug": 5126,
      "URNIZOR": 5127,
      "olf": 5128,
      "Changed": 5129,
      "usBar": 5130,
      "Ġferm": 5131,
      "rafo": 5132,
      "aksan": 5133,
      "ĠJez": 5134,
      "Copy": 5135,
      "AtIndex": 5136,
      "osto": 5137,
      "EqualTo": 5138,
      "illings": 5139,
      "Ġverteb": 5140,
      "kup": 5141,
      "yre": 5142,
      "eline": 5143,
      "WallArray": 5144,
      "imens": 5145,
      "Img": 5146,
      "omo": 5147,
      "iox": 5148,
      "Ġlau": 5149,
      "niOkno": 5150,
      "ĠmorphOutput": 5151,
      "reek": 5152,
      "Ġafter": 5153,
      "hots": 5154,
      "Ġcoll": 5155,
      "haya": 5156,
      "Ġperi": 5157,
      "regor": 5158,
      "adoc": 5159,
      "ĠDy": 5160,
      "square": 5161,
      "ohVP": 5162,
      "ecek": 5163,
      "ĠBarn": 5164,
      "avage": 5165,
      "inces": 5166,
      "weight": 5167,
      "ĠOrr": 5168,
      "Ġsho": 5169,
      "onduct": 5170,
      "ococ": 5171,
      "slateg": 5172,
      "Ġfenc": 5173,
      "img": 5174,
      "ĠNai": 5175,
      "ornare": 5176,
      "ĠBrown": 5177,
      "ggbb": 5178,
      "ĠLock": 5179,
      "Pherson": 5180,
      "uple": 5181,
      "ĠGl": 5182,
      "CUR": 5183,
      "ĠNa": 5184,
      "ĠSpart": 5185,
      "oni": 5186,
      "ption": 5187,
      "Over": 5188,
      "orges": 5189,
      "oplas": 5190,
      "hta": 5191,
      "BeforeText": 5192,
      "ariate": 5193,
      "orne": 5194,
      "fit": 5195,
      "ĠCumm": 5196,
      "Ġpushed": 5197,
      "plement": 5198,
      "ĠVall": 5199,
      "fromRGB": 5200,
      "Ġhib": 5201,
      "ĠCoron": 5202,
      "ixed": 5203,
      "mus": 5204,
      "iav": 5205,
      "Ġlob": 5206,
      "eville": 5207,
      "Ġspe": 5208,
      "unp": 5209,
      "apole": 5210,
      "ĠRech": 5211,
      "Cmd": 5212,
      "ukawa": 5213,
      "bank": 5214,
      "ibt": 5215,
      "iax": 5216,
      "orate": 5217,
      "Ġdv": 5218,
      "ĠIO": 5219,
      "idos": 5220,
      "ĠGriff": 5221,
      "oxal": 5222,
      "Ġramp": 5223,
      "iliar": 5224,
      "cien": 5225,
      "anesulf": 5226,
      "calup": 5227,
      "zcz": 5228,
      "abbat": 5229,
      "ĠAle": 5230,
      "ĠHS": 5231,
      "sci": 5232,
      "abad": 5233,
      "ushing": 5234,
      "df": 5235,
      "Ġeff": 5236,
      "Emoji": 5237,
      "ĠCec": 5238,
      "ĠPercent": 5239,
      "king": 5240,
      "ĠRom": 5241,
      "IServer": 5242,
      "squarePos": 5243,
      "auth": 5244,
      "otts": 5245,
      "yin": 5246,
      "adast": 5247,
      "ĠMill": 5248,
      "ĠEmil": 5249,
      "click": 5250,
      "roqu": 5251,
      "Tran": 5252,
      "ilic": 5253,
      "aisi": 5254,
      "andel": 5255,
      "ĠRef": 5256,
      "comp": 5257,
      "Ġprotot": 5258,
      "Ġburl": 5259,
      "ĠPanth": 5260,
      "roud": 5261,
      "UCLE": 5262,
      "userd": 5263,
      "Ġsting": 5264,
      "Ġlac": 5265,
      "kte": 5266,
      "eckt": 5267,
      "ActionBar": 5268,
      "HTTP": 5269,
      "bpm": 5270,
      "bpmOb": 5271,
      "asz": 5272,
      "Ġprototyp": 5273,
      "Ġno": 5274,
      "Water": 5275,
      "havam": 5276,
      "Ġgra": 5277,
      "ozer": 5278,
      "aluronic": 5279,
      "Ġpih": 5280,
      "ĠDu": 5281,
      "kat": 5282,
      "gett": 5283,
      "itos": 5284,
      "ugia": 5285,
      "iad": 5286,
      "ylinder": 5287,
      "ĠLib": 5288,
      "opt": 5289,
      "ount": 5290,
      "ipot": 5291,
      "ĠHU": 5292,
      "urit": 5293,
      "webtoken": 5294,
      "Npm": 5295,
      "uation": 5296,
      "loadNpm": 5297,
      "IFORN": 5298,
      "Binding": 5299,
      "iton": 5300,
      "ĠHub": 5301,
      "ĠSait": 5302,
      "Ġmac": 5303,
      "LLO": 5304,
      "Ġsudd": 5305,
      "Ġesp": 5306,
      "nie": 5307,
      "untime": 5308,
      "Ġsor": 5309,
      "ĠNakam": 5310,
      "omial": 5311,
      "InOut": 5312,
      "Report": 5313,
      "weathermap": 5314,
      "KK": 5315,
      "sPath": 5316,
      "ByteArray": 5317,
      "KAKK": 5318,
      "KAKKIA": 5319,
      "AYLOR": 5320,
      "Fcm": 5321,
      "Ang": 5322,
      "Cel": 5323,
      "Ġbod": 5324,
      "ziem": 5325,
      "clare": 5326,
      "iots": 5327,
      "rier": 5328,
      "rops": 5329,
      "Ġsubsid": 5330,
      "sorb": 5331,
      "Ġoverr": 5332,
      "OSE": 5333,
      "Ġger": 5334,
      "ittal": 5335,
      "ĠParr": 5336,
      "amilton": 5337,
      "oret": 5338,
      "lash": 5339,
      "zuk": 5340,
      "Ġoutper": 5341,
      "Ġgele": 5342,
      "sciutto": 5343,
      "usst": 5344,
      "udar": 5345,
      "gal": 5346,
      "ithin": 5347,
      "jorie": 5348,
      "ĠLa": 5349,
      "Ġya": 5350,
      "Team": 5351,
      "ĠBian": 5352,
      "inks": 5353,
      "Zaw": 5354,
      "Ġalk": 5355,
      "ĠMaul": 5356,
      "Ġpref": 5357,
      "enam": 5358,
      "Ġsurp": 5359,
      "Ġmargin": 5360,
      "Operand": 5361,
      "annten": 5362,
      "ahkan": 5363,
      "ised": 5364,
      "ding": 5365,
      "ĠLanc": 5366,
      "ril": 5367,
      "fetch": 5368,
      "Ġreset": 5369,
      "ivalent": 5370,
      "IRE": 5371,
      "asone": 5372,
      "kins": 5373,
      "ĠUIF": 5374,
      "Ġtari": 5375,
      "RouteChange": 5376,
      "ede": 5377,
      "ĠOm": 5378,
      "Ġsa": 5379,
      "ipi": 5380,
      "UAG": 5381,
      "Ġcam": 5382,
      "orf": 5383,
      "Bitmap": 5384,
      "elho": 5385,
      "weise": 5386,
      "iejs": 5387,
      "acerItem": 5388,
      "ening": 5389,
      "egir": 5390,
      "real": 5391,
      "gerufen": 5392,
      "Me": 5393,
      "Signed": 5394,
      "SelectList": 5395,
      "ImgBoard": 5396,
      "enamefont": 5397,
      "orem": 5398,
      "Ġmenget": 5399,
      "elope": 5400,
      "iliy": 5401,
      "avkh": 5402,
      "ĠPog": 5403,
      "ĠOld": 5404,
      "Send": 5405,
      "CTime": 5406,
      "Ġouts": 5407,
      "ĠBridg": 5408,
      "ĠMO": 5409,
      "ĠFile": 5410,
      "Ġmatch": 5411,
      "Container": 5412,
      "iste": 5413,
      "affold": 5414,
      "uropean": 5415,
      "asley": 5416,
      "brakk": 5417,
      "Pay": 5418,
      "embran": 5419,
      "Ġdiscret": 5420,
      "reath": 5421,
      "Ġprom": 5422,
      "naud": 5423,
      "inda": 5424,
      "localVar": 5425,
      "Ġdici": 5426,
      "ĠProb": 5427,
      "Ġobsc": 5428,
      "irection": 5429,
      "Sched": 5430,
      "aksanakan": 5431,
      "inth": 5432,
      "etics": 5433,
      "Ġmap": 5434,
      "ĠDI": 5435,
      "enom": 5436,
      "agne": 5437,
      "alda": 5438,
      "lefthar": 5439,
      "nj": 5440,
      "ylmethyl": 5441,
      "aming": 5442,
      "Fe": 5443,
      "Ġcas": 5444,
      "ctions": 5445,
      "Ġarrog": 5446,
      "alance": 5447,
      "ustus": 5448,
      "edDevice": 5449,
      "ayo": 5450,
      "dued": 5451,
      "ĠHorn": 5452,
      "Ble": 5453,
      "BleStatus": 5454,
      "Profile": 5455,
      "Ġplay": 5456,
      "Ġconstit": 5457,
      "ILLER": 5458,
      "agre": 5459,
      "kten": 5460,
      "Ġemph": 5461,
      "lexstr": 5462,
      "Flo": 5463,
      "ĠSol": 5464,
      "ualaikum": 5465,
      "oare": 5466,
      "nios": 5467,
      "atab": 5468,
      "Ġtry": 5469,
      "etest": 5470,
      "ĠSer": 5471,
      "gener": 5472,
      "Ġah": 5473,
      "asaki": 5474,
      "opa": 5475,
      "Ġruf": 5476,
      "browser": 5477,
      "Colour": 5478,
      "ĠGet": 5479,
      "getDo": 5480,
      "ĠCAG": 5481,
      "ĠSRPGo": 5482,
      "etrieb": 5483,
      "elit": 5484,
      "Ġasympt": 5485,
      "Last": 5486,
      "ogenic": 5487,
      "mente": 5488,
      "ĠHerr": 5489,
      "ioid": 5490,
      "ĠWhit": 5491,
      "Ġtol": 5492,
      "Parent": 5493,
      "ahanga": 5494,
      "oker": 5495,
      "ĠSchwar": 5496,
      "pret": 5497,
      "erse": 5498,
      "olin": 5499,
      "Ġmath": 5500,
      "Ġpour": 5501,
      "Ġprotr": 5502,
      "Ġjal": 5503,
      "delay": 5504,
      "urz": 5505,
      "ography": 5506,
      "ixin": 5507,
      "anyu": 5508,
      "cliffe": 5509,
      "SCH": 5510,
      "hte": 5511,
      "ellow": 5512,
      "ommerce": 5513,
      "abwe": 5514,
      "ĠEdmund": 5515,
      "Ġnir": 5516,
      "sru": 5517,
      "spring": 5518,
      "sruhe": 5519,
      "oxid": 5520,
      "uGet": 5521,
      "atom": 5522,
      "rement": 5523,
      "ĠArist": 5524,
      "erville": 5525,
      "imest": 5526,
      "perg": 5527,
      "Ġendow": 5528,
      "Ġhandc": 5529,
      "inary": 5530,
      "ackbar": 5531,
      "ĠTrou": 5532,
      "ullen": 5533,
      "pc": 5534,
      "ĠMTL": 5535,
      "Ġnon": 5536,
      "NG": 5537,
      "acchar": 5538,
      "dul": 5539,
      "Ġwir": 5540,
      "base": 5541,
      "chnen": 5542,
      "IntValue": 5543,
      "eping": 5544,
      "apia": 5545,
      "ĠNx": 5546,
      "Ġruh": 5547,
      "ertown": 5548,
      "ibar": 5549,
      "Ht": 5550,
      "ĠGlo": 5551,
      "ĠGlouc": 5552,
      "unger": 5553,
      "arga": 5554,
      "ĠBens": 5555,
      "setImage": 5556,
      "ehr": 5557,
      "asmine": 5558,
      "Ġprobation": 5559,
      "Ġsign": 5560,
      "erein": 5561,
      "ĠTs": 5562,
      "Ġfoll": 5563,
      "Ġben": 5564,
      "Serial": 5565,
      "ogle": 5566,
      "avre": 5567,
      "ashed": 5568,
      "kowicz": 5569,
      "rances": 5570,
      "Death": 5571,
      "Ġbic": 5572,
      "iard": 5573,
      "MessageBox": 5574,
      "Ġscreen": 5575,
      "RN": 5576,
      "DetailUI": 5577,
      "gesch": 5578,
      "EK": 5579,
      "ayle": 5580,
      "slam": 5581,
      "ospor": 5582,
      "thena": 5583,
      "ĠOsb": 5584,
      "Ag": 5585,
      "quar": 5586,
      "ĠSrin": 5587,
      "ENCE": 5588,
      "ToJava": 5589,
      "uyu": 5590,
      "abella": 5591,
      "Mouse": 5592,
      "Loader": 5593,
      "angkat": 5594,
      "ĠJes": 5595,
      "ĠJesuit": 5596,
      "usin": 5597,
      "files": 5598,
      "stack": 5599,
      "PlatformImage": 5600,
      "jet": 5601,
      "adeh": 5602,
      "Ġpavatt": 5603,
      "isan": 5604,
      "Offsets": 5605,
      "OfDeath": 5606,
      "ĠDais": 5607,
      "ocarp": 5608,
      "ĠGile": 5609,
      "Templ": 5610,
      "Ġfles": 5611,
      "eja": 5612,
      "Ġsak": 5613,
      "Ġdhat": 5614,
      "indon": 5615,
      "hanahu": 5616,
      "ints": 5617,
      "inqu": 5618,
      "anesh": 5619,
      "Win": 5620,
      "WinCounter": 5621,
      "phant": 5622,
      "check": 5623,
      "Ġtransfer": 5624,
      "Annot": 5625,
      "heit": 5626,
      "ersive": 5627,
      "ĠRash": 5628,
      "iac": 5629,
      "ĠLE": 5630,
      "ĠRosh": 5631,
      "adip": 5632,
      "ĠCV": 5633,
      "oped": 5634,
      "enga": 5635,
      "tnie": 5636,
      "incl": 5637,
      "chievement": 5638,
      "Hot": 5639,
      "olen": 5640,
      "uously": 5641,
      "antiate": 5642,
      "ĠOsw": 5643,
      "rir": 5644,
      "amoto": 5645,
      "MM": 5646,
      "Scripts": 5647,
      "Tint": 5648,
      "uleiro": 5649,
      "INK": 5650,
      "seek": 5651,
      "eches": 5652,
      "ĠKec": 5653,
      "atim": 5654,
      "edown": 5655,
      "Translate": 5656,
      "Translatef": 5657,
      "Ġlag": 5658,
      "Ġmengg": 5659,
      "yel": 5660,
      "GRAM": 5661,
      "Complete": 5662,
      "sg": 5663,
      "ĠGlad": 5664,
      "Ġarter": 5665,
      "bound": 5666,
      "xcsch": 5667,
      "othermic": 5668,
      "imony": 5669,
      "zent": 5670,
      "Ġdehyd": 5671,
      "asy": 5672,
      "aner": 5673,
      "9>": 5674,
      "endum": 5675,
      "Ġphosph": 5676,
      "PushButton": 5677,
      "ethe": 5678,
      "orde": 5679,
      "ĠBanglad": 5680,
      "Ġdolor": 5681,
      "Ġleicht": 5682,
      "getS": 5683,
      "Ġkarot": 5684,
      "Range": 5685,
      "Infl": 5686,
      "uma": 5687,
      "Head": 5688,
      "Ġnirvach": 5689,
      "ĠNapole": 5690,
      "Ġmagnet": 5691,
      "ĠMenz": 5692,
      "Inflater": 5693,
      "nos": 5694,
      "ĠKab": 5695,
      "arlow": 5696,
      "onica": 5697,
      "Ġenroll": 5698,
      "aceut": 5699,
      "perBound": 5700,
      "iscilla": 5701,
      "Ġrag": 5702,
      "Ġmock": 5703,
      "Score": 5704,
      "elson": 5705,
      "Frame": 5706,
      "ritic": 5707,
      "uxt": 5708,
      "iding": 5709,
      "inguish": 5710,
      "adrup": 5711,
      "ĠRein": 5712,
      "agna": 5713,
      "ensity": 5714,
      "spective": 5715,
      "GTBase": 5716,
      "typ": 5717,
      "foam": 5718,
      "SignedIn": 5719,
      "actone": 5720,
      "emen": 5721,
      "Ġmadr": 5722,
      "HDROffsets": 5723,
      "Ġtariff": 5724,
      "Ġku": 5725,
      "anoe": 5726,
      "umlahan": 5727,
      "Found": 5728,
      "ĠLou": 5729,
      "tolower": 5730,
      "Ġbut": 5731,
      "INF": 5732,
      "inha": 5733,
      "uerite": 5734,
      "enum": 5735,
      "Ġmanoe": 5736,
      "ĠKauf": 5737,
      "ĠBra": 5738,
      "ĠLau": 5739,
      "icked": 5740,
      "Bride": 5741,
      "Compos": 5742,
      "ereo": 5743,
      "CIS": 5744,
      "binicons": 5745,
      "ormed": 5746,
      "Ġhepin": 5747,
      "car": 5748,
      "Flare": 5749,
      "arcin": 5750,
      "fried": 5751,
      "onies": 5752,
      "ingles": 5753,
      "othe": 5754,
      "py": 5755,
      "ichten": 5756,
      "orge": 5757,
      "wati": 5758,
      "ĠRow": 5759,
      "inear": 5760,
      "ĠMour": 5761,
      "Ġsplen": 5762,
      "Ġhom": 5763,
      "SCE": 5764,
      "Ġpoz": 5765,
      "CHAR": 5766,
      "Ġdigniss": 5767,
      "Ġfing": 5768,
      "pack": 5769,
      "ĠKy": 5770,
      "bd": 5771,
      "abil": 5772,
      "aching": 5773,
      "PhotoButton": 5774,
      "yip": 5775,
      "andae": 5776,
      "ĠAc": 5777,
      "Ġpropag": 5778,
      "unker": 5779,
      "Argument": 5780,
      "feld": 5781,
      "plained": 5782,
      "ingSt": 5783,
      "ĠRav": 5784,
      "Design": 5785,
      "ompar": 5786,
      "ĠVic": 5787,
      "ĠOk": 5788,
      "orral": 5789,
      "ibia": 5790,
      "theb": 5791,
      "idalgo": 5792,
      "peed": 5793,
      "inton": 5794,
      "Ġze": 5795,
      "day": 5796,
      "sig": 5797,
      "Ġimage": 5798,
      "ERV": 5799,
      "Ġdescon": 5800,
      "yste": 5801,
      "ĠCop": 5802,
      "oust": 5803,
      "aas": 5804,
      "zyst": 5805,
      "aspid": 5806,
      "kaar": 5807,
      "bell": 5808,
      "lems": 5809,
      "revista": 5810,
      "corper": 5811,
      "ethane": 5812,
      "BadRequest": 5813,
      "Ġzeb": 5814,
      "OD": 5815,
      "inak": 5816,
      "Ġsolen": 5817,
      "olk": 5818,
      "uza": 5819,
      "CharAt": 5820,
      "inin": 5821,
      "inters": 5822,
      "otient": 5823,
      "chau": 5824,
      "Idx": 5825,
      "HtIdx": 5826,
      "ophorus": 5827,
      "ĠTink": 5828,
      "Ġanisotrop": 5829,
      "Ġner": 5830,
      "ombe": 5831,
      "default": 5832,
      "TEST": 5833,
      "ĠSS": 5834,
      "Ġhyp": 5835,
      "azaki": 5836,
      "ĠOS": 5837,
      "ĠPen": 5838,
      "ermat": 5839,
      "ksam": 5840,
      "SaveFolder": 5841,
      "Ġconjug": 5842,
      "akra": 5843,
      "betrieb": 5844,
      "merksam": 5845,
      "ĠZus": 5846,
      "eban": 5847,
      "Ġsuit": 5848,
      "UST": 5849,
      "salary": 5850,
      "capt": 5851,
      "enger": 5852,
      "iso": 5853,
      "lyl": 5854,
      "iput": 5855,
      "ĠFeder": 5856,
      "Ġpositiv": 5857,
      "Ġrod": 5858,
      "othp": 5859,
      "ĠSac": 5860,
      "gbo": 5861,
      "ifix": 5862,
      "ypass": 5863,
      "ĠPaul": 5864,
      "osed": 5865,
      "outi": 5866,
      "amata": 5867,
      "ansson": 5868,
      "ĠBrun": 5869,
      "zie": 5870,
      "Speed": 5871,
      "ĠCF": 5872,
      "gebra": 5873,
      "Lens": 5874,
      "Ġdos": 5875,
      "hiy": 5876,
      "ĠSIINF": 5877,
      "ĠMoh": 5878,
      "value": 5879,
      "aguchi": 5880,
      "rific": 5881,
      "UNG": 5882,
      "adar": 5883,
      "Sant": 5884,
      "ULD": 5885,
      "pergillus": 5886,
      "ĠPeg": 5887,
      "ulose": 5888,
      "Local": 5889,
      "rc": 5890,
      "imid": 5891,
      "Ġboast": 5892,
      "onio": 5893,
      "Ġlance": 5894,
      "nemid": 5895,
      "itius": 5896,
      "annel": 5897,
      "Ġtap": 5898,
      "istan": 5899,
      "Decoration": 5900,
      "Ġimmun": 5901,
      "ERCENT": 5902,
      "mad": 5903,
      "metry": 5904,
      "cek": 5905,
      "Ġlay": 5906,
      "ĠBlanch": 5907,
      "breviation": 5908,
      "ĠtotalBlock": 5909,
      "ĠtotalBlockUsed": 5910,
      "Ġfact": 5911,
      "AMS": 5912,
      "hea": 5913,
      "ĠAK": 5914,
      "ĠSarat": 5915,
      "SSI": 5916,
      "Ġdraw": 5917,
      "ynh": 5918,
      "ĠMcCorm": 5919,
      "positroid": 5920,
      "Ġfug": 5921,
      "umped": 5922,
      "Ġclear": 5923,
      "vency": 5924,
      "Clazz": 5925,
      "ĠBarthol": 5926,
      "ĠBartholom": 5927,
      "ueprint": 5928,
      "ĠKam": 5929,
      "rameN": 5930,
      "ongrass": 5931,
      "BM": 5932,
      "aju": 5933,
      "Ġeu": 5934,
      "ourne": 5935,
      "errer": 5936,
      "lessis": 5937,
      "orp": 5938,
      "Ġdisf": 5939,
      "angen": 5940,
      "Ġmaneuver": 5941,
      "Ġvalid": 5942,
      "atar": 5943,
      "lan": 5944,
      "Us": 5945,
      "addies": 5946,
      "LA": 5947,
      "ossible": 5948,
      "Rt": 5949,
      "xRt": 5950,
      "ierra": 5951,
      "Ġsecond": 5952,
      "Ġdox": 5953,
      "eted": 5954,
      "isInt": 5955,
      "Ġvii": 5956,
      "Ġjob": 5957,
      "aders": 5958,
      "TypeCode": 5959,
      "TOR": 5960,
      "thorne": 5961,
      "Ġprost": 5962,
      "Ġuro": 5963,
      "<0x6": 5964,
      "ecido": 5965,
      "ĠSach": 5966,
      "orphisms": 5967,
      "ĠKait": 5968,
      "aust": 5969,
      "QT": 5970,
      "Weight": 5971,
      "ikh": 5972,
      "athe": 5973,
      "ration": 5974,
      "QTTR": 5975,
      "staw": 5976,
      "onia": 5977,
      "Ġbrib": 5978,
      "Pre": 5979,
      "ĠCart": 5980,
      "Ġbaj": 5981,
      "aldi": 5982,
      "std": 5983,
      "ĠSub": 5984,
      "RESS": 5985,
      "Ġunbel": 5986,
      "orov": 5987,
      "ĠStrick": 5988,
      "Eff": 5989,
      "aso": 5990,
      "getPackage": 5991,
      "label": 5992,
      "ĠPW": 5993,
      "ercicio": 5994,
      "Effect": 5995,
      "small": 5996,
      "elve": 5997,
      "aient": 5998,
      "ushrooms": 5999,
      "ivariate": 6000,
      "Ġcomment": 6001,
      "itorG": 6002,
      "idazol": 6003,
      "arty": 6004,
      "bol": 6005,
      "ĠPir": 6006,
      "aes": 6007,
      "LAGS": 6008,
      "ohar": 6009,
      "ĠKow": 6010,
      "acyj": 6011,
      "ople": 6012,
      "ositol": 6013,
[...]
