{
  "version": "1.0",
  "truncation": null,
  "padding": null,
  "added_tokens": [
    {
      "id": 6866,
      "content": "<UNK>",
      "single_word": false,
      "lstrip": false,
      "rstrip": false,
      "normalized": true,
      "special": true
    },
    {
      "id": 6867,
      "content": "<｜end▁of▁sentence｜>",
      "single_word": false,
      "lstrip": false,
      "rstrip": false,
      "normalized": true,
      "special": true
    },
    {
      "id": 6868,
      "content": "<｜pad｜>",
      "single_word": false,
      "lstrip": false,
      "rstrip": false,
      "normalized": true,
      "special": true
    },
    {
      "id": 6869,
      "content": "<｜begin▁of▁sentence｜>",
      "single_word": false,
      "lstrip": false,
      "rstrip": false,
      "normalized": true,
      "special": true
    }
  ],
  "normalizer": {
    "type": "Sequence",
    "normalizers": []
  },
  "pre_tokenizer": {
    "type": "Sequence",
    "pretokenizers": [
      {
        "type": "Split",
        "pattern": {
          "Regex": "[\\r\\n]"
        },
        "behavior": "Isolated",
        "invert": false
      },
      {
        "type": "Split",
        "pattern": {
          "Regex": "\\s?[A-Za-zµÀ-ÖØ-öø-ƺƼ-ƿǄ-ʓʕ-ʯͰ-ͳͶͷͻ-ͽͿΆΈ-ΊΌΎ-ΡΣ-ϵϷ-ҁҊ-ԯԱ-ՖႠ-ჅᎠ-Ᏽᏸ-ᏽᲐ-ᲺᲽ-Ჿᴀ-ᴫᵫ-ᵷᵹ-ᶚḀ-ἕἘ-Ἕἠ-ὅὈ-Ὅὐ-ὗὙὛὝὟ-ώᾀ-ᾴᾶ-ᾼιῂ-ῄῆ-ῌῐ-ΐῖ-Ίῠ-Ῥῲ-ῴῶ-ῼℂℇℊ-ℓℕℙ-ℝℤΩℨK-ℭℯ-ℴℹℼ-ℿⅅ-ⅉⅎↃↄⰀ-ⱻⱾ-ⳤⳫ-ⳮⳲⳳꙀ-ꙭꚀ-ꚛꜢ-ꝯꝱ-ꞇꞋ-ꞎꭰ-ꮿﬀ-ﬆﬓ-ﬗＡ-Ｚａ-ｚ𐐀-𐑏𐒰-𐓓𐓘-𐓻𐲀-𐲲𐳀-𐳲𑢠-𑣟𞤀-𞥃]+"
        },
        "behavior": "Isolated",
        "invert": false
      },
      {
        "type": "Split",
        "pattern": {
          "Regex": "\\s?[!-/:-~！-／：-～‘-‟　-。]+"
        },
        "behavior": "Isolated",
        "invert": false
      },
      {
        "type": "Split",
        "pattern": {
          "Regex": "\\s+$"
        },
        "behavior": "Isolated",
        "invert": false
      },
      {
        "type": "Split",
        "pattern": {
          "Regex": "[一-龥ࠀ-一가-퟿]+"
        },
        "behavior": "Isolated",
        "invert": false
      },
      {
        "type": "Digits",
        "individual_digits": true
      },
      {
        "type": "ByteLevel",
        "add_prefix_space": false,
        "trim_offsets": true,
        "use_regex": false
      }
    ]
  },
  "post_processor": {
    "type": "ByteLevel",
    "add_prefix_space": true,
    "trim_offsets": false,
    "use_regex": true
  },
  "decoder": {
    "type": "ByteLevel",
    "add_prefix_space": true,
    "trim_offsets": true,
    "use_regex": true
  },
  "model": {
    "type": "BPE",
    "dropout": null,
    "unk_token": "<UNK>",
    "continuing_subword_prefix": null,
    "end_of_word_suffix": null,
    "fuse_unk": false,
    "byte_fallback": false,
    "ignore_merges": false,
    "bMax_frequency": true,
    "max_frequency": 63649887,
    "vocab": {
      "kaw": 0,
      "Ġdeaminase": 1,
      "Ġmagnetized": 2,
      "Ġrespeito": 3,
      "Ġpollin": 4,
      "orel": 5,
      "uca": 6,
      "Ġcoarse": 7,
      "Ġextermin": 8,
      "Ġshirtless": 9,
      "ĠSLO": 10,
      "ĠAstron": 11,
      "Ġbaca": 12,
      "Ġsubcellular": 13,
      "ĠAlien": 14,
      "Commands": 15,
      "ĠATG": 16,
      "Ġmicrotub": 17,
      "Cadastro": 18,
      "Ġriddle": 19,
      "ĠChildren": 20,
      "Ġcalving": 21,
      "autoref": 22,
      "hooting": 23,
      "filament": 24,
      "ĠKubernetes": 25,
      "ajer": 26,
      "Ġdigital": 27,
      "Ġcommuters": 28,
      "lymph": 29,
      "Ġcabaret": 30,
      "vdash": 31,
      "ĠNation": 32,
      "ĠNero": 33,
      "ĠJournal": 34,
      "ĠTet": 35,
      "Ġfatorial": 36,
      "ĠZane": 37,
      "ĠRoofing": 38,
      "TouchUpInside": 39,
      "Ġsas": 40,
      "entario": 41,
      "ĠWochen": 42,
      "ĠUncle": 43,
      "Ġtower": 44,
      "ciato": 45,
      "ĠAudio": 46,
      "Ġpowiet": 47,
      "ĠNantucket": 48,
      "Ġsichtbar": 49,
      "Ġsasane": 50,
      "Ġwyp": 51,
      "lll": 52,
      "Ġdevs": 53,
      "Ġpassenger": 54,
      "Ġamelyet": 55,
      "cane": 56,
      "tdown": 57,
      "ĠSoft": 58,
      "Ġwatts": 59,
      "irtschaft": 60,
      "ummon": 61,
      "ĠInterfer": 62,
      "Ġcatapult": 63,
      "mega": 64,
      "rukh": 65,
      "ravel": 66,
      "ecker": 67,
      "Ġterza": 68,
      "ĠCovid": 69,
      "Ġreservados": 70,
      "Ġcaoutch": 71,
      "wives": 72,
      "ĠMog": 73,
      "iera": 74,
      "ĠEGFR": 75,
      "Ġbaos": 76,
      "ĠKhmer": 77,
      "Ġdvou": 78,
      "remia": 79,
      "Ġalimentare": 80,
      "Ġhadir": 81,
      "eworthy": 82,
      "MAPE": 83,
      "corruption": 84,
      "Trunc": 85,
      "Ġmagnific": 86,
      "Ġbarco": 87,
      "Ġdenkt": 88,
      "oger": 89,
      "atsiya": 90,
      "ApiKey": 91,
      "Ġconvain": 92,
      "caya": 93,
      "Ġchanges": 94,
      "ereal": 95,
      "Ġreplying": 96,
      "uestos": 97,
      "ĠPatel": 98,
      "inthe": 99,
      "ĠIgre": 100,
      "uride": 101,
      "ĠBez": 102,
      "Ġundamaged": 103,
      "ĠWorthing": 104,
      "iencias": 105,
      "insc": 106,
      "Ġdire": 107,
      "Ġbusy": 108,
      "Ġhops": 109,
      "brigen": 110,
      "Ġorthogonal": 111,
      "Ġsoooo": 112,
      "ĠdigitalWrite": 113,
      "Ġduda": 114,
      "ĠPaytm": 115,
      "ATHER": 116,
      "ubleshooting": 117,
      "Ġmagnificence": 118,
      "uwe": 119,
      "Ġcommunity": 120,
      "ewarm": 121,
      "OLINA": 122,
      "Ġoccupied": 123,
      "Ġcomunidad": 124,
      "Motor": 125,
      "velyan": 126,
      "Ġce": 127,
      "thread": 128,
      "Ġchup": 129,
      "enca": 130,
      "ĠNagasaki": 131,
      "Ġusername": 132,
      "Ġmessa": 133,
      "Ġdoubt": 134,
      "collapse": 135,
      "Ġordinal": 136,
      "Ġamass": 137,
      "ĠConquer": 138,
      "Ġrepel": 139,
      "Ġfileurl": 140,
      "Ġbiograf": 141,
      "claiming": 142,
      "Ġmagasiner": 143,
      "VENTORY": 144,
      "Ġseer": 145,
      "ĠHDD": 146,
      "Ġganhar": 147,
      "iume": 148,
      "Ġsandbox": 149,
      "ĠTroubleshooting": 150,
      "isieren": 151,
      "Ġsache": 152,
      "Ġcierra": 153,
      "altungs": 154,
      "ReactDOM": 155,
      "crm": 156,
      "ping": 157,
      "von": 158,
      "iml": 159,
      "Ġzap": 160,
      "neros": 161,
      "Ġhydroly": 162,
      "ulse": 163,
      "Ġreclaiming": 164,
      "Ġcompuestos": 165,
      "Ġconfirming": 166,
      "ped": 167,
      "Ġdagli": 168,
      "Ġdirectly": 169,
      "ĠKSI": 170,
      "Ġwander": 171,
      "Ġdiuretics": 172,
      "flowing": 173,
      "ĠDirectly": 174,
      "lii": 175,
      "untain": 176,
      "ĠNavajo": 177,
      "Ġtyranny": 178,
      "tailwindcss": 179,
      "iciente": 180,
      "ĠChopra": 181,
      "LOG": 182,
      "Ġhoraires": 183,
      "Ġhesap": 184,
      "Upgradeable": 185,
      "ĠBush": 186,
      "Ġcider": 187,
      "Ġepiz": 188,
      "names": 189,
      "Ġkarit": 190,
      "Ġkelompok": 191,
      "ĠMascul": 192,
      "ĠEch": 193,
      "coa": 194,
      "Ġresett": 195,
      "Ġjanuari": 196,
      "Ġgider": 197,
      "egaard": 198,
      "Ġmemutuskan": 199,
      "Ġvirgin": 200,
      "ĠBUL": 201,
      "Ġhitt": 202,
      "oderma": 203,
      "Ġlocalised": 204,
      "OTC": 205,
      "wchar": 206,
      "amana": 207,
      "Ġimpover": 208,
      "Ġhumanos": 209,
      "Ġpagination": 210,
      "Ġachievements": 211,
      "Ġgruppi": 212,
      "Ġcrim": 213,
      "ĠPizz": 214,
      "ĠDoe": 215,
      "ICAS": 216,
      "NaBr": 217,
      "Ġtyphoid": 218,
      "Ġcranks": 219,
      "Ġkuwa": 220,
      "ĠSurvival": 221,
      "Ġlocalidad": 222,
      "ĠBULLETIN": 223,
      "Lug": 224,
      "Ġsearing": 225,
      "ĠDRS": 226,
      "ĠZol": 227,
      "ĠMorrow": 228,
      "Ġprosecuting": 229,
      "Ġfleeing": 230,
      "awed": 231,
      "Ġlegenda": 232,
      "gebung": 233,
      "Ġcoolant": 234,
      "appelijke": 235,
      "lien": 236,
      "Ġpascal": 237,
      "ĠJiu": 238,
      "ocker": 239,
      "ĠsetTheme": 240,
      "Ġtransplant": 241,
      "penup": 242,
      "Ġvengeance": 243,
      "OVA": 244,
      "UGS": 245,
      "kry": 246,
      "ĠKato": 247,
      "Ġelim": 248,
      "MenuView": 249,
      "Ġumani": 250,
      "beb": 251,
      "nucle": 252,
      "Ġrambut": 253,
      "Ġstakes": 254,
      "Ġchia": 255,
      "Ġfirmly": 256,
      "Ġenvisage": 257,
      "random": 258,
      "Ġhashed": 259,
      "ĠScream": 260,
      "Ġterrito": 261,
      "Ġcephal": 262,
      "ĠMem": 263,
      "Ġalten": 264,
      "Ġprisoner": 265,
      "unuh": 266,
      "ĠTrot": 267,
      "ĠNons": 268,
      "ifat": 269,
      "Ġemblems": 270,
      "ĠBonnet": 271,
      "ĠchunkSize": 272,
      "Ġlicha": 273,
      "Ġforwarded": 274,
      "Ġborde": 275,
      "Ġgrad": 276,
      "Ġgrupa": 277,
      "luft": 278,
      "Ġdelen": 279,
      "Ġvelho": 280,
      "ENCIA": 281,
      "ĠSemantic": 282,
      "nucleon": 283,
      "Ġtall": 284,
      "ĠRipple": 285,
      "ĠChil": 286,
      "ResourceId": 287,
      "Ġcoloro": 288,
      "frastructure": 289,
      "hive": 290,
      "Ġtit": 291,
      "ĠHUM": 292,
      "ĠJe": 293,
      "Ġterrifying": 294,
      "randomIndex": 295,
      "ĠChilton": 296,
      "Ġpursu": 297,
      "ĠLoom": 298,
      "ĠVolt": 299,
      "icke": 300,
      "Ġleeft": 301,
      "RequestContext": 302,
      "ĠEDITION": 303,
      "Ġsummand": 304,
      "TEXTURE": 305,
      "mug": 306,
      "orsk": 307,
      "Ġfels": 308,
      "INION": 309,
      "uerra": 310,
      "Ġdowngrade": 311,
      "Ġadministrat": 312,
      "Ġpubblic": 313,
      "Javadoc": 314,
      "ĠNyl": 315,
      "ynucle": 316,
      "Ġnegate": 317,
      "Ġpursuing": 318,
      "chehen": 319,
      "Ġclair": 320,
      "Ġmicrotubules": 321,
      "kast": 322,
      "Iddict": 323,
      "AppDesigner": 324,
      "Ġroky": 325,
      "RANGER": 326,
      "Ġsquat": 327,
      "Ġester": 328,
      "Ġneu": 329,
      "Ġnibbacanam": 330,
      "Ġcranking": 331,
      "ĠDimitri": 332,
      "ĠTestAvgCallback": 333,
      "chodu": 334,
      "ĠUno": 335,
      "Ġexib": 336,
      "Ġforc": 337,
      "Ġmenggambarkan": 338,
      "Ġcerrar": 339,
      "bete": 340,
      "dicke": 341,
      "Ġapar": 342,
      "discipl": 343,
      "ĠKazakhstan": 344,
      "osal": 345,
      "Ġmatchups": 346,
      "Ġpredom": 347,
      "Ġindulged": 348,
      "Ġsecures": 349,
      "Ġcoolest": 350,
      "Ġreinado": 351,
      "DUT": 352,
      "myTransform": 353,
      "Ġimmutable": 354,
      "Ġmartingale": 355,
      "Ġdirname": 356,
      "esper": 357,
      "intre": 358,
      "defer": 359,
      "abhave": 360,
      "Ġantiguas": 361,
      "Ġoccurred": 362,
      "fairy": 363,
      "wara": 364,
      "Ġforeground": 365,
      "Ġdevice": 366,
      "Ġlaine": 367,
      "Ġcoinage": 368,
      "Ġsubmitting": 369,
      "ĠChampionship": 370,
      "repl": 371,
      "ienven": 372,
      "uvat": 373,
      "Ġdelhi": 374,
      "ciam": 375,
      "Ġpretend": 376,
      "ĠBaltes": 377,
      "Ġdex": 378,
      "Ġtyre": 379,
      "ottie": 380,
      "iverse": 381,
      "ĠRahmen": 382,
      "Ġhectic": 383,
      "differential": 384,
      "Ġabate": 385,
      "Ġabiotic": 386,
      "Ġaccess": 387,
      "Ġmountain": 388,
      "Ġcentroids": 389,
      "Ġpowert": 390,
      "reated": 391,
      "opsy": 392,
      "Ġrump": 393,
      "gette": 394,
      "iesen": 395,
      "NewCollection": 396,
      "Ġpsico": 397,
      "ĠCORE": 398,
      "oneph": 399,
      "Ġpersuad": 400,
      "Ġpermittee": 401,
      "Ġbeled": 402,
      "Ġfeder": 403,
      "Ġwade": 404,
      "Ġyelling": 405,
      "Ġdiverted": 406,
      "Ġpubblicato": 407,
      "Hull": 408,
      "ĠDifer": 409,
      "argout": 410,
      "ĠDynkin": 411,
      "ujte": 412,
      "TEE": 413,
      "Ġmoment": 414,
      "Ġfrightened": 415,
      "emark": 416,
      "Ġequates": 417,
      "ĠMedici": 418,
      "Ġgestational": 419,
      "zeichnungen": 420,
      "rademark": 421,
      "Ġfiebre": 422,
      "Ġmemoir": 423,
      "Ġoffsets": 424,
      "Ġzeml": 425,
      "kada": 426,
      "ĠLength": 427,
      "ĠEas": 428,
      "Ġpromote": 429,
      "emies": 430,
      "ĠStel": 431,
      "Ġresource": 432,
      "Ġrak": 433,
      "Ġaddiction": 434,
      "GameOver": 435,
      "ĠDrucker": 436,
      "Ġdisciplines": 437,
      "Ġsudo": 438,
      "ĠTaq": 439,
      "ĠWart": 440,
      "ByUser": 441,
      "ejs": 442,
      "myapp": 443,
      "regar": 444,
      "Ġsolitons": 445,
      "Ġwaard": 446,
      "Ġilla": 447,
      "Ġcouro": 448,
      "aboration": 449,
      "Ġresistencias": 450,
      "Ġscraping": 451,
      "Ġmanned": 452,
      "Ġgouttes": 453,
      "bok": 454,
      "Ġpux": 455,
      "inki": 456,
      "Ġequilibria": 457,
      "Ġresourceful": 458,
      "cope": 459,
      "athery": 460,
      "ĠAsync": 461,
      "Ġpenetrating": 462,
      "owal": 463,
      "iquity": 464,
      "Ġembaixo": 465,
      "Ġprevailing": 466,
      "Ġpollinators": 467,
      "cose": 468,
      "ishments": 469,
      "ampilan": 470,
      "hattam": 471,
      "Ġzemlji": 472,
      "ĠSym": 473,
      "Ġholl": 474,
      "Ġcomplex": 475,
      "ĠDisney": 476,
      "Ġsurvivor": 477,
      "Trail": 478,
      "Ġturbidity": 479,
      "Cep": 480,
      "isele": 481,
      "Ġpch": 482,
      "ilor": 483,
      "Ġbodh": 484,
      "naver": 485,
      "ĠRelig": 486,
      "Ġbodhis": 487,
      "ptide": 488,
      "ptions": 489,
      "ennzeichnet": 490,
      "autom": 491,
      "udding": 492,
      "Ġpegawai": 493,
      "Corps": 494,
      "ĠborderRadius": 495,
      "Ġmoored": 496,
      "Buddy": 497,
      "cings": 498,
      "Ġinappropriate": 499,
      "Ġscrum": 500,
      "Ġverzi": 501,
      "ebel": 502,
      "Ġdisb": 503,
      "Ġtrx": 504,
      "Ġbeaker": 505,
      "PlistBuddy": 506,
      "chop": 507,
      "ĠBlo": 508,
      "ĠPudding": 509,
      "riert": 510,
      "ĠRosa": 511,
      "IND": 512,
      "Ġaspires": 513,
      "Ġpredominate": 514,
      "Ġquaternary": 515,
      "ĠBandit": 516,
      "Ġdeportivas": 517,
      "babel": 518,
      "Ġdini": 519,
      "ĠDray": 520,
      "setText": 521,
      "azze": 522,
      "Ġprodu": 523,
      "interval": 524,
      "Ġabstracto": 525,
      "giveness": 526,
      "ĠOva": 527,
      "Ġqueda": 528,
      "Ġedizione": 529,
      "Ġregole": 530,
      "ĠReligions": 531,
      "Pseud": 532,
      "Ġuseless": 533,
      "ĠCessna": 534,
      "Ġcomplexion": 535,
      "uned": 536,
      "Ġhue": 537,
      "Decedent": 538,
      "Ġnotizie": 539,
      "Ġassent": 540,
      "Ġdeleniti": 541,
      "ĠEFT": 542,
      "ĠForth": 543,
      "Ġpostavlj": 544,
      "Ġpuzz": 545,
      "ĠANN": 546,
      "genza": 547,
      "Ġconsiderados": 548,
      "Ġcafes": 549,
      "ĠBloom": 550,
      "ĠANNUAL": 551,
      "oky": 552,
      "alling": 553,
      "umls": 554,
      "Ġdosage": 555,
      "Ġboyfriend": 556,
      "Ġvulve": 557,
      "Ġtelesc": 558,
      "Ġnostru": 559,
      "Ġaproxim": 560,
      "food": 561,
      "policy": 562,
      "rates": 563,
      "ĠProm": 564,
      "owali": 565,
      "Ġreh": 566,
      "Ġminimize": 567,
      "Ġeagerly": 568,
      "Ġdivulg": 569,
      "Ġdubai": 570,
      "Ġrejuvenate": 571,
      "Ġsangue": 572,
      "Anon": 573,
      "Ġevac": 574,
      "Ġrefres": 575,
      "Ġreferrer": 576,
      "Ġpromove": 577,
      "ĠManifest": 578,
      "Ġpuertos": 579,
      "Ġsloth": 580,
      "ĠEmm": 581,
      "Ġflashes": 582,
      "Ġunge": 583,
      "Ġvoorzien": 584,
      "ĠPasswort": 585,
      "Epis": 586,
      "Ġcausal": 587,
      "Ġbot": 588,
      "ackle": 589,
      "Ġsunroof": 590,
      "Ġhurling": 591,
      "Ġorthogonality": 592,
      "ĠKhab": 593,
      "Ġimidazole": 594,
      "Ġexclus": 595,
      "ytail": 596,
      "Ġveremos": 597,
      "Ġasseg": 598,
      "Ġaffirming": 599,
      "ĠKraken": 600,
      "Ġreferrerpolicy": 601,
      "Ġoure": 602,
      "ulter": 603,
      "emoji": 604,
      "ĠGinsburg": 605,
      "Ġinternals": 606,
      "kev": 607,
      "lent": 608,
      "ceil": 609,
      "Ġkidd": 610,
      "assured": 611,
      "Ġsubsidy": 612,
      "Ġencephalitis": 613,
      "multer": 614,
      "Ġcausality": 615,
      "ellas": 616,
      "Ġistri": 617,
      "Ġdeeply": 618,
      "Ġeloquent": 619,
      "guru": 620,
      "MBOLS": 621,
      "ĠBloomfield": 622,
      "werken": 623,
      "ĠInfin": 624,
      "Only": 625,
      "Ġneid": 626,
      "Ġoccuper": 627,
      "Ġlluv": 628,
      "obutyl": 629,
      "Ġsane": 630,
      "apol": 631,
      "Ġprel": 632,
      "Ġquel": 633,
      "Ġoverflowing": 634,
      "Ġoficial": 635,
      "ĠCassidy": 636,
      "Ġusc": 637,
      "ransition": 638,
      "ĠAragon": 639,
      "bash": 640,
      "fal": 641,
      "ĠHobb": 642,
      "ezing": 643,
      "gesi": 644,
      "inescence": 645,
      "Ġzeigt": 646,
      "Survived": 647,
      "ĠHobbes": 648,
      "orca": 649,
      "ĠTab": 650,
      "Ġinterdiscipl": 651,
      "ReadOnly": 652,
      "Ġsclerosis": 653,
      "ĠINTERNAL": 654,
      "Ġvictim": 655,
      "Ġsell": 656,
      "iano": 657,
      "UME": 658,
      "Ġinfrast": 659,
      "ĠBerth": 660,
      "Ġkissing": 661,
      "ĠSlick": 662,
      "ĠCampeonato": 663,
      "Sink": 664,
      "mese": 665,
      "Ġdill": 666,
      "Ġhong": 667,
      "Ġprospect": 668,
      "Replacement": 669,
      "itmedia": 670,
      "redditmedia": 671,
      "fragt": 672,
      "lceil": 673,
      "vais": 674,
      "Ġpeacetime": 675,
      "enthalt": 676,
      "Ġmeisjes": 677,
      "ĠpidMotor": 678,
      "Ġcenderung": 679,
      "Ġmuni": 680,
      "Ġfluff": 681,
      "Ġexcell": 682,
      "Ġrigs": 683,
      "Ġloosening": 684,
      "Ġsellest": 685,
      "Dowell": 686,
      "chis": 687,
      "linic": 688,
      "OLUME": 689,
      "Ġhongos": 690,
      "inental": 691,
      "Ġjuj": 692,
      "ermost": 693,
      "Ġdisagrees": 694,
      "rscheinlich": 695,
      "ĠInfinix": 696,
      "Ġbatik": 697,
      "attie": 698,
      "orbes": 699,
      "TabIndex": 700,
      "CNC": 701,
      "ĠNormandy": 702,
      "Ġwarping": 703,
      "Ġmyeloma": 704,
      "VOLUME": 705,
      "atok": 706,
      "Ġbellow": 707,
      "Ġanys": 708,
      "ĠMott": 709,
      "zta": 710,
      "ĠElli": 711,
      "Ġtraff": 712,
      "Ġscreaming": 713,
      "ĠConstitu": 714,
      "ĠAula": 715,
      "ĠNGC": 716,
      "Ġaprob": 717,
      "Ġodlu": 718,
      "ĠObrador": 719,
      "Calibration": 720,
      "ĠTabLayout": 721,
      "Ġprospecting": 722,
      "cemic": 723,
      "fand": 724,
      "redited": 725,
      "bral": 726,
      "Ġdeclar": 727,
      "Ġoutnumbered": 728,
      "winter": 729,
      "ĠWoodson": 730,
      "ĠCanarias": 731,
      "Ġautom": 732,
      "Ġscrittura": 733,
      "Ġlukewarm": 734,
      "iyoruz": 735,
      "Ġtalleres": 736,
      "unittest": 737,
      "ogin": 738,
      "Ġcollapsing": 739,
      "Ġcomentado": 740,
      "Ġrecomiendo": 741,
      "ĠConstituency": 742,
      "arbe": 743,
      "COLOG": 744,
      "Ġrefining": 745,
      "Ġdiscredited": 746,
      "Ġnegativity": 747,
      "Ġadvising": 748,
      "exclude": 749,
      "pple": 750,
      "Ġintoler": 751,
      "wicklung": 752,
      "errorCode": 753,
      "ĠHadrian": 754,
      "pedido": 755,
      "FIELD": 756,
      "Ġvive": 757,
      "ĠYfine": 758,
      "Ġverir": 759,
      "Synced": 760,
      "Ġsealer": 761,
      "ĠSuf": 762,
      "ĠTrust": 763,
      "Ġeure": 764,
      "Ġelytra": 765,
      "ĠHelpline": 766,
      "Ġerbj": 767,
      "batis": 768,
      "derm": 769,
      "Ġstylus": 770,
      "Ġresides": 771,
      "Ġhumano": 772,
      "Ġsockets": 773,
      "Ġpiloted": 774,
      "Ġperfect": 775,
      "ĠClash": 776,
      "Ġhibernate": 777,
      "Ġcornice": 778,
      "Ġszer": 779,
      "ackets": 780,
      "glfw": 781,
      "Ġpalab": 782,
      "Ġinfancia": 783,
      "Ġcrumb": 784,
      "ĠSDW": 785,
      "grave": 786,
      "Ġnoma": 787,
      "ocke": 788,
      "Ġhumanas": 789,
      "Ġresurrected": 790,
      "ĠSummon": 791,
      "ĠPeer": 792,
      "Ġberd": 793,
      "Ġkurs": 794,
      "udas": 795,
      "noticed": 796,
      "Ġshameless": 797,
      "Ġerbjuder": 798,
      "evisia": 799,
      "oppers": 800,
      "ĠSurreal": 801,
      "ĠJinping": 802,
      "Ġcerevisia": 803,
      "Ġwybor": 804,
      "ĠSTREET": 805,
      "ĠSimilar": 806,
      "Ġcerevisiae": 807,
      "Kra": 808,
      "chond": 809,
      "Ġunle": 810,
      "collegiate": 811,
      "onomics": 812,
      "Ġbuon": 813,
      "ĠMECHANICAL": 814,
      "Ġruk": 815,
      "Ġbroth": 816,
      "Ġtherapeutic": 817,
      "bej": 818,
      "achine": 819,
      "Ġeuh": 820,
      "ĠInMemory": 821,
      "Ġtanta": 822,
      "ipelines": 823,
      "Ġquelcon": 824,
      "jshint": 825,
      "ĠMaret": 826,
      "Ġhoisted": 827,
      "Ġceased": 828,
      "RENGTH": 829,
      "Ġpersuading": 830,
      "Ġimpress": 831,
      "othed": 832,
      "Ġramping": 833,
      "ĠValentino": 834,
      "Ġgaman": 835,
      "Birthday": 836,
      "Ġdeft": 837,
      "Ġappel": 838,
      "Ġcorrespond": 839,
      "ĠNegative": 840,
      "Negative": 841,
      "AniPaf": 842,
      "Tet": 843,
      "Ġbasse": 844,
      "imerick": 845,
      "Ġmotoc": 846,
      "okkal": 847,
      "Episodes": 848,
      "vic": 849,
      "Information": 850,
      "EGA": 851,
      "myItemType": 852,
      "Ġoccasional": 853,
      "Ġhospitales": 854,
      "MEGA": 855,
      "joke": 856,
      "iceras": 857,
      "ĠInstance": 858,
      "Ġflipping": 859,
      "Ġconclusion": 860,
      "Ġaudacity": 861,
      "ĠMemoirs": 862,
      "cardo": 863,
      "mux": 864,
      "Ġophthal": 865,
      "oreach": 866,
      "ushman": 867,
      "Ġoffici": 868,
      "Ġdischarges": 869,
      "Ġprotestors": 870,
      "ĠTrustee": 871,
      "ĠChez": 872,
      "Ġkip": 873,
      "Ġquarks": 874,
      "Ġouting": 875,
      "ĠTolkien": 876,
      "erichia": 877,
      "Ġdrewn": 878,
      "otene": 879,
      "getAsJsonObject": 880,
      "ĠShibuya": 881,
      "ĠEscherichia": 882,
      "Ġnextline": 883,
      "Bron": 884,
      "maras": 885,
      "ĠRabat": 886,
      "Ġfrant": 887,
      "ĠJel": 888,
      "Ġblot": 889,
      "ĠMyApplication": 890,
      "Ġtrafficking": 891,
      "clides": 892,
      "redo": 893,
      "fonts": 894,
      "Ġadministrators": 895,
      "cephalus": 896,
      "Ġvictimization": 897,
      "Bike": 898,
      "Ġhuj": 899,
      "Ġkursi": 900,
      "ĠLop": 901,
      "ĠFIELDS": 902,
      "ĠWikip": 903,
      "abbe": 904,
      "ĠVaish": 905,
      "Ġlocalhost": 906,
      "Ġtreacherous": 907,
      "barrel": 908,
      "Ġpoh": 909,
      "ĠBLO": 910,
      "quitos": 911,
      "IPPING": 912,
      "rophe": 913,
      "Ġresetting": 914,
      "ĠBLOOD": 915,
      "etched": 916,
      "Ġunlucky": 917,
      "addItem": 918,
      "earnings": 919,
      "Ġpalpit": 920,
      "ĠCanvas": 921,
      "ĠMarquette": 922,
      "getDefaultSh": 923,
      "ĠSprite": 924,
      "Ġbosh": 925,
      "ĠGas": 926,
      "ĠThorough": 927,
      "macd": 928,
      "ĠGABA": 929,
      "npj": 930,
      "Ġhull": 931,
      "ĠVGA": 932,
      "WithOptions": 933,
      "Ġlagu": 934,
      "Ġreflexion": 935,
      "Ġnemo": 936,
      "Hak": 937,
      "gc": 938,
      "got": 939,
      "ĠBouch": 940,
      "igheid": 941,
      "Ġencour": 942,
      "imeters": 943,
      "Ġoccuring": 944,
      "Ġschwierig": 945,
      "olge": 946,
      "Ġkoost": 947,
      "Ġexuber": 948,
      "mapSize": 949,
      "Ġtransact": 950,
      "ĠMonaten": 951,
      "ĠRepair": 952,
      "Ġfournisseurs": 953,
      "Ġentferne": 954,
      "LENGTH": 955,
      "Ġdeformed": 956,
      "OTROS": 957,
      "ĠGaspar": 958,
      "Ġkinn": 959,
      "DebugInformation": 960,
      "ĠHoop": 961,
      "Ġbroad": 962,
      "Ġlaureate": 963,
      "Ġtrench": 964,
      "Ġpohod": 965,
      "Ġselles": 966,
      "Ġcnpj": 967,
      "minent": 968,
      "ĠBezirk": 969,
      "mbr": 970,
      "acor": 971,
      "Ġvector": 972,
      "ĠClass": 973,
      "Ġglobal": 974,
      "Ġsemanal": 975,
      "Ġluft": 976,
      "excludeFolder": 977,
      "ĠBouchard": 978,
      "aiya": 979,
      "ĠAppliance": 980,
      "Ġmeiosis": 981,
      "Ġseepage": 982,
      "Ġsorgt": 983,
      "Ġlatte": 984,
      "Ġinactive": 985,
      "ifu": 986,
      "IDAD": 987,
      "widths": 988,
      "ĠZeeman": 989,
      "ĠAgricultura": 990,
      "IDADES": 991,
      "ightbox": 992,
      "Ġautobiography": 993,
      "Ġinoculum": 994,
      "Ġfrantic": 995,
      "capi": 996,
      "puter": 997,
      "atique": 998,
      "Ġannuel": 999,
      "Ġpurpos": 1000,
      "Ġpromover": 1001,
      "Ġboreal": 1002,
      "ĠAuftrag": 1003,
      "Ġcowling": 1004,
      "dington": 1005,
      "verick": 1006,
      "Ġexceptions": 1007,
      "rolls": 1008,
      "Addo": 1009,
      "Ġwhakam": 1010,
      "Ġteething": 1011,
      "costs": 1012,
      "Ġgrafted": 1013,
      "Ġwikip": 1014,
      "Ġsljede": 1015,
      "Ġrecue": 1016,
      "Ġirrevers": 1017,
      "ĠSchools": 1018,
      "enderal": 1019,
      "NuGetPackage": 1020,
      "ĠPed": 1021,
      "otimes": 1022,
      "Ġbote": 1023,
      "ĠWitten": 1024,
      "astas": 1025,
      "Ġskriv": 1026,
      "Ġloaf": 1027,
      "arently": 1028,
      "ĠDisc": 1029,
      "Ġmartens": 1030,
      "Ġkomponent": 1031,
      "Ġteleport": 1032,
      "Ġsemblable": 1033,
      "chtigt": 1034,
      "Ġclan": 1035,
      "Ġpersegu": 1036,
      "PDO": 1037,
      "Ġsoov": 1038,
      "Ġpanda": 1039,
      "ĠSoph": 1040,
      "Delayed": 1041,
      "ĠRepublic": 1042,
      "ĠEXEMPLARY": 1043,
      "ĠPedersen": 1044,
      "entities": 1045,
      "ĠTone": 1046,
      "ĠOOP": 1047,
      "ASDAQ": 1048,
      "oveTo": 1049,
      "Ġantiguos": 1050,
      "ĠStamford": 1051,
      "Ġcondos": 1052,
      "Ġpropagation": 1053,
      "ĠHobart": 1054,
      "ĠHaut": 1055,
      "IOC": 1056,
      "Ġlaborator": 1057,
      "Ġcorner": 1058,
      "Ġbrutally": 1059,
      "Ġlighter": 1060,
      "ĠJu": 1061,
      "weet": 1062,
      "Ġanex": 1063,
      "Ġgrubu": 1064,
      "Ġsharper": 1065,
      "Ġbek": 1066,
      "ĠFractal": 1067,
      "Ġmasculino": 1068,
      "setRequestHeader": 1069,
      "ĠBram": 1070,
      "Ġfuncion": 1071,
      "ansa": 1072,
      "Ġyay": 1073,
      "Ġgrand": 1074,
      "GPoint": 1075,
      "Ġconjunct": 1076,
      "Ġcriminally": 1077,
      "Ġloafers": 1078,
      "unhofer": 1079,
      "ĠKofi": 1080,
      "Ġauxquelles": 1081,
      "Ġhuesos": 1082,
      "Ġunas": 1083,
      "Abi": 1084,
      "Ġsickening": 1085,
      "href": 1086,
      "Ġziem": 1087,
      "QueryResult": 1088,
      "Ġrevamped": 1089,
      "Genres": 1090,
      "ĠNapier": 1091,
      "muc": 1092,
      "astered": 1093,
      "ĠXeon": 1094,
      "ological": 1095,
      "itori": 1096,
      "Ġremastered": 1097,
      "Ġsuccede": 1098,
      "Ġfinde": 1099,
      "Ġestablece": 1100,
      "ĠKendrick": 1101,
      "elig": 1102,
      "Ġvex": 1103,
      "Ġeql": 1104,
      "Ġaffirm": 1105,
      "ĠEthiop": 1106,
      "Ġsimilaire": 1107,
      "Ġmasak": 1108,
      "TOM": 1109,
      "hya": 1110,
      "esten": 1111,
      "Ġneoliberal": 1112,
      "Ġponemos": 1113,
      "aternion": 1114,
      "Ġbirthday": 1115,
      "Ġsprinter": 1116,
      "biss": 1117,
      "Ġrom": 1118,
      "Ġkogu": 1119,
      "Ġincreas": 1120,
      "kovskij": 1121,
      "Ġgeneralization": 1122,
      "elbe": 1123,
      "Ġdarah": 1124,
      "Ġkola": 1125,
      "ĠRedd": 1126,
      "Ġreborn": 1127,
      "without": 1128,
      "dogan": 1129,
      "ĠSDS": 1130,
      "Ġexec": 1131,
      "Ġadenos": 1132,
      "Ġconfirms": 1133,
      "Ġalunos": 1134,
      "Ġdaerah": 1135,
      "Ut": 1136,
      "ĠRabin": 1137,
      "week": 1138,
      "Ġhesitant": 1139,
      "passenger": 1140,
      "Ġspoilers": 1141,
      "cypress": 1142,
      "ĠINFO": 1143,
      "Ġsignatory": 1144,
      "ĠVigil": 1145,
      "Fused": 1146,
      "Pub": 1147,
      "Ġkaki": 1148,
      "Ġporos": 1149,
      "StoreException": 1150,
      "ĠNSCs": 1151,
      "ĠSegu": 1152,
      "ĠCup": 1153,
      "ĠPell": 1154,
      "Ġwide": 1155,
      "airline": 1156,
      "scribed": 1157,
      "Mechan": 1158,
      "bians": 1159,
      "gah": 1160,
      "setP": 1161,
      "slateblue": 1162,
      "Ġutilizza": 1163,
      "Ġtubercles": 1164,
      "ĠWikiped": 1165,
      "ĠCupertino": 1166,
      "prin": 1167,
      "onsored": 1168,
      "ĠCorrosion": 1169,
      "Ġsurprise": 1170,
      "Ġballast": 1171,
      "Ġterritorio": 1172,
      "Ġdanam": 1173,
      "ĠSchubert": 1174,
      "Ġarsen": 1175,
      "Ġrevoked": 1176,
      "Ġformatos": 1177,
      "typography": 1178,
      "numpy": 1179,
      "ĠPrec": 1180,
      "uidado": 1181,
      "ĠBurmese": 1182,
      "startIndex": 1183,
      "Ġtenor": 1184,
      "ĠWaist": 1185,
      "ĠHog": 1186,
      "Ġrecl": 1187,
      "erven": 1188,
      "ownic": 1189,
      "Ġrepublic": 1190,
      "Ġqil": 1191,
      "Ġsomewhat": 1192,
      "Ġtilby": 1193,
      "rina": 1194,
      "Ġcloves": 1195,
      "Ġpretends": 1196,
      "Ġscratches": 1197,
      "Ġastute": 1198,
      "Ġvoluntad": 1199,
      "INDOW": 1200,
      "veh": 1201,
      "Ġbaff": 1202,
      "ĠHem": 1203,
      "Ġswelled": 1204,
      "TabText": 1205,
      "Ġdeportiva": 1206,
      "Ġhop": 1207,
      "ecia": 1208,
      "Ġxiii": 1209,
      "ĠendGame": 1210,
      "marginY": 1211,
      "Ġkhawatir": 1212,
      "Tower": 1213,
      "Ġsex": 1214,
      "ĠDah": 1215,
      "ĠHase": 1216,
      "ĠKroger": 1217,
      "hear": 1218,
      "meier": 1219,
      "Ġcolliding": 1220,
      "Ġmultiplicative": 1221,
      "eture": 1222,
      "ĠDeo": 1223,
      "ĠGym": 1224,
      "apod": 1225,
      "cke": 1226,
      "Ġcreeps": 1227,
      "Ġhalve": 1228,
      "Ġhesitate": 1229,
      "circled": 1230,
      "asgi": 1231,
      "Ġwilde": 1232,
      "Ġsaka": 1233,
      "imilar": 1234,
      "Ġcomulti": 1235,
      "Ġembell": 1236,
      "Ġwillful": 1237,
      "ĠHemsworth": 1238,
      "Ġgrie": 1239,
      "setAttribute": 1240,
      "ailability": 1241,
      "Ġsaloon": 1242,
      "TAINS": 1243,
      "stepDeploy": 1244,
      "IENTS": 1245,
      "ĠAdvis": 1246,
      "Ġpropone": 1247,
      "ĠFontSize": 1248,
      "Estate": 1249,
      "ĠFuture": 1250,
      "Ġreplen": 1251,
      "Ġcollateral": 1252,
      "Ġbulunan": 1253,
      "Ġromp": 1254,
      "ĠDahmer": 1255,
      "shear": 1256,
      "inek": 1257,
      "Ġedibles": 1258,
      "Ġmenghindari": 1259,
      "Ġhtmlentities": 1260,
      "ĠGermans": 1261,
      "Ninja": 1262,
      "arrows": 1263,
      "ĠMUM": 1264,
      "Ġconter": 1265,
      "Ġconstru": 1266,
      "Album": 1267,
      "rbrack": 1268,
      "abetes": 1269,
      "Ġregistre": 1270,
      "wif": 1271,
      "usaha": 1272,
      "spers": 1273,
      "Ġclosure": 1274,
      "Ġmaggior": 1275,
      "NIS": 1276,
      "Ġdomen": 1277,
      "otte": 1278,
      "ĠBrion": 1279,
      "Ġblod": 1280,
      "Ġemphatically": 1281,
      "roads": 1282,
      "Ġseason": 1283,
      "Veteran": 1284,
      "guh": 1285,
      "ĠLof": 1286,
      "Ġlij": 1287,
      "ishwa": 1288,
      "Ġparents": 1289,
      "Ġdownloader": 1290,
      "ĠMatth": 1291,
      "Ġllvm": 1292,
      "okban": 1293,
      "Ġparag": 1294,
      "Flat": 1295,
      "Ġintolerance": 1296,
      "Description": 1297,
      "objectId": 1298,
      "yard": 1299,
      "ĠBaca": 1300,
      "Ġjobb": 1301,
      "usten": 1302,
      "Ġerine": 1303,
      "ĠAbyss": 1304,
      "ĠForster": 1305,
      "Ġcirconst": 1306,
      "pone": 1307,
      "ĠHTM": 1308,
      "Ġgosto": 1309,
      "ewords": 1310,
      "Ġcontest": 1311,
      "ĠCoronavirus": 1312,
      "Coronavirus": 1313,
      "ĠHTMLElement": 1314,
      "Ġweek": 1315,
      "ajn": 1316,
      "Ġrealiza": 1317,
      "Ġsensational": 1318,
      "Ġinternalization": 1319,
      "ĠRochelle": 1320,
      "automne": 1321,
      "Ġdomenica": 1322,
      "Ġharn": 1323,
      "ellschaft": 1324,
      "Ġjugu": 1325,
      "Ġerstm": 1326,
      "Ġmocks": 1327,
      "ĠSOFT": 1328,
      "Ġreplenished": 1329,
      "ĠMatthews": 1330,
      "Hook": 1331,
      "ĠBaat": 1332,
      "ĠTach": 1333,
      "Ġintellect": 1334,
      "Ġsectores": 1335,
      "ĠstatusCode": 1336,
      "Ġinvol": 1337,
      "ampur": 1338,
      "Ġcontestants": 1339,
      "alloy": 1340,
      "Ġjaun": 1341,
      "volley": 1342,
      "uak": 1343,
      "Ġhvil": 1344,
      "Nullable": 1345,
      "Ġported": 1346,
      "Ġglycol": 1347,
      "ĠdeviceInfo": 1348,
      "ket": 1349,
      "Ġetc": 1350,
      "Ġproverbial": 1351,
      "Ġsouha": 1352,
      "Ġmasculina": 1353,
      "ĠPrimarily": 1354,
      "ĠMecca": 1355,
      "Ġaga": 1356,
      "Ġtolerances": 1357,
      "Ġhvilket": 1358,
      "itek": 1359,
      "omber": 1360,
      "Ġdissipation": 1361,
      "dsale": 1362,
      "kost": 1363,
      "ĠSev": 1364,
      "ĠForman": 1365,
      "ijden": 1366,
      "pmmImp": 1367,
      "Ġsatin": 1368,
      "ĠDocket": 1369,
      "Responder": 1370,
      "Ġfevereiro": 1371,
      "zina": 1372,
      "idious": 1373,
      "Ġsaranam": 1374,
      "morgan": 1375,
      "churn": 1376,
      "osim": 1377,
      "asts": 1378,
      "Ġinsidious": 1379,
      "efficient": 1380,
      "Ġsucceeding": 1381,
      "Ġhopeless": 1382,
      "cok": 1383,
      "ĠBana": 1384,
      "Ġdestin": 1385,
      "ĠDense": 1386,
      "opecia": 1387,
      "getLocal": 1388,
      "Ġalopecia": 1389,
      "Ġmagnets": 1390,
      "ĠRehab": 1391,
      "jobb": 1392,
      "endroit": 1393,
      "Ġlegjobb": 1394,
      "Ġabhor": 1395,
      "Ġcaesar": 1396,
      "woven": 1397,
      "itura": 1398,
      "assets": 1399,
      "ILING": 1400,
      "Ġbenzodiazep": 1401,
      "Ġheavenly": 1402,
      "Sk": 1403,
      "Ġtunic": 1404,
      "armes": 1405,
      "ĠThiel": 1406,
      "Ġauctions": 1407,
      "Ġsnuff": 1408,
      "vara": 1409,
      "Ġfico": 1410,
      "ĠInstrument": 1411,
      "umbrella": 1412,
      "Ġpensando": 1413,
      "OTA": 1414,
      "ULO": 1415,
      "usely": 1416,
      "ĠGeek": 1417,
      "Ġkomm": 1418,
      "Ġthrottle": 1419,
      "Ġcheckpoint": 1420,
      "Ġsuspense": 1421,
      "Semitic": 1422,
      "ĠDiscipline": 1423,
      "ikal": 1424,
      "Ġproton": 1425,
      "hrassets": 1426,
      "Ġinterwoven": 1427,
      "Ġsmugg": 1428,
      "conti": 1429,
      "Ġidol": 1430,
      "ĠProvid": 1431,
      "elands": 1432,
      "ĠEphesus": 1433,
      "Ġelectronics": 1434,
      "ĠCorso": 1435,
      "ĠChampl": 1436,
      "Ġoverhead": 1437,
      "fillStyle": 1438,
      "Ġairport": 1439,
      "ĠChamplain": 1440,
      "PATCH": 1441,
      "Ġess": 1442,
      "Ġbesz": 1443,
      "unto": 1444,
      "iosos": 1445,
      "ĠErst": 1446,
      "Ġproposons": 1447,
      "Ġnumerador": 1448,
      "emn": 1449,
      "ayos": 1450,
      "Ġstink": 1451,
      "Ġxer": 1452,
      "Ġtestament": 1453,
      "Ġbesuchen": 1454,
      "Ġfrontman": 1455,
      "Ġexuberant": 1456,
      "Ġdont": 1457,
      "Ġlaut": 1458,
      "ĠPonce": 1459,
      "ĠStealth": 1460,
      "Ġpromouvoir": 1461,
      "Ġunanimously": 1462,
      "arsk": 1463,
      "Ġlisteners": 1464,
      "Ġtweeted": 1465,
      "Ġrollback": 1466,
      "Ġcommonplace": 1467,
      "ĠFutureWarning": 1468,
      "duck": 1469,
      "peptide": 1470,
      "GetLength": 1471,
      "Ġtrrecl": 1472,
      "Ġprestig": 1473,
      "QSpacerItem": 1474,
      "zuc": 1475,
      "ionais": 1476,
      "ocrat": 1477,
      "ĠFein": 1478,
      "hetam": 1479,
      "Ġtrek": 1480,
      "Ġascii": 1481,
      "ĠDeferred": 1482,
      "IFICATIONS": 1483,
      "okus": 1484,
      "Ġreinv": 1485,
      "Ġincumbent": 1486,
      "Ġbrind": 1487,
      "Ġrenew": 1488,
      "ovalent": 1489,
      "Ġbandana": 1490,
      "Ġelegantly": 1491,
      "akyReLU": 1492,
      "ĠGymnasium": 1493,
      "moveTo": 1494,
      "adl": 1495,
      "apeutic": 1496,
      "Ġzahl": 1497,
      "Ġleche": 1498,
      "Ġimagine": 1499,
      "ĠATC": 1500,
      "Ġnombr": 1501,
      "ĠFields": 1502,
      "anamo": 1503,
      "bundles": 1504,
      "ĠFloret": 1505,
      "elige": 1506,
      "Ġslander": 1507,
      "ĠStroke": 1508,
      "ĠScene": 1509,
      "xxxx": 1510,
      "scripts": 1511,
      "ĠInstrumented": 1512,
      "ITU": 1513,
      "Ġinsides": 1514,
      "ĠStranger": 1515,
      "builders": 1516,
      "Ġinscrit": 1517,
      "ĠAntioch": 1518,
      "CXX": 1519,
      "Ġcray": 1520,
      "enea": 1521,
      "Ġpotrav": 1522,
      "Ġschn": 1523,
      "Ġviscosity": 1524,
      "Ġqueuing": 1525,
      "ĠAtt": 1526,
      "ĠFourier": 1527,
      "ĠLeBron": 1528,
      "ĠVerge": 1529,
      "Ġpopolazione": 1530,
      "Ġafterward": 1531,
      "Ġublox": 1532,
      "widetilde": 1533,
      "JLabel": 1534,
      "Ġfidget": 1535,
      "Ġviej": 1536,
      "logits": 1537,
      "expiration": 1538,
      "Ġcourt": 1539,
      "ĠHessen": 1540,
      "opard": 1541,
      "Ġvrij": 1542,
      "Ġalb": 1543,
      "raciones": 1544,
      "Ġaggregator": 1545,
      "Ġdeclaring": 1546,
      "ĠProvidence": 1547,
      "Hispanic": 1548,
      "zv": 1549,
      "ilient": 1550,
      "Ġthro": 1551,
      "acchus": 1552,
      "Ġafirm": 1553,
      "Ġsimpl": 1554,
      "Ġautocor": 1555,
      "ĠZeiss": 1556,
      "Ġacorns": 1557,
      "Ġrecognizes": 1558,
      "gew": 1559,
      "rw": 1560,
      "ilized": 1561,
      "Ġhinn": 1562,
      "Ġkrw": 1563,
      "ambrian": 1564,
      "ienza": 1565,
      "ETHO": 1566,
      "Ġutan": 1567,
      "ĠTRANSACTION": 1568,
      "Ġcannibal": 1569,
      "Ġasegurar": 1570,
      "Ġscriptlevel": 1571,
      "Ġkrwi": 1572,
      "ETHODS": 1573,
      "rils": 1574,
      "Ġrushes": 1575,
      "Ġresented": 1576,
      "Ġrectified": 1577,
      "Ġwelchem": 1578,
      "Ġprosecute": 1579,
      "Ġbakt": 1580,
      "ĠKoff": 1581,
      "Ġcheats": 1582,
      "iwers": 1583,
      "tickets": 1584,
      "uly": 1585,
      "Coefficient": 1586,
      "scre": 1587,
      "scenes": 1588,
      "argate": 1589,
      "Ġdiscer": 1590,
      "AspNetCore": 1591,
      "ĠOnda": 1592,
      "bure": 1593,
      "vpn": 1594,
      "zeppelin": 1595,
      "Ġpulver": 1596,
      "Ġhumana": 1597,
      "Ġacademic": 1598,
      "Sund": 1599,
      "zul": 1600,
      "ĠStowe": 1601,
      "ressive": 1602,
      "HTTPRequest": 1603,
      "ĠSolar": 1604,
      "ĠRecogn": 1605,
      "Ġserupa": 1606,
      "Ġcrystallized": 1607,
      "ĠSponsor": 1608,
      "Ġbilg": 1609,
      "handleClick": 1610,
      "service": 1611,
      "Ġsauce": 1612,
      "Ġkomunitas": 1613,
      "ShaderProgram": 1614,
      "Ġhydrol": 1615,
      "dataset": 1616,
      "uente": 1617,
      "ĠSerbian": 1618,
      "Ġhairstyle": 1619,
      "titanic": 1620,
      "Ġgore": 1621,
      "Ġanaphyl": 1622,
      "Ġoars": 1623,
      "rogation": 1624,
      "Ġhoher": 1625,
      "ĠTheo": 1626,
      "Ġsaucepan": 1627,
      "UVER": 1628,
      "pill": 1629,
      "COUVER": 1630,
      "pathi": 1631,
      "Ġsmi": 1632,
      "Ġoutcry": 1633,
      "Ġpandemic": 1634,
      "Ġevaporation": 1635,
      "Dex": 1636,
      "sat": 1637,
      "Ġfint": 1638,
      "clientX": 1639,
      "pertensive": 1640,
      "abolism": 1641,
      "hep": 1642,
      "ĠVariables": 1643,
      "hoa": 1644,
      "ĠFreude": 1645,
      "destination": 1646,
      "ensely": 1647,
      "Ġescre": 1648,
      "Ġsphinx": 1649,
      "Ġbasaltes": 1650,
      "Bigl": 1651,
      "Ġforskellige": 1652,
      "Ġperfecta": 1653,
      "Ġhapl": 1654,
      "Ġabsenteeism": 1655,
      "Ġcobrar": 1656,
      "Ġgefragt": 1657,
      "ĠSurvive": 1658,
      "Ġvectorstock": 1659,
      "Ġturt": 1660,
      "Ġinroads": 1661,
      "calibur": 1662,
      "LIE": 1663,
      "Ġtecn": 1664,
      "wey": 1665,
      "pren": 1666,
      "UTER": 1667,
      "atsiooni": 1668,
      "Ġpede": 1669,
      "ĠCOST": 1670,
      "Ġkilka": 1671,
      "Ġawaited": 1672,
      "craft": 1673,
      "ĠSask": 1674,
      "Ġperch": 1675,
      "consensus": 1676,
      "Repair": 1677,
      "Ġzasad": 1678,
      "Ġlaunching": 1679,
      "Ġsolicited": 1680,
      "inction": 1681,
      "orry": 1682,
      "ĠMaris": 1683,
      "ĠReactors": 1684,
      "bulldozer": 1685,
      "dDevice": 1686,
      "ĠDevi": 1687,
      "Ġhomeschooling": 1688,
      "ĠEscobar": 1689,
      "Ġinheritance": 1690,
      "Ġcyst": 1691,
      "istungs": 1692,
      "CTRL": 1693,
      "herokuapp": 1694,
      "Ġculpa": 1695,
      "restassured": 1696,
      "addam": 1697,
      "Ġdislike": 1698,
      "ĠInns": 1699,
      "Ġpropried": 1700,
      "ĠSweep": 1701,
      "Ġtervez": 1702,
      "Ġdisseminated": 1703,
      "Ġglavni": 1704,
      "ĠCanopy": 1705,
      "Ġgebruikt": 1706,
      "XmlElement": 1707,
      "HIR": 1708,
      "ĠBienven": 1709,
      "ĠAaj": 1710,
      "Ġgoles": 1711,
      "aircraft": 1712,
      "Ġissues": 1713,
      "Ġhydrox": 1714,
      "Ġreinvigor": 1715,
      "ĠMORT": 1716,
      "ĠRest": 1717,
      "anyakan": 1718,
      "Ġsuperflu": 1719,
      "Ġconclusions": 1720,
      "Interpolator": 1721,
      "Ġnug": 1722,
      "Ġkinase": 1723,
      "Ġthrott": 1724,
      "lerim": 1725,
      "Ġquir": 1726,
      "Ġconfort": 1727,
      "regnum": 1728,
      "ĠBienvenido": 1729,
      "ĠJoshi": 1730,
      "FlatAppearance": 1731,
      "Ajax": 1732,
      "Bokeh": 1733,
      "Budget": 1734,
      "advers": 1735,
      "Ġaset": 1736,
      "elerinin": 1737,
      "ĠPrecambrian": 1738,
      "ĠCGPoint": 1739,
      "osperm": 1740,
      "ractive": 1741,
      "ĠViewGroup": 1742,
      "ĠDOI": 1743,
      "ĠTatha": 1744,
      "ĠNSU": 1745,
      "ensional": 1746,
      "orchid": 1747,
      "Ġmunicipales": 1748,
      "Ġgladly": 1749,
      "ĠNSUInteger": 1750,
      "WARE": 1751,
      "idavit": 1752,
      "Ġkors": 1753,
      "ajam": 1754,
      "Ġziek": 1755,
      "ĠHakk": 1756,
      "hok": 1757,
      "itati": 1758,
      "Ġdav": 1759,
      "ĠFSB": 1760,
      "Ġanalis": 1761,
      "Ġmodals": 1762,
      "ĠBryson": 1763,
      "sitting": 1764,
      "Ġcf": 1765,
      "getInfo": 1766,
      "Ġwios": 1767,
      "Ġpreko": 1768,
      "Ġwymag": 1769,
      "Ġsaurait": 1770,
      "jog": 1771,
      "traj": 1772,
      "ĠSerial": 1773,
      "Ġhulls": 1774,
      "ulfite": 1775,
      "Ġdeliverance": 1776,
      "Ġklar": 1777,
      "uching": 1778,
      "Ġcrouching": 1779,
      "Ġsummoned": 1780,
      "ĠPte": 1781,
      "ĠLUCKY": 1782,
      "scdn": 1783,
      "razione": 1784,
      "currentUser": 1785,
      "ĠCOMMUNITY": 1786,
      "Ġcoss": 1787,
      "ĠOval": 1788,
      "onsider": 1789,
      "Ġreconsider": 1790,
      "ĠReplacement": 1791,
      "Ġtrovare": 1792,
      "uant": 1793,
      "Ġscept": 1794,
      "ĠHIR": 1795,
      "ĠHersh": 1796,
      "Ġgin": 1797,
      "ĠWrang": 1798,
      "ELTS": 1799,
      "plements": 1800,
      "ĠbeforeEach": 1801,
      "Ġreconsideration": 1802,
      "ĠHershey": 1803,
      "Ġsledge": 1804,
      "ayutt": 1805,
      "Ġavanzada": 1806,
      "ĠMaverick": 1807,
      "honneur": 1808,
      "ĠBusy": 1809,
      "ĠDebi": 1810,
      "getOutputStream": 1811,
      "illerie": 1812,
      "ĠOEMs": 1813,
      "exion": 1814,
      "ĠIntVar": 1815,
      "Ġitalia": 1816,
      "Ġpromulgated": 1817,
      "gcash": 1818,
      "anuts": 1819,
      "Ġbearing": 1820,
      "ikit": 1821,
      "plural": 1822,
      "Ġarchiv": 1823,
      "Ġhuu": 1824,
      "frac": 1825,
      "isku": 1826,
      "wiches": 1827,
      "Ġvoed": 1828,
      "Ġchangeset": 1829,
      "srt": 1830,
      "Ġnech": 1831,
      "Ġzej": 1832,
      "TNT": 1833,
      "Koch": 1834,
      "endaft": 1835,
      "ĠUch": 1836,
      "Ġadmin": 1837,
      "ĠgetSize": 1838,
      "erdapat": 1839,
      "Ġwhip": 1840,
      "Writ": 1841,
      "ĠCowan": 1842,
      "Ġmarcha": 1843,
      "Ġmesta": 1844,
      "Ġvess": 1845,
      "ĠKh": 1846,
      "ivasena": 1847,
      "Ġadored": 1848,
      "Ġantigos": 1849,
      "Ġupt": 1850,
      "Ġkes": 1851,
      "ĠVedi": 1852,
      "asten": 1853,
      "Ġchar": 1854,
      "toff": 1855,
      "Ġlepro": 1856,
      "Ġflexibly": 1857,
      "BusinessType": 1858,
      "Ġdavanti": 1859,
      "Ġpect": 1860,
      "Ġtasse": 1861,
      "Ġgris": 1862,
      "ĠArchived": 1863,
      "enapi": 1864,
      "iterr": 1865,
      "IMENTAL": 1866,
      "rachten": 1867,
      "Ġmjesto": 1868,
      "NSE": 1869,
      "wiz": 1870,
      "oxine": 1871,
      "peres": 1872,
      "centi": 1873,
      "borne": 1874,
      "Ġattains": 1875,
      "ExecutionContext": 1876,
      "ĠChancery": 1877,
      "Ġsideboard": 1878,
      "verc": 1879,
      "esModule": 1880,
      "Ġsayang": 1881,
      "ĠHREF": 1882,
      "rounding": 1883,
      "ĠGarnier": 1884,
      "Ġmeditations": 1885,
      "jegyz": 1886,
      "vercel": 1887,
      "BO": 1888,
      "Ġmre": 1889,
      "Ġfists": 1890,
      "ĠUnilever": 1891,
      "ministrazione": 1892,
      "Ġreaffirmed": 1893,
      "xlink": 1894,
      "zyna": 1895,
      "Ġprey": 1896,
      "iteur": 1897,
      "looms": 1898,
      "Ġclaust": 1899,
      "ĠMenn": 1900,
      "Ġstalk": 1901,
      "IsIn": 1902,
      "ĠnewMessage": 1903,
      "ĠSurg": 1904,
      "Ġtolerant": 1905,
      "ulosic": 1906,
      "gid": 1907,
      "ĠFirst": 1908,
      "getAction": 1909,
      "ĠAirborne": 1910,
      "Ġwszystkim": 1911,
      "Bolt": 1912,
      "Fir": 1913,
      "itional": 1914,
      "stoff": 1915,
      "uran": 1916,
      "ondale": 1917,
      "Ġantica": 1918,
      "ĠEmulator": 1919,
      "iconfont": 1920,
      "FEC": 1921,
      "locale": 1922,
      "esm": 1923,
      "amt": 1924,
      "Ġrocker": 1925,
      "Ġdetd": 1926,
      "WARN": 1927,
      "anco": 1928,
      "ervo": 1929,
      "ĠQLabel": 1930,
      "Brend": 1931,
      "ĠEnsures": 1932,
      "charCodeAt": 1933,
      "Ġcultivars": 1934,
      "ĠAchiev": 1935,
      "ĠFirstName": 1936,
      "pour": 1937,
      "ĠTCR": 1938,
      "Ġhini": 1939,
      "metros": 1940,
      "aminated": 1941,
      "Ġtoman": 1942,
      "ĠGRAM": 1943,
      "Adder": 1944,
      "gesamt": 1945,
      "ĠSpringfield": 1946,
      "Ġdissipative": 1947,
      "Ġerstmals": 1948,
      "Ġuniaxial": 1949,
      "Ġsprou": 1950,
      "Ġempresas": 1951,
      "ĠTrinidad": 1952,
      "Ġchimney": 1953,
      "Ġmantras": 1954,
      "Reil": 1955,
      "Trin": 1956,
      "iring": 1957,
      "INET": 1958,
      "Ġyrs": 1959,
      "Ġaccru": 1960,
      "ĠDownload": 1961,
      "ĠNeutron": 1962,
      "Ġalgae": 1963,
      "Reilly": 1964,
      "Trinity": 1965,
      "NST": 1966,
      "ushi": 1967,
      "Ġslav": 1968,
      "mero": 1969,
      "Ġtriumph": 1970,
      "Ġcompan": 1971,
      "Ġvela": 1972,
      "Ġconsideradas": 1973,
      "uner": 1974,
      "andosi": 1975,
      "Ġproximal": 1976,
      "ĠprogressBar": 1977,
      "Ġdisparition": 1978,
      "Ġlaurels": 1979,
      "Mania": 1980,
      "auri": 1981,
      "eceased": 1982,
      "UnitPrice": 1983,
      "Ġpredeceased": 1984,
      "Ġroutinely": 1985,
      "Blood": 1986,
      "ĠcurrentNode": 1987,
      "getAvgSampleSize": 1988,
      "Ġfascia": 1989,
      "hiv": 1990,
      "agory": 1991,
      "ĠDant": 1992,
      "Ġgrom": 1993,
      "aitu": 1994,
      "Ġkoska": 1995,
      "Ġconosc": 1996,
      "RAW": 1997,
      "Ġjavafx": 1998,
      "ĠCNC": 1999,
      "ĠRamsay": 2000,
      "Ġtentativas": 2001,
      "ĠEnlightenment": 2002,
      "cka": 2003,
      "Ġfidelity": 2004,
      "ogenen": 2005,
      "Ġeighties": 2006,
      "Ġpuluh": 2007,
      "Ġsaludo": 2008,
      "Ġtablero": 2009,
      "Ġmeditative": 2010,
      "Ġmidfielder": 2011,
      "ĠActionBar": 2012,
      "addSubview": 2013,
      "Ġappalling": 2014,
      "Ġpenel": 2015,
      "FilterChain": 2016,
      "aima": 2017,
      "erode": 2018,
      "olar": 2019,
      "Ġfidd": 2020,
      "ĠsetCurrent": 2021,
      "Ġrescues": 2022,
      "layouts": 2023,
      "Ġszen": 2024,
      "ĠMik": 2025,
      "andards": 2026,
      "Cliff": 2027,
      "Ġentstehen": 2028,
      "Ġmagar": 2029,
      "ĠCompiled": 2030,
      "ĠWITH": 2031,
      "Imputted": 2032,
      "ydent": 2033,
      "ĠInoue": 2034,
      "NoStop": 2035,
      "ĠInterrupt": 2036,
      "Ġrevolutionaries": 2037,
      "Ġseamlessly": 2038,
      "jon": 2039,
      "teeth": 2040,
      "Ġsebel": 2041,
      "Ġrecomendamos": 2042,
      "Ġpistons": 2043,
      "IIT": 2044,
      "chrift": 2045,
      "Ġhorned": 2046,
      "Ġlujo": 2047,
      "Ġkorist": 2048,
      "ĠSzer": 2049,
      "Experimental": 2050,
      "TestMethod": 2051,
      "ĠExperimental": 2052,
      "methylation": 2053,
      "Ġmembuat": 2054,
      "Ġexecutors": 2055,
      "ĠMikolai": 2056,
      "bail": 2057,
      "etar": 2058,
      "Ġhated": 2059,
      "Ġkaks": 2060,
      "Ġresalt": 2061,
      "ĠConey": 2062,
      "Notification": 2063,
      "ographed": 2064,
      "udiante": 2065,
      "Ġrhizosphere": 2066,
      "Ġfluor": 2067,
      "Ġsuperfluous": 2068,
      "Ġil": 2069,
      "Ġahi": 2070,
      "ĠTosh": 2071,
      "akos": 2072,
      "Ġgota": 2073,
      "Ġintraut": 2074,
      "Ġingl": 2075,
      "Ġreconocer": 2076,
      "columnwidth": 2077,
      "Ġintrauterine": 2078,
      "Ġboh": 2079,
      "ĠHIIT": 2080,
      "Ġarit": 2081,
      "Ġlames": 2082,
      "Ġdeportivo": 2083,
      "Ġmilliamperes": 2084,
      "ĠWITHOUT": 2085,
      "icone": 2086,
      "ĠPus": 2087,
      "Ġscenic": 2088,
      "Ġergeben": 2089,
      "ĠSienna": 2090,
      "neq": 2091,
      "scalars": 2092,
      "regex": 2093,
      "ĠMarkle": 2094,
      "SERVER": 2095,
      "Ġsos": 2096,
      "Anh": 2097,
      "Ġrefuse": 2098,
      "Ġohne": 2099,
      "replacement": 2100,
      "serviceTime": 2101,
      "ivery": 2102,
      "Ġflotte": 2103,
      "ĠHurts": 2104,
      "Ġdiferenciar": 2105,
      "Ġguerrilla": 2106,
      "shop": 2107,
      "ĠGerber": 2108,
      "Ġuniversidades": 2109,
      "Ġnapraw": 2110,
      "Ġadvised": 2111,
      "Ġszk": 2112,
      "scott": 2113,
      "Ġnewly": 2114,
      "Ġpersyaratan": 2115,
      "Ġfacil": 2116,
      "ĠSonntag": 2117,
      "nowledge": 2118,
      "ĠRetrieves": 2119,
      "powr": 2120,
      "Ġmies": 2121,
      "ivating": 2122,
      "INST": 2123,
      "slug": 2124,
      "Ġstrung": 2125,
      "Ġokvir": 2126,
      "Ġgeneralize": 2127,
      "sockets": 2128,
      "Ġdur": 2129,
      "Ġdals": 2130,
      "setUp": 2131,
      "Ġprovo": 2132,
      "duit": 2133,
      "UserNotification": 2134,
      "Ġattuned": 2135,
      "ĠIrvine": 2136,
      "Ġrestrain": 2137,
      "mixer": 2138,
      "xref": 2139,
      "Ġhyg": 2140,
      "clid": 2141,
      "ĠBarrie": 2142,
      "ĠSpec": 2143,
      "ĠBeige": 2144,
      "Ġcollier": 2145,
      "invocation": 2146,
      "ĠParalym": 2147,
      "ĠPerspectives": 2148,
      "therapeutic": 2149,
      "rugated": 2150,
      "Ġpriestly": 2151,
      "windigkeit": 2152,
      "TouchEvent": 2153,
      "prestations": 2154,
      "Ġming": 2155,
      "Ġmahal": 2156,
      "Ġby": 2157,
      "Ġwedding": 2158,
      "Ġpillars": 2159,
      "COUNTR": 2160,
      "Signing": 2161,
      "hors": 2162,
      "ĠSigning": 2163,
      "Ġmakanan": 2164,
      "Ġgick": 2165,
      "Ġdaw": 2166,
      "Ġtrib": 2167,
      "Ġtutorials": 2168,
      "Ġlucht": 2169,
      "Ġetiquette": 2170,
      "Ġhypoth": 2171,
      "Ġlivery": 2172,
      "Ġcampuran": 2173,
      "VEL": 2174,
      "ayouts": 2175,
      "ippable": 2176,
      "Ġnamik": 2177,
      "Ġreckoned": 2178,
      "Skippable": 2179,
      "Ġsosok": 2180,
      "zeb": 2181,
      "mentation": 2182,
      "rollen": 2183,
      "Ġuridine": 2184,
      "ĠISIS": 2185,
      "Ġcurbs": 2186,
      "hander": 2187,
      "Ġncols": 2188,
      "ICAN": 2189,
      "INTERNAL": 2190,
      "untar": 2191,
      "ettle": 2192,
      "Ġresent": 2193,
      "Ġoutubro": 2194,
      "ABLISH": 2195,
      "inquirer": 2196,
      "ABLISHED": 2197,
      "berra": 2198,
      "anea": 2199,
      "arys": 2200,
      "Ġolimp": 2201,
      "Ġlocalize": 2202,
      "Survival": 2203,
      "Ġbich": 2204,
      "NavLink": 2205,
      "Ġmenghad": 2206,
      "Ġiskol": 2207,
      "Ġtapering": 2208,
      "ĠSve": 2209,
      "ĠBes": 2210,
      "Ġvents": 2211,
      "ĠODM": 2212,
      "ebok": 2213,
      "ITED": 2214,
      "Ġposljed": 2215,
      "Ġsignes": 2216,
      "Similar": 2217,
      "Ġflush": 2218,
      "Ġintegrante": 2219,
      "reliance": 2220,
      "INTERVAL": 2221,
      "Ġileti": 2222,
      "ĠTep": 2223,
      "ĠWOL": 2224,
      "ĠJasmine": 2225,
      "Ġincurs": 2226,
      "ĠPadukone": 2227,
      "Restrict": 2228,
      "bam": 2229,
      "Ġenvious": 2230,
      "ASHI": 2231,
      "ĠGallardo": 2232,
      "lengths": 2233,
      "Ġmecanismos": 2234,
      "ĠWochschr": 2235,
      "Padding": 2236,
      "Ġpiv": 2237,
      "Ġstari": 2238,
      "ilibr": 2239,
      "Ġbegins": 2240,
      "FOOD": 2241,
      "Marriage": 2242,
      "Ġschneller": 2243,
      "Ġtabs": 2244,
      "ĠKada": 2245,
      "ISER": 2246,
      "ĠMathews": 2247,
      "ĠEsso": 2248,
      "Ġacademically": 2249,
      "bss": 2250,
      "ĠMurn": 2251,
      "Ġnears": 2252,
      "Ġalman": 2253,
      "Ġsubmissions": 2254,
      "ighet": 2255,
      "Longueur": 2256,
      "Ġsuficient": 2257,
      "Logged": 2258,
      "anqu": 2259,
      "Ġpemer": 2260,
      "Ġinvoked": 2261,
      "scriptstyle": 2262,
      "Ġknee": 2263,
      "Semaphore": 2264,
      "iatan": 2265,
      "sila": 2266,
      "leader": 2267,
      "tabPadding": 2268,
      "Ġschreibt": 2269,
      "Ġpiatto": 2270,
      "hek": 2271,
      "Ġdread": 2272,
      "ĠDRM": 2273,
      "ĠRiemann": 2274,
      "Ġaaj": 2275,
      "Spice": 2276,
      "Ġenter": 2277,
      "Unifier": 2278,
      "gevity": 2279,
      "giv": 2280,
      "orong": 2281,
      "ĠAbl": 2282,
      "ĠBlut": 2283,
      "empio": 2284,
      "werpen": 2285,
      "Ġrepaired": 2286,
      "Ġtambah": 2287,
      "pract": 2288,
      "raison": 2289,
      "ĠJokes": 2290,
      "IDENTIAL": 2291,
      "anhia": 2292,
      "Ġcompanhia": 2293,
      "bolts": 2294,
      "ĠKangaroo": 2295,
      "Ġszint": 2296,
      "ĠRiemannian": 2297,
      "wirken": 2298,
      "unehmen": 2299,
      "Ġbotan": 2300,
      "Ġreaping": 2301,
      "Ġtenderness": 2302,
      "Secure": 2303,
      "ĠerrMsg": 2304,
      "campo": 2305,
      "ĠGespr": 2306,
      "ĠTern": 2307,
      "Ġamante": 2308,
      "Ġconcussion": 2309,
      "ĠApartments": 2310,
      "sizeof": 2311,
      "ULTY": 2312,
      "Ġsaranno": 2313,
      "givings": 2314,
      "ROH": 2315,
      "icelli": 2316,
      "Ġbever": 2317,
      "ienzo": 2318,
      "DEPEND": 2319,
      "Ġextracellular": 2320,
      "NaClO": 2321,
      "ĠAleks": 2322,
      "ĠREIT": 2323,
      "Ġretirada": 2324,
      "ROHAN": 2325,
      "alz": 2326,
      "Ġtak": 2327,
      "Ġhdr": 2328,
      "Storage": 2329,
      "ramar": 2330,
      "Ġalve": 2331,
      "openid": 2332,
      "Ġregina": 2333,
      "Ġtrois": 2334,
      "ĠafterPath": 2335,
      "Ġglaube": 2336,
      "practice": 2337,
      "vp": 2338,
      "ankruptcy": 2339,
      "ĠInform": 2340,
      "Disable": 2341,
      "acci": 2342,
      "amsfonts": 2343,
      "omsday": 2344,
      "WERS": 2345,
      "bool": 2346,
      "Ġmalpractice": 2347,
      "Ġclientele": 2348,
      "DEPENDENCIA": 2349,
      "Ġinlay": 2350,
      "ethers": 2351,
      "UTURE": 2352,
      "Ġhypothalam": 2353,
      "Ġenterprising": 2354,
      "ovas": 2355,
      "Ġwat": 2356,
      "ĠMackenzie": 2357,
      "Ġbicyclists": 2358,
      "boolProp": 2359,
      "ĠCaw": 2360,
      "ssid": 2361,
      "Ġmenos": 2362,
      "Ġinterp": 2363,
      "DSL": 2364,
      "Ġilluminating": 2365,
      "ĠAudioClip": 2366,
      "hika": 2367,
      "ĠAvan": 2368,
      "ĠInclusive": 2369,
      "haften": 2370,
      "Ġcoi": 2371,
      "Ġmelts": 2372,
      "LoggedIn": 2373,
      "ĠDriver": 2374,
      "Ġhapp": 2375,
      "Ġacesta": 2376,
      "ievement": 2377,
      "Ġalloying": 2378,
      "micron": 2379,
      "withtag": 2380,
      "Ġmobilized": 2381,
      "ĠNationen": 2382,
      "urid": 2383,
      "ĠMER": 2384,
      "ĠHombre": 2385,
      "Ġlatt": 2386,
      "Ġkennt": 2387,
      "Ġparip": 2388,
      "arbre": 2389,
      "Ġresor": 2390,
      "Ġwelche": 2391,
      "Ġrzeczyw": 2392,
      "Bel": 2393,
      "Gil": 2394,
      "ĠMixed": 2395,
      "ĠOmicron": 2396,
      "licting": 2397,
      "Ġbias": 2398,
      "Ġfine": 2399,
      "ongono": 2400,
      "ĠSpagna": 2401,
      "Ġjustifica": 2402,
      "ĠStatusCode": 2403,
      "Gilbert": 2404,
      "Person": 2405,
      "foreach": 2406,
      "god": 2407,
      "onacci": 2408,
      "Ġzub": 2409,
      "pios": 2410,
      "Ġehemalige": 2411,
      "ĠDriverManager": 2412,
      "Belarus": 2413,
      "Nft": 2414,
      "ĠSY": 2415,
      "ĠFrente": 2416,
      "ĠZDF": 2417,
      "Ġgiurid": 2418,
      "QtCore": 2419,
      "Beam": 2420,
      "ĠVoltaire": 2421,
      "scenario": 2422,
      "CLUD": 2423,
      "ĠSSID": 2424,
      "Ġpovas": 2425,
      "ĠMechanisms": 2426,
      "Ġdurante": 2427,
      "saturation": 2428,
      "zine": 2429,
      "ilai": 2430,
      "ĠForbes": 2431,
      "Ġreembol": 2432,
      "Ġenvision": 2433,
      "chaften": 2434,
      "Ġdocking": 2435,
      "Hung": 2436,
      "indd": 2437,
      "Localization": 2438,
      "Ġfilmy": 2439,
      "ĠAnatomy": 2440,
      "Ġhogi": 2441,
      "ggere": 2442,
      "Ġsigne": 2443,
      "sourceEncoding": 2444,
      "Ġitalien": 2445,
      "ĠBaz": 2446,
      "arcade": 2447,
      "Ġsfrutt": 2448,
      "ĠSKU": 2449,
      "Ġbiasing": 2450,
      "Fro": 2451,
      "ifelse": 2452,
      "matically": 2453,
      "Ġpretende": 2454,
      "ĠPartition": 2455,
      "Ġenvisioned": 2456,
      "Ġlese": 2457,
      "Without": 2458,
      "vanishing": 2459,
      "Persistent": 2460,
      "pal": 2461,
      "Testables": 2462,
      "Ġureth": 2463,
      "Ġpandemi": 2464,
      "Ġsixteenth": 2465,
      "Ġenthusiastic": 2466,
      "ĠSYM": 2467,
      "Sku": 2468,
      "plexity": 2469,
      "Ġalred": 2470,
      "submitted": 2471,
      "Ġerst": 2472,
      "ĠUniversal": 2473,
      "ĠMaje": 2474,
      "uede": 2475,
      "ChooseCharacter": 2476,
      "Ġconstituent": 2477,
      "ĠMoffat": 2478,
      "Curly": 2479,
      "Ġtere": 2480,
      "Ġbson": 2481,
      "Ġextracting": 2482,
      "Ġphotovolta": 2483,
      "Ġchecker": 2484,
      "Ġdelve": 2485,
      "decimals": 2486,
      "ĠTextStyle": 2487,
      "Ġsecretive": 2488,
      "Ġdebe": 2489,
      "bogen": 2490,
      "rape": 2491,
      "Newline": 2492,
      "xties": 2493,
      "Ġclearest": 2494,
      "Ġhairline": 2495,
      "Ġairports": 2496,
      "ĠArjun": 2497,
      "Ġrezultat": 2498,
      "Ġucc": 2499,
      "ohr": 2500,
      "blow": 2501,
      "ĠINIS": 2502,
      "Ġescort": 2503,
      "Ġreadily": 2504,
      "HASH": 2505,
      "jande": 2506,
      "nave": 2507,
      "orz": 2508,
      "ĠDere": 2509,
      "Ġnou": 2510,
      "Ġuts": 2511,
      "Ġassurer": 2512,
      "Ġbooted": 2513,
      "Ġsuperconductors": 2514,
      "Ġbyrow": 2515,
      "Ġdares": 2516,
      "Ġminder": 2517,
      "Ġistilah": 2518,
      "termine": 2519,
      "Ġmechanic": 2520,
      "bone": 2521,
      "pbs": 2522,
      "Ġwyst": 2523,
      "OfDay": 2524,
      "ECs": 2525,
      "Ġevid": 2526,
      "Ġmonod": 2527,
      "ĠElliott": 2528,
      "leve": 2529,
      "Ġgibt": 2530,
      "closure": 2531,
      "ariu": 2532,
      "Ġobes": 2533,
      "Ġconveying": 2534,
      "Ġcantik": 2535,
      "Ġreclining": 2536,
      "wild": 2537,
      "ĠMato": 2538,
      "genesis": 2539,
      "Ġmontes": 2540,
      "Ġsoprav": 2541,
      "icija": 2542,
      "Ġbps": 2543,
      "ordia": 2544,
      "ĠThom": 2545,
      "Recogn": 2546,
      "Ġbetracht": 2547,
      "ĠSaber": 2548,
      "reminder": 2549,
      "xii": 2550,
      "ĠAspir": 2551,
      "ĠDrog": 2552,
      "Ġhoo": 2553,
      "ĠVek": 2554,
      "codewords": 2555,
      "ĠThomson": 2556,
      "djang": 2557,
      "Ġzac": 2558,
      "Ġtwenties": 2559,
      "Ġdobre": 2560,
      "PIRED": 2561,
      "itors": 2562,
      "Ġgepub": 2563,
      "Ġyal": 2564,
      "ĠgetHeight": 2565,
      "HttpRequest": 2566,
      "ĠallClassesLink": 2567,
      "documentElement": 2568,
      "encanaan": 2569,
      "passive": 2570,
      "benzene": 2571,
      "Ġmake": 2572,
      "ĠDist": 2573,
      "ĠRuss": 2574,
      "ubmit": 2575,
      "ĠOBC": 2576,
      "Ġsetores": 2577,
      "ĠAndrei": 2578,
      "Ġsavons": 2579,
      "ĠCostco": 2580,
      "ĠNovem": 2581,
      "Ġcategorical": 2582,
      "peror": 2583,
      "ĠZero": 2584,
      "oleon": 2585,
      "Ġanore": 2586,
      "Ġulike": 2587,
      "Ġcoinbase": 2588,
      "spielen": 2589,
      "Ġfasci": 2590,
      "Ġkesk": 2591,
      "Tenn": 2592,
      "ielen": 2593,
      "Ġdefec": 2594,
      "Ġvanished": 2595,
      "ingar": 2596,
      "Ġscand": 2597,
      "rounder": 2598,
      "LLDB": 2599,
      "Ġsowas": 2600,
      "Ġalrededores": 2601,
      "iagn": 2602,
      "ĠMotors": 2603,
      "Ġbersifat": 2604,
      "Ġtranspos": 2605,
      "Ġadministratif": 2606,
      "nament": 2607,
      "adz": 2608,
      "Ġtbh": 2609,
      "ORIES": 2610,
      "CLA": 2611,
      "Ġappointees": 2612,
      "Ġcountered": 2613,
      "factory": 2614,
      "Ġexperiencias": 2615,
      "Ġpct": 2616,
      "ĠFavourite": 2617,
      "ĠNavier": 2618,
      "Ġprestigious": 2619,
      "icer": 2620,
      "operand": 2621,
      "Ġappropriateness": 2622,
      "Ġgarantir": 2623,
      "Ġdimly": 2624,
      "edio": 2625,
      "Ġsumar": 2626,
      "Ġrain": 2627,
      "objc": 2628,
      "Ġvalent": 2629,
      "Ġfibres": 2630,
      "BILITY": 2631,
      "Ġlivraison": 2632,
      "Ġlancement": 2633,
      "Ġdisassembled": 2634,
      "bouw": 2635,
      "hler": 2636,
      "wrs": 2637,
      "odep": 2638,
      "Ġimong": 2639,
      "lessons": 2640,
      "ĠCrash": 2641,
      "talent": 2642,
      "chanted": 2643,
      "Ġsawa": 2644,
      "closures": 2645,
      "ItemId": 2646,
      "ĠQuick": 2647,
      "Ġmaqu": 2648,
      "Ġbrady": 2649,
      "TABILITY": 2650,
      "CHANTABILITY": 2651,
      "Ġvittoria": 2652,
      "ĠAdministrat": 2653,
      "ĠMERCHANTABILITY": 2654,
      "zione": 2655,
      "Ġiyo": 2656,
      "Ġlayouts": 2657,
      "Ġkinds": 2658,
      "ĠScam": 2659,
      "smiley": 2660,
      "Ġtenacious": 2661,
      "Ped": 2662,
      "familiar": 2663,
      "Ġprace": 2664,
      "andar": 2665,
      "redit": 2666,
      "igheder": 2667,
      "Ġbehaupt": 2668,
      "Ġmyeloid": 2669,
      "Ġopenings": 2670,
      "ĠHavel": 2671,
      "Ġzape": 2672,
      "cribe": 2673,
      "saraba": 2674,
      "Ġfabricants": 2675,
      "Ġintellectually": 2676,
      "ĠPIR": 2677,
      "Ġmedia": 2678,
      "ĠNas": 2679,
      "ĠKash": 2680,
      "coat": 2681,
      "ĠClio": 2682,
      "Ġconsenting": 2683,
      "Ġextrane": 2684,
      "Ġextraneous": 2685,
      "Cllr": 2686,
      "ĠsessionId": 2687,
      "ismet": 2688,
      "Ġdikatakan": 2689,
      "Ġsyring": 2690,
      "Ġundetected": 2691,
      "ĠAleksandar": 2692,
      "float": 2693,
      "ctg": 2694,
      "Ġbao": 2695,
      "ĠReaper": 2696,
      "ouna": 2697,
      "Blur": 2698,
      "Ġcasco": 2699,
      "Ġnaszej": 2700,
      "maven": 2701,
      "Ġcanvas": 2702,
      "ĠgetView": 2703,
      "ĠAnas": 2704,
      "Ġpermit": 2705,
      "cticamente": 2706,
      "Ġsurviving": 2707,
      "Ġefect": 2708,
      "Ġfibrillation": 2709,
      "Ġpin": 2710,
      "ĠWTA": 2711,
      "Ġanu": 2712,
      "Ġminim": 2713,
      "cosim": 2714,
      "Ġfeito": 2715,
      "ĠNAND": 2716,
      "ĠNasir": 2717,
      "Fert": 2718,
      "ĠPerse": 2719,
      "Ġmanger": 2720,
      "subfloat": 2721,
      "COMAN": 2722,
      "Ġheterozygous": 2723,
      "ĠCauseway": 2724,
      "COMANDA": 2725,
      "Cosine": 2726,
      "Ġfigli": 2727,
      "Ġwert": 2728,
      "salir": 2729,
      "RAEL": 2730,
      "Ġvostre": 2731,
      "ĠHapp": 2732,
      "uvant": 2733,
      "MPs": 2734,
      "Ġovog": 2735,
      "Ġirm": 2736,
      "ĠSmoky": 2737,
      "Ġadjuvant": 2738,
      "Ġbelated": 2739,
      "ĠSlack": 2740,
      "GONDOR": 2741,
      "Ġmors": 2742,
      "Ġacademia": 2743,
      "wdir": 2744,
      "Ġsonidos": 2745,
      "ĠMoscou": 2746,
      "msubsup": 2747,
      "Recognizer": 2748,
      "Ġraincoat": 2749,
      "Render": 2750,
      "cnc": 2751,
      "ncc": 2752,
      "erun": 2753,
      "antiago": 2754,
      "Ġtempi": 2755,
      "Ġeigentlich": 2756,
      "Ġcancelled": 2757,
      "rangle": 2758,
      "inscription": 2759,
      "arj": 2760,
      "Ġsizin": 2761,
      "Ġfreno": 2762,
      "GaussianBlur": 2763,
      "Ġslavery": 2764,
      "bears": 2765,
      "Ġgeek": 2766,
      "azine": 2767,
      "Ġencirc": 2768,
      "ĠQUAD": 2769,
      "Ġurbano": 2770,
      "Ġmecz": 2771,
      "ĠTournament": 2772,
      "Ġzase": 2773,
      "DataTable": 2774,
      "Ġmultimeter": 2775,
      "Ġdeform": 2776,
      "ĠFGFR": 2777,
      "Ġfervor": 2778,
      "Ġpierres": 2779,
      "Ġvecchia": 2780,
      "velt": 2781,
      "Ġtu": 2782,
      "ĠGanz": 2783,
      "Ġcosts": 2784,
      "spiration": 2785,
      "Ġthawed": 2786,
      "Ġvostra": 2787,
      "WORKDIR": 2788,
      "ĠCOSTS": 2789,
      "ician": 2790,
      "ĠCrystals": 2791,
      "emis": 2792,
      "ĠLENGTH": 2793,
      "Ġchatt": 2794,
      "PosZ": 2795,
      "Ġosoby": 2796,
      "VENTION": 2797,
      "Ġpungent": 2798,
      "ĠAchieving": 2799,
      "Bankruptcy": 2800,
      "Ġheng": 2801,
      "Ġdisrupts": 2802,
      "Ġcostru": 2803,
      "VIAF": 2804,
      "agliari": 2805,
      "enance": 2806,
      "comando": 2807,
      "Ġbahsed": 2808,
      "Ġlaunched": 2809,
      "Ġcomunidade": 2810,
      "kiego": 2811,
      "Ġtraz": 2812,
      "ĠAuction": 2813,
      "ĠFridge": 2814,
      "Ġinutil": 2815,
      "Ġoutboard": 2816,
      "Ġpretending": 2817,
      "Ġuniversality": 2818,
      "ĠEssence": 2819,
      "Ġmav": 2820,
      "Ġimmobili": 2821,
      "Comparator": 2822,
      "Ġambivalent": 2823,
      "Ġrejecting": 2824,
      "CALLBACK": 2825,
      "wbr": 2826,
      "xe": 2827,
      "idoscope": 2828,
      "Ġdxe": 2829,
      "oxone": 2830,
      "founders": 2831,
      "Ġstranded": 2832,
      "Ġtwisted": 2833,
      "ĠRussische": 2834,
      "pValue": 2835,
      "ĠLMS": 2836,
      "ĠITAL": 2837,
      "Ġwanna": 2838,
      "ĠKyi": 2839,
      "Ġpatriot": 2840,
      "Pedidos": 2841,
      "suk": 2842,
      "ĠCari": 2843,
      "ĠBabel": 2844,
      "Ġhatt": 2845,
      "Aluno": 2846,
      "rograman": 2847,
      "hasa": 2848,
      "Filename": 2849,
      "ĠAgarwal": 2850,
      "arene": 2851,
      "GetHeight": 2852,
      "ijnen": 2853,
      "ĠPortail": 2854,
      "Ġmixt": 2855,
      "Invoke": 2856,
      "ĠHormone": 2857,
      "ĠRecognize": 2858,
      "Ġobesidad": 2859,
      "Ġers": 2860,
      "Ġcland": 2861,
      "apprent": 2862,
      "essero": 2863,
      "Ġsla": 2864,
      "CLUDED": 2865,
      "Ġersche": 2866,
      "holder": 2867,
      "ĠMOL": 2868,
      "Ġversi": 2869,
      "udging": 2870,
      "Ġfloribus": 2871,
      "Ġsober": 2872,
      "Ordinal": 2873,
      "ĠHIMQTTRVM": 2874,
      "angar": 2875,
      "radial": 2876,
      "ichte": 2877,
      "AddField": 2878,
      "Ġfilepath": 2879,
      "ĠBridal": 2880,
      "ĠCrusade": 2881,
      "paired": 2882,
      "EPC": 2883,
      "Ġtenu": 2884,
      "ahlt": 2885,
      "apiKey": 2886,
      "Ġhebt": 2887,
      "ĠCapsule": 2888,
      "Ġambitious": 2889,
      "kens": 2890,
      "ĠBlood": 2891,
      "Ġdring": 2892,
      "heits": 2893,
      "ANDS": 2894,
      "Allocator": 2895,
      "ĠFlexibility": 2896,
      "Ġcourtyard": 2897,
      "igment": 2898,
      "ĠTailwind": 2899,
      "ĠJoko": 2900,
      "Ġsteeper": 2901,
      "ENSION": 2902,
      "Ġopl": 2903,
      "Ġdisgrace": 2904,
      "ouleurs": 2905,
      "Ġsouhaite": 2906,
      "iagnosed": 2907,
      "jedno": 2908,
      "tire": 2909,
      "wner": 2910,
      "Ġtills": 2911,
      "rownames": 2912,
      "Ġrake": 2913,
      "Ġfeudal": 2914,
      "ĠHendrix": 2915,
      "Ġsobrevivir": 2916,
      "COUNTRIES": 2917,
      "ĠChast": 2918,
      "Ġlangchain": 2919,
      "Ġondul": 2920,
      "Ġdutiful": 2921,
      "cyl": 2922,
      "huh": 2923,
      "ĠHaram": 2924,
      "Ġhistograms": 2925,
      "Ġtratando": 2926,
      "improvements": 2927,
      "Ġtillsammans": 2928,
      "iski": 2929,
      "ĠRemy": 2930,
      "ĠInfos": 2931,
      "boards": 2932,
      "Ġglowing": 2933,
      "ĠDelgado": 2934,
      "Ġfrmt": 2935,
      "Ġgradients": 2936,
      "orada": 2937,
      "shp": 2938,
      "Ġsalvag": 2939,
      "Ġsublim": 2940,
      "Ġcomprado": 2941,
      "Ġrudimentary": 2942,
      "justify": 2943,
      "Ġadmins": 2944,
      "Ġmarginalized": 2945,
      "Ġsalvaged": 2946,
      "Mediterr": 2947,
      "lore": 2948,
      "Ġgyer": 2949,
      "getDay": 2950,
      "ynge": 2951,
      "Cliente": 2952,
      "Ġiris": 2953,
      "Ġfebruar": 2954,
      "ĠGeschenk": 2955,
      "Ġgyerek": 2956,
      "Ġdisipl": 2957,
      "ĠAlford": 2958,
      "flamingo": 2959,
      "uidos": 2960,
      "commons": 2961,
      "Ġminimising": 2962,
      "Ġreis": 2963,
      "OfWeek": 2964,
      "Ġshow": 2965,
      "Ġgrungy": 2966,
      "Ġnurture": 2967,
      "Ġzapewn": 2968,
      "ĠDownloading": 2969,
      "ĠcoiAlarm": 2970,
      "ĠSax": 2971,
      "ifah": 2972,
      "pmatrix": 2973,
      "Ġtwigs": 2974,
      "EXPER": 2975,
      "Ġubiquitin": 2976,
      "veda": 2977,
      "Ġciter": 2978,
      "Ġkans": 2979,
      "ĠClose": 2980,
      "accay": 2981,
      "Ġoverclock": 2982,
      "ĠAllo": 2983,
      "Ġitp": 2984,
      "iracial": 2985,
      "Ġbox": 2986,
      "ĠWimbledon": 2987,
      "Ġonze": 2988,
      "ĠDurga": 2989,
      "Ġunseren": 2990,
      "Rev": 2991,
      "ĠPuede": 2992,
      "ehir": 2993,
      "onsors": 2994,
      "FileURL": 2995,
      "ETF": 2996,
      "Ġelizabeth": 2997,
      "ĠSponsors": 2998,
      "Inform": 2999,
      "anooga": 3000,
      "ĠPLUS": 3001,
      "ĠMerit": 3002,
      "Ġdesayuno": 3003,
      "ĠSaxony": 3004,
      "ĠCloseup": 3005,
      "Ġpleno": 3006,
      "fromDate": 3007,
      "MaxWidth": 3008,
      "Ġprincipaux": 3009,
      "ĠPuch": 3010,
      "Ġkari": 3011,
      "shader": 3012,
      "ALID": 3013,
      "uali": 3014,
      "ĠPeloton": 3015,
      "Ġsperiment": 3016,
      "Ġdials": 3017,
      "acycline": 3018,
      "Ġbank": 3019,
      "ĠselectInput": 3020,
      "Ġexperimental": 3021,
      "Ġcantante": 3022,
      "Ġbiber": 3023,
      "Ġbuono": 3024,
      "BetMap": 3025,
      "Ġfrut": 3026,
      "itteln": 3027,
      "rench": 3028,
      "finement": 3029,
      "Ġtrabajo": 3030,
      "Ġcache": 3031,
      "ruari": 3032,
      "Ġexons": 3033,
      "Ġopat": 3034,
      "lenie": 3035,
      "Ġleitura": 3036,
      "Ġmeringue": 3037,
      "Ġwersji": 3038,
      "BOAT": 3039,
      "itev": 3040,
      "Ġcresc": 3041,
      "ivational": 3042,
      "Ġlith": 3043,
      "ĠJPA": 3044,
      "getchar": 3045,
      "Ġconquered": 3046,
      "owner": 3047,
      "Ġopak": 3048,
      "Thrown": 3049,
      "Ġextruder": 3050,
      "Bent": 3051,
      "CATEG": 3052,
      "junk": 3053,
      "ĠPina": 3054,
      "ĠKIT": 3055,
      "Ġnostro": 3056,
      "avian": 3057,
      "essons": 3058,
      "ijev": 3059,
      "foundland": 3060,
      "Ġcollectives": 3061,
      "Sach": 3062,
      "rations": 3063,
      "awara": 3064,
      "Ġprove": 3065,
      "Volumes": 3066,
      "eting": 3067,
      "Ġfost": 3068,
      "ivid": 3069,
      "Ġinfantile": 3070,
      "Ġpoln": 3071,
      "testid": 3072,
      "Ġnominal": 3073,
      "Hval": 3074,
      "Ġsektor": 3075,
      "shakespeare": 3076,
      "Ġarisen": 3077,
      "Agu": 3078,
      "Ġmons": 3079,
      "awarkan": 3080,
      "ĠChicks": 3081,
      "UMIRE": 3082,
      "Ġoutskirts": 3083,
      "standards": 3084,
      "ENSIONS": 3085,
      "ziew": 3086,
      "Ġdziew": 3087,
      "Ġstran": 3088,
      "Ġchac": 3089,
      "ĠZar": 3090,
      "newspaper": 3091,
      "erunner": 3092,
      "Ġfostered": 3093,
      "Ġabuse": 3094,
      "ccia": 3095,
      "rijf": 3096,
      "Ġaumentado": 3097,
      "Ġcellulosic": 3098,
      "ĠAGRICULTURAL": 3099,
      "Ġcharme": 3100,
      "chek": 3101,
      "ĠMikh": 3102,
      "ĠBetrieb": 3103,
      "Ġtemb": 3104,
      "ĠRather": 3105,
      "estring": 3106,
      "ajima": 3107,
      "ĠMarriage": 3108,
      "tobs": 3109,
      "Ġculminates": 3110,
      "ĠCOLOR": 3111,
      "ĠJeopardy": 3112,
      "Ġtembok": 3113,
      "Ġechar": 3114,
      "Ġisole": 3115,
      "DialogFragment": 3116,
      "Glam": 3117,
      "Ġdobr": 3118,
      "Ġsatellite": 3119,
      "Ġbanged": 3120,
      "Ġgabb": 3121,
      "Ġimmersive": 3122,
      "Ġradicals": 3123,
      "Ġcheerleader": 3124,
      "Ġlowland": 3125,
      "Ru": 3126,
      "inaldo": 3127,
      "ErrorKind": 3128,
      "Ġsuisse": 3129,
      "Ġwhiskey": 3130,
      "ĠBetriebs": 3131,
      "RuL": 3132,
      "ranger": 3133,
      "astrous": 3134,
      "plus": 3135,
      "Ġsabem": 3136,
      "ĠScientific": 3137,
      "redirectTo": 3138,
      "Ġcrescendo": 3139,
      "ĠEssen": 3140,
      "Ġgroom": 3141,
      "Ġhoneycomb": 3142,
      "ooky": 3143,
      "Ġcurly": 3144,
      "ĠSpaniards": 3145,
      "Ġtuoi": 3146,
      "fyp": 3147,
      "ulz": 3148,
      "Ġbitten": 3149,
      "debugging": 3150,
      "Ġradicales": 3151,
      "iint": 3152,
      "Ġnave": 3153,
      "annulation": 3154,
      "Ġstockholder": 3155,
      "Ġoktober": 3156,
      "Ober": 3157,
      "isiones": 3158,
      "utsche": 3159,
      "ĠCache": 3160,
      "Ġhurry": 3161,
      "FileUtils": 3162,
      "Ġstandard": 3163,
      "ĠHandel": 3164,
      "ĠLys": 3165,
      "newName": 3166,
      "issionais": 3167,
      "Ġwarring": 3168,
      "BackColor": 3169,
      "rafa": 3170,
      "Ġdeployment": 3171,
      "Ġinformac": 3172,
      "Ġkomponen": 3173,
      "Ġmuscle": 3174,
      "Ġstoves": 3175,
      "atah": 3176,
      "chun": 3177,
      "Ġaddressed": 3178,
      "entially": 3179,
      "Ġcapito": 3180,
      "ĠMotor": 3181,
      "Ġsucculent": 3182,
      "RIBUT": 3183,
      "Ġdeney": 3184,
      "Ġramus": 3185,
      "clust": 3186,
      "Ġredund": 3187,
      "Ġenrolled": 3188,
      "weisen": 3189,
      "Ġherman": 3190,
      "antiene": 3191,
      "cailles": 3192,
      "Ġocas": 3193,
      "Ġervan": 3194,
      "Ġterritoires": 3195,
      "ĠLETT": 3196,
      "Ġleaked": 3197,
      "ofan": 3198,
      "easy": 3199,
      "Benzoimidazol": 3200,
      "Ġalimentaire": 3201,
      "Ġhybridization": 3202,
      "Touches": 3203,
      "Ġsrand": 3204,
      "Spinner": 3205,
      "Ġempower": 3206,
      "Ġcorollary": 3207,
      "Ġllegando": 3208,
      "orgetown": 3209,
      "GRect": 3210,
      "Ġlaminated": 3211,
      "Ġpresse": 3212,
      "Ġscum": 3213,
      "Ġresection": 3214,
      "Ġmanuel": 3215,
      "Ġsingularity": 3216,
      "Ġcorrupt": 3217,
      "HEL": 3218,
      "Ġna": 3219,
      "neri": 3220,
      "Ġresolute": 3221,
      "Ġmodern": 3222,
      "Ġkicking": 3223,
      "ĠGeorgetown": 3224,
      "CxxInterop": 3225,
      "enar": 3226,
      "ĠMPEG": 3227,
      "agangan": 3228,
      "Ġbee": 3229,
      "ĠHals": 3230,
      "Ġpptd": 3231,
      "Ġhectare": 3232,
      "Ġcherish": 3233,
      "Ġenergii": 3234,
      "axx": 3235,
      "Ġrounds": 3236,
      "Ġislet": 3237,
      "WebHost": 3238,
      "Ġpropagating": 3239,
      "ffffff": 3240,
      "ĠJournalism": 3241,
      "boxy": 3242,
      "miktar": 3243,
      "zah": 3244,
      "Ġsector": 3245,
      "Ġdawn": 3246,
      "ishek": 3247,
      "irium": 3248,
      "Ġdelirium": 3249,
      "selen": 3250,
      "Ġembracing": 3251,
      "RIER": 3252,
      "ĠDEBUG": 3253,
      "FETCH": 3254,
      "ierto": 3255,
      "adamente": 3256,
      "odin": 3257,
      "renamiento": 3258,
      "ĠisLoggedIn": 3259,
      "caesar": 3260,
      "Ġcorros": 3261,
      "Ġtransduction": 3262,
      "Ġnecrotic": 3263,
      "Ġcalcareous": 3264,
      "dough": 3265,
      "zeme": 3266,
      "Ġsout": 3267,
      "Ġgutes": 3268,
      "Ġvein": 3269,
      "Ġrunde": 3270,
      "URES": 3271,
      "MBean": 3272,
      "Ġestando": 3273,
      "ĠComune": 3274,
      "Ġdawned": 3275,
      "Ġdrows": 3276,
      "ĠgetTotal": 3277,
      "Ġoverly": 3278,
      "covid": 3279,
      "Ġseag": 3280,
      "AUTHOR": 3281,
      "Galer": 3282,
      "alysis": 3283,
      "Ġbring": 3284,
      "achievement": 3285,
      "Ġveliko": 3286,
      "ĠSkeleton": 3287,
      "oretically": 3288,
      "Ġcambia": 3289,
      "Ġrozm": 3290,
      "Ġyapan": 3291,
      "EATURES": 3292,
      "Ġdisgraceful": 3293,
      "Ġsloop": 3294,
      "ĠCoo": 3295,
      "ĠLipp": 3296,
      "outFile": 3297,
      "ntgen": 3298,
      "ĠParas": 3299,
      "Ġjusticiable": 3300,
      "ĠSUBSCRIBE": 3301,
      "ĠGreedy": 3302,
      "Ġbeeindruck": 3303,
      "ĠCooley": 3304,
      "Ġaturan": 3305,
      "ĠKMnO": 3306,
      "Ġrares": 3307,
      "ĠVell": 3308,
      "Ġproclaimed": 3309,
      "linary": 3310,
      "Ġgiveaway": 3311,
      "bigg": 3312,
      "ĠMarius": 3313,
      "usement": 3314,
      "Ġbine": 3315,
      "ĠHers": 3316,
      "ĠFif": 3317,
      "Ġquarter": 3318,
      "corpus": 3319,
      "Ġdiscipl": 3320,
      "Ġpaddock": 3321,
      "NERS": 3322,
      "ĠLesson": 3323,
      "ĠFEATURES": 3324,
      "ĠVip": 3325,
      "azol": 3326,
      "Articles": 3327,
      "Ġtiring": 3328,
      "Ġvreau": 3329,
      "promoting": 3330,
      "ĠHEM": 3331,
      "ĠHahn": 3332,
      "ertDialog": 3333,
      "Ġteren": 3334,
      "Ġcrease": 3335,
      "Ġoksid": 3336,
      "blood": 3337,
      "Ġartificially": 3338,
      "ĠNaw": 3339,
      "izu": 3340,
      "letic": 3341,
      "UNIVERS": 3342,
      "Ġmonitor": 3343,
      "Ġderel": 3344,
      "Ġseagulls": 3345,
      "Ġbringt": 3346,
      "surv": 3347,
      "anima": 3348,
      "attro": 3349,
      "Ġsubversive": 3350,
      "ContextProvider": 3351,
      "ĠExter": 3352,
      "ĠBhagava": 3353,
      "survival": 3354,
      "ĠMystic": 3355,
      "Ġegos": 3356,
      "DataGridView": 3357,
      "Ġpatented": 3358,
      "Ġausgew": 3359,
      "ahanglan": 3360,
      "icultural": 3361,
      "Ġdatthabbam": 3362,
      "ĠCrab": 3363,
      "Ġbiet": 3364,
      "estomac": 3365,
      "zenia": 3366,
      "Ġaccumulating": 3367,
      "ĠAsyncStorage": 3368,
      "ĠglobalMap": 3369,
      "Ġbietet": 3370,
      "rical": 3371,
      "Ġcents": 3372,
      "omponent": 3373,
      "Ġquattro": 3374,
      "UserRepository": 3375,
      "Ġinfot": 3376,
      "Ġeyew": 3377,
      "voje": 3378,
      "biggr": 3379,
      "ĠMurat": 3380,
      "Ġfurt": 3381,
      "ĠTreeNode": 3382,
      "ĠTattoo": 3383,
      "Ġabge": 3384,
      "teste": 3385,
      "Ġpersons": 3386,
      "Ġescreveu": 3387,
      "Ġmonitored": 3388,
      "dail": 3389,
      "ĠGreg": 3390,
      "izr": 3391,
      "alten": 3392,
      "Ġdeportivos": 3393,
      "DFC": 3394,
      "vscode": 3395,
      "Ġmimo": 3396,
      "ĠKell": 3397,
      "abelian": 3398,
      "ĠParen": 3399,
      "Ġcampe": 3400,
      "girls": 3401,
      "ĠSATA": 3402,
      "ĠBet": 3403,
      "Ġdava": 3404,
      "ĠTel": 3405,
      "ruga": 3406,
      "constants": 3407,
      "ĠGregg": 3408,
      "AGRIC": 3409,
      "snapshot": 3410,
      "Ġeti": 3411,
      "actionMode": 3412,
      "Ġunglaublich": 3413,
      "lassen": 3414,
      "ĠMenuGroup": 3415,
      "Ġnevez": 3416,
      "elie": 3417,
      "adri": 3418,
      "estad": 3419,
      "Ġgarrison": 3420,
      "Ġstara": 3421,
      "ISH": 3422,
      "itorial": 3423,
      "Ġunwilling": 3424,
      "ĠBeckham": 3425,
      "Ġdiferenciales": 3426,
      "eligible": 3427,
      "Jog": 3428,
      "Saxon": 3429,
      "Ġvanguard": 3430,
      "ĠIncub": 3431,
      "ĠBurgos": 3432,
      "Signin": 3433,
      "Ġunavoidable": 3434,
      "Ġcampeonato": 3435,
      "JButton": 3436,
      "Roof": 3437,
      "ĠLhasa": 3438,
      "Ġscar": 3439,
      "Ġlocomotor": 3440,
      "Ġmagnified": 3441,
      "Ġcanvases": 3442,
      "cwnd": 3443,
      "ugar": 3444,
      "cludes": 3445,
      "spin": 3446,
      "Ġcompuesto": 3447,
      "ĠRecycle": 3448,
      "tabla": 3449,
      "WarningLevel": 3450,
      "Ġcadres": 3451,
      "ĠZustand": 3452,
      "Det": 3453,
      "GDP": 3454,
      "lone": 3455,
      "Ġdroite": 3456,
      "Ġineligible": 3457,
      "Ġluxurious": 3458,
      "ĠBetfair": 3459,
      "gged": 3460,
      "Ġnvp": 3461,
      "uncio": 3462,
      "Ġaritm": 3463,
      "Ġnotables": 3464,
      "Ġstrcat": 3465,
      "Ġreliever": 3466,
      "Ġreinforc": 3467,
      "Ġclimatique": 3468,
      "spinlock": 3469,
      "miri": 3470,
      "Ġthine": 3471,
      "Ġfermeture": 3472,
      "setti": 3473,
      "ballage": 3474,
      "Ġuntersucht": 3475,
      "dim": 3476,
      "Ġmondial": 3477,
      "ebab": 3478,
      "Ġacid": 3479,
      "ĠSpiegel": 3480,
      "Ġnotice": 3481,
      "Ġcareless": 3482,
      "Ġspreader": 3483,
      "Ġtribunal": 3484,
      "jent": 3485,
      "okinase": 3486,
      "Methods": 3487,
      "ĠUnisex": 3488,
      "rigid": 3489,
      "Ġadvanced": 3490,
      "Ġclandest": 3491,
      "ISHED": 3492,
      "Food": 3493,
      "ĠFood": 3494,
      "Ġlors": 3495,
      "ovski": 3496,
      "Ġrude": 3497,
      "ĠConor": 3498,
      "graphic": 3499,
      "ĠFOOD": 3500,
      "ĠHoldings": 3501,
      "ĠLCCN": 3502,
      "Ġhautes": 3503,
      "ĠFID": 3504,
      "ĠPlow": 3505,
      "Ġatak": 3506,
      "Ġjuventud": 3507,
      "ĠcoinChange": 3508,
      "IAMS": 3509,
      "Merc": 3510,
      "ĠNol": 3511,
      "Ġrecurrent": 3512,
      "raphy": 3513,
      "Ġintuit": 3514,
      "Ġappro": 3515,
      "Factories": 3516,
      "Ġmiesto": 3517,
      "Ġfullback": 3518,
      "ĠNawaz": 3519,
      "ĠCamb": 3520,
      "Manip": 3521,
      "Phys": 3522,
      "ĠGalicia": 3523,
      "Ġgolongan": 3524,
      "graphicx": 3525,
      "Air": 3526,
      "uur": 3527,
      "avalt": 3528,
      "shen": 3529,
      "Ġsaliva": 3530,
      "SelectItem": 3531,
      "HistogramDetails": 3532,
      "esorios": 3533,
      "Ġinfographic": 3534,
      "etailed": 3535,
      "Ġcollapses": 3536,
      "Ġadvoc": 3537,
      "Ġoligonucleotide": 3538,
      "ĠSingleton": 3539,
      "Ġnoticeable": 3540,
      "eraient": 3541,
      "ĠDakar": 3542,
      "ategorie": 3543,
      "Ġposizione": 3544,
      "Ġcaminh": 3545,
      "Ġskupiny": 3546,
      "isIn": 3547,
      "ĠIron": 3548,
      "Ġstoi": 3549,
      "Ġrecreated": 3550,
      "figsize": 3551,
      "Ġdelir": 3552,
      "Ġposiciones": 3553,
      "ĠNavBar": 3554,
      "Auction": 3555,
      "bles": 3556,
      "Ġkarat": 3557,
      "undan": 3558,
      "ĠStreet": 3559,
      "Ġdevi": 3560,
      "Ġguardar": 3561,
      "Ġlarge": 3562,
      "Ġnapkins": 3563,
      "ĠMenuView": 3564,
      "alto": 3565,
      "adhan": 3566,
      "Ġsteer": 3567,
      "Ġunc": 3568,
      "Ġlingue": 3569,
      "PhysRev": 3570,
      "ĠIronman": 3571,
      "lios": 3572,
      "estock": 3573,
      "ĠYears": 3574,
      "riso": 3575,
      "httpRequest": 3576,
      "Ġofere": 3577,
      "ĠTenggara": 3578,
      "unicip": 3579,
      "Ġhappily": 3580,
      "Ġsvol": 3581,
      "ĠFib": 3582,
      "ĠAlipay": 3583,
      "ĠInline": 3584,
      "ĠsetUser": 3585,
      "Ġtibi": 3586,
      "fad": 3587,
      "ĠMMO": 3588,
      "Ġthread": 3589,
      "ĠProRes": 3590,
      "NaN": 3591,
      "ĠHobbs": 3592,
      "Ġsteampunk": 3593,
      "Ġrapide": 3594,
      "Ġlluvias": 3595,
      "Ġlargeur": 3596,
      "AIN": 3597,
      "lighet": 3598,
      "Ġhome": 3599,
      "Stmt": 3600,
      "oldo": 3601,
      "ennia": 3602,
      "Ġerat": 3603,
      "Ġovertake": 3604,
      "Ġcurvatures": 3605,
      "Ġdol": 3606,
      "Ġwinger": 3607,
      "irem": 3608,
      "Ġyav": 3609,
      "Ġcollisions": 3610,
      "Ġmetaphysical": 3611,
      "Ġsprite": 3612,
      "Ġbiste": 3613,
      "Ġsalwar": 3614,
      "discipline": 3615,
      "Ġbounced": 3616,
      "Ġforcibly": 3617,
      "voc": 3618,
      "itical": 3619,
      "ĠCoff": 3620,
      "ĠProu": 3621,
      "ollar": 3622,
      "adiator": 3623,
      "ĠDelhi": 3624,
      "Ġjezika": 3625,
      "Ġplaygrounds": 3626,
      "cesis": 3627,
      "ĠIh": 3628,
      "Ġaromatic": 3629,
      "subprocess": 3630,
      "Anomaly": 3631,
      "Ġlesen": 3632,
      "Ġbloodstream": 3633,
      "hess": 3634,
      "Ġcanes": 3635,
      "ĠTuscany": 3636,
      "ĠCharm": 3637,
      "Ġplong": 3638,
      "Ġsymbolizes": 3639,
      "Ġeyep": 3640,
      "Stamped": 3641,
      "Ġcoeficiente": 3642,
      "plect": 3643,
      "asys": 3644,
      "ĠFox": 3645,
      "keen": 3646,
      "INFORM": 3647,
      "Ġaccomplish": 3648,
      "ffler": 3649,
      "insulin": 3650,
      "ponen": 3651,
      "Ġpreoc": 3652,
      "ĠKonstantin": 3653,
      "Ġhypertext": 3654,
      "attaque": 3655,
      "itated": 3656,
      "ĠSec": 3657,
      "qui": 3658,
      "ĠFitch": 3659,
      "achios": 3660,
      "ashop": 3661,
      "Ġobst": 3662,
      "Ġavions": 3663,
      "ĠPutra": 3664,
      "ĠITEMS": 3665,
      "Ġpolyamide": 3666,
      "Ġosh": 3667,
      "Ġvezi": 3668,
      "uparrow": 3669,
      "acetyl": 3670,
      "yeri": 3671,
      "ĠcheckIf": 3672,
      "tomcat": 3673,
      "crom": 3674,
      "Ġpila": 3675,
      "Ġdog": 3676,
      "Ġnu": 3677,
      "Ġanimated": 3678,
      "affen": 3679,
      "ENTION": 3680,
      "Ġmmol": 3681,
      "yes": 3682,
      "enommen": 3683,
      "ĠXPS": 3684,
      "bits": 3685,
      "Ġangenommen": 3686,
      "Ġforts": 3687,
      "animated": 3688,
      "ĠResearch": 3689,
      "Ġdogma": 3690,
      "Ġsepan": 3691,
      "Ġhep": 3692,
      "ivative": 3693,
      "ĠEmpresa": 3694,
      "Commande": 3695,
      "Ġdziecka": 3696,
      "Ġrappresent": 3697,
      "Ġnostalg": 3698,
      "ĠUsername": 3699,
      "hor": 3700,
      "elar": 3701,
      "ĠICON": 3702,
      "prud": 3703,
      "ĠsetDefault": 3704,
      "variance": 3705,
      "innerText": 3706,
      "Ġverwij": 3707,
      "Ġescalate": 3708,
      "Ġarticoli": 3709,
      "Textures": 3710,
      "roidTest": 3711,
      "compos": 3712,
      "Ġlocomotives": 3713,
      "ĠLeder": 3714,
      "Ġlod": 3715,
      "Ġwealthiest": 3716,
      "Ġinvariance": 3717,
      "ARS": 3718,
      "Ġabol": 3719,
      "anceled": 3720,
      "anyard": 3721,
      "byte": 3722,
      "Ġmelanin": 3723,
      "Ġproduk": 3724,
      "hoenix": 3725,
      "Ġfamiliares": 3726,
      "Ġheparin": 3727,
      "Car": 3728,
      "Eureka": 3729,
      "kDa": 3730,
      "ĠMadden": 3731,
      "kids": 3732,
      "inform": 3733,
      "Ġphoenix": 3734,
      "ĠAeron": 3735,
      "ĠHBase": 3736,
      "Ġvbox": 3737,
      "Ġexplodes": 3738,
      "ĠWeyl": 3739,
      "Ġfreelancer": 3740,
      "composable": 3741,
      "mill": 3742,
      "inference": 3743,
      "ĠSinne": 3744,
      "otipos": 3745,
      "ĠNGO": 3746,
      "Ġcha": 3747,
      "FirstResponder": 3748,
      "Ġdigelar": 3749,
      "Pom": 3750,
      "hstack": 3751,
      "androidTest": 3752,
      "Ġpops": 3753,
      "Ġcompartments": 3754,
      "Ġexperimentally": 3755,
      "Ġcoleg": 3756,
      "lava": 3757,
      "ĠSin": 3758,
      "Ġcanceled": 3759,
      "Ġglande": 3760,
      "outer": 3761,
      "riches": 3762,
      "Ġagitation": 3763,
      "hashtag": 3764,
      "taobao": 3765,
      "Ġambul": 3766,
      "Ġedificios": 3767,
      "sports": 3768,
      "Ġpreguntar": 3769,
      "oceras": 3770,
      "ĠIya": 3771,
      "Ġadvances": 3772,
      "Ġsponsors": 3773,
      "ĠCambodian": 3774,
      "Wei": 3775,
      "Ġfinan": 3776,
      "ĠJunius": 3777,
      "tanh": 3778,
      "ĠNaut": 3779,
      "Ġinfer": 3780,
      "geometric": 3781,
      "Ġretri": 3782,
      "ĠMerced": 3783,
      "ĠComun": 3784,
      "Redis": 3785,
      "Fetched": 3786,
      "HANG": 3787,
      "ĠMech": 3788,
      "acjach": 3789,
      "getSystemService": 3790,
      "Ġutiles": 3791,
      "Ġbiedt": 3792,
      "Ġfederation": 3793,
      "ĠMotorsports": 3794,
      "cia": 3795,
      "ieres": 3796,
      "Ġarcane": 3797,
      "iquest": 3798,
      "ĠGameObject": 3799,
      "Ġpioneering": 3800,
      "Ġmechanistic": 3801,
      "Ġencourages": 3802,
      "Ġpanch": 3803,
      "ĠSARS": 3804,
      "Ġreeling": 3805,
      "Ġdescont": 3806,
      "uela": 3807,
      "Ġpreseason": 3808,
      "Ġartik": 3809,
      "Ġsecession": 3810,
      "Ġhypergeometric": 3811,
      "Ġlogic": 3812,
      "Ġumpire": 3813,
      "ĠCOMMENTS": 3814,
      "Barrel": 3815,
      "sph": 3816,
      "yse": 3817,
      "olated": 3818,
      "ĠBesch": 3819,
      "Ġtif": 3820,
      "Ġmild": 3821,
      "Ġchisel": 3822,
      "ĠClaw": 3823,
      "Ġcomplying": 3824,
      "Ġestrell": 3825,
      "Ġancienne": 3826,
      "Ġpointers": 3827,
      "Ġoxyd": 3828,
      "attung": 3829,
      "spj": 3830,
      "Moody": 3831,
      "baarheid": 3832,
      "Shutdown": 3833,
      "Ġprincipally": 3834,
      "Ġtamp": 3835,
      "ĠSchool": 3836,
      "Ġuphol": 3837,
      "Ġrefused": 3838,
      "Ġsvega": 3839,
      "Ġfields": 3840,
      "Ġsexually": 3841,
      "Fourier": 3842,
      "enged": 3843,
      "auru": 3844,
      "ĠObst": 3845,
      "clientHeight": 3846,
      "ĠSardegna": 3847,
      "Kafka": 3848,
      "ĠMende": 3849,
      "imantan": 3850,
      "thapi": 3851,
      "encio": 3852,
      "ĠBratis": 3853,
      "ĠMarx": 3854,
      "Reason": 3855,
      "Ġadministrations": 3856,
      "Ġtentativo": 3857,
      "ĠBratislava": 3858,
      "ĠPrem": 3859,
      "apeut": 3860,
      "maxWidth": 3861,
      "Ġmoeten": 3862,
      "Ġenjoys": 3863,
      "itettura": 3864,
      "Ġhogar": 3865,
      "phoneNumber": 3866,
      "ĠBears": 3867,
      "Ġrene": 3868,
      "Ġrussia": 3869,
      "Ġzien": 3870,
      "Ġyada": 3871,
      "voerd": 3872,
      "rypto": 3873,
      "Ġlibel": 3874,
      "ĠUnterricht": 3875,
      "experiments": 3876,
      "ĠJir": 3877,
      "Experiments": 3878,
      "iena": 3879,
      "ĠExperiments": 3880,
      "Ġexperiments": 3881,
      "Ġexperimentation": 3882,
      "Ġacidosis": 3883,
      "Ġarticles": 3884,
      "ĠArticles": 3885,
      "ĠXXV": 3886,
      "Ġmodelu": 3887,
      "Reasoner": 3888,
      "gani": 3889,
      "Ġnoxious": 3890,
      "Ġlage": 3891,
      "Ġlezen": 3892,
      "Adm": 3893,
      "Phir": 3894,
      "opped": 3895,
      "richten": 3896,
      "Ġrescind": 3897,
      "ĠObstet": 3898,
      "akit": 3899,
      "Ġvaj": 3900,
      "oget": 3901,
      "Ġimpetus": 3902,
      "ĠnavController": 3903,
      "Ġfrontline": 3904,
      "Ġwatermark": 3905,
      "Ġgente": 3906,
      "ĠShop": 3907,
      "Ġshop": 3908,
      "ystate": 3909,
      "mygray": 3910,
      "Ġpotentiel": 3911,
      "Ġsponsorship": 3912,
      "Ġgrafts": 3913,
      "uccessful": 3914,
      "Ġaprobado": 3915,
      "enary": 3916,
      "ĠTango": 3917,
      "izienz": 3918,
      "Ġspalle": 3919,
      "Ġslab": 3920,
      "Ġupto": 3921,
      "Ġimpressed": 3922,
      "Ġvrijeme": 3923,
      "hmann": 3924,
      "icies": 3925,
      "Ġcouleurs": 3926,
      "Ġconcom": 3927,
      "ĠMonths": 3928,
      "Ġsurgir": 3929,
      "Ġobstante": 3930,
      "ĠStairs": 3931,
      "Expired": 3932,
      "Ġdemostr": 3933,
      "Ġatrib": 3934,
      "ĠAufenthalt": 3935,
      "Ġmechanisms": 3936,
      "ĠRehabilit": 3937,
      "Ġbilgiler": 3938,
      "Ġdemostrado": 3939,
      "fitted": 3940,
      "ĠCrypto": 3941,
      "anaan": 3942,
      "Ġpril": 3943,
      "Ġxanh": 3944,
      "Ġvoie": 3945,
      "Ġscoreless": 3946,
      "ĠJuin": 3947,
      "Ġquitar": 3948,
      "Ġcolt": 3949,
      "BrNO": 3950,
      "ĠGolpe": 3951,
      "Ġweist": 3952,
      "ĠYuki": 3953,
      "ĠNirvana": 3954,
      "ĠBeschreibung": 3955,
      "ĠPip": 3956,
      "ayak": 3957,
      "Ġemp": 3958,
      "Ġgritty": 3959,
      "Ġblower": 3960,
      "ĠMagnet": 3961,
      "Ġmesmer": 3962,
      "Ġcrankshaft": 3963,
      "Ġtrenches": 3964,
      "RenderTarget": 3965,
      "ĠResearcher": 3966,
      "experimental": 3967,
      "ĠOasis": 3968,
      "Ġcontended": 3969,
      "laug": 3970,
      "Ġsogg": 3971,
      "oples": 3972,
      "Ġexpos": 3973,
      "Ġuranyl": 3974,
      "decrement": 3975,
      "Semantic": 3976,
      "Ġdisappoint": 3977,
      "trailing": 3978,
      "ĠPseud": 3979,
      "Ġmelt": 3980,
      "DataProvider": 3981,
      "Ġoutfitted": 3982,
      "ĠEgyes": 3983,
      "ĠUNITED": 3984,
      "Ġtempat": 3985,
      "aghetti": 3986,
      "ĠNGOs": 3987,
      "anov": 3988,
      "Ġcold": 3989,
      "ĠVeil": 3990,
      "Ġcompra": 3991,
      "ĠidP": 3992,
      "ĠREAL": 3993,
      "verbosity": 3994,
      "ĠCryptoJS": 3995,
      "sav": 3996,
      "Ġcrowning": 3997,
      "otypic": 3998,
      "Ġzusammen": 3999,
      "ĠBlumen": 4000,
      "Ġindestruct": 4001,
      "ĠcurrentColor": 4002,
      "syllabus": 4003,
      "vival": 4004,
      "Ġpizz": 4005,
      "ENG": 4006,
      "showing": 4007,
      "Ġbooting": 4008,
      "Ġbusinessmen": 4009,
      "Manipulation": 4010,
      "home": 4011,
      "ĠSDF": 4012,
      "Ġstaff": 4013,
      "Ġconoc": 4014,
      "flation": 4015,
      "Ġarac": 4016,
      "instellung": 4017,
      "ĠMoritz": 4018,
      "quirements": 4019,
      "Ġfutbol": 4020,
      "ATTLE": 4021,
      "mitri": 4022,
      "enak": 4023,
      "ĠDmitri": 4024,
      "cture": 4025,
      "oxia": 4026,
      "JobList": 4027,
      "apeutics": 4028,
      "ĠPseudomonas": 4029,
      "ĠBacter": 4030,
      "ĠAM": 4031,
      "Ġramo": 4032,
      "Ġrecorr": 4033,
      "Ġecu": 4034,
      "Ġhypoxia": 4035,
      "Ġpredomin": 4036,
      "Ġmendek": 4037,
      "Ġremplacement": 4038,
      "Ġsoggiorno": 4039,
      "alumno": 4040,
      "Ġstanie": 4041,
      "Ġziel": 4042,
      "Ġosoba": 4043,
      "unctional": 4044,
      "Ġaggravate": 4045,
      "ĠForeman": 4046,
      "Ġrattan": 4047,
      "Ġindestructible": 4048,
      "Ġgobl": 4049,
      "Ġverk": 4050,
      "Ġpli": 4051,
      "Ġalcov": 4052,
      "Ġdelta": 4053,
      "devi": 4054,
      "Ġmartial": 4055,
      "wendungen": 4056,
      "Ġalcoved": 4057,
      "Pierce": 4058,
      "Ġtrag": 4059,
      "Ġjong": 4060,
      "Ġcompass": 4061,
      "Ġconcat": 4062,
      "ĠAMERICAN": 4063,
      "ĠdeltaTime": 4064,
      "Ġwody": 4065,
      "loads": 4066,
      "ELIG": 4067,
      "Ġcrosses": 4068,
      "ĠItalia": 4069,
      "ĠBacteriol": 4070,
      "hiva": 4071,
      "essie": 4072,
      "athlet": 4073,
      "Ġleite": 4074,
      "SourceName": 4075,
      "ĠMuscle": 4076,
      "Ġsebagainya": 4077,
      "Ġtougher": 4078,
      "Ġmuffler": 4079,
      "Ġpion": 4080,
      "ĠADM": 4081,
      "epam": 4082,
      "ensibly": 4083,
      "Ġalamy": 4084,
      "ĠInference": 4085,
      "Ġberubah": 4086,
      "ĠBadge": 4087,
      "Ġnervous": 4088,
      "Ġbuccal": 4089,
      "Ġcompassion": 4090,
      "ĠADMIN": 4091,
      "balance": 4092,
      "experiment": 4093,
      "Experiment": 4094,
      "ILITIES": 4095,
      "Ġoverse": 4096,
      "Ġavanc": 4097,
      "iertas": 4098,
      "isiaj": 4099,
      "Ġbankrupt": 4100,
      "Hour": 4101,
      "acola": 4102,
      "Ġbrit": 4103,
      "ĠNoble": 4104,
      "ĠAtm": 4105,
      "Ġpenumpang": 4106,
      "consol": 4107,
      "ĠSandoval": 4108,
      "Ġsponsorships": 4109,
      "Ġnostalgic": 4110,
      "eters": 4111,
      "strcmp": 4112,
      "ĠElim": 4113,
      "Ġentste": 4114,
      "Ġupaparikkh": 4115,
      "quinolin": 4116,
      "Ġwszel": 4117,
      "dosage": 4118,
      "Ġfavorite": 4119,
      "obenz": 4120,
      "Ġwheel": 4121,
      "idded": 4122,
      "nameof": 4123,
      "Ġdriftwood": 4124,
      "hando": 4125,
      "Ġcanteen": 4126,
      "ĠHum": 4127,
      "ĠLia": 4128,
      "Ġlame": 4129,
      "ahar": 4130,
      "Ġkendi": 4131,
      "ricamente": 4132,
      "LOGO": 4133,
      "Ġattaque": 4134,
      "iculty": 4135,
      "Ġpermita": 4136,
      "Ġcounterbalance": 4137,
      "Ġdext": 4138,
      "Ġchega": 4139,
      "Ġzuten": 4140,
      "octet": 4141,
      "Ġintric": 4142,
      "ĠMyerson": 4143,
      "ĠInfrast": 4144,
      "itele": 4145,
      "ĠBree": 4146,
      "aboard": 4147,
      "ihkan": 4148,
      "Ġpotreb": 4149,
      "Ġbedrijven": 4150,
      "runge": 4151,
      "Ġboron": 4152,
      "Ġsexu": 4153,
      "dilation": 4154,
      "ĠSore": 4155,
      "Ġdola": 4156,
      "Ġbieden": 4157,
      "andez": 4158,
      "egrad": 4159,
      "ITOR": 4160,
      "Ġswoje": 4161,
      "ĠAbroad": 4162,
      "featurde": 4163,
      "Ġzawiera": 4164,
      "Ġpele": 4165,
      "Ġlezione": 4166,
      "UMB": 4167,
      "Ġponytail": 4168,
      "ĠPrisoners": 4169,
      "Ġprodukcji": 4170,
      "ĠIEP": 4171,
      "getVersion": 4172,
      "ploid": 4173,
      "ndown": 4174,
      "levelname": 4175,
      "Ġamplia": 4176,
      "ĠSevent": 4177,
      "Ġnaive": 4178,
      "arraf": 4179,
      "Ġsidel": 4180,
      "acara": 4181,
      "ĠOso": 4182,
      "tram": 4183,
      "Ġpurified": 4184,
      "Ġjustific": 4185,
      "britannien": 4186,
      "streets": 4187,
      "acho": 4188,
      "Ġitali": 4189,
      "Ġiframe": 4190,
      "GISL": 4191,
      "ĠLiaison": 4192,
      "GLu": 4193,
      "zipped": 4194,
      "Ġdura": 4195,
      "Ġbanj": 4196,
      "Ġhii": 4197,
      "ĠChico": 4198,
      "ighty": 4199,
      "ambil": 4200,
      "ombasa": 4201,
      "ĠExisten": 4202,
      "Ġlengths": 4203,
      "ĠDURING": 4204,
      "GLuint": 4205,
      "Trav": 4206,
      "etak": 4207,
      "reven": 4208,
      "Ġconten": 4209,
      "Inventor": 4210,
      "Ġstamina": 4211,
      "Hashing": 4212,
      "cina": 4213,
      "adto": 4214,
      "emd": 4215,
      "Ġrecycl": 4216,
      "ĠAgg": 4217,
      "Ġsnacks": 4218,
      "rexham": 4219,
      "Ġherring": 4220,
      "authier": 4221,
      "Ġpneumonia": 4222,
      "Ġfoldable": 4223,
      "Ġornament": 4224,
      "Ġbanjir": 4225,
      "Yaml": 4226,
      "ĠTran": 4227,
      "Std": 4228,
      "adeep": 4229,
      "Ġbrinda": 4230,
      "ĠBaillar": 4231,
      "Ġpneumoniae": 4232,
      "ĠBaillargeon": 4233,
      "stvo": 4234,
      "Ġdikk": 4235,
      "Ġacumen": 4236,
      "ismus": 4237,
      "Ġannoy": 4238,
      "Ġmagni": 4239,
      "ĠWeimar": 4240,
      "Ġsegunda": 4241,
      "ĠLANGUAGE": 4242,
      "Ġunleash": 4243,
      "Ġdikkat": 4244,
      "Di": 4245,
      "ĠPaddy": 4246,
      "iru": 4247,
      "Tools": 4248,
      "Ġexerts": 4249,
      "yrinth": 4250,
      "Ġbreez": 4251,
      "Ġcourbe": 4252,
      "ĠAutobi": 4253,
      "Ġherringbone": 4254,
      "StdHandle": 4255,
      "density": 4256,
      "Ġfiglia": 4257,
      "ĠOba": 4258,
      "issimo": 4259,
      "Ġimpec": 4260,
      "Ġolsa": 4261,
      "Ġfacile": 4262,
      "Ġproduse": 4263,
      "Ġexclusivement": 4264,
      "Ġcharcoal": 4265,
      "EXPERIMENTAL": 4266,
      "Ġcrystal": 4267,
      "Ġtired": 4268,
      "quay": 4269,
      "Ġplugs": 4270,
      "ĠDNR": 4271,
      "ĠBeno": 4272,
      "Ġdaug": 4273,
      "ĠRuben": 4274,
      "ĠLat": 4275,
      "Standards": 4276,
      "upan": 4277,
      "blink": 4278,
      "Endian": 4279,
      "Ġmalloc": 4280,
      "MSBuildTools": 4281,
      "ĠBolsa": 4282,
      "Ġtred": 4283,
      "ĠFel": 4284,
      "ĠWam": 4285,
      "Ġalent": 4286,
      "subject": 4287,
      "Ġphoto": 4288,
      "Ġdissatisf": 4289,
      "Ġkompan": 4290,
      "Ġmulte": 4291,
      "Ġgrizzly": 4292,
      "Ġrappresenta": 4293,
      "tul": 4294,
      "olium": 4295,
      "ĠTitan": 4296,
      "Ġvar": 4297,
      "Ġlateral": 4298,
      "Ġjour": 4299,
      "cadian": 4300,
      "Ġmisch": 4301,
      "ĠmainWindow": 4302,
      "credible": 4303,
      "Ġcircadian": 4304,
      "pik": 4305,
      "Ġpity": 4306,
      "Ġcopy": 4307,
      "Ġhamm": 4308,
      "mount": 4309,
      "categorie": 4310,
      "Ġelevated": 4311,
      "Ġremarqu": 4312,
      "Ġpalpitations": 4313,
      "ĠMiao": 4314,
      "INDER": 4315,
      "Ġapocalypse": 4316,
      "ĠoLetterLocation": 4317,
      "Ġrelieved": 4318,
      "picklist": 4319,
      "ynchronously": 4320,
      "Ġficam": 4321,
      "ĠSinai": 4322,
      "revenue": 4323,
      "Ġders": 4324,
      "Ġtmux": 4325,
      "Ġhilo": 4326,
      "Ġconson": 4327,
      "Ġcompless": 4328,
      "uales": 4329,
      "Ġarchive": 4330,
      "Ġremarquable": 4331,
      "Ġdersimizde": 4332,
      "aub": 4333,
      "edor": 4334,
      "ĠLUT": 4335,
      "Ġnau": 4336,
      "ĠAlhaji": 4337,
      "insights": 4338,
      "Ġunterscheiden": 4339,
      "Ġlaterales": 4340,
      "Ġanticip": 4341,
      "enteuer": 4342,
      "Ġseals": 4343,
      "Ġarrondi": 4344,
      "ĠDefaults": 4345,
      "ĠRound": 4346,
      "alloc": 4347,
      "ainers": 4348,
      "Ġinduct": 4349,
      "Ġprehr": 4350,
      "iciency": 4351,
      "Ġconfirm": 4352,
      "ĠTrink": 4353,
      "Ġmanifesto": 4354,
      "Ġagricoles": 4355,
      "Ġcoeffs": 4356,
      "Ġdrips": 4357,
      "anting": 4358,
      "Ġwirst": 4359,
      "venuti": 4360,
      "Ġextrac": 4361,
      "ĠIncreases": 4362,
      "clerosis": 4363,
      "Ġogranic": 4364,
      "tBleStatus": 4365,
      "ĠSang": 4366,
      "ĠsetTasks": 4367,
      "Ġentdecken": 4368,
      "Ġbruta": 4369,
      "Ġambulatory": 4370,
      "Ġpotrebno": 4371,
      "Ġextracurricular": 4372,
      "ĠSlid": 4373,
      "ĠBend": 4374,
      "Inher": 4375,
      "Ġstom": 4376,
      "parallax": 4377,
      "IRC": 4378,
      "Ġlogiciels": 4379,
      "ĠSangh": 4380,
      "ĠSliding": 4381,
      "hended": 4382,
      "eries": 4383,
      "rez": 4384,
      "Ġtett": 4385,
      "Ġtatto": 4386,
      "Ġdiad": 4387,
      "Ġapprehended": 4388,
      "ĠLETTER": 4389,
      "Grunge": 4390,
      "yyati": 4391,
      "nae": 4392,
      "regon": 4393,
      "Ġolika": 4394,
      "ĠEnum": 4395,
      "Ġmechanically": 4396,
      "Ġsidelines": 4397,
      "aik": 4398,
      "butt": 4399,
      "utani": 4400,
      "ording": 4401,
      "Ġgrating": 4402,
      "Ġartigos": 4403,
      "Ġfortes": 4404,
      "ĠHumane": 4405,
      "Atoi": 4406,
      "Ġdies": 4407,
      "avic": 4408,
      "Chol": 4409,
      "Ġentrop": 4410,
      "Ġgras": 4411,
      "rasp": 4412,
      "Ġsvil": 4413,
      "ĠDamien": 4414,
      "Ġlawyer": 4415,
      "Func": 4416,
      "gent": 4417,
      "Ġbio": 4418,
      "ĠNASDAQ": 4419,
      "ograp": 4420,
      "Ġrational": 4421,
      "ARRY": 4422,
      "Ġextremal": 4423,
      "Ġeventual": 4424,
      "Ġafirmar": 4425,
      "Ġthreading": 4426,
      "Hr": 4427,
      "mate": 4428,
      "rends": 4429,
      "ĠSrb": 4430,
      "Ġdens": 4431,
      "illae": 4432,
      "clause": 4433,
      "Hrsg": 4434,
      "dens": 4435,
      "omat": 4436,
      "Ġabatement": 4437,
      "pointB": 4438,
      "Ġrubber": 4439,
      "Ġkindred": 4440,
      "Ġrationalize": 4441,
      "ĠPele": 4442,
      "Ġplonge": 4443,
      "ALTH": 4444,
      "auti": 4445,
      "TestSuite": 4446,
      "Ġsakamm": 4447,
      "Ġmachining": 4448,
      "Ġsustainable": 4449,
      "AVC": 4450,
      "ĠClients": 4451,
      "TextBoxColumn": 4452,
      "Ġcovari": 4453,
      "Ġsepanjang": 4454,
      "anatomy": 4455,
      "Ġarsenic": 4456,
      "ĠLatvij": 4457,
      "Hydrogen": 4458,
      "dismiss": 4459,
      "kite": 4460,
      "etrott": 4461,
      "Ġsidan": 4462,
      "ottam": 4463,
      "flakes": 4464,
      "uxi": 4465,
      "ĠAbub": 4466,
      "Accum": 4467,
      "Ġabbastanza": 4468,
      "etrotters": 4469,
      "Ġban": 4470,
      "Ġhok": 4471,
      "Include": 4472,
      "setSize": 4473,
      "Ġprosegu": 4474,
      "Ġroam": 4475,
      "Ġamulet": 4476,
      "Ġetkin": 4477,
      "andelions": 4478,
      "Ġturnovers": 4479,
      "Ġbestow": 4480,
      "Ġbenzyl": 4481,
      "peals": 4482,
      "Ġprogram": 4483,
      "ClInclude": 4484,
      "blk": 4485,
      "versed": 4486,
      "Ġcompagn": 4487,
      "ĠProgress": 4488,
      "Ġmunicipalities": 4489,
      "Ġregistrer": 4490,
      "Ġcovariates": 4491,
      "Vers": 4492,
      "Ġutu": 4493,
      "Ġweak": 4494,
      "Ġwalkthrough": 4495,
      "ĠDaarna": 4496,
      "FuncName": 4497,
      "ĠCrib": 4498,
      "abod": 4499,
      "ĠDij": 4500,
      "Ġlaissez": 4501,
      "ommt": 4502,
      "Ġresign": 4503,
      "Ġdictum": 4504,
      "Ġumfass": 4505,
      "ĠPergamon": 4506,
      "Ġstopping": 4507,
      "Ġroaring": 4508,
      "FindAsync": 4509,
      "Ġsniper": 4510,
      "Ġacho": 4511,
      "ĠGautam": 4512,
      "CLAIM": 4513,
      "fif": 4514,
      "Ġmeaning": 4515,
      "cepat": 4516,
      "Ġchadd": 4517,
      "Ġapiece": 4518,
      "Ġterre": 4519,
      "Ġelicit": 4520,
      "ĠAutobiography": 4521,
      "boh": 4522,
      "masked": 4523,
      "rels": 4524,
      "Ġsisi": 4525,
      "ĠCogn": 4526,
      "INTS": 4527,
      "araoh": 4528,
      "Ġeski": 4529,
      "Ġautrement": 4530,
      "Ġcheckers": 4531,
      "Ġkaryawan": 4532,
      "Ġphotoelect": 4533,
      "blkid": 4534,
      "ĠDijon": 4535,
      "VEST": 4536,
      "Ġcort": 4537,
      "ĠDSL": 4538,
      "ChildScrollView": 4539,
      "Ġconfus": 4540,
      "Ġexplo": 4541,
      "ITECTURE": 4542,
      "Ġcilt": 4543,
      "ultur": 4544,
      "Ġaest": 4545,
      "Ġacero": 4546,
      "Ġdesple": 4547,
      "Ġsaath": 4548,
      "Ġcabello": 4549,
      "TW": 4550,
      "ority": 4551,
      "Ġbaku": 4552,
      "Ġnac": 4553,
      "Ġkoup": 4554,
      "ĠIMA": 4555,
      "setScene": 4556,
      "ĠSchein": 4557,
      "Ġeroding": 4558,
      "Ġmarrow": 4559,
      "Ġbutts": 4560,
      "Fib": 4561,
      "pros": 4562,
      "Ġzet": 4563,
      "Ġdecedent": 4564,
      "Ġovertaking": 4565,
      "ĠYogi": 4566,
      "Ġdenser": 4567,
      "IAM": 4568,
      "Kids": 4569,
      "fade": 4570,
      "Ġcuer": 4571,
      "Inscription": 4572,
      "ĠHolton": 4573,
      "Writes": 4574,
      "Ġintricacies": 4575,
      "Ġdieses": 4576,
      "NELL": 4577,
      "srand": 4578,
      "MessageHandler": 4579,
      "Ġchewing": 4580,
      "Ġpassivation": 4581,
      "ĠResult": 4582,
      "XXX": 4583,
      "Ġevaporating": 4584,
      "ĠIMAX": 4585,
      "ĠBTW": 4586,
      "Ġinanimate": 4587,
      "ajit": 4588,
      "Ġcinque": 4589,
      "Ġokol": 4590,
      "UBLIC": 4591,
      "condition": 4592,
      "zinger": 4593,
      "Ġsuffis": 4594,
      "irittura": 4595,
      "Ġstb": 4596,
      "bergement": 4597,
      "ĠArchitecture": 4598,
      "Ġsemangat": 4599,
      "Ġissu": 4600,
      "Ġarchitecture": 4601,
      "Ġunprofessional": 4602,
      "Ġfathom": 4603,
      "ĠWaals": 4604,
      "ĠMelt": 4605,
      "Ġmush": 4606,
      "ĠKID": 4607,
      "Ġcoup": 4608,
      "CROSS": 4609,
      "retryWrites": 4610,
      "ĠDSLR": 4611,
      "fadeOut": 4612,
      "isce": 4613,
      "ĠLasso": 4614,
      "Ġnuestra": 4615,
      "ĠExhaust": 4616,
      "rotl": 4617,
      "ĠMacaulay": 4618,
      "Ġdiscontent": 4619,
      "Ġforwarding": 4620,
      "prosperity": 4621,
      "Rota": 4622,
      "WAT": 4623,
      "topia": 4624,
      "Ġciencia": 4625,
      "Ġdua": 4626,
      "Ġsatunya": 4627,
      "Ġsabor": 4628,
      "avio": 4629,
      "scrape": 4630,
      "flap": 4631,
      "Ġricev": 4632,
      "ĠBiograph": 4633,
      "Ġconcluded": 4634,
      "ĠRusland": 4635,
      "Admiral": 4636,
      "yukur": 4637,
      "Ġreal": 4638,
      "spice": 4639,
      "vertret": 4640,
      "pending": 4641,
      "agoras": 4642,
      "Ġcontemplates": 4643,
      "ĠPythagoras": 4644,
      "Ġcampi": 4645,
      "AIT": 4646,
      "ĠTill": 4647,
      "Ġgabin": 4648,
      "Ġkrist": 4649,
      "finden": 4650,
      "OffsetY": 4651,
      "Ġregarde": 4652,
      "ĠINVENTION": 4653,
      "oustache": 4654,
      "ĠAnspr": 4655,
      "Ġproti": 4656,
      "Ġolnud": 4657,
      "Ġcostituito": 4658,
      "Ġgabinete": 4659,
      "ogloss": 4660,
      "efront": 4661,
      "ĠChipot": 4662,
      "ousine": 4663,
      "orschung": 4664,
      "Ġcrushing": 4665,
      "ĠFileMode": 4666,
      "ĠTillman": 4667,
      "Ġkristall": 4668,
      "ĠChipotle": 4669,
      "ĠBue": 4670,
      "ovala": 4671,
      "Stem": 4672,
      "Ġstren": 4673,
      "Ġmenus": 4674,
      "ĠGrunge": 4675,
      "Ġremembered": 4676,
      "Ġspoonful": 4677,
      "ĠResultSet": 4678,
      "harm": 4679,
      "Ġume": 4680,
      "etan": 4681,
      "ĠPiet": 4682,
      "osoma": 4683,
      "ĠStreets": 4684,
      "submission": 4685,
      "querySelectorAll": 4686,
      "PubKey": 4687,
      "ziff": 4688,
      "stove": 4689,
      "ĠSms": 4690,
      "ĠBened": 4691,
      "Ġforefront": 4692,
      "MinValue": 4693,
      "ĠmediaPlayer": 4694,
      "Ġritro": 4695,
      "Ġconsec": 4696,
      "Ġfuturo": 4697,
      "Ġsaisons": 4698,
      "Ġsportive": 4699,
      "ĠKhark": 4700,
      "Ġdolgo": 4701,
      "Ġritrov": 4702,
      "avatt": 4703,
      "TimeStamp": 4704,
      "ĠEnvelope": 4705,
      "Ġcrate": 4706,
      "ĠEXIT": 4707,
      "Ġpresentaron": 4708,
      "ĠSpecials": 4709,
      "Ġcontenir": 4710,
      "vor": 4711,
      "Ġrerum": 4712,
      "izen": 4713,
      "Ġwiders": 4714,
      "actions": 4715,
      "ooli": 4716,
      "Ġgoof": 4717,
      "Ġhaystack": 4718,
      "Ġmellett": 4719,
      "ĠTibetan": 4720,
      "BigAutoField": 4721,
      "Ġmeaningless": 4722,
      "Ġtimpul": 4723,
      "ĠWAIT": 4724,
      "ĠJeu": 4725,
      "getView": 4726,
      "hamming": 4727,
      "assertThat": 4728,
      "elium": 4729,
      "ravenous": 4730,
      "Ġbicicleta": 4731,
      "exploded": 4732,
      "Ġproporcionar": 4733,
      "ĠCached": 4734,
      "ĠMVP": 4735,
      "rafl": 4736,
      "ĠRfc": 4737,
      "ĠHath": 4738,
      "Ġshut": 4739,
      "Ġresonate": 4740,
      "affine": 4741,
      "ausa": 4742,
      "unjung": 4743,
      "Ġrhetorical": 4744,
      "getEmail": 4745,
      "Ġcef": 4746,
      "await": 4747,
      "putation": 4748,
      "Ġprepping": 4749,
      "ĠHabits": 4750,
      "Ġseu": 4751,
      "Ġfinalizing": 4752,
      "Ġrappelle": 4753,
      "forschung": 4754,
      "Ġlanger": 4755,
      "illance": 4756,
      "Ġthrough": 4757,
      "Ġimprov": 4758,
      "Alive": 4759,
      "forKey": 4760,
      "selenium": 4761,
      "ĠImmun": 4762,
      "olphins": 4763,
      "ĠDELHI": 4764,
      "Ġdreadful": 4765,
      "Ġtaki": 4766,
      "ĠALEX": 4767,
      "ĠRussians": 4768,
      "andin": 4769,
      "Ġleben": 4770,
      "Ġcontenant": 4771,
      "Ġmila": 4772,
      "ĠArchives": 4773,
      "IVERSITY": 4774,
      "Ġuttered": 4775,
      "ĠCeg": 4776,
      "sequent": 4777,
      "Ġdefray": 4778,
      "Ġoligodend": 4779,
      "Ġpastel": 4780,
      "ĠWoche": 4781,
      "conditionals": 4782,
      "ĠALEXANDER": 4783,
      "enstein": 4784,
      "Ġgial": 4785,
      "Ġbeginnt": 4786,
      "LAYOUT": 4787,
      "Ġplaatsen": 4788,
      "Ġefectu": 4789,
      "ĠPode": 4790,
      "Ġkas": 4791,
      "Ġstared": 4792,
      "ERF": 4793,
      "Ġbenutzt": 4794,
      "Ġgeldi": 4795,
      "Ġdestra": 4796,
      "Ġampia": 4797,
      "ĠAjax": 4798,
      "izy": 4799,
      "ĠArbeit": 4800,
      "uyentes": 4801,
      "hae": 4802,
      "Ġdrones": 4803,
      "gifter": 4804,
      "hij": 4805,
      "ramatta": 4806,
      "Goed": 4807,
      "Ġnotre": 4808,
      "Ġovertime": 4809,
      "awaiter": 4810,
      "ĠLieb": 4811,
      "SEARCH": 4812,
      "ĠSpeck": 4813,
      "Ġsolvents": 4814,
      "nesset": 4815,
      "Ġredirection": 4816,
      "Ġofic": 4817,
      "Ġsweet": 4818,
      "Ġbingo": 4819,
      "oconvex": 4820,
      "longer": 4821,
      "yect": 4822,
      "uter": 4823,
      "ĠDaff": 4824,
      "ĠLond": 4825,
      "Ġwidz": 4826,
      "ĠcreateCanvas": 4827,
      "ĠsnakeCubeSize": 4828,
      "IGNED": 4829,
      "Ġpripad": 4830,
      "ĠbingoCardArray": 4831,
      "kamp": 4832,
      "amodel": 4833,
      "ĠBored": 4834,
      "ĠWai": 4835,
      "REW": 4836,
      "GetBytes": 4837,
      "INTERF": 4838,
      "getCqlLeft": 4839,
      "Ġmultiplets": 4840,
      "Ġsuficientemente": 4841,
      "INTERFACE": 4842,
      "ĠBali": 4843,
      "Ġcuero": 4844,
      "estamps": 4845,
      "Ġgreeting": 4846,
      "ĠKipp": 4847,
      "Ġjir": 4848,
      "Ġapology": 4849,
      "Courtesy": 4850,
      "LUT": 4851,
      "scope": 4852,
      "fields": 4853,
      "authToken": 4854,
      "dmg": 4855,
      "ĠTwain": 4856,
      "writing": 4857,
      "ĠKIDS": 4858,
      "kampf": 4859,
      "mia": 4860,
      "vay": 4861,
      "foils": 4862,
      "orthodox": 4863,
      "ĠSomewhat": 4864,
      "Ġjolly": 4865,
      "Ġprud": 4866,
      "Parameters": 4867,
      "ĠLean": 4868,
      "ĠColby": 4869,
      "Ġexudes": 4870,
      "vocab": 4871,
      "arela": 4872,
      "Ġklik": 4873,
      "Ġcomum": 4874,
      "Ġoverload": 4875,
      "Ġbacklash": 4876,
      "Ġvybaven": 4877,
      "ĠRounded": 4878,
      "antad": 4879,
      "indazol": 4880,
      "Ġendure": 4881,
      "timestamps": 4882,
      "irlik": 4883,
      "Ġagricole": 4884,
      "hort": 4885,
      "getParameters": 4886,
      "Ġunorthodox": 4887,
      "Ġscraper": 4888,
      "ĠAlertDialog": 4889,
      "Ġtrillion": 4890,
      "ĠFerguson": 4891,
      "ĠKearney": 4892,
      "Ġquadratic": 4893,
      "Culture": 4894,
      "stem": 4895,
      "Ġwow": 4896,
      "Ġinquir": 4897,
      "ieran": 4898,
      "ĠZeal": 4899,
      "Ġmetam": 4900,
      "fillRect": 4901,
      "Ġhomoc": 4902,
      "Madh": 4903,
      "Ġballer": 4904,
      "delt": 4905,
      "inig": 4906,
      "ĠSAG": 4907,
      "Ġkys": 4908,
      "uclear": 4909,
      "ĠComput": 4910,
      "Ġundermined": 4911,
      "Ġklikken": 4912,
      "Mens": 4913,
      "ROW": 4914,
      "ĠMang": 4915,
      "acr": 4916,
      "Ġfi": 4917,
      "ĠInhib": 4918,
      "Ġundef": 4919,
      "ĠCooke": 4920,
      "Ġprevent": 4921,
      "Slot": 4922,
      "millis": 4923,
      "Ġdurant": 4924,
      "Ġkracht": 4925,
      "getKey": 4926,
      "Ġauquel": 4927,
      "elti": 4928,
      "Ġmyocard": 4929,
      "nent": 4930,
      "antos": 4931,
      "Ġperde": 4932,
      "altime": 4933,
      "Ġgrapev": 4934,
      "rieren": 4935,
      "RICH": 4936,
      "prisoner": 4937,
      "Ġfortsatt": 4938,
      "Ġcoldly": 4939,
      "Ġmetamorphic": 4940,
      "Ġgrapevine": 4941,
      "Ġbalon": 4942,
      "ĠFederal": 4943,
      "Ġkib": 4944,
      "Ġaiz": 4945,
      "Ġprou": 4946,
      "nounc": 4947,
      "Ġcohes": 4948,
      "Ġnewspapers": 4949,
      "Correspond": 4950,
      "Ġcapsule": 4951,
      "Ġfacilmente": 4952,
      "ĠComunidad": 4953,
      "Ġtiredness": 4954,
      "fon": 4955,
      "ĠPra": 4956,
      "Ġkink": 4957,
      "Ġjigs": 4958,
      "Ġdisastrous": 4959,
      "ornia": 4960,
      "eltzer": 4961,
      "ĠGaler": 4962,
      "Ġdistillery": 4963,
      "HEAD": 4964,
      "WidgetItem": 4965,
      "Ġvroeg": 4966,
      "Ġdissolved": 4967,
      "niv": 4968,
      "wedding": 4969,
      "chell": 4970,
      "ulho": 4971,
      "agues": 4972,
      "outfile": 4973,
      "owns": 4974,
      "ISS": 4975,
      "Ġneoplas": 4976,
      "cfm": 4977,
      "Ġkibci": 4978,
      "oro": 4979,
      "rece": 4980,
      "Ġexalted": 4981,
      "centroid": 4982,
      "venir": 4983,
      "Ġupravo": 4984,
      "efully": 4985,
      "Ġbloque": 4986,
      "Ġmotivator": 4987,
      "XMLHttpRequest": 4988,
      "HEADERS": 4989,
      "Ġside": 4990,
      "ĠMie": 4991,
      "ĠDUN": 4992,
      "ĠKISS": 4993,
      "arnia": 4994,
      "Ġpropon": 4995,
      "Ġgoed": 4996,
      "Ġentrusted": 4997,
      "Ġneoplasms": 4998,
      "Ġsich": 4999,
      "Ġsarkar": 5000,
      "ĠDIFF": 5001,
      "Ġlass": 5002,
      "Ġdemander": 5003,
      "TreeWidgetItem": 5004,
      "Ġminggu": 5005,
      "Machine": 5006,
      "adm": 5007,
      "acre": 5008,
      "ĠIzv": 5009,
      "Ġinteri": 5010,
      "Ġpolisi": 5011,
      "ĠPandemic": 5012,
      "Ġrunny": 5013,
      "Ġjugado": 5014,
      "Ġcopyspace": 5015,
      "ĠDIFFIC": 5016,
      "lins": 5017,
      "wake": 5018,
      "Ġlieve": 5019,
      "Ġaudi": 5020,
      "cliff": 5021,
      "SEX": 5022,
      "uzioni": 5023,
      "Ġexcited": 5024,
      "Ġconfine": 5025,
      "Ġcosines": 5026,
      "Ġshutout": 5027,
      "arist": 5028,
      "Ġsymp": 5029,
      "Ġdns": 5030,
      "opie": 5031,
      "Ġtrunks": 5032,
      "Ġintento": 5033,
      "Ġemblem": 5034,
      "senha": 5035,
      "DOI": 5036,
      "Reality": 5037,
      "Ġinicios": 5038,
      "Academic": 5039,
      "Ġhjust": 5040,
      "ourcing": 5041,
      "Ġcho": 5042,
      "Ġshadowed": 5043,
      "umbing": 5044,
      "Reflection": 5045,
      "ĠArchitektur": 5046,
      "Ġtotes": 5047,
      "ovenant": 5048,
      "wheeled": 5049,
      "Ġarchitectural": 5050,
      "Ġcouplings": 5051,
      "fre": 5052,
      "Ġeviden": 5053,
      "rotechn": 5054,
      "Ġsecur": 5055,
      "ĠUserDefaults": 5056,
      "Ġescritores": 5057,
      "Ġmachine": 5058,
      "Ġcategor": 5059,
      "Ġevidente": 5060,
      "adesh": 5061,
      "Ġmantiene": 5062,
      "Ġkid": 5063,
      "Ġexpedit": 5064,
      "testimonials": 5065,
      "fenced": 5066,
      "mfenced": 5067,
      "ĠTreg": 5068,
      "Ġstere": 5069,
      "IGH": 5070,
      "ĠminSdkVersion": 5071,
      "ĠSurabaya": 5072,
      "Ġdividend": 5073,
      "ĠConcentrate": 5074,
      "Ġsullo": 5075,
      "Ġbuiten": 5076,
      "ĠUpst": 5077,
      "Ġzve": 5078,
      "ĠYesh": 5079,
      "Ġplot": 5080,
      "submissions": 5081,
      "IsNot": 5082,
      "Ġpromoting": 5083,
      "satunya": 5084,
      "ĠAeronaut": 5085,
      "Ġchauss": 5086,
      "ĠUpstairs": 5087,
      "ĠYeshu": 5088,
      "ulosa": 5089,
      "Ġbrz": 5090,
      "Ġfavorites": 5091,
      "Ġcluster": 5092,
      "nesota": 5093,
      "ĠTextBox": 5094,
      "Ġpogod": 5095,
      "ĠAeronautics": 5096,
      "Ġfonbet": 5097,
      "Ġstk": 5098,
      "delim": 5099,
      "ĠLumen": 5100,
      "ĠSynonym": 5101,
      "Ġconhecer": 5102,
      "Ġbloquear": 5103,
      "Ġhats": 5104,
      "ĠItu": 5105,
      "Ġaes": 5106,
      "Ġcoaster": 5107,
      "Ġmeditate": 5108,
      "Muse": 5109,
      "tank": 5110,
      "Ġkait": 5111,
      "embert": 5112,
      "Ġroya": 5113,
      "BeanFactory": 5114,
      "Ġexperimentos": 5115,
      "PLOAD": 5116,
      "ĠAunt": 5117,
      "astar": 5118,
      "Ġinim": 5119,
      "Ġvolte": 5120,
      "Ġmassages": 5121,
      "Ticker": 5122,
      "Ġfatta": 5123,
      "angkap": 5124,
      "Ġofert": 5125,
      "ĠMagist": 5126,
      "Ġfournisseur": 5127,
      "Ġplotly": 5128,
      "Ġpaire": 5129,
      "ĠSall": 5130,
      "ĠTomb": 5131,
      "Ġoligos": 5132,
      "zechoslovakia": 5133,
      "ĠBibli": 5134,
      "Ġmids": 5135,
      "Ġnjeg": 5136,
      "Ġinsisted": 5137,
      "dropBtn": 5138,
      "Ġitemscope": 5139,
      "ĠtextArea": 5140,
      "Ġvuelta": 5141,
      "Ġbrimming": 5142,
      "omatous": 5143,
      "ĠMagistrates": 5144,
      "lift": 5145,
      "Ġputra": 5146,
      "abulous": 5147,
      "ĠDepot": 5148,
      "Ġparse": 5149,
      "Ġaces": 5150,
      "Ġharsher": 5151,
      "Ġgodz": 5152,
      "Ġsupernatants": 5153,
      "ĠJacobi": 5154,
      "ĠPraha": 5155,
      "ĠBUTTON": 5156,
      "ĠNazar": 5157,
      "Ġchius": 5158,
      "ijuana": 5159,
      "Ġpoten": 5160,
      "ĠEnumer": 5161,
      "Ġrelativ": 5162,
      "Ġgelesen": 5163,
      "Ġsapere": 5164,
      "Ġwasting": 5165,
      "ASHINGTON": 5166,
      "Ġchiuso": 5167,
      "pstmt": 5168,
      "ĠSor": 5169,
      "Ġdamping": 5170,
      "ugan": 5171,
      "azure": 5172,
      "attn": 5173,
      "leted": 5174,
      "Ġindivid": 5175,
      "showerror": 5176,
      "presentable": 5177,
      "Ġvarje": 5178,
      "ĠSush": 5179,
      "enthal": 5180,
      "izza": 5181,
      "mailer": 5182,
      "LayoutStyle": 5183,
      "lega": 5184,
      "ĠEnem": 5185,
      "Ġantagonistic": 5186,
      "Ġannoyance": 5187,
      "Ġfiets": 5188,
      "onium": 5189,
      "ĠNunn": 5190,
      "Ġrena": 5191,
      "ĠSpins": 5192,
      "Ġclutch": 5193,
      "Ġexternos": 5194,
      "Ġacontece": 5195,
      "Ġdich": 5196,
      "ĠFidelity": 5197,
      "ĠWAT": 5198,
      "Ġthirties": 5199,
      "olec": 5200,
      "Ġrecourse": 5201,
      "Ġverlier": 5202,
      "servlet": 5203,
      "Ġdecoupled": 5204,
      "ĠLogin": 5205,
      "Ġaccomplishing": 5206,
      "presentableId": 5207,
      "Ġverlieren": 5208,
      "isph": 5209,
      "Ġinclusion": 5210,
      "intang": 5211,
      "Ġplatz": 5212,
      "Ġverily": 5213,
      "ĠRosenthal": 5214,
      "Ġbulge": 5215,
      "ĠUmfang": 5216,
      "Ġglycer": 5217,
      "Ġiterator": 5218,
      "Ġjunto": 5219,
      "Ġachievement": 5220,
      "preprocess": 5221,
      "Ġpyrolysis": 5222,
      "Ġforklift": 5223,
      "Ġkindness": 5224,
      "Ġunwillingness": 5225,
      "Diagonal": 5226,
      "fatt": 5227,
      "favorites": 5228,
      "ĠMombasa": 5229,
      "Ġfanno": 5230,
      "ĠSpacer": 5231,
      "Ġhemisph": 5232,
      "Ġpreponderance": 5233,
      "Ġvoulu": 5234,
      "ellaneous": 5235,
      "ICLES": 5236,
      "ĠStaub": 5237,
      "dataSource": 5238,
      "glyphicon": 5239,
      "Ġomfatt": 5240,
      "ahmatullahi": 5241,
      "Ġwikipagina": 5242,
      "Ġpushes": 5243,
      "ERRE": 5244,
      "ViewGroup": 5245,
      "alei": 5246,
      "roscopy": 5247,
      "Ġsandwiches": 5248,
      "Ġanalog": 5249,
      "Ġmultifunctional": 5250,
      "Ġstrani": 5251,
      "Ġbess": 5252,
      "ĠRIN": 5253,
      "itiers": 5254,
      "Ġindian": 5255,
      "Ġscritt": 5256,
      "Ġsoared": 5257,
      "Ġzabez": 5258,
      "ĠDescript": 5259,
      "ĠAllgemeinen": 5260,
      "Ġdescription": 5261,
      "Ġhemispheres": 5262,
      "Ġnoh": 5263,
      "acknowledge": 5264,
      "ĠAnnounc": 5265,
      "Ġgiallo": 5266,
      "hashTree": 5267,
      "yyum": 5268,
      "Ġnuestras": 5269,
      "ĠWATTS": 5270,
      "Ripe": 5271,
      "bff": 5272,
      "Ġriot": 5273,
      "Ġriba": 5274,
      "underset": 5275,
      "Ġsvoje": 5276,
      "puce": 5277,
      "Ġfron": 5278,
      "Ġgover": 5279,
      "ĠKind": 5280,
      "Ġscoped": 5281,
      "Advisor": 5282,
      "ĠReun": 5283,
      "Ġbrandy": 5284,
      "Ġsecund": 5285,
      "Ġataques": 5286,
      "ĠARTICLES": 5287,
      "cult": 5288,
      "handler": 5289,
      "leValue": 5290,
      "Ġpaup": 5291,
      "Ġbann": 5292,
      "quat": 5293,
      "Ġlait": 5294,
      "ĠManuscripts": 5295,
      "Ġmeinem": 5296,
      "Ġencontrado": 5297,
      "Ġfacilement": 5298,
      "Ġanalogous": 5299,
      "Ġpauper": 5300,
      "Footer": 5301,
      "pite": 5302,
      "touches": 5303,
      "energ": 5304,
      "ogi": 5305,
      "Ġerhe": 5306,
      "Ġclever": 5307,
      "ĠSTANDARD": 5308,
      "Ġbraids": 5309,
      "WUE": 5310,
      "Ġlohnt": 5311,
      "calibrate": 5312,
      "Ġpeau": 5313,
      "labyrinth": 5314,
      "Ġsecurely": 5315,
      "duplic": 5316,
      "ĠBrack": 5317,
      "Ġescalation": 5318,
      "Ġservos": 5319,
      "ĠUsuario": 5320,
      "Ġstanda": 5321,
      "Ġschrieb": 5322,
      "Ġrefraction": 5323,
      "hibernate": 5324,
      "Ġreceptive": 5325,
      "errorhandler": 5326,
      "Ġelegante": 5327,
      "ppelin": 5328,
      "ĠBiblioteca": 5329,
      "Ġstandaard": 5330,
      "Ġprevista": 5331,
      "Ġdun": 5332,
      "Ġmun": 5333,
      "ĠEid": 5334,
      "Ġincrements": 5335,
      "Ġorada": 5336,
      "Ġoxidized": 5337,
      "ĠTerritorial": 5338,
      "Ġcurvature": 5339,
      "uine": 5340,
      "Ġdrum": 5341,
      "Ġmev": 5342,
      "pees": 5343,
      "ĠXIX": 5344,
      "Ġcommandment": 5345,
      "ĠFebruar": 5346,
      "Ġmidsole": 5347,
      "malloc": 5348,
      "articles": 5349,
      "Ġrequis": 5350,
      "sku": 5351,
      "Research": 5352,
      "Ġquinto": 5353,
      "zigzag": 5354,
      "aggregation": 5355,
      "hidupan": 5356,
      "cors": 5357,
      "liter": 5358,
      "Ġtego": 5359,
      "abies": 5360,
      "artists": 5361,
      "empirical": 5362,
      "VERSION": 5363,
      "Ġparmes": 5364,
      "ĠTripAdvisor": 5365,
      "Ġmevcut": 5366,
      "Ġgond": 5367,
      "ĠWech": 5368,
      "Ġwag": 5369,
      "ĠSerializable": 5370,
      "ĠWechsler": 5371,
      "idence": 5372,
      "Ġtbsp": 5373,
      "othelium": 5374,
      "Ġxii": 5375,
      "Ġtraigo": 5376,
      "ĠHorizont": 5377,
      "Ġhoax": 5378,
      "umballMachine": 5379,
      "Ġengulfed": 5380,
      "ĠPassword": 5381,
      "Ġdunno": 5382,
      "ĠHorizonte": 5383,
      "Favorite": 5384,
      "etryl": 5385,
      "igns": 5386,
      "Ġimdb": 5387,
      "poetryl": 5388,
      "timers": 5389,
      "Ġgering": 5390,
      "Ġalphanumeric": 5391,
      "Ġcandidat": 5392,
      "poetrylovers": 5393,
      "Ġkonkret": 5394,
      "Ġgoverns": 5395,
      "ĠRestricted": 5396,
      "MARG": 5397,
      "bun": 5398,
      "boa": 5399,
      "Ġimpreg": 5400,
      "Ġsplend": 5401,
      "Ġartists": 5402,
      "ganggu": 5403,
      "ĠTeles": 5404,
      "MARGIN": 5405,
      "Ġimpregnation": 5406,
      "nicu": 5407,
      "ĠCiencias": 5408,
      "ĠTauri": 5409,
      "ograd": 5410,
      "ĠImp": 5411,
      "rometry": 5412,
      "Ġoverjoyed": 5413,
      "TOTAL": 5414,
      "ĠSumner": 5415,
      "omicron": 5416,
      "ĠSigns": 5417,
      "Ġhuevos": 5418,
      "erance": 5419,
      "Ġdct": 5420,
      "testHDR": 5421,
      "ĠSPMs": 5422,
      "Ġproteolytic": 5423,
      "Ġvouloir": 5424,
      "ĠmakeStyles": 5425,
      "ĠMap": 5426,
      "Ġhast": 5427,
      "Places": 5428,
      "Ġperdu": 5429,
      "ĠAngriff": 5430,
      "Ġoffre": 5431,
      "Ġmemset": 5432,
      "Ġdibujar": 5433,
      "gmzyh": 5434,
      "anigans": 5435,
      "roits": 5436,
      "subfigure": 5437,
      "Ġreminder": 5438,
      "FFSET": 5439,
      "Ġunderworld": 5440,
      "Ġhermaph": 5441,
      "Ġdispensed": 5442,
      "ĠsingleRun": 5443,
      "naments": 5444,
      "Carp": 5445,
      "zbek": 5446,
      "alik": 5447,
      "ĠCIO": 5448,
      "ĠUzbek": 5449,
      "Ġinvest": 5450,
      "colFirst": 5451,
      "Ġsaha": 5452,
      "Ġlengua": 5453,
      "Deterministic": 5454,
      "UIT": 5455,
      "Ġgouver": 5456,
      "GroupLayout": 5457,
      "Ġswollen": 5458,
      "Ġknob": 5459,
      "Ġlaboral": 5460,
      "ĠComfort": 5461,
      "police": 5462,
      "ĠEntscheidung": 5463,
      "Carpenter": 5464,
      "Metering": 5465,
      "igraph": 5466,
      "Ġfit": 5467,
      "Ġjakim": 5468,
      "Ġsubscriber": 5469,
      "Ġprzede": 5470,
      "Ġformat": 5471,
      "Ġterminate": 5472,
      "dekat": 5473,
      "Ġobsolete": 5474,
      "Ġgegangen": 5475,
      "Ġinductor": 5476,
      "Ġsplendour": 5477,
      "klam": 5478,
      "arach": 5479,
      "izaciones": 5480,
      "Ġexcepted": 5481,
      "Offic": 5482,
      "Ġmandrel": 5483,
      "efeuille": 5484,
      "Ġinventor": 5485,
      "Ġbrindar": 5486,
      "Ġvodi": 5487,
      "Ġjig": 5488,
      "Ġcomunit": 5489,
      "Slope": 5490,
      "ĠBooth": 5491,
      "Ġrepellent": 5492,
      "Ġmechanism": 5493,
      "mechanism": 5494,
      "Ġcrayons": 5495,
      "ĠMapper": 5496,
      "public": 5497,
      "Ġjaja": 5498,
      "FAF": 5499,
      "imsuti": 5500,
      "Ġcollapsible": 5501,
      "Ġbenutzer": 5502,
      "Ġfibre": 5503,
      "ĠBurnett": 5504,
      "Ġcommunal": 5505,
      "CATEGORY": 5506,
      "ĠFall": 5507,
      "Ġkategor": 5508,
      "essions": 5509,
      "Ġexclusive": 5510,
      "Ġplage": 5511,
      "Ġadob": 5512,
      "Ġcapuche": 5513,
      "ĠCFI": 5514,
      "Ġuniversally": 5515,
      "Ġproposent": 5516,
      "Ġfitur": 5517,
      "Bos": 5518,
      "ĠMiro": 5519,
      "ĠBina": 5520,
      "Ġbin": 5521,
      "ĠLetter": 5522,
      "Ġfunk": 5523,
      "Ġhunted": 5524,
      "ĠZanu": 5525,
      "liest": 5526,
      "amplitude": 5527,
      "fifty": 5528,
      "ĠKost": 5529,
      "Ġinaug": 5530,
      "ierung": 5531,
      "atural": 5532,
      "UMPS": 5533,
      "readystate": 5534,
      "parseDouble": 5535,
      "Ġconsiderado": 5536,
      "urrection": 5537,
      "ĠBol": 5538,
      "ĠBare": 5539,
      "ĠStelle": 5540,
      "umbus": 5541,
      "vasive": 5542,
      "Ġofrece": 5543,
      "Ġsignings": 5544,
      "Ġudf": 5545,
      "Ġastr": 5546,
      "Ġharmonious": 5547,
      "produksi": 5548,
      "Ġarchitects": 5549,
      "VG": 5550,
      "ĠSEX": 5551,
      "Listening": 5552,
      "Ġendere": 5553,
      "Ġhabit": 5554,
      "ĠUNICEF": 5555,
      "Ġmozzarella": 5556,
      "roduction": 5557,
      "Ġstaffers": 5558,
      "xFF": 5559,
      "ĠSVG": 5560,
      "ĠDyna": 5561,
      "oski": 5562,
      "ĠFaire": 5563,
      "ewomen": 5564,
      "Ġvenne": 5565,
      "ĠHuffman": 5566,
      "Ġdao": 5567,
      "Ġdei": 5568,
      "Ġmyn": 5569,
      "Ġboje": 5570,
      "ĠgetClass": 5571,
      "ophora": 5572,
      "Ġamo": 5573,
      "ĠAshby": 5574,
      "imetre": 5575,
      "ĠSeren": 5576,
      "Ġdesaparecer": 5577,
      "Ġfatigue": 5578,
      "applicants": 5579,
      "lend": 5580,
      "units": 5581,
      "creas": 5582,
      "Ġfielder": 5583,
      "Ġrazum": 5584,
      "Ġprogreso": 5585,
      "ĠDepp": 5586,
      "Ġinescapable": 5587,
      "rezz": 5588,
      "Ġimpeller": 5589,
      "ProjectType": 5590,
      "werks": 5591,
      "udiantes": 5592,
      "Ġkompon": 5593,
      "Ġsequentially": 5594,
      "Hind": 5595,
      "getResult": 5596,
      "parat": 5597,
      "Ġugg": 5598,
      "Ġpolicewomen": 5599,
      "ĠFebruari": 5600,
      "Ġlife": 5601,
      "Ġunregulated": 5602,
      "Ġenact": 5603,
      "rista": 5604,
      "BAY": 5605,
      "Ġsigns": 5606,
      "ĠPollock": 5607,
      "Ġexplica": 5608,
      "ĠBoliv": 5609,
      "ĠHavana": 5610,
      "Ġsubunits": 5611,
      "Ġrapport": 5612,
      "amount": 5613,
      "ĠviewModel": 5614,
      "ĠborderColor": 5615,
      "Ġexacerb": 5616,
      "Utility": 5617,
      "ĠCaes": 5618,
      "ĠDestin": 5619,
      "Ġfederal": 5620,
      "Ġlet": 5621,
      "undance": 5622,
      "Ġpros": 5623,
      "Ġtreat": 5624,
      "Ġaxi": 5625,
      "Ġcrore": 5626,
      "porcion": 5627,
      "ĠSuprem": 5628,
      "Ġveins": 5629,
      "ĠDestinations": 5630,
      "jpg": 5631,
      "onomy": 5632,
      "Ġdeton": 5633,
      "Ġnaut": 5634,
      "Ġdemek": 5635,
      "ĠAntennes": 5636,
      "jellige": 5637,
      "Ġpesado": 5638,
      "Ġforskjellige": 5639,
      "Ġfederally": 5640,
      "chutz": 5641,
      "Ġfavourite": 5642,
      "subcategory": 5643,
      "akkhati": 5644,
      "Ġmagnetically": 5645,
      "Ġworsens": 5646,
      "Ġcondominium": 5647,
      "Ġanimating": 5648,
      "readystatechange": 5649,
      "Ġsilly": 5650,
      "ĠPose": 5651,
      "auction": 5652,
      "urez": 5653,
      "oundations": 5654,
      "Ġpreposition": 5655,
      "Ġterpenes": 5656,
      "Ġincremento": 5657,
      "elim": 5658,
      "ĠGru": 5659,
      "Ġhusky": 5660,
      "Ġdisposit": 5661,
      "Ġcomprend": 5662,
      "blick": 5663,
      "avenir": 5664,
      "Ġpiensan": 5665,
      "ownicy": 5666,
      "Ġletech": 5667,
      "Ġfera": 5668,
      "Ġfumes": 5669,
      "setInterval": 5670,
      "Ġincipient": 5671,
      "Ġblanc": 5672,
      "lemma": 5673,
      "PerHour": 5674,
      "ĠdirFR": 5675,
      "Ġconsolidation": 5676,
      "ĠImpulse": 5677,
      "getReference": 5678,
      "bere": 5679,
      "resized": 5680,
      "onej": 5681,
      "auta": 5682,
      "Ġdoby": 5683,
      "Ġsuscit": 5684,
      "RIBE": 5685,
      "Ġsexuales": 5686,
      "arni": 5687,
      "urbs": 5688,
      "Ġascol": 5689,
      "Ġanticipates": 5690,
      "itution": 5691,
      "utrient": 5692,
      "ĠMow": 5693,
      "ĠBlot": 5694,
      "isca": 5695,
      "Ġconsegna": 5696,
      "Ġhumid": 5697,
      "ĠAndri": 5698,
      "Ġprosper": 5699,
      "vinced": 5700,
      "Ġfim": 5701,
      "ĠKag": 5702,
      "ifik": 5703,
      "arranty": 5704,
      "inois": 5705,
      "semer": 5706,
      "Ġunsuccessful": 5707,
      "ĠFaraday": 5708,
      "ipitation": 5709,
      "FLICT": 5710,
      "whitespace": 5711,
      "cipline": 5712,
      "Ġastonishing": 5713,
      "Ġcobra": 5714,
      "Ġronde": 5715,
      "uki": 5716,
      "Ġneutroph": 5717,
      "Ġcompagnie": 5718,
      "Ġinsgesamt": 5719,
      "Ġrampage": 5720,
      "SelectedIndex": 5721,
      "ĠIgM": 5722,
      "ĠPRO": 5723,
      "Ġprovocar": 5724,
      "Ġcampos": 5725,
      "Ġhumidifier": 5726,
      "commun": 5727,
      "Ġrica": 5728,
      "STRAINT": 5729,
      "ĠAxi": 5730,
      "Ġocasiones": 5731,
      "jot": 5732,
      "svc": 5733,
      "ultura": 5734,
      "ĠEmb": 5735,
      "Ġempathetic": 5736,
      "Ġutility": 5737,
      "squareup": 5738,
      "Serialized": 5739,
      "ĠRESEARCH": 5740,
      "chloride": 5741,
      "Ġapresentar": 5742,
      "ĠCGA": 5743,
      "apods": 5744,
      "ĠJej": 5745,
      "atsuki": 5746,
      "Ġmontrent": 5747,
      "Ġvorbere": 5748,
      "Ġllamar": 5749,
      "ĠREPUBLIC": 5750,
      "ĠAxios": 5751,
      "Ġponte": 5752,
      "Ġtige": 5753,
      "Ġrestoring": 5754,
      "Ġanimate": 5755,
      "ebabkan": 5756,
      "atypes": 5757,
      "ĠIHS": 5758,
      "Ġstems": 5759,
      "Ġaloj": 5760,
      "Ġsubgraph": 5761,
      "Ġautocomplete": 5762,
      "Ġcalibr": 5763,
      "Ġnurtured": 5764,
      "filter": 5765,
      "oproteins": 5766,
      "stub": 5767,
      "ĠAllemagne": 5768,
      "ĠRegeln": 5769,
      "Ġhypnosis": 5770,
      "upervisor": 5771,
      "POSAL": 5772,
      "ĠUnterkunft": 5773,
      "Toggler": 5774,
      "mg": 5775,
      "endments": 5776,
      "Ġspic": 5777,
      "rentices": 5778,
      "Ġschauen": 5779,
      "Ġexpend": 5780,
      "Ġtreinta": 5781,
      "Ġmarque": 5782,
      "Ġsprinkler": 5783,
      "Ġbouton": 5784,
      "Ġprevented": 5785,
      "freund": 5786,
      "ĠFallon": 5787,
      "Lire": 5788,
      "Ġhote": 5789,
      "ĠVaran": 5790,
      "ĠOrche": 5791,
      "propane": 5792,
      "izzano": 5793,
      "Ġdissolving": 5794,
      "exports": 5795,
      "ordin": 5796,
      "llabus": 5797,
      "Ġberlangs": 5798,
      "Ġhydrochloride": 5799,
      "Ġartistas": 5800,
      "Ġfiniteness": 5801,
      "Ġneurom": 5802,
      "Ġberlangsung": 5803,
      "ACC": 5804,
      "inactive": 5805,
      "alization": 5806,
      "remeno": 5807,
      "Ġpierc": 5808,
      "Ġtava": 5809,
      "ĠParamount": 5810,
      "THROW": 5811,
      "Ġcarav": 5812,
      "Ġwaven": 5813,
      "clesiast": 5814,
      "Ġmenyebabkan": 5815,
      "Ġneuromuscular": 5816,
      "Ġsank": 5817,
      "Ġcier": 5818,
      "Ġregen": 5819,
      "Ġinbound": 5820,
      "enderita": 5821,
      "ĠProduct": 5822,
      "Ġneutrophil": 5823,
      "METHOD": 5824,
      "Ġcove": 5825,
      "Ġfala": 5826,
      "ĠEhm": 5827,
      "Ġringing": 5828,
      "jector": 5829,
      "ĠSty": 5830,
      "atora": 5831,
      "iamonds": 5832,
      "Ġregenv": 5833,
      "puh": 5834,
      "vapor": 5835,
      "icamente": 5836,
      "lda": 5837,
      "Ġverific": 5838,
      "Ġcircumst": 5839,
      "Ġhastened": 5840,
      "Ġpiercings": 5841,
      "Diamonds": 5842,
      "utdown": 5843,
      "ĠTender": 5844,
      "evich": 5845,
      "InputAction": 5846,
      "archives": 5847,
      "proportion": 5848,
      "ĠPolski": 5849,
      "Ġclockwise": 5850,
      "ĠResurrection": 5851,
      "Ġpovos": 5852,
      "Ġsuminist": 5853,
      "natur": 5854,
      "Ġvores": 5855,
      "Ġarist": 5856,
      "Ġdiariamente": 5857,
      "ĠClusters": 5858,
      "ĠFilament": 5859,
      "ĠDerecho": 5860,
      "Born": 5861,
      "NRC": 5862,
      "ĠDig": 5863,
      "upol": 5864,
      "adduser": 5865,
      "SAF": 5866,
      "Ġundisputed": 5867,
      "Ġjourney": 5868,
      "charm": 5869,
      "Ġsuv": 5870,
      "Ġstiffer": 5871,
      "Ġparap": 5872,
      "Validators": 5873,
      "Ġtrabalho": 5874,
      "Ġexcellently": 5875,
      "clesiastical": 5876,
      "Hell": 5877,
      "ĠByst": 5878,
      "Ġtimb": 5879,
      "Ġfare": 5880,
      "manirrahim": 5881,
      "Ġacerc": 5882,
      "Ġintermedia": 5883,
      "Ġbuton": 5884,
      "Ġhadron": 5885,
      "Ġvernacular": 5886,
      "Ġpripre": 5887,
      "Ġlipase": 5888,
      "Foods": 5889,
      "supervisor": 5890,
      "ĠbNeedConnect": 5891,
      "Ġnj": 5892,
      "Ġnth": 5893,
      "ĠgetState": 5894,
      "ĠAndree": 5895,
      "Ġexplicar": 5896,
      "ĠBrix": 5897,
      "odo": 5898,
      "ĠNatura": 5899,
      "Ġinquest": 5900,
      "Ġinmedi": 5901,
      "ĠShill": 5902,
      "ussie": 5903,
      "Ġetwa": 5904,
      "Ġbeasts": 5905,
      "Extraction": 5906,
      "Ġbudu": 5907,
      "Ġfornecer": 5908,
      "ĠIndore": 5909,
      "ĠHuxley": 5910,
      "ifferentiate": 5911,
      "palette": 5912,
      "Ġoverloaded": 5913,
      "ĠBracken": 5914,
      "ĠSTOR": 5915,
      "ĠAdu": 5916,
      "abandon": 5917,
      "ĠDecker": 5918,
      "ĠEspan": 5919,
      "enses": 5920,
      "Ġenrich": 5921,
      "ĠKurds": 5922,
      "ĠreturnValue": 5923,
      "transactions": 5924,
      "elmi": 5925,
      "Ġdalle": 5926,
      "odcast": 5927,
      "upar": 5928,
      "Ġrejection": 5929,
      "addLine": 5930,
      "Ġmultim": 5931,
      "Ġcolg": 5932,
      "Ġattainment": 5933,
      "lamydia": 5934,
      "explique": 5935,
      "Detector": 5936,
      "Ġtreatise": 5937,
      "Cfg": 5938,
      "ĠDive": 5939,
      "ĠChip": 5940,
      "Ġconduce": 5941,
      "loft": 5942,
      "FileUpload": 5943,
      "Ġacyl": 5944,
      "ĠKharkiv": 5945,
      "Ġexcitedly": 5946,
      "Ġcoward": 5947,
      "ahiran": 5948,
      "iern": 5949,
      "Ġamiga": 5950,
      "enerbah": 5951,
      "Ġpotencia": 5952,
      "Ġpurify": 5953,
      "almaz": 5954,
      "animations": 5955,
      "Ġcamshaft": 5956,
      "orghini": 5957,
      "Printf": 5958,
      "PROV": 5959,
      "Ġpensar": 5960,
      "Ġgarages": 5961,
      "Ġtann": 5962,
      "Ġadqu": 5963,
      "ĠSchreiben": 5964,
      "Ġpronunci": 5965,
      "Ġtierras": 5966,
      "Ġgekommen": 5967,
      "Ġperitoneum": 5968,
      "Ġtilts": 5969,
      "Ġpullback": 5970,
      "uparavant": 5971,
      "Ġceil": 5972,
      "import": 5973,
      "Ġlienzo": 5974,
      "landi": 5975,
      "IVO": 5976,
      "ĠLorenz": 5977,
      "ĠGestureDetector": 5978,
      "ĠShortcut": 5979,
      "Ġcharmed": 5980,
      "Ġbotones": 5981,
      "Ġalojamiento": 5982,
      "roje": 5983,
      "Ġtore": 5984,
      "ĠEqs": 5985,
      "ĠFahrt": 5986,
      "UserPool": 5987,
      "Ġtartalmaz": 5988,
      "ifferentiating": 5989,
      "Ġhilltop": 5990,
      "RD": 5991,
      "dynam": 5992,
      "Ġfir": 5993,
      "ibik": 5994,
      "ĠJudi": 5995,
      "shake": 5996,
      "Ġarct": 5997,
      "Ġconvol": 5998,
      "bedarf": 5999,
      "Ġindiscriminate": 6000,
      "Ġdito": 6001,
      "Ġinvo": 6002,
      "Ġauparavant": 6003,
      "Ġinterpret": 6004,
      "Ġlegt": 6005,
      "Ġoude": 6006,
      "Ġreadjust": 6007,
      "ARCHIVO": 6008,
      "Ġarquitectura": 6009,
      "ĠAMP": 6010,
      "Ġscuola": 6011,
      "Ġaccue": 6012,
      "Gloss": 6013,
      "Ġworkloads": 6014,
      "Ġvehicular": 6015,
      "ĠEntities": 6016,
      "Ġtempest": 6017,
      "Ġveneer": 6018,
      "ĠBackground": 6019,
      "Ġdecisiones": 6020,
      "Grav": 6021,
      "cham": 6022,
      "amel": 6023,
      "Ġvegas": 6024,
      "atsion": 6025,
      "Ġglaz": 6026,
      "Attenuation": 6027,
      "Ġteu": 6028,
      "Ġchampagne": 6029,
      "ĠRelief": 6030,
      "ostiene": 6031,
      "ĠAMPK": 6032,
      "Ġlanguage": 6033,
      "ObjectHideFlags": 6034,
      "Ġabsol": 6035,
      "Ġsketches": 6036,
      "Atm": 6037,
      "Gravestone": 6038,
      "akia": 6039,
      "Ġnytt": 6040,
      "Ġkoop": 6041,
      "Ġincline": 6042,
      "anni": 6043,
      "Ġexon": 6044,
      "Ġcreo": 6045,
      "otherapy": 6046,
      "ĠMurcia": 6047,
      "Ġposteriores": 6048,
      "Ġbolje": 6049,
      "Ġproportionally": 6050,
      "ĠSecundaria": 6051,
      "dynamical": 6052,
      "podcast": 6053,
      "Ġsync": 6054,
      "Ġtint": 6055,
      "Ġmans": 6056,
      "experi": 6057,
      "plied": 6058,
      "useum": 6059,
      "Ġangolo": 6060,
      "Ġdelant": 6061,
      "ĠCamacho": 6062,
      "Ġunrelated": 6063,
      "Ġdisruptive": 6064,
      "Ġfirmy": 6065,
      "Ġconvoluted": 6066,
      "Tolerance": 6067,
      "accom": 6068,
      "Ġprende": 6069,
      "Ġalber": 6070,
      "emble": 6071,
      "Ġsetzen": 6072,
      "Ġconvicted": 6073,
      "Decision": 6074,
      "ĠExplo": 6075,
      "Ġacetylene": 6076,
      "ĠPentec": 6077,
      "ĠHaan": 6078,
      "irlas": 6079,
      "Ġwretched": 6080,
      "yler": 6081,
      "Ġchops": 6082,
      "ĠSchu": 6083,
      "Ġodc": 6084,
      "ĠArchitect": 6085,
      "gebn": 6086,
      "Ġuncontroll": 6087,
      "tschaft": 6088,
      "gage": 6089,
      "ĠMSG": 6090,
      "ĠDebug": 6091,
      "Ġfission": 6092,
      "ernes": 6093,
      "uckoo": 6094,
      "AppBarLayout": 6095,
      "Ġconformado": 6096,
      "ĠangoloRad": 6097,
      "pfl": 6098,
      "ĠSakura": 6099,
      "Ġhijo": 6100,
      "Ġwett": 6101,
      "Clusters": 6102,
      "overlay": 6103,
      "Ġarbe": 6104,
      "ĠVerwalt": 6105,
      "popper": 6106,
      "Ġatta": 6107,
      "Ġpierde": 6108,
      "Ġbackgrounds": 6109,
      "Ġocho": 6110,
      "Ġabsolv": 6111,
      "experienced": 6112,
      "cery": 6113,
      "Ġbait": 6114,
      "ĠRyder": 6115,
      "iaire": 6116,
      "Ġlucky": 6117,
      "ĠCollegiate": 6118,
      "Ġprefixed": 6119,
      "Ġpepp": 6120,
      "detach": 6121,
      "Ġtost": 6122,
      "ĠDough": 6123,
      "axos": 6124,
      "ĠZhe": 6125,
      "ILTON": 6126,
      "Ġamendments": 6127,
      "Ġswell": 6128,
      "Ġaccedi": 6129,
      "Ġcaramel": 6130,
      "partial": 6131,
      "Ġsinon": 6132,
      "Ġevaporates": 6133,
      "ĠSchuyler": 6134,
      "Ġpecho": 6135,
      "ĠDess": 6136,
      "ibuya": 6137,
      "geq": 6138,
      "renti": 6139,
      "Ġdesf": 6140,
      "Ġperimeter": 6141,
      "ASMA": 6142,
      "Ġreloc": 6143,
      "ProjectPath": 6144,
      "Ġpublicado": 6145,
      "Ġexperimento": 6146,
      "Ġvesc": 6147,
      "ĠFonction": 6148,
      "addresses": 6149,
      "Ġflank": 6150,
      "Ġrau": 6151,
      "ĠBrot": 6152,
      "ĠExperiment": 6153,
      "ĠredirectTo": 6154,
      "ĠBrava": 6155,
      "Ġtraw": 6156,
      "ĠAND": 6157,
      "ĠFir": 6158,
      "Ġlave": 6159,
      "Ġaix": 6160,
      "ankind": 6161,
      "connect": 6162,
      "pageY": 6163,
      "PLAN": 6164,
      "Ġaltas": 6165,
      "partialowner": 6166,
      "ihen": 6167,
      "Ġmekan": 6168,
      "ussi": 6169,
      "ĠReihen": 6170,
      "DIO": 6171,
      "avacako": 6172,
      "Overrides": 6173,
      "Ġbohater": 6174,
      "ĠSTORM": 6175,
      "ĠArchitectural": 6176,
      "Ġattaques": 6177,
      "cuk": 6178,
      "reicher": 6179,
      "Ġnosso": 6180,
      "atiya": 6181,
      "Ġshaker": 6182,
      "dbcontext": 6183,
      "ĠKazan": 6184,
      "persistent": 6185,
      "mesinin": 6186,
      "bokeh": 6187,
      "paid": 6188,
      "oleh": 6189,
      "rophes": 6190,
      "Ġexposing": 6191,
      "Ġprzet": 6192,
      "Ġbulky": 6193,
      "Ġdirettamente": 6194,
      "geqslant": 6195,
      "uminous": 6196,
      "ĠGable": 6197,
      "Ġventral": 6198,
      "endants": 6199,
      "endregion": 6200,
      "geist": 6201,
      "Ġdiarios": 6202,
      "empat": 6203,
      "immed": 6204,
      "ĠCallie": 6205,
      "Ġhistamine": 6206,
      "ĠDaemon": 6207,
      "RUB": 6208,
      "Ġdlg": 6209,
      "efile": 6210,
      "trimmed": 6211,
      "Ġheadsets": 6212,
      "Ġbeak": 6213,
      "Ġphotosphere": 6214,
      "Ġpermett": 6215,
      "ĠZusammenhang": 6216,
      "ĠUkrainians": 6217,
      "ĠBoe": 6218,
      "Ġconoz": 6219,
      "Ġprohib": 6220,
      "Ġprens": 6221,
      "beige": 6222,
      "Ġextraction": 6223,
      "Ġtranspose": 6224,
      "ĠHaines": 6225,
      "Ġreinstatement": 6226,
      "Ġnjega": 6227,
      "ĠFirmen": 6228,
      "UDIO": 6229,
      "soul": 6230,
      "Ġoutput": 6231,
      "Ġpeu": 6232,
      "ĠPops": 6233,
      "Ġglandular": 6234,
      "ĠExcav": 6235,
      "ĠMexicans": 6236,
      "Nonn": 6237,
      "Ġbumped": 6238,
      "arlas": 6239,
      "Ġincomes": 6240,
      "ĠSpinner": 6241,
      "Nonnull": 6242,
      "Ġlika": 6243,
      "Ġunpaired": 6244,
      "iculas": 6245,
      "comments": 6246,
      "ISTAN": 6247,
      "ĠPLASMA": 6248,
      "Ġceremonial": 6249,
      "Ġcandidates": 6250,
      "IENT": 6251,
      "aerial": 6252,
      "Ġpiel": 6253,
      "Ġlbl": 6254,
      "Ġrecount": 6255,
      "ismatic": 6256,
      "Ġasent": 6257,
      "ĠMahama": 6258,
      "immel": 6259,
      "Ġaventura": 6260,
      "Categories": 6261,
      "ĠPalt": 6262,
      "Ġbeper": 6263,
      "ĠHaar": 6264,
      "ĠEinf": 6265,
      "ajouter": 6266,
      "Ġyol": 6267,
      "ificacion": 6268,
      "Ġpourtant": 6269,
      "ĠSTUDIO": 6270,
      "Ġenergized": 6271,
      "sprintf": 6272,
      "Ġcudd": 6273,
      "Ġchore": 6274,
      "ĠLeagues": 6275,
      "Ġflip": 6276,
      "impurity": 6277,
      "kkal": 6278,
      "Ġconvexity": 6279,
      "marg": 6280,
      "urangan": 6281,
      "Ġtus": 6282,
      "Ġbeep": 6283,
      "maal": 6284,
      "fois": 6285,
      "PCs": 6286,
      "Ġendonuclease": 6287,
      "Ġextenso": 6288,
      "Kinds": 6289,
      "crates": 6290,
      "Ġtightening": 6291,
      "peliculas": 6292,
      "Ġpierws": 6293,
      "Berat": 6294,
      "eliness": 6295,
      "heu": 6296,
      "PCB": 6297,
      "ĠPalin": 6298,
      "ĠColumn": 6299,
      "ĠNoting": 6300,
      "ĠTelex": 6301,
      "Ġaumentar": 6302,
      "ĠRouter": 6303,
      "Ġsintered": 6304,
      "rein": 6305,
      "Ġlarc": 6306,
      "arla": 6307,
      "ictures": 6308,
      "LOP": 6309,
      "Ġtermino": 6310,
      "Ġavenir": 6311,
      "Hammer": 6312,
      "Ġcandidatos": 6313,
      "ARCHITECTURE": 6314,
      "ierne": 6315,
      "Ġleaned": 6316,
      "ambah": 6317,
      "olicies": 6318,
      "ĠEpis": 6319,
      "Architecture": 6320,
      "ĠSMI": 6321,
      "ĠFleece": 6322,
      "ĠthisComponent": 6323,
      "Ġabstracted": 6324,
      "Ġsemblables": 6325,
      "ĠUzbekistan": 6326,
      "HelloWorld": 6327,
      "atanam": 6328,
      "Ġsoup": 6329,
      "ĠSada": 6330,
      "Ġwarts": 6331,
      "ambers": 6332,
      "ItemBackground": 6333,
      "Ġpolitely": 6334,
      "Ġthroats": 6335,
      "Ġyolks": 6336,
      "Pole": 6337,
      "Vehicle": 6338,
      "commit": 6339,
      "upcoming": 6340,
      "getToken": 6341,
      "orney": 6342,
      "ointment": 6343,
      "brooke": 6344,
      "Ġpengurangan": 6345,
      "ĠVehicle": 6346,
      "Ġgrandeza": 6347,
      "Ġsoups": 6348,
      "conder": 6349,
      "melting": 6350,
      "ĠAUTH": 6351,
      "Ġbagu": 6352,
      "ĠPlug": 6353,
      "Ġcoincided": 6354,
      "Ġbaguette": 6355,
      "wirtschaft": 6356,
      "erst": 6357,
      "Ġtika": 6358,
      "ĠWIRE": 6359,
      "Ġmenambahkan": 6360,
      "Ġcontainers": 6361,
      "mateurs": 6362,
      "ĠCond": 6363,
      "Ġhomo": 6364,
      "rowski": 6365,
      "ĠSchluss": 6366,
      "Ġarrow": 6367,
      "PEZ": 6368,
      "Ġseaw": 6369,
      "STANDARD": 6370,
      "Ġanciennes": 6371,
      "Ġiyi": 6372,
      "Ġdul": 6373,
      "ĠInflation": 6374,
      "webm": 6375,
      "Formats": 6376,
      "Slug": 6377,
      "Ġpronounced": 6378,
      "Ġdiagonals": 6379,
      "Mechanism": 6380,
      "muir": 6381,
      "ĠDuh": 6382,
      "Ġquiso": 6383,
      "sland": 6384,
      "lici": 6385,
      "comfort": 6386,
      "listener": 6387,
      "Ġunusable": 6388,
      "Miscellaneous": 6389,
      "ĠMechanism": 6390,
      "Ġarrowhead": 6391,
      "idados": 6392,
      "Ġgasto": 6393,
      "ukai": 6394,
      "ofed": 6395,
      "ĠConn": 6396,
      "Ġragazze": 6397,
      "VERTISEMENT": 6398,
      "ĠsdxConcept": 6399,
      "Ġdisassembly": 6400,
      "Ġdeftly": 6401,
      "Voting": 6402,
      "ilere": 6403,
      "ĠPE": 6404,
      "ĠDice": 6405,
      "Ġgpd": 6406,
      "register": 6407,
      "Ġpostpaid": 6408,
      "CRL": 6409,
      "Radial": 6410,
      "semibold": 6411,
      "ĠGlycer": 6412,
      "ĠNormalized": 6413,
      "ĠDmitry": 6414,
      "ĠTank": 6415,
      "okrat": 6416,
      "auw": 6417,
      "oyens": 6418,
      "Proposed": 6419,
      "Ġschrij": 6420,
      "uous": 6421,
      "Ġcs": 6422,
      "Ġwritable": 6423,
      "Ġendregion": 6424,
      "Ġtrooper": 6425,
      "izarro": 6426,
      "Ġreactivation": 6427,
      "Ġtolerancia": 6428,
      "SAFPreferenceKey": 6429,
      "Ġdulces": 6430,
      "Ġgrouse": 6431,
      "jenkins": 6432,
      "ĠChampionships": 6433,
      "ĠPEOPLE": 6434,
      "JAR": 6435,
      "Ġbia": 6436,
      "boi": 6437,
      "Ġadrift": 6438,
      "czych": 6439,
      "Ġpreclude": 6440,
      "Ġpedagog": 6441,
      "ĠProgram": 6442,
      "ENGINE": 6443,
      "aak": 6444,
      "sighted": 6445,
      "Ġmarshal": 6446,
      "Ġliber": 6447,
      "Ġstrugg": 6448,
      "Ġzaak": 6449,
      "Ġspacer": 6450,
      "ombie": 6451,
      "teni": 6452,
      "Ġskrev": 6453,
      "Ġprincesses": 6454,
      "olinha": 6455,
      "Ġdijete": 6456,
      "Ġsustenance": 6457,
      "thiop": 6458,
      "commend": 6459,
      "UARY": 6460,
      "rata": 6461,
      "tracer": 6462,
      "Ġtela": 6463,
      "Ġgara": 6464,
      "ĠJPanel": 6465,
      "Constitution": 6466,
      "alpha": 6467,
      "TintMode": 6468,
      "Ġhomogenous": 6469,
      "Ġmedy": 6470,
      "ĠCognitive": 6471,
      "Eas": 6472,
      "Ġvoz": 6473,
      "Ġplunger": 6474,
      "Ġexpended": 6475,
      "Ġregiment": 6476,
      "Ġeclips": 6477,
      "atomic": 6478,
      "Ġequivale": 6479,
      "ĠSponsorship": 6480,
      "Ġash": 6481,
      "isalpha": 6482,
      "Ġwid": 6483,
      "ORTS": 6484,
      "ĠmaxWidth": 6485,
      "jsonify": 6486,
      "Ġragazzo": 6487,
      "Ġsinging": 6488,
      "Ġtrabaj": 6489,
      "ĠCaesars": 6490,
      "importDefault": 6491,
      "malar": 6492,
      "Ġtomb": 6493,
      "ĠTutorials": 6494,
      "ĠLABOR": 6495,
      "Ġjendela": 6496,
      "Ġblanch": 6497,
      "Ġextra": 6498,
      "Ġizvr": 6499,
      "Ġpoate": 6500,
      "Ġdecisione": 6501,
      "Ġmenghadapi": 6502,
      "grep": 6503,
      "ĠMolina": 6504,
      "Ġdocket": 6505,
      "ĠLuft": 6506,
      "Ġabat": 6507,
      "DISABLE": 6508,
      "ooling": 6509,
      "Ġouvrir": 6510,
      "ĠConnolly": 6511,
      "ĠLABORATOR": 6512,
      "FLAGS": 6513,
      "fuss": 6514,
      "laces": 6515,
      "Ġcylinder": 6516,
      "apag": 6517,
      "ĠESD": 6518,
      "Ġquartz": 6519,
      "Adj": 6520,
      "Ġbuena": 6521,
      "toISOString": 6522,
      "Ġvozila": 6523,
      "wrench": 6524,
      "Ġwre": 6525,
      "Ġentusias": 6526,
      "Ġmengatur": 6527,
      "Ġpartida": 6528,
      "Ġchildren": 6529,
      "itamins": 6530,
      "Ġbalsam": 6531,
      "Ġfinalize": 6532,
      "Ġpesce": 6533,
      "Ġcaramelized": 6534,
      "Ġsystem": 6535,
      "utico": 6536,
      "ĠLand": 6537,
      "astica": 6538,
      "Ġkarar": 6539,
      "Ġbituminous": 6540,
      "Ġzeigen": 6541,
      "ĠWinfrey": 6542,
      "prefab": 6543,
      "caa": 6544,
      "foods": 6545,
      "Ġpooling": 6546,
      "ĠDeport": 6547,
      "Ġvoglio": 6548,
      "Ġspont": 6549,
      "CCSD": 6550,
      "Ġmonol": 6551,
      "Ġrefund": 6552,
      "ĠMoe": 6553,
      "rictions": 6554,
      "Ġproprio": 6555,
      "updateConfirm": 6556,
      "Ġmurky": 6557,
      "Ġexacerbate": 6558,
      "Lesson": 6559,
      "Ġpeker": 6560,
      "ullan": 6561,
      "Ġspun": 6562,
      "gena": 6563,
      "PEAT": 6564,
      "tested": 6565,
      "ARGB": 6566,
      "ĠMelanes": 6567,
      "Ġtassels": 6568,
      "Ġcompanions": 6569,
      "Ġgepubliceerd": 6570,
      "Ġmansions": 6571,
      "bbero": 6572,
      "jhtml": 6573,
      "kjhtml": 6574,
      "ĠTRA": 6575,
      "Ġnejs": 6576,
      "habitation": 6577,
      "Ġuniversitar": 6578,
      "Ġlenght": 6579,
      "Ġessences": 6580,
      "Ġpemerintah": 6581,
      "pian": 6582,
      "ĠCens": 6583,
      "Ġmantra": 6584,
      "acum": 6585,
      "Ġacuity": 6586,
      "Ġdeferred": 6587,
      "Ġattenzione": 6588,
      "arpur": 6589,
      "Throttle": 6590,
      "Ġiniziato": 6591,
      "Ġwymaga": 6592,
      "Dsp": 6593,
      "Samb": 6594,
      "inium": 6595,
      "Ġtedy": 6596,
      "igir": 6597,
      "ieza": 6598,
      "ouwen": 6599,
      "Ġuntested": 6600,
      "ENIX": 6601,
      "Ġdhamma": 6602,
      "Ġcavitation": 6603,
      "Ġutilidad": 6604,
      "Ġabstracts": 6605,
      "Latch": 6606,
      "trif": 6607,
      "Ġsired": 6608,
      "olution": 6609,
      "Ġchasse": 6610,
      "SPAN": 6611,
      "Ġaventure": 6612,
      "ileri": 6613,
      "Ġcomprom": 6614,
      "Ġsamaj": 6615,
      "Ġreligiously": 6616,
      "ĠAnnouncements": 6617,
      "Ġtombol": 6618,
      "RIDES": 6619,
      "Series": 6620,
      "Ġthought": 6621,
      "Ġboard": 6622,
      "Ġwills": 6623,
      "ryan": 6624,
      "serde": 6625,
      "Ġarises": 6626,
      "GroupName": 6627,
      "ĠMinsk": 6628,
      "ĠKenyan": 6629,
      "Ġobsah": 6630,
      "petite": 6631,
      "ĠEBITDA": 6632,
      "registerTask": 6633,
      "Correlation": 6634,
      "FLAG": 6635,
      "corn": 6636,
      "ĠSiva": 6637,
      "Ġtarg": 6638,
      "ĠTela": 6639,
      "ciences": 6640,
      "Ġsidang": 6641,
      "Ġnejsou": 6642,
      "garde": 6643,
      "ĠHydrogen": 6644,
      "ĠJensen": 6645,
      "unners": 6646,
      "GRID": 6647,
      "Ġuploading": 6648,
      "ĠHolstein": 6649,
      "Ġcaball": 6650,
      "Ġconoscere": 6651,
      "gif": 6652,
      "Ġillo": 6653,
      "chnet": 6654,
      "ĠCommon": 6655,
      "Ġmue": 6656,
      "Ġmais": 6657,
      "ĠrandomIndex": 6658,
      "Ġprostatic": 6659,
      "Ġgalley": 6660,
      "Ġexperimented": 6661,
      "Wal": 6662,
      "ĠAryan": 6663,
      "iped": 6664,
      "TimeSeries": 6665,
      "ossians": 6666,
      "raped": 6667,
      "ĠHorseshoe": 6668,
      "ĠnextPage": 6669,
      "Ġmaisons": 6670,
      "jer": 6671,
      "todo": 6672,
      "ĠPrompt": 6673,
      "Ġtitanic": 6674,
      "ĠHus": 6675,
      "iczna": 6676,
      "ĠAppl": 6677,
      "sema": 6678,
      "Ġteaspoons": 6679,
      "ĠoutputFile": 6680,
      "mede": 6681,
      "acij": 6682,
      "aggo": 6683,
      "umir": 6684,
      "Ġhealthier": 6685,
      "hotels": 6686,
      "interpreter": 6687,
      "gatt": 6688,
      "Ġtour": 6689,
      "rames": 6690,
      "Ġinfra": 6691,
      "Ġafect": 6692,
      "iamen": 6693,
      "makefile": 6694,
      "Ġluggage": 6695,
      "ĠItalie": 6696,
      "Ġexplos": 6697,
      "Ġirritation": 6698,
      "Ġvotar": 6699,
      "Ġcarcasses": 6700,
      "Ġnbfs": 6701,
      "Ġexert": 6702,
      "Ġprinces": 6703,
      "emptive": 6704,
      "River": 6705,
      "Trademark": 6706,
      "ĠGnome": 6707,
      "ĠYAP": 6708,
      "Ġasumir": 6709,
      "Ġmengeluarkan": 6710,
      "Ġdiscour": 6711,
      "ĠTextView": 6712,
      "Ġspecialize": 6713,
      "ĠGentile": 6714,
      "intermediates": 6715,
      "Ġdispositions": 6716,
      "Ġsym": 6717,
      "Ġunbeatable": 6718,
      "askin": 6719,
      "Ġattentes": 6720,
      "ĠfontSize": 6721,
      "Ġstalks": 6722,
      "Ġdeinen": 6723,
      "ĠSolic": 6724,
      "Ġmov": 6725,
      "ĠGH": 6726,
      "ĠVII": 6727,
      "ksa": 6728,
      "ĠAba": 6729,
      "Ġbees": 6730,
      "Ġizgub": 6731,
      "ĠRetina": 6732,
      "ĠSubject": 6733,
      "QtGui": 6734,
      "Ġulc": 6735,
      "Ġfilme": 6736,
      "ĠFabrizio": 6737,
      "Ġcommit": 6738,
      "Ġfundamento": 6739,
      "Ġlavorare": 6740,
      "ĠSvet": 6741,
      "asinya": 6742,
      "Ġtut": 6743,
      "iliations": 6744,
      "linear": 6745,
      "ĠINCRE": 6746,
      "Ġbackend": 6747,
      "correlation": 6748,
      "Ġerythro": 6749,
      "ĠdateFormat": 6750,
      "Ġboarded": 6751,
      "ĠGHG": 6752,
      "OOL": 6753,
      "Ġllen": 6754,
      "Ġklien": 6755,
      "Ġprosp": 6756,
      "Ġsubstit": 6757,
      "asci": 6758,
      "Ġflurry": 6759,
      "repaint": 6760,
      "ĠEnglisch": 6761,
      "Surviv": 6762,
      "Ġbeeswax": 6763,
      "Avi": 6764,
      "abajo": 6765,
      "arsis": 6766,
      "Ġregionally": 6767,
      "nextLine": 6768,
      "Ġsecteurs": 6769,
      "Ġhivyo": 6770,
      "OutgoingRiver": 6771,
      "ĠFilho": 6772,
      "Hast": 6773,
      "bold": 6774,
      "gments": 6775,
      "pcs": 6776,
      "sere": 6777,
      "envelope": 6778,
      "ĠSatz": 6779,
      "Ġyerde": 6780,
      "LogLevel": 6781,
      "Ġtypo": 6782,
      "meshgrid": 6783,
      "Ġkeyboards": 6784,
      "hemat": 6785,
      "requ": 6786,
      "ĠBub": 6787,
      "Ġmenambah": 6788,
      "Ġhablado": 6789,
      "colors": 6790,
      "ĠSvetlana": 6791,
      "Nub": 6792,
      "npcs": 6793,
      "Ġpikiran": 6794,
      "Ġhealthiest": 6795,
      "Ġchit": 6796,
      "Ġunil": 6797,
      "addGap": 6798,
      "daftar": 6799,
      "Ġeinen": 6800,
      "ionaries": 6801,
      "ugal": 6802,
      "ĠVEL": 6803,
      "Ġabomin": 6804,
      "Ġobt": 6805,
      "rapers": 6806,
      "Dictionaries": 6807,
      "Ġtranslate": 6808,
      "ĠAsamblea": 6809,
      "ĠCOMP": 6810,
      "Republic": 6811,
      "Ġajo": 6812,
      "Ġsummoning": 6813,
      "ĠAxe": 6814,
      "intervals": 6815,
      "Ġprosperous": 6816,
      "iculture": 6817,
      "Ġgero": 6818,
      "moins": 6819,
      "Ġauk": 6820,
      "SwitchCompat": 6821,
      "HttpResponse": 6822,
      "Ġconstitucional": 6823,
      "ĠDAILY": 6824,
      "adolu": 6825,
      "ĠForeground": 6826,
      "Ġmaha": 6827,
      "Ġdirectement": 6828,
      "Ġgaw": 6829,
      "shar": 6830,
      "Ġshowing": 6831,
      "filterable": 6832,
      "enas": 6833,
      "Ġbashing": 6834,
      "availability": 6835,
      "Ġladd": 6836,
      "Ġaligning": 6837,
      "armen": 6838,
      "FileName": 6839,
      "ĠScissors": 6840,
      "guas": 6841,
      "ĠMaid": 6842,
      "ĠCCBundle": 6843,
      "HexString": 6844,
      "ĠMarlin": 6845,
      "Lymph": 6846,
      "Ġfair": 6847,
      "Ġnossa": 6848,
      "ĠVienne": 6849,
      "arnings": 6850,
      "skyblue": 6851,
      "ĠWhiting": 6852,
      "Ġpapillary": 6853,
      "Ġpublice": 6854,
      "signs": 6855,
      "Sand": 6856,
      "zmq": 6857,
      "undet": 6858,
      "ĠuserId": 6859,
      "Ġrestric": 6860,
      "Ġdihydro": 6861,
      "ĠSlate": 6862,
      "Ġlamang": 6863,
      "ĠCelebration": 6864,
      "ĠRouterModule": 6865,
      "<UNK>": 6866
    },
    "old_vocab": {
      "!": 0,
      "\"": 1,
      "#": 2,
      "$": 3,
      "%": 4,
      "&": 5,
      "'": 6,
      "(": 7,
      ")": 8,
      "*": 9,
      "+": 10,
      ",": 11,
      "-": 12,
      ".": 13,
      "/": 14,
      "0": 15,
      "1": 16,
      "2": 17,
      "3": 18,
      "4": 19,
      "5": 20,
      "6": 21,
      "7": 22,
      "8": 23,
      "9": 24,
      ":": 25,
      ";": 26,
      "<": 27,
      "=": 28,
      ">": 29,
      "?": 30,
      "@": 31,
      "A": 32,
      "B": 33,
      "C": 34,
      "D": 35,
      "E": 36,
      "F": 37,
      "G": 38,
      "H": 39,
      "I": 40,
      "J": 41,
      "K": 42,
      "L": 43,
      "M": 44,
      "N": 45,
      "O": 46,
      "P": 47,
      "Q": 48,
      "R": 49,
      "S": 50,
      "T": 51,
      "U": 52,
      "V": 53,
      "W": 54,
      "X": 55,
      "Y": 56,
      "Z": 57,
      "[": 58,
      "\\": 59,
      "]": 60,
      "^": 61,
      "_": 62,
      "`": 63,
      "a": 64,
      "b": 65,
      "c": 66,
      "d": 67,
      "e": 68,
      "f": 69,
      "g": 70,
      "h": 71,
      "i": 72,
      "j": 73,
      "k": 74,
      "l": 75,
      "m": 76,
      "n": 77,
      "o": 78,
      "p": 79,
      "q": 80,
      "r": 81,
      "s": 82,
      "t": 83,
      "u": 84,
      "v": 85,
      "w": 86,
      "x": 87,
      "y": 88,
      "z": 89,
      "{": 90,
      "|": 91,
      "}": 92,
      "~": 93,
      "¡": 94,
      "¢": 95,
      "£": 96,
      "¤": 97,
      "¥": 98,
      "¦": 99,
      "§": 100,
      "¨": 101,
      "©": 102,
      "ª": 103,
      "«": 104,
      "¬": 105,
      "®": 106,
      "¯": 107,
      "°": 108,
      "±": 109,
      "²": 110,
      "³": 111,
      "´": 112,
      "µ": 113,
      "¶": 114,
      "·": 115,
      "¸": 116,
      "¹": 117,
      "º": 118,
      "»": 119,
      "¼": 120,
      "½": 121,
      "¾": 122,
      "¿": 123,
      "À": 124,
      "Á": 125,
      "Â": 126,
      "Ã": 127,
      "Ä": 128,
      "Å": 129,
      "Æ": 130,
      "Ç": 131,
      "È": 132,
      "É": 133,
      "Ê": 134,
      "Ë": 135,
      "Ì": 136,
      "Í": 137,
      "Î": 138,
      "Ï": 139,
      "Ð": 140,
      "Ñ": 141,
      "Ò": 142,
      "Ó": 143,
      "Ô": 144,
      "Õ": 145,
      "Ö": 146,
      "×": 147,
      "Ø": 148,
      "Ù": 149,
      "Ú": 150,
      "Û": 151,
      "Ü": 152,
      "Ý": 153,
      "Þ": 154,
      "ß": 155,
      "à": 156,
      "á": 157,
      "â": 158,
      "ã": 159,
      "ä": 160,
      "å": 161,
      "æ": 162,
      "ç": 163,
      "è": 164,
      "é": 165,
      "ê": 166,
      "ë": 167,
      "ì": 168,
      "í": 169,
      "î": 170,
      "ï": 171,
      "ð": 172,
      "ñ": 173,
      "ò": 174,
      "ó": 175,
      "ô": 176,
      "õ": 177,
      "ö": 178,
      "÷": 179,
      "ø": 180,
      "ù": 181,
      "ú": 182,
      "û": 183,
      "ü": 184,
      "ý": 185,
      "þ": 186,
      "ÿ": 187,
      "Ā": 188,
      "ā": 189,
      "Ă": 190,
      "ă": 191,
      "Ą": 192,
      "ą": 193,
      "Ć": 194,
      "ć": 195,
      "Ĉ": 196,
      "ĉ": 197,
      "Ċ": 198,
      "ċ": 199,
      "Č": 200,
      "č": 201,
      "Ď": 202,
      "ď": 203,
      "Đ": 204,
      "đ": 205,
      "Ē": 206,
      "ē": 207,
      "Ĕ": 208,
      "ĕ": 209,
      "Ė": 210,
      "ė": 211,
      "Ę": 212,
      "ę": 213,
      "Ě": 214,
      "ě": 215,
      "Ĝ": 216,
      "ĝ": 217,
      "Ğ": 218,
      "ğ": 219,
      "Ġ": 220,
      "ġ": 221,
      "Ģ": 222,
      "ģ": 223,
      "Ĥ": 224,
      "ĥ": 225,
      "Ħ": 226,
      "ħ": 227,
      "Ĩ": 228,
      "ĩ": 229,
      "Ī": 230,
      "ī": 231,
      "Ĭ": 232,
      "ĭ": 233,
      "Į": 234,
      "į": 235,
      "İ": 236,
      "ı": 237,
      "Ĳ": 238,
      "ĳ": 239,
      "Ĵ": 240,
      "ĵ": 241,
      "Ķ": 242,
      "ķ": 243,
      "ĸ": 244,
      "Ĺ": 245,
      "ĺ": 246,
      "Ļ": 247,
      "ļ": 248,
      "Ľ": 249,
      "ľ": 250,
      "Ŀ": 251,
      "ŀ": 252,
      "Ł": 253,
      "ł": 254,
      "Ń": 255,
      "er": 256,
      "an": 257,
      "in": 258,
      "en": 259,
      "on": 260,
      "ar": 261,
      "at": 262,
      "es": 263,
      "al": 264,
      "or": 265,
      "et": 266,
      "it": 267,
      "st": 268,
      "le": 269,
      "ic": 270,
      "el": 271,
      "ed": 272,
      "ch": 273,
      "am": 274,
      "ro": 275,
      "is": 276,
      "re": 277,
      "ad": 278,
      "Ġs": 279,
      "Ġp": 280,
      "un": 281,
      "il": 282,
      "ĠS": 283,
      "as": 284,
      "ing": 285,
      "ut": 286,
      "ĠC": 287,
      "ent": 288,
      "ol": 289,
      "ur": 290,
      "ĠM": 291,
      "us": 292,
      "ĠB": 293,
      "ra": 294,
      "ion": 295,
      "Ġc": 296,
      "id": 297,
      "Ġd": 298,
      "ĠP": 299,
      "ul": 300,
      "im": 301,
      "Ġt": 302,
      "Ġm": 303,
      "om": 304,
      "ĠA": 305,
      "ac": 306,
      "ag": 307,
      "em": 308,
      "ab": 309,
      "ĠD": 310,
      "os": 311,
      "ot": 312,
      "um": 313,
      "ig": 314,
      "ct": 315,
      "od": 316,
      "Ġb": 317,
      "ri": 318,
      "ĠT": 319,
      "ĠG": 320,
      "ĠR": 321,
      "ĠH": 322,
      "ap": 323,
      "ie": 324,
      "ak": 325,
      "oc": 326,
      "ir": 327,
      "ĠN": 328,
      "est": 329,
      "ĠL": 330,
      "ay": 331,
      "ow": 332,
      "Ġf": 333,
      "ĠE": 334,
      "Ġg": 335,
      "ex": 336,
      "op": 337,
      "Ġv": 338,
      "Ġh": 339,
      "and": 340,
      "th": 341,
      "ia": 342,
      "ĠK": 343,
      "ce": 344,
      "qu": 345,
      "Ġn": 346,
      "iv": 347,
      "ĠF": 348,
      "ate": 349,
      "av": 350,
      "ers": 351,
      "ĠW": 352,
      "ang": 353,
      "ation": 354,
      "og": 355,
      "Ġl": 356,
      "ant": 357,
      "In": 358,
      "ik": 359,
      "ov": 360,
      "ah": 361,
      "ec": 362,
      "eg": 363,
      "Ġk": 364,
      "ist": 365,
      "end": 366,
      "ub": 367,
      "ud": 368,
      "ter": 369,
      "ff": 370,
      "ine": 371,
      "ont": 372,
      "St": 373,
      "ob": 374,
      "ib": 375,
      "Ġr": 376,
      "up": 377,
      "ip": 378,
      "ton": 379,
      "ess": 380,
      "ath": 381,
      "iz": 382,
      "ian": 383,
      "ey": 384,
      "ell": 385,
      "ug": 386,
      "ect": 387,
      "ĠV": 388,
      "ĠI": 389,
      "ind": 390,
      "ard": 391,
      "ly": 392,
      "ert": 393,
      "ast": 394,
      "ĠJ": 395,
      "pe": 396,
      "ord": 397,
      "ph": 398,
      "ok": 399,
      "get": 400,
      "ill": 401,
      "Ġw": 402,
      "pt": 403,
      "art": 404,
      "ue": 405,
      "Ġre": 406,
      "uc": 407,
      "ne": 408,
      "ht": 409,
      "yl": 410,
      "age": 411,
      "Ġin": 412,
      "ĠU": 413,
      "ĠO": 414,
      "if": 415,
      "eb": 416,
      "te": 417,
      "ass": 418,
      "io": 419,
      "se": 420,
      "au": 421,
      "ung": 422,
      "all": 423,
      "ev": 424,
      "und": 425,
      "ek": 426,
      "ef": 427,
      "ep": 428,
      "ox": 429,
      "able": 430,
      "ile": 431,
      "ens": 432,
      "uk": 433,
      "aw": 434,
      "Ġst": 435,
      "Ġj": 436,
      "ext": 437,
      "ata": 438,
      "erm": 439,
      "ack": 440,
      "he": 441,
      "ult": 442,
      "out": 443,
      "ĠCh": 444,
      "set": 445,
      "int": 446,
      "ity": 447,
      "az": 448,
      "ew": 449,
      "ial": 450,
      "pl": 451,
      "ach": 452,
      "our": 453,
      "ies": 454,
      "ym": 455,
      "rop": 456,
      "ran": 457,
      "ou": 458,
      "sk": 459,
      "aj": 460,
      "ort": 461,
      "Ġch": 462,
      "ick": 463,
      "ame": 464,
      "ock": 465,
      "Ġa": 466,
      "ry": 467,
      "ann": 468,
      "Ġun": 469,
      "ost": 470,
      "ai": 471,
      "cl": 472,
      "Ġcon": 473,
      "sh": 474,
      "son": 475,
      "ĠMc": 476,
      "att": 477,
      "ive": 478,
      "pr": 479,
      "ust": 480,
      "ject": 481,
      "ment": 482,
      "iew": 483,
      "her": 484,
      "iel": 485,
      "yn": 486,
      "ll": 487,
      "ous": 488,
      "per": 489,
      "ele": 490,
      "ya": 491,
      "ier": 492,
      "ode": 493,
      "ype": 494,
      "ain": 495,
      "add": 496,
      "unt": 497,
      "erv": 498,
      "are": 499,
      "put": 500,
      "to": 501,
      "na": 502,
      "ich": 503,
      "ij": 504,
      "ish": 505,
      "ER": 506,
      "ong": 507,
      "eng": 508,
      "ite": 509,
      "lo": 510,
      "ax": 511,
      "ign": 512,
      "ond": 513,
      "Cont": 514,
      "sp": 515,
      "ring": 516,
      "pp": 517,
      "ber": 518,
      "ane": 519,
      "ull": 520,
      "ati": 521,
      "ore": 522,
      "ice": 523,
      "Val": 524,
      "ez": 525,
      "Ar": 526,
      "ire": 527,
      "ure": 528,
      "Ch": 529,
      "Ob": 530,
      "rom": 531,
      "ary": 532,
      "ild": 533,
      "ide": 534,
      "omp": 535,
      "To": 536,
      "man": 537,
      "ron": 538,
      "ash": 539,
      "ated": 540,
      "ST": 541,
      "oh": 542,
      "ru": 543,
      "ft": 544,
      "res": 545,
      "ime": 546,
      "ink": 547,
      "ett": 548,
      "Ġz": 549,
      "sc": 550,
      "ĠSh": 551,
      "iss": 552,
      "ight": 553,
      "nd": 554,
      "ana": 555,
      "err": 556,
      "ield": 557,
      "Ġpro": 558,
      "ark": 559,
      "enc": 560,
      "Object": 561,
      "Type": 562,
      "ge": 563,
      "ith": 564,
      "Con": 565,
      "ern": 566,
      "ize": 567,
      "Ġsp": 568,
      "eth": 569,
      "ere": 570,
      "own": 571,
      "ID": 572,
      "les": 573,
      "eh": 574,
      "Par": 575,
      "iy": 576,
      "tr": 577,
      "Cl": 578,
      "Ġe": 579,
      "orm": 580,
      "itt": 581,
      "ins": 582,
      "ene": 583,
      "View": 584,
      "ray": 585,
      "OR": 586,
      "Value": 587,
      "erc": 588,
      "oll": 589,
      "ley": 590,
      "oy": 591,
      "ON": 592,
      "ham": 593,
      "Ġle": 594,
      "Ġpr": 595,
      "ors": 596,
      "ale": 597,
      "AR": 598,
      "Res": 599,
      "ons": 600,
      "ma": 601,
      "co": 602,
      "EN": 603,
      "ium": 604,
      "UR": 605,
      "rr": 606,
      "Ġim": 607,
      "List": 608,
      "ka": 609,
      "IC": 610,
      "oj": 611,
      "ace": 612,
      "ient": 613,
      "Ex": 614,
      "ho": 615,
      "ss": 616,
      "ical": 617,
      "row": 618,
      "ction": 619,
      "tt": 620,
      "ina": 621,
      "ĠY": 622,
      "IN": 623,
      "Ġth": 624,
      "Path": 625,
      "old": 626,
      "ver": 627,
      "we": 628,
      "AN": 629,
      "ĠAr": 630,
      "act": 631,
      "ence": 632,
      "Pro": 633,
      "olor": 634,
      "ys": 635,
      "que": 636,
      "rit": 637,
      "SC": 638,
      "utton": 639,
      "ase": 640,
      "enn": 641,
      "ato": 642,
      "no": 643,
      "arg": 644,
      "ler": 645,
      "ram": 646,
      "Err": 647,
      "ĠSt": 648,
      "cept": 649,
      "ead": 650,
      "ni": 651,
      "one": 652,
      "ĠZ": 653,
      "atch": 654,
      "Ġqu": 655,
      "Ġex": 656,
      "Ġab": 657,
      "ald": 658,
      "Ġsc": 659,
      "ck": 660,
      "ole": 661,
      "tem": 662,
      "CC": 663,
      "Id": 664,
      "ood": 665,
      "ush": 666,
      "omm": 667,
      "sch": 668,
      "LE": 669,
      "Ġpl": 670,
      "Name": 671,
      "ans": 672,
      "ĠQ": 673,
      "Error": 674,
      "ee": 675,
      "oz": 676,
      "rent": 677,
      "bo": 678,
      "ric": 679,
      "ser": 680,
      "ance": 681,
      "of": 682,
      "ix": 683,
      "erg": 684,
      "ail": 685,
      "Data": 686,
      "Im": 687,
      "ari": 688,
      "Ġdis": 689,
      "ank": 690,
      "AL": 691,
      "app": 692,
      "Ġad": 693,
      "arl": 694,
      "CT": 695,
      "Sc": 696,
      "yd": 697,
      "anc": 698,
      "ado": 699,
      "ini": 700,
      "AT": 701,
      "Key": 702,
      "Ġal": 703,
      "uf": 704,
      "amp": 705,
      "Ġsub": 706,
      "yt": 707,
      "Comp": 708,
      "rid": 709,
      "uff": 710,
      "ĠSch": 711,
      "led": 712,
      "Serv": 713,
      "ĠAl": 714,
      "Button": 715,
      "ement": 716,
      "emb": 717,
      "SE": 718,
      "ret": 719,
      "ani": 720,
      "ait": 721,
      "Text": 722,
      "sl": 723,
      "ĠIn": 724,
      "af": 725,
      "orn": 726,
      "rav": 727,
      "arr": 728,
      "gen": 729,
      "AM": 730,
      "ator": 731,
      "fo": 732,
      "Ġy": 733,
      "equ": 734,
      "hen": 735,
      "ais": 736,
      "land": 737,
      "amb": 738,
      "SP": 739,
      "ings": 740,
      "val": 741,
      "IT": 742,
      "Size": 743,
      "yp": 744,
      "ear": 745,
      "eter": 746,
      "Array": 747,
      "String": 748,
      "ada": 749,
      "ford": 750,
      "air": 751,
      "RE": 752,
      "inn": 753,
      "iti": 754,
      "Item": 755,
      "ien": 756,
      "ions": 757,
      "esh": 758,
      "Co": 759,
      "SA": 760,
      "ren": 761,
      "Param": 762,
      "By": 763,
      "Of": 764,
      "ugh": 765,
      "ade": 766,
      "ott": 767,
      "Ġget": 768,
      "con": 769,
      "Ġsh": 770,
      "RP": 771,
      "kan": 772,
      "eck": 773,
      "inc": 774,
      "ein": 775,
      "cc": 776,
      "uj": 777,
      "utt": 778,
      "BS": 779,
      "ict": 780,
      "era": 781,
      "ica": 782,
      "over": 783,
      "Context": 784,
      "CS": 785,
      "ĠBl": 786,
      "ng": 787,
      "uss": 788,
      "yc": 789,
      "eat": 790,
      "vent": 791,
      "Ġpar": 792,
      "nt": 793,
      "ps": 794,
      "ory": 795,
      "rib": 796,
      "unc": 797,
      "ara": 798,
      "umb": 799,
      "oth": 800,
      "ke": 801,
      "Int": 802,
      "ics": 803,
      "onent": 804,
      "uth": 805,
      "urrent": 806,
      "arm": 807,
      "urs": 808,
      "ql": 809,
      "ena": 810,
      "uch": 811,
      "ger": 812,
      "lement": 813,
      "Pl": 814,
      "yst": 815,
      "ego": 816,
      "Field": 817,
      "Ġan": 818,
      "Ġen": 819,
      "Image": 820,
      "iro": 821,
      "ora": 822,
      "isc": 823,
      "osit": 824,
      "File": 825,
      "AC": 826,
      "ute": 827,
      "PS": 828,
      "ira": 829,
      "App": 830,
      "reate": 831,
      "reen": 832,
      "ih": 833,
      "roup": 834,
      "ama": 835,
      "Ġac": 836,
      "ze": 837,
      "ĠGu": 838,
      "ager": 839,
      "use": 840,
      "ater": 841,
      "CP": 842,
      "va": 843,
      "ala": 844,
      "Ġdes": 845,
      "str": 846,
      "Mod": 847,
      "Ġsl": 848,
      "ve": 849,
      "uto": 850,
      "umber": 851,
      "fl": 852,
      "Ġar": 853,
      "off": 854,
      "Ġap": 855,
      "Get": 856,
      "che": 857,
      "DA": 858,
      "uy": 859,
      "Ġset": 860,
      "ism": 861,
      "den": 862,
      "atth": 863,
      "ery": 864,
      "ĠX": 865,
      "Ġrec": 866,
      "Time": 867,
      "als": 868,
      "me": 869,
      "equest": 870,
      "Man": 871,
      "kh": 872,
      "roll": 873,
      "ress": 874,
      "IA": 875,
      "ise": 876,
      "State": 877,
      "par": 878,
      "ament": 879,
      "Ġper": 880,
      "dex": 881,
      "IS": 882,
      "po": 883,
      "ner": 884,
      "ille": 885,
      "urn": 886,
      "PC": 887,
      "itz": 888,
      "arc": 889,
      "uz": 890,
      "ates": 891,
      "Ġro": 892,
      "ular": 893,
      "orr": 894,
      "ech": 895,
      "let": 896,
      "ius": 897,
      "rad": 898,
      "order": 899,
      "ave": 900,
      "alt": 901,
      "raw": 902,
      "anj": 903,
      "ha": 904,
      "Color": 905,
      "fe": 906,
      "Sh": 907,
      "ets": 908,
      "arb": 909,
      "orb": 910,
      "du": 911,
      "Code": 912,
      "IL": 913,
      "iff": 914,
      "oph": 915,
      "ref": 916,
      "rev": 917,
      "ose": 918,
      "Index": 919,
      "lock": 920,
      "uv": 921,
      "Char": 922,
      "ource": 923,
      "DP": 924,
      "Fl": 925,
      "ES": 926,
      "ili": 927,
      "UT": 928,
      "rist": 929,
      "Ġres": 930,
      "Ġis": 931,
      "uh": 932,
      "gl": 933,
      "bar": 934,
      "pi": 935,
      "ml": 936,
      "iter": 937,
      "Component": 938,
      "MS": 939,
      "ks": 940,
      "kt": 941,
      "ied": 942,
      "ians": 943,
      "ruct": 944,
      "ych": 945,
      "ayout": 946,
      "ree": 947,
      "IP": 948,
      "Request": 949,
      "uan": 950,
      "ld": 951,
      "Ġmen": 952,
      "yr": 953,
      "ĠTh": 954,
      "ington": 955,
      "rack": 956,
      "CH": 957,
      "ii": 958,
      "omb": 959,
      "och": 960,
      "elect": 961,
      "sub": 962,
      "Out": 963,
      "rag": 964,
      "eme": 965,
      "ux": 966,
      "Set": 967,
      "All": 968,
      "ĠAm": 969,
      "ete": 970,
      "SI": 971,
      "rim": 972,
      "Call": 973,
      "MA": 974,
      "cz": 975,
      "CA": 976,
      "fig": 977,
      "ano": 978,
      "ae": 979,
      "abb": 980,
      "ao": 981,
      "rol": 982,
      "form": 983,
      "sw": 984,
      "Ġcont": 985,
      "ely": 986,
      "En": 987,
      "Event": 988,
      "Ref": 989,
      "ĠSc": 990,
      "Group": 991,
      "TR": 992,
      "ays": 993,
      "rans": 994,
      "go": 995,
      "ake": 996,
      "za": 997,
      "asc": 998,
      "ET": 999,
      "erd": 1000,
      "oxy": 1001,
      "Ġjed": 1002,
      "Box": 1003,
      "Ġod": 1004,
      "Action": 1005,
      "oid": 1006,
      "back": 1007,
      "yle": 1008,
      "Ġam": 1009,
      "red": 1010,
      "ros": 1011,
      "ĠLe": 1012,
      "riv": 1013,
      "ese": 1014,
      "oa": 1015,
      "ots": 1016,
      "la": 1017,
      "ork": 1018,
      "oo": 1019,
      "line": 1020,
      "Ġret": 1021,
      "Ġund": 1022,
      "aff": 1023,
      "Result": 1024,
      "UN": 1025,
      "atur": 1026,
      "Sp": 1027,
      "rt": 1028,
      "ĠCon": 1029,
      "ered": 1030,
      "Ġind": 1031,
      "indow": 1032,
      "ception": 1033,
      "Prop": 1034,
      "endo": 1035,
      "Input": 1036,
      "Manager": 1037,
      "Ġcom": 1038,
      "ĠBar": 1039,
      "Up": 1040,
      "MP": 1041,
      "Ġob": 1042,
      "rec": 1043,
      "Exception": 1044,
      "Ġant": 1045,
      "Service": 1046,
      "men": 1047,
      "ling": 1048,
      "ĠAd": 1049,
      "ump": 1050,
      "Count": 1051,
      "AG": 1052,
      "ester": 1053,
      "shire": 1054,
      "ĠEd": 1055,
      "unter": 1056,
      "uild": 1057,
      "ej": 1058,
      "Ad": 1059,
      "aya": 1060,
      "anam": 1061,
      "ios": 1062,
      "rl": 1063,
      "ĠEm": 1064,
      "Class": 1065,
      "els": 1066,
      "Ġimp": 1067,
      "ten": 1068,
      "ocal": 1069,
      "PA": 1070,
      "mer": 1071,
      "eut": 1072,
      "ower": 1073,
      "ats": 1074,
      "Layout": 1075,
      "Table": 1076,
      "ask": 1077,
      "ener": 1078,
      "uit": 1079,
      "ĠRe": 1080,
      "ars": 1081,
      "bur": 1082,
      "ĠAn": 1083,
      "TS": 1084,
      "For": 1085,
      "ocation": 1086,
      "amil": 1087,
      "Ġem": 1088,
      "idd": 1089,
      "my": 1090,
      "ione": 1091,
      "oss": 1092,
      "iqu": 1093,
      "As": 1094,
      "uck": 1095,
      "port": 1096,
      "elle": 1097,
      "ized": 1098,
      "ucle": 1099,
      "ange": 1100,
      "ule": 1101,
      "nik": 1102,
      "SM": 1103,
      "ound": 1104,
      "Ġtr": 1105,
      "ogg": 1106,
      "atic": 1107,
      "ual": 1108,
      "ility": 1109,
      "raph": 1110,
      "org": 1111,
      "ract": 1112,
      "Element": 1113,
      "ouse": 1114,
      "ette": 1115,
      "ED": 1116,
      "last": 1117,
      "pro": 1118,
      "With": 1119,
      "las": 1120,
      "Info": 1121,
      "Config": 1122,
      "DR": 1123,
      "pon": 1124,
      "ayer": 1125,
      "User": 1126,
      "anel": 1127,
      "AD": 1128,
      "lad": 1129,
      "AP": 1130,
      "Api": 1131,
      "berg": 1132,
      "iej": 1133,
      "Ġco": 1134,
      "Ġov": 1135,
      "Ġel": 1136,
      "BC": 1137,
      "Ġph": 1138,
      "ui": 1139,
      "ĠEl": 1140,
      "edi": 1141,
      "idth": 1142,
      "ino": 1143,
      "SS": 1144,
      "be": 1145,
      "icht": 1146,
      "ĠBr": 1147,
      "eader": 1148,
      "reg": 1149,
      "oto": 1150,
      "olic": 1151,
      "hi": 1152,
      "Al": 1153,
      "ome": 1154,
      "IM": 1155,
      "bit": 1156,
      "br": 1157,
      "Is": 1158,
      "unk": 1159,
      "map": 1160,
      "load": 1161,
      "cent": 1162,
      "Ġfl": 1163,
      "inal": 1164,
      "ral": 1165,
      "aut": 1166,
      "Window": 1167,
      "web": 1168,
      "iet": 1169,
      "lect": 1170,
      "CO": 1171,
      "ough": 1172,
      "EC": 1173,
      "ura": 1174,
      "ating": 1175,
      "Ġinc": 1176,
      "Ġent": 1177,
      "Ġon": 1178,
      "Ġx": 1179,
      "Ġed": 1180,
      "Ġsk": 1181,
      "wood": 1182,
      "path": 1183,
      "any": 1184,
      "SRP": 1185,
      "tn": 1186,
      "ali": 1187,
      "Ġang": 1188,
      "ior": 1189,
      "cht": 1190,
      "ski": 1191,
      "abel": 1192,
      "new": 1193,
      "IV": 1194,
      "DK": 1195,
      "Model": 1196,
      "erk": 1197,
      "Ġop": 1198,
      "ĠSal": 1199,
      "arn": 1200,
      "Test": 1201,
      "da": 1202,
      "anti": 1203,
      "PM": 1204,
      "eep": 1205,
      "uid": 1206,
      "rv": 1207,
      "ional": 1208,
      "rab": 1209,
      "Ġgr": 1210,
      "arch": 1211,
      "ENT": 1212,
      "aan": 1213,
      "ider": 1214,
      "Ġmult": 1215,
      "field": 1216,
      "ript": 1217,
      "board": 1218,
      "Ġuse": 1219,
      "aur": 1220,
      "Ph": 1221,
      "Log": 1222,
      "ulf": 1223,
      "fer": 1224,
      "ection": 1225,
      "iment": 1226,
      "Params": 1227,
      "ts": 1228,
      "ima": 1229,
      "BA": 1230,
      "oad": 1231,
      "ega": 1232,
      "ris": 1233,
      "MC": 1234,
      "udd": 1235,
      "lic": 1236,
      "ĠSp": 1237,
      "GF": 1238,
      "igh": 1239,
      "Ġint": 1240,
      "item": 1241,
      "etail": 1242,
      "erty": 1243,
      "US": 1244,
      "oke": 1245,
      "UM": 1246,
      "cal": 1247,
      "Node": 1248,
      "ible": 1249,
      "Ġdi": 1250,
      "Ġcl": 1251,
      "key": 1252,
      "ĠWil": 1253,
      "Panel": 1254,
      "enu": 1255,
      "ations": 1256,
      "olog": 1257,
      "anth": 1258,
      "OA": 1259,
      "ody": 1260,
      "ync": 1261,
      "by": 1262,
      "Ġout": 1263,
      "acter": 1264,
      "Stat": 1265,
      "kow": 1266,
      "HT": 1267,
      "leg": 1268,
      "At": 1269,
      "Map": 1270,
      "PT": 1271,
      "MD": 1272,
      "akan": 1273,
      "Ġra": 1274,
      "vert": 1275,
      "Bar": 1276,
      "sed": 1277,
      "ores": 1278,
      "emp": 1279,
      "Col": 1280,
      "bra": 1281,
      "oken": 1282,
      "je": 1283,
      "Ġbl": 1284,
      "for": 1285,
      "ĠSw": 1286,
      "ĠCl": 1287,
      "adi": 1288,
      "ĠCo": 1289,
      "CM": 1290,
      "hat": 1291,
      "iem": 1292,
      "Number": 1293,
      "ched": 1294,
      "ita": 1295,
      "mo": 1296,
      "Ġau": 1297,
      "Un": 1298,
      "icul": 1299,
      "Ġol": 1300,
      "date": 1301,
      "Start": 1302,
      "eron": 1303,
      "zy": 1304,
      "aud": 1305,
      "ny": 1306,
      "ethod": 1307,
      "ĠMcC": 1308,
      "atri": 1309,
      "CI": 1310,
      "Ġconv": 1311,
      "Or": 1312,
      "aro": 1313,
      "iri": 1314,
      "Ġmax": 1315,
      "Ġpost": 1316,
      "ils": 1317,
      "Content": 1318,
      "TE": 1319,
      "lin": 1320,
      "aa": 1321,
      "Const": 1322,
      "ercent": 1323,
      "Em": 1324,
      "IB": 1325,
      "onic": 1326,
      "ĠBur": 1327,
      "ument": 1328,
      "ponse": 1329,
      "Width": 1330,
      "ĠBh": 1331,
      "omer": 1332,
      "Ġult": 1333,
      "zt": 1334,
      "rich": 1335,
      "alk": 1336,
      "net": 1337,
      "ook": 1338,
      "aus": 1339,
      "Arg": 1340,
      "ua": 1341,
      "CE": 1342,
      "Block": 1343,
      "Date": 1344,
      "SR": 1345,
      "ms": 1346,
      "eer": 1347,
      "ido": 1348,
      "amente": 1349,
      "Ġtrans": 1350,
      "ero": 1351,
      "ona": 1352,
      "On": 1353,
      "etri": 1354,
      "Line": 1355,
      "hr": 1356,
      "Header": 1357,
      "FA": 1358,
      "ender": 1359,
      "Ġas": 1360,
      "OM": 1361,
      "Star": 1362,
      "ommand": 1363,
      "het": 1364,
      "jsk": 1365,
      "Auto": 1366,
      "Ġinter": 1367,
      "lor": 1368,
      "ĠPal": 1369,
      "its": 1370,
      "ois": 1371,
      "AS": 1372,
      "IR": 1373,
      "win": 1374,
      "Ġvol": 1375,
      "Ġer": 1376,
      "Off": 1377,
      "ative": 1378,
      "read": 1379,
      "Server": 1380,
      "imp": 1381,
      "EL": 1382,
      "Ġpot": 1383,
      "DC": 1384,
      "ialog": 1385,
      "ethyl": 1386,
      "stra": 1387,
      "IF": 1388,
      "essage": 1389,
      "Mode": 1390,
      "Output": 1391,
      "js": 1392,
      "UI": 1393,
      "osh": 1394,
      "de": 1395,
      "db": 1396,
      "utter": 1397,
      "aster": 1398,
      "CL": 1399,
      "Ġsw": 1400,
      "urt": 1401,
      "orth": 1402,
      "xc": 1403,
      "rob": 1404,
      "An": 1405,
      "Menu": 1406,
      "itor": 1407,
      "less": 1408,
      "iles": 1409,
      "aks": 1410,
      "ipp": 1411,
      "Mut": 1412,
      "Ġdec": 1413,
      "acch": 1414,
      "Ġto": 1415,
      "LO": 1416,
      "li": 1417,
      "round": 1418,
      "Ġadd": 1419,
      "ouch": 1420,
      "thor": 1421,
      "erson": 1422,
      "aki": 1423,
      "DB": 1424,
      "Pop": 1425,
      "Ġep": 1426,
      "Ġber": 1427,
      "lex": 1428,
      "Ġtest": 1429,
      "ven": 1430,
      "pen": 1431,
      "lar": 1432,
      "Ġjedn": 1433,
      "uffer": 1434,
      "ocus": 1435,
      "Ġbh": 1436,
      "der": 1437,
      "ycl": 1438,
      "ition": 1439,
      "orph": 1440,
      "icz": 1441,
      "MB": 1442,
      "box": 1443,
      "asi": 1444,
      "esp": 1445,
      "Go": 1446,
      "illa": 1447,
      "Ġsal": 1448,
      "ency": 1449,
      "atan": 1450,
      "ols": 1451,
      "ength": 1452,
      "vi": 1453,
      "Ġdef": 1454,
      "raz": 1455,
      "TA": 1456,
      "PE": 1457,
      "ami": 1458,
      "Ġag": 1459,
      "roph": 1460,
      "zo": 1461,
      "PR": 1462,
      "Url": 1463,
      "arth": 1464,
      "ING": 1465,
      "min": 1466,
      "KA": 1467,
      "edia": 1468,
      "eight": 1469,
      "TC": 1470,
      "ious": 1471,
      "aire": 1472,
      "udent": 1473,
      "ola": 1474,
      "met": 1475,
      "ities": 1476,
      "com": 1477,
      "aul": 1478,
      "Conn": 1479,
      "Nav": 1480,
      "bl": 1481,
      "ĠWh": 1482,
      "econd": 1483,
      "amera": 1484,
      "ault": 1485,
      "Av": 1486,
      "cess": 1487,
      "ymb": 1488,
      "ĠQu": 1489,
      "input": 1490,
      "Dialog": 1491,
      "Ġsm": 1492,
      "Ġsch": 1493,
      "ĠPr": 1494,
      "ĠMah": 1495,
      "Control": 1496,
      "ĠAg": 1497,
      "plic": 1498,
      "SO": 1499,
      "eli": 1500,
      "rey": 1501,
      "ĠDor": 1502,
      "ML": 1503,
      "eld": 1504,
      "well": 1505,
      "rain": 1506,
      "rap": 1507,
      "ca": 1508,
      "Ġrem": 1509,
      "ĠMcG": 1510,
      "Ġoc": 1511,
      "Qu": 1512,
      "amm": 1513,
      "IG": 1514,
      "rum": 1515,
      "Ġpal": 1516,
      "oot": 1517,
      "find": 1518,
      "ebug": 1519,
      "Bit": 1520,
      "ĠCB": 1521,
      "Ġrep": 1522,
      "Ġcurrent": 1523,
      "wa": 1524,
      "ĠKn": 1525,
      "ically": 1526,
      "ias": 1527,
      "onn": 1528,
      "Ġmil": 1529,
      "Resource": 1530,
      "uro": 1531,
      "ope": 1532,
      "raft": 1533,
      "Ġpre": 1534,
      "Response": 1535,
      "Init": 1536,
      "lu": 1537,
      "alle": 1538,
      "nya": 1539,
      "Ġapp": 1540,
      "New": 1541,
      "oi": 1542,
      "ability": 1543,
      "awa": 1544,
      "Ġnew": 1545,
      "ĠEr": 1546,
      "ĠWood": 1547,
      "ove": 1548,
      "Ġdel": 1549,
      "ukan": 1550,
      "FBS": 1551,
      "Buffer": 1552,
      "andle": 1553,
      "anz": 1554,
      "user": 1555,
      "Def": 1556,
      "eral": 1557,
      "ropri": 1558,
      "FBSDK": 1559,
      "Inter": 1560,
      "atis": 1561,
      "ream": 1562,
      "itri": 1563,
      "arget": 1564,
      "uer": 1565,
      "ava": 1566,
      "Focus": 1567,
      "van": 1568,
      "Ġsup": 1569,
      "angan": 1570,
      "Var": 1571,
      "aka": 1572,
      "ji": 1573,
      "Oper": 1574,
      "stein": 1575,
      "ĠApp": 1576,
      "ateg": 1577,
      "vis": 1578,
      "ĠBx": 1579,
      "ift": 1580,
      "imm": 1581,
      "OP": 1582,
      "Change": 1583,
      "SD": 1584,
      "Ġup": 1585,
      "ras": 1586,
      "anh": 1587,
      "apt": 1588,
      "oun": 1589,
      "Select": 1590,
      "ante": 1591,
      "Ġcreate": 1592,
      "rz": 1593,
      "cp": 1594,
      "pring": 1595,
      "acy": 1596,
      "ĠWar": 1597,
      "ever": 1598,
      "Ġmeng": 1599,
      "ĠCor": 1600,
      "ĠPh": 1601,
      "ization": 1602,
      "Ġter": 1603,
      "not": 1604,
      "ific": 1605,
      "ĠBro": 1606,
      "ector": 1607,
      "Client": 1608,
      "akt": 1609,
      "iki": 1610,
      "ila": 1611,
      "ste": 1612,
      "Ġleg": 1613,
      "Rec": 1614,
      "Page": 1615,
      "Message": 1616,
      "from": 1617,
      "AF": 1618,
      "type": 1619,
      "Ġgl": 1620,
      "ĠMan": 1621,
      "DI": 1622,
      "akkh": 1623,
      "Ġo": 1624,
      "aga": 1625,
      "Property": 1626,
      "ĠQx": 1627,
      "data": 1628,
      "Down": 1629,
      "current": 1630,
      "nal": 1631,
      "send": 1632,
      "oul": 1633,
      "TP": 1634,
      "do": 1635,
      "Ġact": 1636,
      "erence": 1637,
      "ges": 1638,
      "Ġinf": 1639,
      "vol": 1640,
      "IO": 1641,
      "alf": 1642,
      "eger": 1643,
      "igg": 1644,
      "cont": 1645,
      "ben": 1646,
      "End": 1647,
      "ster": 1648,
      "ION": 1649,
      "anyl": 1650,
      "isT": 1651,
      "erman": 1652,
      "eda": 1653,
      "ean": 1654,
      "CB": 1655,
      "ula": 1656,
      "AY": 1657,
      "uct": 1658,
      "open": 1659,
      "oma": 1660,
      "Detail": 1661,
      "ander": 1662,
      "gar": 1663,
      "Sw": 1664,
      "stit": 1665,
      "ibus": 1666,
      "ĠBe": 1667,
      "Cell": 1668,
      "aft": 1669,
      "ĠAt": 1670,
      "atha": 1671,
      "Sub": 1672,
      "kin": 1673,
      "ypes": 1674,
      "ersion": 1675,
      "DE": 1676,
      "itch": 1677,
      "cad": 1678,
      "ertex": 1679,
      "andler": 1680,
      "elly": 1681,
      "itth": 1682,
      "ages": 1683,
      "And": 1684,
      "RG": 1685,
      "ko": 1686,
      "arks": 1687,
      "oles": 1688,
      "CD": 1689,
      "tot": 1690,
      "ignment": 1691,
      "Ġev": 1692,
      "rat": 1693,
      "ww": 1694,
      "EM": 1695,
      "ĠVill": 1696,
      "down": 1697,
      "Ġcor": 1698,
      "rin": 1699,
      "ney": 1700,
      "ged": 1701,
      "yan": 1702,
      "ced": 1703,
      "MR": 1704,
      "uel": 1705,
      "ants": 1706,
      "Ġir": 1707,
      "ĠMar": 1708,
      "Ġpor": 1709,
      "sm": 1710,
      "Location": 1711,
      "ĠEn": 1712,
      "inch": 1713,
      "imb": 1714,
      "Web": 1715,
      "start": 1716,
      "older": 1717,
      "Main": 1718,
      "ando": 1719,
      "ico": 1720,
      "Att": 1721,
      "inate": 1722,
      "Ġman": 1723,
      "Ġhem": 1724,
      "Ġpat": 1725,
      "imento": 1726,
      "oder": 1727,
      "odes": 1728,
      "asm": 1729,
      "Null": 1730,
      "Ġend": 1731,
      "PP": 1732,
      "Back": 1733,
      "ues": 1734,
      "ĠAb": 1735,
      "roc": 1736,
      "yte": 1737,
      "ken": 1738,
      "TT": 1739,
      "ttp": 1740,
      "Buf": 1741,
      "nam": 1742,
      "patch": 1743,
      "Link": 1744,
      "oint": 1745,
      "ĠRock": 1746,
      "Dis": 1747,
      "ices": 1748,
      "Spr": 1749,
      "ye": 1750,
      "Ġav": 1751,
      "acc": 1752,
      "Status": 1753,
      "ĠSm": 1754,
      "ova": 1755,
      "Form": 1756,
      "ved": 1757,
      "GC": 1758,
      "icks": 1759,
      "Json": 1760,
      "LU": 1761,
      "Card": 1762,
      "enz": 1763,
      "HP": 1764,
      "ja": 1765,
      "Ġexp": 1766,
      "ĠMcK": 1767,
      "Ġmon": 1768,
      "riff": 1769,
      "ĠMon": 1770,
      "Height": 1771,
      "auc": 1772,
      "uen": 1773,
      "rip": 1774,
      "yth": 1775,
      "fs": 1776,
      "Pref": 1777,
      "earch": 1778,
      "ĠRo": 1779,
      "MN": 1780,
      "Posit": 1781,
      "qual": 1782,
      "Debug": 1783,
      "Rect": 1784,
      "rac": 1785,
      "Ed": 1786,
      "umer": 1787,
      "ĠMcD": 1788,
      "var": 1789,
      "mm": 1790,
      "Ġpay": 1791,
      "ather": 1792,
      "irt": 1793,
      "Ġkn": 1794,
      "stance": 1795,
      "Ġrel": 1796,
      "oft": 1797,
      "Ġne": 1798,
      "Ġip": 1799,
      "ally": 1800,
      "Row": 1801,
      "ella": 1802,
      "ente": 1803,
      "sb": 1804,
      "rif": 1805,
      "mp": 1806,
      "iev": 1807,
      "Ġur": 1808,
      "aps": 1809,
      "name": 1810,
      "etry": 1811,
      "text": 1812,
      "Build": 1813,
      "ĠMad": 1814,
      "ahan": 1815,
      "Ġsol": 1816,
      "Ġut": 1817,
      "oin": 1818,
      "elt": 1819,
      "TL": 1820,
      "Exp": 1821,
      "play": 1822,
      "Ġadj": 1823,
      "Find": 1824,
      "ci": 1825,
      "Ġver": 1826,
      "eta": 1827,
      "omen": 1828,
      "Sync": 1829,
      "point": 1830,
      "ison": 1831,
      "ivity": 1832,
      "awn": 1833,
      "ĠCar": 1834,
      "pty": 1835,
      "adr": 1836,
      "yk": 1837,
      "pond": 1838,
      "lay": 1839,
      "igest": 1840,
      "HDR": 1841,
      "ĠVer": 1842,
      "Ġcons": 1843,
      "itter": 1844,
      "ination": 1845,
      "Open": 1846,
      "eni": 1847,
      "From": 1848,
      "usc": 1849,
      "ĠAng": 1850,
      "ĠRx": 1851,
      "unch": 1852,
      "urb": 1853,
      "aug": 1854,
      "lob": 1855,
      "ted": 1856,
      "inu": 1857,
      "han": 1858,
      "Length": 1859,
      "ĠNew": 1860,
      "eit": 1861,
      "ĠMont": 1862,
      "ader": 1863,
      "getB": 1864,
      "ushed": 1865,
      "Method": 1866,
      "utto": 1867,
      "odel": 1868,
      "UC": 1869,
      "RC": 1870,
      "print": 1871,
      "Dec": 1872,
      "anda": 1873,
      "file": 1874,
      "ape": 1875,
      "chen": 1876,
      "ĠFl": 1877,
      "lection": 1878,
      "agn": 1879,
      "Create": 1880,
      "init": 1881,
      "HA": 1882,
      "ctive": 1883,
      "Ġcur": 1884,
      "Ġes": 1885,
      "Query": 1886,
      "Cho": 1887,
      "idaz": 1888,
      "ĠRed": 1889,
      "Ġnot": 1890,
      "igned": 1891,
      "ville": 1892,
      "Num": 1893,
      "Auth": 1894,
      "ersh": 1895,
      "hou": 1896,
      "ustom": 1897,
      "Ġimm": 1898,
      "iya": 1899,
      "sel": 1900,
      "omot": 1901,
      "lem": 1902,
      "mat": 1903,
      "Student": 1904,
      "md": 1905,
      "Ġprz": 1906,
      "way": 1907,
      "ĠOr": 1908,
      "apter": 1909,
      "Update": 1910,
      "mann": 1911,
      "ĠPar": 1912,
      "ĠUn": 1913,
      "oard": 1914,
      "iver": 1915,
      "eto": 1916,
      "Ġemb": 1917,
      "Ġpart": 1918,
      "ei": 1919,
      "SX": 1920,
      "word": 1921,
      "gu": 1922,
      "raf": 1923,
      "ollow": 1924,
      "des": 1925,
      "xy": 1926,
      "riz": 1927,
      "UL": 1928,
      "room": 1929,
      "auf": 1930,
      "Per": 1931,
      "Ġover": 1932,
      "osa": 1933,
      "Ġoff": 1934,
      "GE": 1935,
      "mi": 1936,
      "LC": 1937,
      "del": 1938,
      "rea": 1939,
      "IST": 1940,
      "cop": 1941,
      "Game": 1942,
      "riter": 1943,
      "ines": 1944,
      "allow": 1945,
      "duct": 1946,
      "VC": 1947,
      "Ġfor": 1948,
      "ĠLor": 1949,
      "ful": 1950,
      "Label": 1951,
      "ĠMart": 1952,
      "roid": 1953,
      "ĠBel": 1954,
      "una": 1955,
      "olo": 1956,
      "Ġann": 1957,
      "eal": 1958,
      "Ġbil": 1959,
      "anch": 1960,
      "draw": 1961,
      "sa": 1962,
      "press": 1963,
      "Token": 1964,
      "ume": 1965,
      "irst": 1966,
      "Ġdem": 1967,
      "under": 1968,
      "ĠHar": 1969,
      "argin": 1970,
      "Asset": 1971,
      "Ġref": 1972,
      "ĠCol": 1973,
      "elles": 1974,
      "TH": 1975,
      "obj": 1976,
      "ellen": 1977,
      "vas": 1978,
      "ribute": 1979,
      "Not": 1980,
      "Sl": 1981,
      "Tool": 1982,
      "eks": 1983,
      "Ġneut": 1984,
      "vers": 1985,
      "DS": 1986,
      "atrix": 1987,
      "Style": 1988,
      "ĠSe": 1989,
      "Attribute": 1990,
      "hav": 1991,
      "counter": 1992,
      "Ġpol": 1993,
      "emia": 1994,
      "Ġspl": 1995,
      "ains": 1996,
      "ende": 1997,
      "unn": 1998,
      "gi": 1999,
      "ides": 2000,
      "color": 2001,
      "ba": 2002,
      "ĠFre": 2003,
      "embre": 2004,
      "Position": 2005,
      "ades": 2006,
      "Ġval": 2007,
      "ulfanyl": 2008,
      "Ġq": 2009,
      "space": 2010,
      "ared": 2011,
      "hel": 2012,
      "Builder": 2013,
      "sulfanyl": 2014,
      "Ġacc": 2015,
      "pie": 2016,
      "sal": 2017,
      "arat": 2018,
      "phen": 2019,
      "Full": 2020,
      "URN": 2021,
      "ense": 2022,
      "ĠEll": 2023,
      "ĠBlack": 2024,
      "len": 2025,
      "lov": 2026,
      "esthet": 2027,
      "Ġhum": 2028,
      "ives": 2029,
      "inst": 2030,
      "vel": 2031,
      "bu": 2032,
      "Cent": 2033,
      "Add": 2034,
      "esi": 2035,
      "perm": 2036,
      "Sprite": 2037,
      "Ġsn": 2038,
      "aat": 2039,
      "GR": 2040,
      "ijk": 2041,
      "onc": 2042,
      "api": 2043,
      "ourn": 2044,
      "ites": 2045,
      "Ġtri": 2046,
      "inding": 2047,
      "ungen": 2048,
      "ceed": 2049,
      "ote": 2050,
      "ents": 2051,
      "eton": 2052,
      "iego": 2053,
      "aires": 2054,
      "onne": 2055,
      "opp": 2056,
      "acute": 2057,
      "Ġfre": 2058,
      "irect": 2059,
      "Components": 2060,
      "ĠMor": 2061,
      "rone": 2062,
      "har": 2063,
      "angk": 2064,
      "Offset": 2065,
      "agen": 2066,
      "rog": 2067,
      "Ġtra": 2068,
      "itar": 2069,
      "enna": 2070,
      "cs": 2071,
      "Vertex": 2072,
      "view": 2073,
      "rie": 2074,
      "bb": 2075,
      "ĠWal": 2076,
      "war": 2077,
      "Now": 2078,
      "Ġcar": 2079,
      "bor": 2080,
      "link": 2081,
      "Th": 2082,
      "ugin": 2083,
      "OC": 2084,
      "prop": 2085,
      "sky": 2086,
      "sis": 2087,
      "aph": 2088,
      "ito": 2089,
      "EG": 2090,
      "test": 2091,
      "class": 2092,
      "Ġwh": 2093,
      "esto": 2094,
      "pton": 2095,
      "arsh": 2096,
      "eller": 2097,
      "itis": 2098,
      "ams": 2099,
      "SF": 2100,
      "Source": 2101,
      "Ġpres": 2102,
      "ucc": 2103,
      "iento": 2104,
      "eil": 2105,
      "iler": 2106,
      "ĠGal": 2107,
      "LP": 2108,
      "pos": 2109,
      "string": 2110,
      "isi": 2111,
      "ries": 2112,
      "ital": 2113,
      "sen": 2114,
      "oom": 2115,
      "ĠRaj": 2116,
      "ĠKe": 2117,
      "ĠMo": 2118,
      "ution": 2119,
      "Ġpret": 2120,
      "Port": 2121,
      "ohn": 2122,
      "ique": 2123,
      "Record": 2124,
      "uring": 2125,
      "Non": 2126,
      "rite": 2127,
      "CR": 2128,
      "ERN": 2129,
      "log": 2130,
      "hn": 2131,
      "Body": 2132,
      "Keys": 2133,
      "so": 2134,
      "Sett": 2135,
      "ĠRUT": 2136,
      "umn": 2137,
      "ranch": 2138,
      "Pos": 2139,
      "ĠUI": 2140,
      "ours": 2141,
      "ĠPol": 2142,
      "hab": 2143,
      "ĠHo": 2144,
      "Ġdist": 2145,
      "aker": 2146,
      "ilt": 2147,
      "Login": 2148,
      "akukan": 2149,
      "ideo": 2150,
      "emy": 2151,
      "El": 2152,
      "Video": 2153,
      "ueue": 2154,
      "inct": 2155,
      "Ġmy": 2156,
      "Marks": 2157,
      "review": 2158,
      "ymbol": 2159,
      "Ġpop": 2160,
      "lig": 2161,
      "eler": 2162,
      "ĠHe": 2163,
      "efont": 2164,
      "ĠGar": 2165,
      "eport": 2166,
      "elli": 2167,
      "Ġhab": 2168,
      "mond": 2169,
      "ocket": 2170,
      "Settings": 2171,
      "eft": 2172,
      "ĠEp": 2173,
      "ocalVar": 2174,
      "gg": 2175,
      "other": 2176,
      "TI": 2177,
      "Ġple": 2178,
      "bert": 2179,
      "page": 2180,
      "Sup": 2181,
      "yo": 2182,
      "atu": 2183,
      "etter": 2184,
      "ĠCav": 2185,
      "zn": 2186,
      "Script": 2187,
      "ahi": 2188,
      "annya": 2189,
      "Sal": 2190,
      "Did": 2191,
      "HL": 2192,
      "itle": 2193,
      "big": 2194,
      "ingen": 2195,
      "cher": 2196,
      "rel": 2197,
      "TO": 2198,
      "vo": 2199,
      "ĠCro": 2200,
      "uda": 2201,
      "Ġsur": 2202,
      "Screen": 2203,
      "Player": 2204,
      "Temp": 2205,
      "Ġmel": 2206,
      "ĠCont": 2207,
      "Rad": 2208,
      "FS": 2209,
      "ves": 2210,
      "Counter": 2211,
      "lich": 2212,
      "eston": 2213,
      "eva": 2214,
      "Types": 2215,
[...]
