{
  "version": "1.0",
  "truncation": null,
  "padding": null,
  "added_tokens": [
    {
      "id": 1909,
      "content": "<UNK>",
      "single_word": false,
      "lstrip": false,
      "rstrip": false,
      "normalized": true,
      "special": true
    },
    {
      "id": 1910,
      "content": "<｜end▁of▁sentence｜>",
      "single_word": false,
      "lstrip": false,
      "rstrip": false,
      "normalized": true,
      "special": true
    },
    {
      "id": 1911,
      "content": "<｜pad｜>",
      "single_word": false,
      "lstrip": false,
      "rstrip": false,
      "normalized": true,
      "special": true
    },
    {
      "id": 1912,
      "content": "<｜begin▁of▁sentence｜>",
      "single_word": false,
      "lstrip": false,
      "rstrip": false,
      "normalized": true,
      "special": true
    }
  ],
  "normalizer": {
    "type": "Sequence",
    "normalizers": []
  },
  "pre_tokenizer": {
    "type": "Sequence",
    "pretokenizers": [
      {
        "type": "Split",
        "pattern": {
          "Regex": "[\\r\\n]"
        },
        "behavior": "Isolated",
        "invert": false
      },
      {
        "type": "Split",
        "pattern": {
          "Regex": "\\s?[A-Za-zµÀ-ÖØ-öø-ƺƼ-ƿǄ-ʓʕ-ʯͰ-ͳͶͷͻ-ͽͿΆΈ-ΊΌΎ-ΡΣ-ϵϷ-ҁҊ-ԯԱ-ՖႠ-ჅᎠ-Ᏽᏸ-ᏽᲐ-ᲺᲽ-Ჿᴀ-ᴫᵫ-ᵷᵹ-ᶚḀ-ἕἘ-Ἕἠ-ὅὈ-Ὅὐ-ὗὙὛὝὟ-ώᾀ-ᾴᾶ-ᾼιῂ-ῄῆ-ῌῐ-ΐῖ-Ίῠ-Ῥῲ-ῴῶ-ῼℂℇℊ-ℓℕℙ-ℝℤΩℨK-ℭℯ-ℴℹℼ-ℿⅅ-ⅉⅎↃↄⰀ-ⱻⱾ-ⳤⳫ-ⳮⳲⳳꙀ-ꙭꚀ-ꚛꜢ-ꝯꝱ-ꞇꞋ-ꞎꭰ-ꮿﬀ-ﬆﬓ-ﬗＡ-Ｚａ-ｚ𐐀-𐑏𐒰-𐓓𐓘-𐓻𐲀-𐲲𐳀-𐳲𑢠-𑣟𞤀-𞥃]+"
        },
        "behavior": "Isolated",
        "invert": false
      },
      {
        "type": "Split",
        "pattern": {
          "Regex": "\\s?[!-/:-~！-／：-～‘-‟　-。]+"
        },
        "behavior": "Isolated",
        "invert": false
      },
      {
        "type": "Split",
        "pattern": {
          "Regex": "\\s+$"
        },
        "behavior": "Isolated",
        "invert": false
      },
      {
        "type": "Split",
        "pattern": {
          "Regex": "[一-龥ࠀ-一가-퟿]+"
        },
        "behavior": "Isolated",
        "invert": false
      },
      {
        "type": "Digits",
        "individual_digits": true
      },
      {
        "type": "ByteLevel",
        "add_prefix_space": false,
        "trim_offsets": true,
        "use_regex": false
      }
    ]
  },
  "post_processor": {
    "type": "ByteLevel",
    "add_prefix_space": true,
    "trim_offsets": false,
    "use_regex": true
  },
  "decoder": {
    "type": "ByteLevel",
    "add_prefix_space": true,
    "trim_offsets": true,
    "use_regex": true
  },
  "model": {
    "type": "BPE",
    "dropout": null,
    "unk_token": "<UNK>",
    "continuing_subword_prefix": null,
    "end_of_word_suffix": null,
    "fuse_unk": false,
    "byte_fallback": false,
    "ignore_merges": false,
    "bMax_frequency": true,
    "max_frequency": 63649887,
    "vocab": {
      "ĠHod": 0,
      "command": 1,
      "imura": 2,
      "Ġher": 3,
      "DBOutput": 4,
      "Ġcal": 5,
      "river": 6,
      "akam": 7,
      "Ġprec": 8,
      "Mapping": 9,
      "rizz": 10,
      "arts": 11,
      "ongs": 12,
      "ategory": 13,
      "dal": 14,
      "ummy": 15,
      "ĠInd": 16,
      "ivers": 17,
      "Values": 18,
      "Ġu": 19,
      "ĠMcKin": 20,
      "Ġtop": 21,
      "aty": 22,
      "amom": 23,
      "Max": 24,
      "itu": 25,
      "ifier": 26,
      "arshal": 27,
      "exual": 28,
      "ugo": 29,
      "oxic": 30,
      "EO": 31,
      "estruct": 32,
      "ĠLour": 33,
      "slide": 34,
      "BitCount": 35,
      "Ġodb": 36,
      "mic": 37,
      "ĠDomin": 38,
      "uration": 39,
      "atal": 40,
      "Ġdisc": 41,
      "estro": 42,
      "Ġsadd": 43,
      "Findings": 44,
      "idu": 45,
      "ying": 46,
      "ateMutability": 47,
      "ously": 48,
      "eps": 49,
      "ĠGod": 50,
      "ardin": 51,
      "Ġaut": 52,
      "ByURL": 53,
      "ĠSa": 54,
      "Ġausten": 55,
      "ĠMend": 56,
      "amanam": 57,
      "edRight": 58,
      "Ġit": 59,
      "ĠLev": 60,
      "aking": 61,
      "hang": 62,
      "setF": 63,
      "border": 64,
      "Ok": 65,
      "Ġprimary": 66,
      "phrine": 67,
      "Ġselect": 68,
      "Ġiz": 69,
      "dev": 70,
      "zhou": 71,
      "ĠSlov": 72,
      "ĠAri": 73,
      "ature": 74,
      "Ġtuberc": 75,
      "Bib": 76,
      "uncul": 77,
      "ected": 78,
      "este": 79,
      "ariant": 80,
      "Ġnam": 81,
      "ATE": 82,
      "Ant": 83,
      "iesz": 84,
      "iga": 85,
      "Listener": 86,
      "assing": 87,
      "ĠEnd": 88,
      "methyl": 89,
      "mak": 90,
      "uent": 91,
      "egan": 92,
      "Nam": 93,
      "uje": 94,
      "ĠGust": 95,
      "Ġflav": 96,
      "aldehyde": 97,
      "ĠBos": 98,
      "Rew": 99,
      "Ġkon": 100,
      "rained": 101,
      "abin": 102,
      "iao": 103,
      "Ġbit": 104,
      "ĠNor": 105,
      "elia": 106,
      "hatt": 107,
      "ĠServ": 108,
      "aq": 109,
      "Delete": 110,
      "olan": 111,
      "Ġbes": 112,
      "spec": 113,
      "UND": 114,
      "hut": 115,
      "Ġpinch": 116,
      "atholic": 117,
      "Mat": 118,
      "iance": 119,
      "Ġpri": 120,
      "ĠSil": 121,
      "findBy": 122,
      "ĠSomers": 123,
      "calright": 124,
      "erken": 125,
      "Preference": 126,
      "dPar": 127,
      "flow": 128,
      "ibility": 129,
      "oza": 130,
      "BUR": 131,
      "anas": 132,
      "ĠGen": 133,
      "ĠObject": 134,
      "overe": 135,
      "Ġhomot": 136,
      "eff": 137,
      "mooth": 138,
      "alBlock": 139,
      "uzz": 140,
      "Guid": 141,
      "Ġnek": 142,
      "utan": 143,
      "election": 144,
      "cell": 145,
      "resc": 146,
      "Fields": 147,
      "unci": 148,
      "ĠNo": 149,
      "getR": 150,
      "Selection": 151,
      "arik": 152,
      "adow": 153,
      "arkar": 154,
      "aily": 155,
      "STR": 156,
      "inger": 157,
      "Ġfont": 158,
      "Ġdiff": 159,
      "qt": 160,
      "utta": 161,
      "Ġdek": 162,
      "empor": 163,
      "kes": 164,
      "ymp": 165,
      "cation": 166,
      "sem": 167,
      "Visual": 168,
      "rival": 169,
      "ird": 170,
      "Ġparl": 171,
      "abc": 172,
      "ITH": 173,
      "ĠIP": 174,
      "Ġunb": 175,
      "ĠEhn": 176,
      "ĠEhnerg": 177,
      "rident": 178,
      "ĠSyl": 179,
      "esti": 180,
      "oving": 181,
      "ĠData": 182,
      "eled": 183,
      "ĠPack": 184,
      "wyn": 185,
      "yar": 186,
      "ĠDer": 187,
      "Ġexceed": 188,
      "thal": 189,
      "Ġgo": 190,
      "ueva": 191,
      "enda": 192,
      "idal": 193,
      "mn": 194,
      "Pen": 195,
      "nail": 196,
      "nique": 197,
      "Password": 198,
      "ored": 199,
      "ointer": 200,
      "ĠRam": 201,
      "hole": 202,
      "LOT": 203,
      "enberg": 204,
      "Unique": 205,
      "CV": 206,
      "Picker": 207,
      "ulu": 208,
      "VR": 209,
      "ensch": 210,
      "FieldContext": 211,
      "owied": 212,
      "ollo": 213,
      "issions": 214,
      "Owner": 215,
      "thel": 216,
      "Okno": 217,
      "ORN": 218,
      "Ġthrom": 219,
      "ĠDon": 220,
      "ĠHan": 221,
      "build": 222,
      "Ġaug": 223,
      "etty": 224,
      "ylate": 225,
      "Ġline": 226,
      "eca": 227,
      "ĠTim": 228,
      "Ġcheck": 229,
      "lg": 230,
      "Ġnucle": 231,
      "vey": 232,
      "wd": 233,
      "hl": 234,
      "gh": 235,
      "acher": 236,
      "ibul": 237,
      "ahon": 238,
      "assel": 239,
      "Ġprob": 240,
      "ceptron": 241,
      "noc": 242,
      "ĠMcGu": 243,
      "Ġps": 244,
      "non": 245,
      "orbid": 246,
      "ĠNau": 247,
      "ĠLob": 248,
      "agy": 249,
      "Ġtend": 250,
      "Cycle": 251,
      "Ġsoft": 252,
      "Spec": 253,
      "EF": 254,
      "Ġanth": 255,
      "Ġcap": 256,
      "ondition": 257,
      "Ġhandle": 258,
      "akespeare": 259,
      "oration": 260,
      "dec": 261,
      "ogn": 262,
      "ĠBru": 263,
      "chester": 264,
      "atherm": 265,
      "args": 266,
      "json": 267,
      "handle": 268,
      "ĠGold": 269,
      "ĠSn": 270,
      "arca": 271,
      "Ġstock": 272,
      "jac": 273,
      "HE": 274,
      "bro": 275,
      "ĠNe": 276,
      "erea": 277,
      "orod": 278,
      "assert": 279,
      "Ġguz": 280,
      "uden": 281,
      "Ġpron": 282,
      "ĠdSample": 283,
      "Selector": 284,
      "acles": 285,
      "BD": 286,
      "next": 287,
      "adas": 288,
      "No": 289,
      "Te": 290,
      "valid": 291,
      "asmim": 292,
      "rivalTime": 293,
      "Order": 294,
      "Ġprof": 295,
      "igen": 296,
      "heel": 297,
      "lid": 298,
      "ĠKar": 299,
      "plication": 300,
      "Ġmal": 301,
      "Display": 302,
      "BinBuf": 303,
      "ahin": 304,
      "attha": 305,
      "itre": 306,
      "cpHeader": 307,
      "slate": 308,
      "Ġuser": 309,
      "Ġaw": 310,
      "ban": 311,
      "eln": 312,
      "eo": 313,
      "Ġdigest": 314,
      "ĠCom": 315,
      "Condition": 316,
      "thorace": 317,
      "used": 318,
      "uted": 319,
      "ught": 320,
      "ican": 321,
      "icher": 322,
      "ims": 323,
      "agi": 324,
      "aid": 325,
      "action": 326,
      "bin": 327,
      "Ġstri": 328,
      "MVC": 329,
      "epo": 330,
      "occo": 331,
      "swire": 332,
      "Ġsig": 333,
      "aldo": 334,
      "ĠDav": 335,
      "ĠBag": 336,
      "astic": 337,
      "bi": 338,
      "ĠDun": 339,
      "ozz": 340,
      "Ġist": 341,
      "ĠImm": 342,
      "xim": 343,
      "haman": 344,
      "ĠBis": 345,
      "oda": 346,
      "Penis": 347,
      "ERS": 348,
      "ĠSy": 349,
      "anguage": 350,
      "aux": 351,
      "BURTS": 352,
      "addington": 353,
      "foreground": 354,
      "marshal": 355,
      "Ġung": 356,
      "pre": 357,
      "Ġpon": 358,
      "tik": 359,
      "Accept": 360,
      "ecode": 361,
      "Ġwav": 362,
      "Ġform": 363,
      "ustomer": 364,
      "dom": 365,
      "arp": 366,
      "ĠRen": 367,
      "tf": 368,
      "uba": 369,
      "Ġpartur": 370,
      "Ġadh": 371,
      "Proxy": 372,
      "iquid": 373,
      "erche": 374,
      "MO": 375,
      "eming": 376,
      "info": 377,
      "ewise": 378,
      "ĠText": 379,
      "ided": 380,
      "enumer": 381,
      "Ġtet": 382,
      "oper": 383,
      "adig": 384,
      "eronica": 385,
      "omon": 386,
      "vid": 387,
      "JSON": 388,
      "VCTarget": 389,
      "ieben": 390,
      "inds": 391,
      "irs": 392,
      "izer": 393,
      "furt": 394,
      "lass": 395,
      "Ġanesthet": 396,
      "hib": 397,
      "ĠReich": 398,
      "afa": 399,
      "rave": 400,
      "bracket": 401,
      "ku": 402,
      "ĠPrit": 403,
      "ulpt": 404,
      "riend": 405,
      "Ġsmear": 406,
      "leps": 407,
      "usses": 408,
      "ares": 409,
      "braith": 410,
      "select": 411,
      "vationMap": 412,
      "eas": 413,
      "Pr": 414,
      "ĠMcGr": 415,
      "alde": 416,
      "inz": 417,
      "olut": 418,
      "lyPlugin": 419,
      "Ġri": 420,
      "wait": 421,
      "model": 422,
      "oso": 423,
      "astian": 424,
      "ĠInt": 425,
      "Options": 426,
      "ipal": 427,
      "odnik": 428,
      "span": 429,
      "ĠAF": 430,
      "oring": 431,
      "pg": 432,
      "Face": 433,
      "Ġvolt": 434,
      "recht": 435,
      "epin": 436,
      "ECT": 437,
      "opic": 438,
      "obec": 439,
      "ritz": 440,
      "ĠRoan": 441,
      "Ġnum": 442,
      "Theme": 443,
      "thar": 444,
      "Dep": 445,
      "recl": 446,
      "CU": 447,
      "ables": 448,
      "LL": 449,
      "ĠPand": 450,
      "illian": 451,
      "Math": 452,
      "Ġlymph": 453,
      "ply": 454,
      "inander": 455,
      "cm": 456,
      "mid": 457,
      "reten": 458,
      "Ġfauc": 459,
      "FO": 460,
      "itro": 461,
      "Enum": 462,
      "adani": 463,
      "Ġug": 464,
      "eiro": 465,
      "utor": 466,
      "idunt": 467,
      "rm": 468,
      "anis": 469,
      "isting": 470,
      "ICK": 471,
      "scale": 472,
      "yz": 473,
      "ĠPic": 474,
      "enko": 475,
      "Bad": 476,
      "ĠAT": 477,
      "athy": 478,
      "ĠHait": 479,
      "ICAL": 480,
      "Cle": 481,
      "ĠRUTARE": 482,
      "ĠSales": 483,
      "Ins": 484,
      "ingan": 485,
      "Ġmenjal": 486,
      "ige": 487,
      "VID": 488,
      "Long": 489,
      "ĠBST": 490,
      "ĠNST": 491,
      "return": 492,
      "Ġmont": 493,
      "inia": 494,
      "Ġphotoc": 495,
      "Ġmart": 496,
      "zej": 497,
      "nest": 498,
      "VIC": 499,
      "Ġperj": 500,
      "lyph": 501,
      "ĠSey": 502,
      "ocz": 503,
      "Ġcard": 504,
      "apkan": 505,
      "Active": 506,
      "Ġunt": 507,
      "irc": 508,
      "INE": 509,
      "apar": 510,
      "Ġdeg": 511,
      "ecz": 512,
      "Ġdiv": 513,
      "Ġkahel": 514,
      "ollision": 515,
      "warl": 516,
      "ened": 517,
      "acer": 518,
      "Collision": 519,
      "OSS": 520,
      "Construct": 521,
      "mington": 522,
      "weatherm": 523,
      "ĠHerm": 524,
      "KR": 525,
      "GFS": 526,
      "ĠVerd": 527,
      "Ġback": 528,
      "ĠWarwick": 529,
      "ĠGerr": 530,
      "ocyan": 531,
      "DialogOpen": 532,
      "Art": 533,
      "Integer": 534,
      "ety": 535,
      "obacter": 536,
      "append": 537,
      "ments": 538,
      "orld": 539,
      "usive": 540,
      "amer": 541,
      "hin": 542,
      "vonne": 543,
      "Ġvedit": 544,
      "ITT": 545,
      "ojo": 546,
      "ĠTol": 547,
      "uts": 548,
      "Ġrib": 549,
      "olyb": 550,
      "Ġview": 551,
      "ycler": 552,
      "ĠDev": 553,
      "ĠCur": 554,
      "ublicKey": 555,
      "omn": 556,
      "brado": 557,
      "Mutex": 558,
      "Ġsat": 559,
      "Ġhe": 560,
      "nung": 561,
      "yne": 562,
      "olytic": 563,
      "Extens": 564,
      "Days": 565,
      "oding": 566,
      "ĠNich": 567,
      "Ġplead": 568,
      "NonUser": 569,
      "MBT": 570,
      "aine": 571,
      "ĠVillar": 572,
      "idas": 573,
      "Modal": 574,
      "inas": 575,
      "onuclear": 576,
      "anal": 577,
      "ounc": 578,
      "CON": 579,
      "azz": 580,
      "ns": 581,
      "ĠHert": 582,
      "ourg": 583,
      "ĠRet": 584,
      "property": 585,
      "here": 586,
      "ovi": 587,
      "UV": 588,
      "Ġot": 589,
      "Ġsag": 590,
      "ynth": 591,
      "Ġerg": 592,
      "UVW": 593,
      "ancy": 594,
      "Ġvolupt": 595,
      "ĠChron": 596,
      "esso": 597,
      "nalia": 598,
      "ĠMich": 599,
      "Ġng": 600,
      "jee": 601,
      "child": 602,
      "atat": 603,
      "ocalObject": 604,
      "issense": 605,
      "ORD": 606,
      "wall": 607,
      "Ġbland": 608,
      "Ġpunct": 609,
      "aina": 610,
      "ĠNA": 611,
      "owski": 612,
      "oughton": 613,
      "irectory": 614,
      "itoneal": 615,
      "ĠMiy": 616,
      "aje": 617,
      "jiwarl": 618,
      "umberland": 619,
      "bark": 620,
      "token": 621,
      "ĠgetDate": 622,
      "uster": 623,
      "Ġho": 624,
      "erog": 625,
      "Ġdess": 626,
      "ĠCap": 627,
      "ĠBhag": 628,
      "anje": 629,
      "Ġsb": 630,
      "ĠMin": 631,
      "obic": 632,
      "toch": 633,
      "Letter": 634,
      "thur": 635,
      "ĠCant": 636,
      "akar": 637,
      "ĠCal": 638,
      "aught": 639,
      "ParamNum": 640,
      "ortal": 641,
      "YAN": 642,
      "double": 643,
      "ĠDord": 644,
      "eri": 645,
      "Part": 646,
      "Files": 647,
      "enean": 648,
      "ringe": 649,
      "ĠFo": 650,
      "urul": 651,
      "gress": 652,
      "Ġspray": 653,
      "loria": 654,
      "untamento": 655,
      "ĠAs": 656,
      "ĠMN": 657,
      "ĠIng": 658,
      "UniqueID": 659,
      "Async": 660,
      "Ġok": 661,
      "unay": 662,
      "arras": 663,
      "multi": 664,
      "pat": 665,
      "Ġcul": 666,
      "etti": 667,
      "was": 668,
      "ullie": 669,
      "Ġpen": 670,
      "ĠVillan": 671,
      "ession": 672,
      "Ġhor": 673,
      "CharCode": 674,
      "permal": 675,
      "Store": 676,
      "Ġfort": 677,
      "ieter": 678,
      "quest": 679,
      "Ġadjourn": 680,
      "Ġsph": 681,
      "Ġchamp": 682,
      "ĠChong": 683,
      "Strip": 684,
      "akath": 685,
      "ĠSql": 686,
      "hile": 687,
      "Mesh": 688,
      "alph": 689,
      "Ġmut": 690,
      "ancho": 691,
      "ĠBelle": 692,
      "ĠBellev": 693,
      "asuk": 694,
      "ĠGunn": 695,
      "oauth": 696,
      "Reader": 697,
      "esc": 698,
      "Keep": 699,
      "Cube": 700,
      "ymplectic": 701,
      "CubeSize": 702,
      "prot": 703,
      "ycin": 704,
      "reas": 705,
      "Ġold": 706,
      "Ġquin": 707,
      "attoo": 708,
      "gramModel": 709,
      "ourier": 710,
      "ubro": 711,
      "dig": 712,
      "pec": 713,
      "ousel": 714,
      "yak": 715,
      "ĠBow": 716,
      "vec": 717,
      "ront": 718,
      "kut": 719,
      "ymi": 720,
      "Media": 721,
      "ĠGood": 722,
      "ker": 723,
      "Spawn": 724,
      "ayashi": 725,
      "etering": 726,
      "Ġsv": 727,
      "gou": 728,
      "iw": 729,
      "ories": 730,
      "paths": 731,
      "Xpaths": 732,
      "adt": 733,
      "Ġvad": 734,
      "Ġplayer": 735,
      "ieurs": 736,
      "erce": 737,
      "tree": 738,
      "apur": 739,
      "Ġwax": 740,
      "full": 741,
      "StarSXml": 742,
      "qttr": 743,
      "coni": 744,
      "Servlet": 745,
      "Ġak": 746,
      "ĠNad": 747,
      "Choose": 748,
      "ĠKra": 749,
      "ruz": 750,
      "DBG": 751,
      "ATION": 752,
      "ĠBhagav": 753,
      "pay": 754,
      "aver": 755,
      "enner": 756,
      "jav": 757,
      "OUG": 758,
      "ismar": 759,
      "aucer": 760,
      "WT": 761,
      "estown": 762,
      "acanam": 763,
      "adiene": 764,
      "ostrum": 765,
      "Move": 766,
      "utable": 767,
      "ĠAngel": 768,
      "Has": 769,
      "ssex": 770,
      "aked": 771,
      "inity": 772,
      "wer": 773,
      "ĠHil": 774,
      "ifolds": 775,
      "ĠSam": 776,
      "Ġhal": 777,
      "rout": 778,
      "LM": 779,
      "ĠSylv": 780,
      "atz": 781,
      "ĠChrist": 782,
      "oten": 783,
      "lc": 784,
      "ĠHen": 785,
      "ately": 786,
      "ĠRCL": 787,
      "ĠNav": 788,
      "exus": 789,
      "ĠGren": 790,
      "Ġlo": 791,
      "ĠSad": 792,
      "encia": 793,
      "ittam": 794,
      "LogRow": 795,
      "Ġproced": 796,
      "abat": 797,
      "izz": 798,
      "aunch": 799,
      "tri": 800,
      "ĠEuc": 801,
      "urst": 802,
      "azy": 803,
      "onyl": 804,
      "Writer": 805,
      "aise": 806,
      "cha": 807,
      "ĠRUD": 808,
      "Ġprinc": 809,
      "MainNav": 810,
      "esch": 811,
      "yles": 812,
      "etric": 813,
      "apet": 814,
      "ĠEdmond": 815,
      "ĠLo": 816,
      "Fold": 817,
      "ĠDur": 818,
      "Ġlepton": 819,
      "ĠHab": 820,
      "ĠDeep": 821,
      "ahang": 822,
      "ranche": 823,
      "Sec": 824,
      "URNIZ": 825,
      "Ġgew": 826,
      "ady": 827,
      "umbnail": 828,
      "ogs": 829,
      "yw": 830,
      "andt": 831,
      "ynch": 832,
      "idean": 833,
      "Ġequ": 834,
      "instr": 835,
      "ĠStafford": 836,
      "instrList": 837,
      "ropy": 838,
      "ĠCons": 839,
      "ripper": 840,
      "MDA": 841,
      "ithdraw": 842,
      "ards": 843,
      "ota": 844,
      "sum": 845,
      "illColor": 846,
      "ĠJordan": 847,
      "ĠPer": 848,
      "Preferred": 849,
      "ansing": 850,
      "ĠGuil": 851,
      "ApiPath": 852,
      "CharArray": 853,
      "Muc": 854,
      "endale": 855,
      "Inset": 856,
      "Ġfur": 857,
      "inho": 858,
      "Ġparthen": 859,
      "Ġcro": 860,
      "ancell": 861,
      "arrow": 862,
      "iale": 863,
      "tochrome": 864,
      "seur": 865,
      "olare": 866,
      "herent": 867,
      "Min": 868,
      "skii": 869,
      "eq": 870,
      "rait": 871,
      "Mar": 872,
      "Ġpower": 873,
      "ĠPop": 874,
      "Sdk": 875,
      "olves": 876,
      "arantad": 877,
      "irg": 878,
      "QR": 879,
      "ĠHick": 880,
      "detail": 881,
      "Ġfield": 882,
      "abic": 883,
      "innie": 884,
      "ĠDar": 885,
      "ppo": 886,
      "GM": 887,
      "zan": 888,
      "emon": 889,
      "isR": 890,
      "ĠPrab": 891,
      "asan": 892,
      "Glare": 893,
      "ĠMerr": 894,
      "lens": 895,
      "tres": 896,
      "AU": 897,
      "cer": 898,
      "oslav": 899,
      "Ald": 900,
      "unted": 901,
      "Arr": 902,
      "Bibitem": 903,
      "itable": 904,
      "ĠPa": 905,
      "nst": 906,
      "Ġfra": 907,
      "Ġuns": 908,
      "egi": 909,
      "sent": 910,
      "Ġec": 911,
      "OrderFlight": 912,
      "ĠWor": 913,
      "ĠNiet": 914,
      "Ġuit": 915,
      "Security": 916,
      "ĠJoh": 917,
      "ĠOut": 918,
      "ridge": 919,
      "addassa": 920,
      "andan": 921,
      "auff": 922,
      "ĠTr": 923,
      "illing": 924,
      "GoObject": 925,
      "Default": 926,
      "Seconds": 927,
      "Ġtok": 928,
      "Foldout": 929,
      "ichen": 930,
      "ĠHel": 931,
      "Encoder": 932,
      "tain": 933,
      "Ġvan": 934,
      "Ġinfl": 935,
      "ĠRey": 936,
      "ĠFern": 937,
      "Ġunw": 938,
      "tti": 939,
      "lytres": 940,
      "emi": 941,
      "ĠPey": 942,
      "waard": 943,
      "ariable": 944,
      "ingu": 945,
      "ignore": 946,
      "ema": 947,
      "Ġhy": 948,
      "Ġfac": 949,
      "ĠList": 950,
      "oton": 951,
      "ridLayout": 952,
      "lik": 953,
      "Ġbed": 954,
      "ĠDel": 955,
      "ĠBeck": 956,
      "Ġcall": 957,
      "rvats": 958,
      "icular": 959,
      "show": 960,
      "ĠLaksh": 961,
      "convol": 962,
      "onian": 963,
      "ĠCarl": 964,
      "iales": 965,
      "AutoScale": 966,
      "sprech": 967,
      "Ġchem": 968,
      "ipher": 969,
      "ĠCorb": 970,
      "ocs": 971,
      "into": 972,
      "ardo": 973,
      "awar": 974,
      "ĠMidd": 975,
      "ived": 976,
      "ĠAcc": 977,
      "ĠPDP": 978,
      "ĠActive": 979,
      "iping": 980,
      "atches": 981,
      "nab": 982,
      "houette": 983,
      "ĠGog": 984,
      "ĠUly": 985,
      "ĠAS": 986,
      "xin": 987,
      "ĠMats": 988,
      "entz": 989,
      "ends": 990,
      "Custom": 991,
      "VA": 992,
      "Fil": 993,
      "phalodes": 994,
      "ĠEle": 995,
      "Grad": 996,
      "ĠKier": 997,
      "ranian": 998,
      "olg": 999,
      "riendo": 1000,
      "ufen": 1001,
      "ĠLorentz": 1002,
      "ifer": 1003,
      "asey": 1004,
      "Danh": 1005,
      "aused": 1006,
      "ips": 1007,
      "DanhMuc": 1008,
      "ismarck": 1009,
      "Ġrun": 1010,
      "zet": 1011,
      "uri": 1012,
      "Ġwyk": 1013,
      "DO": 1014,
      "PTV": 1015,
      "estin": 1016,
      "Ġalle": 1017,
      "titor": 1018,
      "ucid": 1019,
      "Ġforb": 1020,
      "nash": 1021,
      "Ġyoj": 1022,
      "mac": 1023,
      "rogen": 1024,
      "Ġlegal": 1025,
      "Ġtart": 1026,
      "ĠCCS": 1027,
      "urp": 1028,
      "Animation": 1029,
      "Ġiccad": 1030,
      "vrd": 1031,
      "unov": 1032,
      "constra": 1033,
      "dn": 1034,
      "uncan": 1035,
      "constraint": 1036,
      "Ġdesp": 1037,
      "atthav": 1038,
      "rystall": 1039,
      "Ġdisorder": 1040,
      "hold": 1041,
      "irra": 1042,
      "iggins": 1043,
      "Antae": 1044,
      "First": 1045,
      "Ġdred": 1046,
      "Ary": 1047,
      "iliated": 1048,
      "tone": 1049,
      "arking": 1050,
      "rial": 1051,
      "irtual": 1052,
      "smith": 1053,
      "isia": 1054,
      "Ġlist": 1055,
      "uatu": 1056,
      "ĠPlast": 1057,
      "ĠTul": 1058,
      "eland": 1059,
      "isa": 1060,
      "btn": 1061,
      "process": 1062,
      "artz": 1063,
      "heed": 1064,
      "Lint": 1065,
      "getString": 1066,
      "Exists": 1067,
      "Clr": 1068,
      "Ġpok": 1069,
      "Ġof": 1070,
      "ĠEver": 1071,
      "kov": 1072,
      "ĠMag": 1073,
      "rer": 1074,
      "dy": 1075,
      "QAry": 1076,
      "ĠVan": 1077,
      "ĠConstant": 1078,
      "ocr": 1079,
      "StateToProps": 1080,
      "ucker": 1081,
      "ylic": 1082,
      "onal": 1083,
      "Ġey": 1084,
      "leton": 1085,
      "toL": 1086,
      "index": 1087,
      "engk": 1088,
      "amin": 1089,
      "Title": 1090,
      "oter": 1091,
      "ikkh": 1092,
      "Ġcustom": 1093,
      "ĠDra": 1094,
      "ĠId": 1095,
      "ĠMed": 1096,
      "Ġton": 1097,
      "arma": 1098,
      "ounce": 1099,
      "NO": 1100,
      "ĠLomb": 1101,
      "ĠWolver": 1102,
      "ĠMcF": 1103,
      "asser": 1104,
      "Ġsab": 1105,
      "Ġmaneu": 1106,
      "Plus": 1107,
      "Ġchew": 1108,
      "Ġunim": 1109,
      "Ġhotsp": 1110,
      "DER": 1111,
      "XR": 1112,
      "ember": 1113,
      "erview": 1114,
      "ENC": 1115,
      "empl": 1116,
      "Ġdib": 1117,
      "urch": 1118,
      "ipped": 1119,
      "igence": 1120,
      "rung": 1121,
      "ipboard": 1122,
      "ĠSar": 1123,
      "ractor": 1124,
      "enian": 1125,
      "avor": 1126,
      "awatts": 1127,
      "ĠGra": 1128,
      "ĠShel": 1129,
      "orage": 1130,
      "ĠWest": 1131,
      "Ġdisappe": 1132,
      "ioc": 1133,
      "ished": 1134,
      "ielding": 1135,
      "otherap": 1136,
      "Ġrut": 1137,
      "acak": 1138,
      "ayette": 1139,
      "Ġbif": 1140,
      "abled": 1141,
      "ĠAlb": 1142,
      "Ver": 1143,
      "itya": 1144,
      "iu": 1145,
      "DKEY": 1146,
      "onese": 1147,
      "ExpNow": 1148,
      "Ġswe": 1149,
      "anos": 1150,
      "rough": 1151,
      "beit": 1152,
      "urkish": 1153,
      "agher": 1154,
      "chym": 1155,
      "ynucleaires": 1156,
      "usen": 1157,
      "emes": 1158,
      "Bsky": 1159,
      "lysis": 1160,
      "ĠBrook": 1161,
      "aal": 1162,
      "xt": 1163,
      "arkan": 1164,
      "ĠVol": 1165,
      "ires": 1166,
      "Ġbhikkh": 1167,
      "Ġemanc": 1168,
      "Cart": 1169,
      "arif": 1170,
      "ashing": 1171,
      "asta": 1172,
      "ailles": 1173,
      "illet": 1174,
      "wm": 1175,
      "rony": 1176,
      "TING": 1177,
      "Ġbu": 1178,
      "lobulin": 1179,
      "ryn": 1180,
      "Ġtab": 1181,
      "serv": 1182,
      "NAM": 1183,
      "PlusEvents": 1184,
      "Criter": 1185,
      "Ġtant": 1186,
      "ĠWord": 1187,
      "Ġullam": 1188,
      "ophen": 1189,
      "Ġauth": 1190,
      "lier": 1191,
      "Ġzoom": 1192,
      "inos": 1193,
      "ĠMil": 1194,
      "getMain": 1195,
      "IUN": 1196,
      "Ġbel": 1197,
      "ords": 1198,
      "rick": 1199,
      "graph": 1200,
      "inca": 1201,
      "ĠKeat": 1202,
      "ydraul": 1203,
      "Acc": 1204,
      "ĠPry": 1205,
      "uku": 1206,
      "ĠCly": 1207,
      "popup": 1208,
      "vc": 1209,
      "PEG": 1210,
      "issy": 1211,
      "jati": 1212,
      "Net": 1213,
      "ause": 1214,
      "ruc": 1215,
      "BUGFS": 1216,
      "atedBy": 1217,
      "gax": 1218,
      "MSFont": 1219,
      "Ġbook": 1220,
      "rank": 1221,
      "Ġme": 1222,
      "Alignment": 1223,
      "asa": 1224,
      "arius": 1225,
      "ĠUS": 1226,
      "roir": 1227,
      "ĠMann": 1228,
      "Ġmj": 1229,
      "onti": 1230,
      "Ġpabb": 1231,
      "ambra": 1232,
      "eneg": 1233,
      "Handle": 1234,
      "ĠFig": 1235,
      "Ġrepe": 1236,
      "ould": 1237,
      "ĠBrom": 1238,
      "ĠBrent": 1239,
      "IsNull": 1240,
      "acion": 1241,
      "Ġhorr": 1242,
      "olit": 1243,
      "ukannya": 1244,
      "ande": 1245,
      "akukannya": 1246,
      "ennes": 1247,
      "erta": 1248,
      "anca": 1249,
      "IGHT": 1250,
      "WI": 1251,
      "width": 1252,
      "left": 1253,
      "mar": 1254,
      "ycop": 1255,
      "otheli": 1256,
      "romed": 1257,
      "lep": 1258,
      "Tag": 1259,
      "ĠUSA": 1260,
      "Ġrad": 1261,
      "Ġtag": 1262,
      "eback": 1263,
      "ĠSI": 1264,
      "Ziel": 1265,
      "Ġzir": 1266,
      "gest": 1267,
      "ktCap": 1268,
      "idata": 1269,
      "Java": 1270,
      "Middle": 1271,
      "Ġplur": 1272,
      "zem": 1273,
      "Ġkeh": 1274,
      "ikidata": 1275,
      "trash": 1276,
      "amble": 1277,
      "ullo": 1278,
      "ĠSmack": 1279,
      "ĠMcCle": 1280,
      "Cache": 1281,
      "Na": 1282,
      "Ġbron": 1283,
      "mett": 1284,
      "ĠSH": 1285,
      "Ġindem": 1286,
      "Ġbronch": 1287,
      "Ġbip": 1288,
      "Ġtrit": 1289,
      "emat": 1290,
      "itian": 1291,
      "vors": 1292,
      "udy": 1293,
      "scroll": 1294,
      "getSt": 1295,
      "peng": 1296,
      "ensa": 1297,
      "Rest": 1298,
      "ĠGewer": 1299,
      "ĠAdri": 1300,
      "heim": 1301,
      "chiev": 1302,
      "gio": 1303,
      "ĠGret": 1304,
      "asper": 1305,
      "Ġprincipal": 1306,
      "gdock": 1307,
      "Statement": 1308,
      "NumConst": 1309,
      "KY": 1310,
      "ĠBere": 1311,
      "ĠUml": 1312,
      "anim": 1313,
      "Ġmo": 1314,
      "ihad": 1315,
      "acul": 1316,
      "FP": 1317,
      "Track": 1318,
      "zia": 1319,
      "ikk": 1320,
      "iejsc": 1321,
      "TM": 1322,
      "ĠCheck": 1323,
      "Ġyl": 1324,
      "location": 1325,
      "anya": 1326,
      "Reference": 1327,
      "olean": 1328,
      "ĠThess": 1329,
      "ekar": 1330,
      "enched": 1331,
      "Ġgri": 1332,
      "ĠService": 1333,
      "ĠTob": 1334,
      "abr": 1335,
      "Ġoverd": 1336,
      "ILLI": 1337,
      "Cleared": 1338,
      "ĠObit": 1339,
      "ClearedBy": 1340,
      "arod": 1341,
      "olocation": 1342,
      "Obj": 1343,
      "ĠCG": 1344,
      "achen": 1345,
      "xis": 1346,
      "Need": 1347,
      "setKeep": 1348,
      "undle": 1349,
      "EOUS": 1350,
      "acon": 1351,
      "ighton": 1352,
      "ĠChin": 1353,
      "Movie": 1354,
      "ĠTij": 1355,
      "acao": 1356,
      "ĠRev": 1357,
      "zat": 1358,
      "Ġhas": 1359,
      "COc": 1360,
      "ictureBox": 1361,
      "abri": 1362,
      "ramp": 1363,
      "Ġprecinct": 1364,
      "Ġdesc": 1365,
      "azon": 1366,
      "orough": 1367,
      "UTH": 1368,
      "wyd": 1369,
      "edTest": 1370,
      "Category": 1371,
      "elijk": 1372,
      "DropDown": 1373,
      "Ġnag": 1374,
      "renzia": 1375,
      "Read": 1376,
      "neider": 1377,
      "otrex": 1378,
      "socket": 1379,
      "uffy": 1380,
      "SFER": 1381,
      "ĠTN": 1382,
      "aio": 1383,
      "onka": 1384,
      "itud": 1385,
      "ĠBrug": 1386,
      "witz": 1387,
      "itin": 1388,
      "Ġinform": 1389,
      "Mont": 1390,
      "ĠVers": 1391,
      "margin": 1392,
      "ĠShah": 1393,
      "ouri": 1394,
      "angzhou": 1395,
      "Launch": 1396,
      "Ġpav": 1397,
      "TakeVideo": 1398,
      "ĠGreens": 1399,
      "Stream": 1400,
      "yped": 1401,
      "part": 1402,
      "ertools": 1403,
      "athed": 1404,
      "low": 1405,
      "borough": 1406,
      "OUR": 1407,
      "Prz": 1408,
      "Dom": 1409,
      "Ġpadam": 1410,
      "instag": 1411,
      "arrer": 1412,
      "Ġindemn": 1413,
      "ACTOR": 1414,
      "IH": 1415,
      "nder": 1416,
      "iram": 1417,
      "mous": 1418,
      "Scaler": 1419,
      "Ġvisc": 1420,
      "elon": 1421,
      "vind": 1422,
      "arted": 1423,
      "poetry": 1424,
      "ĠHaz": 1425,
      "Missense": 1426,
      "Check": 1427,
      "ieder": 1428,
      "ĠISP": 1429,
      "Ġmez": 1430,
      "ĠTRAN": 1431,
      "esehen": 1432,
      "Ġsim": 1433,
      "Ġrandom": 1434,
      "button": 1435,
      "Ġpel": 1436,
      "ilig": 1437,
      "Ġrecept": 1438,
      "Ġbez": 1439,
      "ĠBon": 1440,
      "entry": 1441,
      "hir": 1442,
      "Ġsequest": 1443,
      "schl": 1444,
      "ĠSN": 1445,
      "Ġincub": 1446,
      "rast": 1447,
      "onitrile": 1448,
      "isor": 1449,
      "Ġalter": 1450,
      "esthetics": 1451,
      "arlton": 1452,
      "ĠFal": 1453,
      "ĠFull": 1454,
      "utup": 1455,
      "ĠMSC": 1456,
      "script": 1457,
      "Ġdefault": 1458,
      "Fullscreen": 1459,
      "JECT": 1460,
      "annie": 1461,
      "ĠGiul": 1462,
      "Entry": 1463,
      "CCCC": 1464,
      "icon": 1465,
      "Audio": 1466,
      "ĠGuild": 1467,
      "ysis": 1468,
      "gue": 1469,
      "ĠBenn": 1470,
      "ĠAk": 1471,
      "icio": 1472,
      "iyesi": 1473,
      "Kill": 1474,
      "addKill": 1475,
      "Ġdik": 1476,
      "HTree": 1477,
      "IndexOf": 1478,
      "aruh": 1479,
      "fter": 1480,
      "Ġsev": 1481,
      "lal": 1482,
      "upu": 1483,
      "ĠCO": 1484,
      "Bottom": 1485,
      "rya": 1486,
      "Ġgrant": 1487,
      "Constants": 1488,
      "ython": 1489,
      "inite": 1490,
      "Ġml": 1491,
      "iels": 1492,
      "Ġbifur": 1493,
      "attu": 1494,
      "Ġenj": 1495,
      "itattu": 1496,
      "ĠWalth": 1497,
      "peg": 1498,
      "STM": 1499,
      "StarObject": 1500,
      "Ġsuper": 1501,
      "inuous": 1502,
      "itas": 1503,
      "ĠMey": 1504,
      "UIA": 1505,
      "olls": 1506,
      "InCM": 1507,
      "rass": 1508,
      "ients": 1509,
      "ĠEt": 1510,
      "ĠBarang": 1511,
      "unken": 1512,
      "Ġtherm": 1513,
      "ĠString": 1514,
      "asu": 1515,
      "ieron": 1516,
      "ĠDi": 1517,
      "Return": 1518,
      "Ġtransf": 1519,
      "Ġeyel": 1520,
      "AspNet": 1521,
      "LOR": 1522,
      "iffe": 1523,
      "orie": 1524,
      "ObjectID": 1525,
      "ascular": 1526,
      "agg": 1527,
      "unton": 1528,
      "existing": 1529,
      "fx": 1530,
      "Ġrecomb": 1531,
      "ĠMedia": 1532,
      "ĠBurg": 1533,
      "Ġvij": 1534,
      "Ġpengu": 1535,
      "estroy": 1536,
      "Ġovip": 1537,
      "aia": 1538,
      "ended": 1539,
      "Ġtep": 1540,
      "ainer": 1541,
      "onnie": 1542,
      "Ġtool": 1543,
      "ably": 1544,
      "Ġcongen": 1545,
      "obacz": 1546,
      "Ġnozz": 1547,
      "aper": 1548,
      "ĠTah": 1549,
      "ĠBernad": 1550,
      "sia": 1551,
      "ersen": 1552,
      "Alert": 1553,
      "zok": 1554,
      "Ġadjud": 1555,
      "astan": 1556,
      "NewUrlParser": 1557,
      "bai": 1558,
      "Hash": 1559,
      "genstein": 1560,
      "PTMR": 1561,
      "DidLoad": 1562,
      "can": 1563,
      "De": 1564,
      "ĠJama": 1565,
      "utsch": 1566,
      "udi": 1567,
      "Ġoffset": 1568,
      "ocity": 1569,
      "atakan": 1570,
      "agles": 1571,
      "Op": 1572,
      "Leg": 1573,
      "camera": 1574,
      "Ġfind": 1575,
      "NA": 1576,
      "Ġkap": 1577,
      "ĠBey": 1578,
      "ZielPanel": 1579,
      "ĠSher": 1580,
      "ĠPo": 1581,
      "Ġmasc": 1582,
      "olph": 1583,
      "ĠWel": 1584,
      "ĠRw": 1585,
      "Ġig": 1586,
      "ibals": 1587,
      "radio": 1588,
      "rlen": 1589,
      "Ġpern": 1590,
      "ĠKeen": 1591,
      "ĠDIC": 1592,
      "ural": 1593,
      "Ġhed": 1594,
      "uity": 1595,
      "uffered": 1596,
      "omyc": 1597,
      "Ġtes": 1598,
      "itted": 1599,
      "ĠCoch": 1600,
      "yllium": 1601,
      "otia": 1602,
      "elius": 1603,
      "oking": 1604,
      "OnInit": 1605,
      "Bundle": 1606,
      "ALT": 1607,
      "centaje": 1608,
      "Ġbhav": 1609,
      "oblast": 1610,
      "ellular": 1611,
      "ikian": 1612,
      "aliana": 1613,
      "ĠHu": 1614,
      "ĠMuk": 1615,
      "mey": 1616,
      "ĠPatt": 1617,
      "IAN": 1618,
      "ĠMos": 1619,
      "Ġgreen": 1620,
      "LOTRE": 1621,
      "Ġpotenc": 1622,
      "ollah": 1623,
      "egal": 1624,
      "Ġlug": 1625,
      "URNIZOR": 1626,
      "olf": 1627,
      "Changed": 1628,
      "usBar": 1629,
      "Ġferm": 1630,
      "rafo": 1631,
      "aksan": 1632,
      "ĠJez": 1633,
      "Copy": 1634,
      "AtIndex": 1635,
      "osto": 1636,
      "EqualTo": 1637,
      "illings": 1638,
      "Ġverteb": 1639,
      "kup": 1640,
      "yre": 1641,
      "eline": 1642,
      "WallArray": 1643,
      "imens": 1644,
      "Img": 1645,
      "omo": 1646,
      "iox": 1647,
      "Ġlau": 1648,
      "niOkno": 1649,
      "ĠmorphOutput": 1650,
      "reek": 1651,
      "Ġafter": 1652,
      "hots": 1653,
      "Ġcoll": 1654,
      "haya": 1655,
      "Ġperi": 1656,
      "regor": 1657,
      "adoc": 1658,
      "ĠDy": 1659,
      "square": 1660,
      "ohVP": 1661,
      "ecek": 1662,
      "ĠBarn": 1663,
      "avage": 1664,
      "inces": 1665,
      "weight": 1666,
      "ĠOrr": 1667,
      "Ġsho": 1668,
      "onduct": 1669,
      "ococ": 1670,
      "slateg": 1671,
      "Ġfenc": 1672,
      "img": 1673,
      "ĠNai": 1674,
      "ornare": 1675,
      "ĠBrown": 1676,
      "ggbb": 1677,
      "ĠLock": 1678,
      "Pherson": 1679,
      "uple": 1680,
      "ĠGl": 1681,
      "CUR": 1682,
      "ĠNa": 1683,
      "ĠSpart": 1684,
      "oni": 1685,
      "ption": 1686,
      "Over": 1687,
      "orges": 1688,
      "oplas": 1689,
      "hta": 1690,
      "BeforeText": 1691,
      "ariate": 1692,
      "orne": 1693,
      "fit": 1694,
      "ĠCumm": 1695,
      "Ġpushed": 1696,
      "plement": 1697,
      "ĠVall": 1698,
      "fromRGB": 1699,
      "Ġhib": 1700,
      "ĠCoron": 1701,
      "ixed": 1702,
      "mus": 1703,
      "iav": 1704,
      "Ġlob": 1705,
      "eville": 1706,
      "Ġspe": 1707,
      "unp": 1708,
      "apole": 1709,
      "ĠRech": 1710,
      "Cmd": 1711,
      "ukawa": 1712,
      "bank": 1713,
      "ibt": 1714,
      "iax": 1715,
      "orate": 1716,
      "Ġdv": 1717,
      "ĠIO": 1718,
      "idos": 1719,
      "ĠGriff": 1720,
      "oxal": 1721,
      "Ġramp": 1722,
      "iliar": 1723,
      "cien": 1724,
      "anesulf": 1725,
      "calup": 1726,
      "zcz": 1727,
      "abbat": 1728,
      "ĠAle": 1729,
      "ĠHS": 1730,
      "sci": 1731,
      "abad": 1732,
      "ushing": 1733,
      "df": 1734,
      "Ġeff": 1735,
      "Emoji": 1736,
      "ĠCec": 1737,
      "ĠPercent": 1738,
      "king": 1739,
      "ĠRom": 1740,
      "IServer": 1741,
      "squarePos": 1742,
      "auth": 1743,
      "otts": 1744,
      "yin": 1745,
      "adast": 1746,
      "ĠMill": 1747,
      "ĠEmil": 1748,
      "click": 1749,
      "roqu": 1750,
      "Tran": 1751,
      "ilic": 1752,
      "aisi": 1753,
      "andel": 1754,
      "ĠRef": 1755,
      "comp": 1756,
      "Ġprotot": 1757,
      "Ġburl": 1758,
      "ĠPanth": 1759,
      "roud": 1760,
      "UCLE": 1761,
      "userd": 1762,
      "Ġsting": 1763,
      "Ġlac": 1764,
      "kte": 1765,
      "eckt": 1766,
      "ActionBar": 1767,
      "HTTP": 1768,
      "bpm": 1769,
      "bpmOb": 1770,
      "asz": 1771,
      "Ġprototyp": 1772,
      "Ġno": 1773,
      "Water": 1774,
      "havam": 1775,
      "Ġgra": 1776,
      "ozer": 1777,
      "aluronic": 1778,
      "Ġpih": 1779,
      "ĠDu": 1780,
      "kat": 1781,
      "gett": 1782,
      "itos": 1783,
      "ugia": 1784,
      "iad": 1785,
      "ylinder": 1786,
      "ĠLib": 1787,
      "opt": 1788,
      "ount": 1789,
      "ipot": 1790,
      "ĠHU": 1791,
      "urit": 1792,
      "webtoken": 1793,
      "Npm": 1794,
      "uation": 1795,
      "loadNpm": 1796,
      "IFORN": 1797,
      "Binding": 1798,
      "iton": 1799,
      "ĠHub": 1800,
      "ĠSait": 1801,
      "Ġmac": 1802,
      "LLO": 1803,
      "Ġsudd": 1804,
      "Ġesp": 1805,
      "nie": 1806,
      "untime": 1807,
      "Ġsor": 1808,
      "ĠNakam": 1809,
      "omial": 1810,
      "InOut": 1811,
      "Report": 1812,
      "weathermap": 1813,
      "KK": 1814,
      "sPath": 1815,
      "ByteArray": 1816,
      "KAKK": 1817,
      "KAKKIA": 1818,
      "AYLOR": 1819,
      "Fcm": 1820,
      "Ang": 1821,
      "Cel": 1822,
      "Ġbod": 1823,
      "ziem": 1824,
      "clare": 1825,
      "iots": 1826,
      "rier": 1827,
      "rops": 1828,
      "Ġsubsid": 1829,
      "sorb": 1830,
      "Ġoverr": 1831,
      "OSE": 1832,
      "Ġger": 1833,
      "ittal": 1834,
      "ĠParr": 1835,
      "amilton": 1836,
      "oret": 1837,
      "lash": 1838,
      "zuk": 1839,
      "Ġoutper": 1840,
      "Ġgele": 1841,
      "sciutto": 1842,
      "usst": 1843,
      "udar": 1844,
      "gal": 1845,
      "ithin": 1846,
      "jorie": 1847,
      "ĠLa": 1848,
      "Ġya": 1849,
      "Team": 1850,
      "ĠBian": 1851,
      "inks": 1852,
      "Zaw": 1853,
      "Ġalk": 1854,
      "ĠMaul": 1855,
      "Ġpref": 1856,
      "enam": 1857,
      "Ġsurp": 1858,
      "Ġmargin": 1859,
      "Operand": 1860,
      "annten": 1861,
      "ahkan": 1862,
      "ised": 1863,
      "ding": 1864,
      "ĠLanc": 1865,
      "ril": 1866,
      "fetch": 1867,
      "Ġreset": 1868,
      "ivalent": 1869,
      "IRE": 1870,
      "asone": 1871,
      "kins": 1872,
      "ĠUIF": 1873,
      "Ġtari": 1874,
      "RouteChange": 1875,
      "ede": 1876,
      "ĠOm": 1877,
      "Ġsa": 1878,
      "ipi": 1879,
      "UAG": 1880,
      "Ġcam": 1881,
      "orf": 1882,
      "Bitmap": 1883,
      "elho": 1884,
      "weise": 1885,
      "iejs": 1886,
      "acerItem": 1887,
      "ening": 1888,
      "egir": 1889,
      "real": 1890,
      "gerufen": 1891,
      "Me": 1892,
      "Signed": 1893,
      "SelectList": 1894,
      "ImgBoard": 1895,
      "enamefont": 1896,
      "orem": 1897,
      "Ġmenget": 1898,
      "elope": 1899,
      "iliy": 1900,
      "avkh": 1901,
      "ĠPog": 1902,
      "ĠOld": 1903,
      "Send": 1904,
      "CTime": 1905,
      "Ġouts": 1906,
      "ĠBridg": 1907,
      "ĠMO": 1908,
      "<UNK>": 1909
    },
    "old_vocab": {
      "!": 0,
      "\"": 1,
      "#": 2,
      "$": 3,
      "%": 4,
      "&": 5,
      "'": 6,
      "(": 7,
      ")": 8,
      "*": 9,
      "+": 10,
      ",": 11,
      "-": 12,
      ".": 13,
      "/": 14,
      "0": 15,
      "1": 16,
      "2": 17,
      "3": 18,
      "4": 19,
      "5": 20,
      "6": 21,
      "7": 22,
      "8": 23,
      "9": 24,
      ":": 25,
      ";": 26,
      "<": 27,
      "=": 28,
      ">": 29,
      "?": 30,
      "@": 31,
      "A": 32,
      "B": 33,
      "C": 34,
      "D": 35,
      "E": 36,
      "F": 37,
      "G": 38,
      "H": 39,
      "I": 40,
      "J": 41,
      "K": 42,
      "L": 43,
      "M": 44,
      "N": 45,
      "O": 46,
      "P": 47,
      "Q": 48,
      "R": 49,
      "S": 50,
      "T": 51,
      "U": 52,
      "V": 53,
      "W": 54,
      "X": 55,
      "Y": 56,
      "Z": 57,
      "[": 58,
      "\\": 59,
      "]": 60,
      "^": 61,
      "_": 62,
      "`": 63,
      "a": 64,
      "b": 65,
      "c": 66,
      "d": 67,
      "e": 68,
      "f": 69,
      "g": 70,
      "h": 71,
      "i": 72,
      "j": 73,
      "k": 74,
      "l": 75,
      "m": 76,
      "n": 77,
      "o": 78,
      "p": 79,
      "q": 80,
      "r": 81,
      "s": 82,
      "t": 83,
      "u": 84,
      "v": 85,
      "w": 86,
      "x": 87,
      "y": 88,
      "z": 89,
      "{": 90,
      "|": 91,
      "}": 92,
      "~": 93,
      "¡": 94,
      "¢": 95,
      "£": 96,
      "¤": 97,
      "¥": 98,
      "¦": 99,
      "§": 100,
      "¨": 101,
      "©": 102,
      "ª": 103,
      "«": 104,
      "¬": 105,
      "®": 106,
      "¯": 107,
      "°": 108,
      "±": 109,
      "²": 110,
      "³": 111,
      "´": 112,
      "µ": 113,
      "¶": 114,
      "·": 115,
      "¸": 116,
      "¹": 117,
      "º": 118,
      "»": 119,
      "¼": 120,
      "½": 121,
      "¾": 122,
      "¿": 123,
      "À": 124,
      "Á": 125,
      "Â": 126,
      "Ã": 127,
      "Ä": 128,
      "Å": 129,
      "Æ": 130,
      "Ç": 131,
      "È": 132,
      "É": 133,
      "Ê": 134,
      "Ë": 135,
      "Ì": 136,
      "Í": 137,
      "Î": 138,
      "Ï": 139,
      "Ð": 140,
      "Ñ": 141,
      "Ò": 142,
      "Ó": 143,
      "Ô": 144,
      "Õ": 145,
      "Ö": 146,
      "×": 147,
      "Ø": 148,
      "Ù": 149,
      "Ú": 150,
      "Û": 151,
      "Ü": 152,
      "Ý": 153,
      "Þ": 154,
      "ß": 155,
      "à": 156,
      "á": 157,
      "â": 158,
      "ã": 159,
      "ä": 160,
      "å": 161,
      "æ": 162,
      "ç": 163,
      "è": 164,
      "é": 165,
      "ê": 166,
      "ë": 167,
      "ì": 168,
      "í": 169,
      "î": 170,
      "ï": 171,
      "ð": 172,
      "ñ": 173,
      "ò": 174,
      "ó": 175,
      "ô": 176,
      "õ": 177,
      "ö": 178,
      "÷": 179,
      "ø": 180,
      "ù": 181,
      "ú": 182,
      "û": 183,
      "ü": 184,
      "ý": 185,
      "þ": 186,
      "ÿ": 187,
      "Ā": 188,
      "ā": 189,
      "Ă": 190,
      "ă": 191,
      "Ą": 192,
      "ą": 193,
      "Ć": 194,
      "ć": 195,
      "Ĉ": 196,
      "ĉ": 197,
      "Ċ": 198,
      "ċ": 199,
      "Č": 200,
      "č": 201,
      "Ď": 202,
      "ď": 203,
      "Đ": 204,
      "đ": 205,
      "Ē": 206,
      "ē": 207,
      "Ĕ": 208,
      "ĕ": 209,
      "Ė": 210,
      "ė": 211,
      "Ę": 212,
      "ę": 213,
      "Ě": 214,
      "ě": 215,
      "Ĝ": 216,
      "ĝ": 217,
      "Ğ": 218,
      "ğ": 219,
      "Ġ": 220,
      "ġ": 221,
      "Ģ": 222,
      "ģ": 223,
      "Ĥ": 224,
      "ĥ": 225,
      "Ħ": 226,
      "ħ": 227,
      "Ĩ": 228,
      "ĩ": 229,
      "Ī": 230,
      "ī": 231,
      "Ĭ": 232,
      "ĭ": 233,
      "Į": 234,
      "į": 235,
      "İ": 236,
      "ı": 237,
      "Ĳ": 238,
      "ĳ": 239,
      "Ĵ": 240,
      "ĵ": 241,
      "Ķ": 242,
      "ķ": 243,
      "ĸ": 244,
      "Ĺ": 245,
      "ĺ": 246,
      "Ļ": 247,
      "ļ": 248,
      "Ľ": 249,
      "ľ": 250,
      "Ŀ": 251,
      "ŀ": 252,
      "Ł": 253,
      "ł": 254,
      "Ń": 255,
      "er": 256,
      "an": 257,
      "in": 258,
      "en": 259,
      "on": 260,
      "ar": 261,
      "at": 262,
      "es": 263,
      "al": 264,
      "or": 265,
      "et": 266,
      "it": 267,
      "st": 268,
      "le": 269,
      "ic": 270,
      "el": 271,
      "ed": 272,
      "ch": 273,
      "am": 274,
      "ro": 275,
      "is": 276,
      "re": 277,
      "ad": 278,
      "Ġs": 279,
      "Ġp": 280,
      "un": 281,
      "il": 282,
      "ĠS": 283,
      "as": 284,
      "ing": 285,
      "ut": 286,
      "ĠC": 287,
      "ent": 288,
      "ol": 289,
      "ur": 290,
      "ĠM": 291,
      "us": 292,
      "ĠB": 293,
      "ra": 294,
      "ion": 295,
      "Ġc": 296,
      "id": 297,
      "Ġd": 298,
      "ĠP": 299,
      "ul": 300,
      "im": 301,
      "Ġt": 302,
      "Ġm": 303,
      "om": 304,
      "ĠA": 305,
      "ac": 306,
      "ag": 307,
      "em": 308,
      "ab": 309,
      "ĠD": 310,
      "os": 311,
      "ot": 312,
      "um": 313,
      "ig": 314,
      "ct": 315,
      "od": 316,
      "Ġb": 317,
      "ri": 318,
      "ĠT": 319,
      "ĠG": 320,
      "ĠR": 321,
      "ĠH": 322,
      "ap": 323,
      "ie": 324,
      "ak": 325,
      "oc": 326,
      "ir": 327,
      "ĠN": 328,
      "est": 329,
      "ĠL": 330,
      "ay": 331,
      "ow": 332,
      "Ġf": 333,
      "ĠE": 334,
      "Ġg": 335,
      "ex": 336,
      "op": 337,
      "Ġv": 338,
      "Ġh": 339,
      "and": 340,
      "th": 341,
      "ia": 342,
      "ĠK": 343,
      "ce": 344,
      "qu": 345,
      "Ġn": 346,
      "iv": 347,
      "ĠF": 348,
      "ate": 349,
      "av": 350,
      "ers": 351,
      "ĠW": 352,
      "ang": 353,
      "ation": 354,
      "og": 355,
      "Ġl": 356,
      "ant": 357,
      "In": 358,
      "ik": 359,
      "ov": 360,
      "ah": 361,
      "ec": 362,
      "eg": 363,
      "Ġk": 364,
      "ist": 365,
      "end": 366,
      "ub": 367,
      "ud": 368,
      "ter": 369,
      "ff": 370,
      "ine": 371,
      "ont": 372,
      "St": 373,
      "ob": 374,
      "ib": 375,
      "Ġr": 376,
      "up": 377,
      "ip": 378,
      "ton": 379,
      "ess": 380,
      "ath": 381,
      "iz": 382,
      "ian": 383,
      "ey": 384,
      "ell": 385,
      "ug": 386,
      "ect": 387,
      "ĠV": 388,
      "ĠI": 389,
      "ind": 390,
      "ard": 391,
      "ly": 392,
      "ert": 393,
      "ast": 394,
      "ĠJ": 395,
      "pe": 396,
      "ord": 397,
      "ph": 398,
      "ok": 399,
      "get": 400,
      "ill": 401,
      "Ġw": 402,
      "pt": 403,
      "art": 404,
      "ue": 405,
      "Ġre": 406,
      "uc": 407,
      "ne": 408,
      "ht": 409,
      "yl": 410,
      "age": 411,
      "Ġin": 412,
      "ĠU": 413,
      "ĠO": 414,
      "if": 415,
      "eb": 416,
      "te": 417,
      "ass": 418,
      "io": 419,
      "se": 420,
      "au": 421,
      "ung": 422,
      "all": 423,
      "ev": 424,
      "und": 425,
      "ek": 426,
      "ef": 427,
      "ep": 428,
      "ox": 429,
      "able": 430,
      "ile": 431,
      "ens": 432,
      "uk": 433,
      "aw": 434,
      "Ġst": 435,
      "Ġj": 436,
      "ext": 437,
      "ata": 438,
      "erm": 439,
      "ack": 440,
      "he": 441,
      "ult": 442,
      "out": 443,
      "ĠCh": 444,
      "set": 445,
      "int": 446,
      "ity": 447,
      "az": 448,
      "ew": 449,
      "ial": 450,
      "pl": 451,
      "ach": 452,
      "our": 453,
      "ies": 454,
      "ym": 455,
      "rop": 456,
      "ran": 457,
      "ou": 458,
      "sk": 459,
      "aj": 460,
      "ort": 461,
      "Ġch": 462,
      "ick": 463,
      "ame": 464,
      "ock": 465,
      "Ġa": 466,
      "ry": 467,
      "ann": 468,
      "Ġun": 469,
      "ost": 470,
      "ai": 471,
      "cl": 472,
      "Ġcon": 473,
      "sh": 474,
      "son": 475,
      "ĠMc": 476,
      "att": 477,
      "ive": 478,
      "pr": 479,
      "ust": 480,
      "ject": 481,
      "ment": 482,
      "iew": 483,
      "her": 484,
      "iel": 485,
      "yn": 486,
      "ll": 487,
      "ous": 488,
      "per": 489,
      "ele": 490,
      "ya": 491,
      "ier": 492,
      "ode": 493,
      "ype": 494,
      "ain": 495,
      "add": 496,
      "unt": 497,
      "erv": 498,
      "are": 499,
      "put": 500,
      "to": 501,
      "na": 502,
      "ich": 503,
      "ij": 504,
      "ish": 505,
      "ER": 506,
      "ong": 507,
      "eng": 508,
      "ite": 509,
      "lo": 510,
      "ax": 511,
      "ign": 512,
      "ond": 513,
      "Cont": 514,
      "sp": 515,
      "ring": 516,
      "pp": 517,
      "ber": 518,
      "ane": 519,
      "ull": 520,
      "ati": 521,
      "ore": 522,
      "ice": 523,
      "Val": 524,
      "ez": 525,
      "Ar": 526,
      "ire": 527,
      "ure": 528,
      "Ch": 529,
      "Ob": 530,
      "rom": 531,
      "ary": 532,
      "ild": 533,
      "ide": 534,
      "omp": 535,
      "To": 536,
      "man": 537,
      "ron": 538,
      "ash": 539,
      "ated": 540,
      "ST": 541,
      "oh": 542,
      "ru": 543,
      "ft": 544,
      "res": 545,
      "ime": 546,
      "ink": 547,
      "ett": 548,
      "Ġz": 549,
      "sc": 550,
      "ĠSh": 551,
      "iss": 552,
      "ight": 553,
      "nd": 554,
      "ana": 555,
      "err": 556,
      "ield": 557,
      "Ġpro": 558,
      "ark": 559,
      "enc": 560,
      "Object": 561,
      "Type": 562,
      "ge": 563,
      "ith": 564,
      "Con": 565,
      "ern": 566,
      "ize": 567,
      "Ġsp": 568,
      "eth": 569,
      "ere": 570,
      "own": 571,
      "ID": 572,
      "les": 573,
      "eh": 574,
      "Par": 575,
      "iy": 576,
      "tr": 577,
      "Cl": 578,
      "Ġe": 579,
      "orm": 580,
      "itt": 581,
      "ins": 582,
      "ene": 583,
      "View": 584,
      "ray": 585,
      "OR": 586,
      "Value": 587,
      "erc": 588,
      "oll": 589,
      "ley": 590,
      "oy": 591,
      "ON": 592,
      "ham": 593,
      "Ġle": 594,
      "Ġpr": 595,
      "ors": 596,
      "ale": 597,
      "AR": 598,
      "Res": 599,
      "ons": 600,
      "ma": 601,
      "co": 602,
      "EN": 603,
      "ium": 604,
      "UR": 605,
      "rr": 606,
      "Ġim": 607,
      "List": 608,
      "ka": 609,
      "IC": 610,
      "oj": 611,
      "ace": 612,
      "ient": 613,
      "Ex": 614,
      "ho": 615,
      "ss": 616,
      "ical": 617,
      "row": 618,
      "ction": 619,
      "tt": 620,
      "ina": 621,
      "ĠY": 622,
      "IN": 623,
      "Ġth": 624,
      "Path": 625,
      "old": 626,
      "ver": 627,
      "we": 628,
      "AN": 629,
      "ĠAr": 630,
      "act": 631,
      "ence": 632,
      "Pro": 633,
      "olor": 634,
      "ys": 635,
      "que": 636,
      "rit": 637,
      "SC": 638,
      "utton": 639,
      "ase": 640,
      "enn": 641,
      "ato": 642,
      "no": 643,
      "arg": 644,
      "ler": 645,
      "ram": 646,
      "Err": 647,
      "ĠSt": 648,
      "cept": 649,
      "ead": 650,
      "ni": 651,
      "one": 652,
      "ĠZ": 653,
      "atch": 654,
      "Ġqu": 655,
      "Ġex": 656,
      "Ġab": 657,
      "ald": 658,
      "Ġsc": 659,
      "ck": 660,
      "ole": 661,
      "tem": 662,
      "CC": 663,
      "Id": 664,
      "ood": 665,
      "ush": 666,
      "omm": 667,
      "sch": 668,
      "LE": 669,
      "Ġpl": 670,
      "Name": 671,
      "ans": 672,
      "ĠQ": 673,
      "Error": 674,
      "ee": 675,
      "oz": 676,
      "rent": 677,
      "bo": 678,
      "ric": 679,
      "ser": 680,
      "ance": 681,
      "of": 682,
      "ix": 683,
      "erg": 684,
      "ail": 685,
      "Data": 686,
      "Im": 687,
      "ari": 688,
      "Ġdis": 689,
      "ank": 690,
      "AL": 691,
      "app": 692,
      "Ġad": 693,
      "arl": 694,
      "CT": 695,
      "Sc": 696,
      "yd": 697,
      "anc": 698,
      "ado": 699,
      "ini": 700,
      "AT": 701,
      "Key": 702,
      "Ġal": 703,
      "uf": 704,
      "amp": 705,
      "Ġsub": 706,
      "yt": 707,
      "Comp": 708,
      "rid": 709,
      "uff": 710,
      "ĠSch": 711,
      "led": 712,
      "Serv": 713,
      "ĠAl": 714,
      "Button": 715,
      "ement": 716,
      "emb": 717,
      "SE": 718,
      "ret": 719,
      "ani": 720,
      "ait": 721,
      "Text": 722,
      "sl": 723,
      "ĠIn": 724,
      "af": 725,
      "orn": 726,
      "rav": 727,
      "arr": 728,
      "gen": 729,
      "AM": 730,
      "ator": 731,
      "fo": 732,
      "Ġy": 733,
      "equ": 734,
      "hen": 735,
      "ais": 736,
      "land": 737,
      "amb": 738,
      "SP": 739,
      "ings": 740,
      "val": 741,
      "IT": 742,
      "Size": 743,
      "yp": 744,
      "ear": 745,
      "eter": 746,
      "Array": 747,
      "String": 748,
      "ada": 749,
      "ford": 750,
      "air": 751,
      "RE": 752,
      "inn": 753,
      "iti": 754,
      "Item": 755,
      "ien": 756,
      "ions": 757,
      "esh": 758,
      "Co": 759,
      "SA": 760,
      "ren": 761,
      "Param": 762,
      "By": 763,
      "Of": 764,
      "ugh": 765,
      "ade": 766,
      "ott": 767,
      "Ġget": 768,
      "con": 769,
      "Ġsh": 770,
      "RP": 771,
      "kan": 772,
      "eck": 773,
      "inc": 774,
      "ein": 775,
      "cc": 776,
      "uj": 777,
      "utt": 778,
      "BS": 779,
      "ict": 780,
      "era": 781,
      "ica": 782,
      "over": 783,
      "Context": 784,
      "CS": 785,
      "ĠBl": 786,
      "ng": 787,
      "uss": 788,
      "yc": 789,
      "eat": 790,
      "vent": 791,
      "Ġpar": 792,
      "nt": 793,
      "ps": 794,
      "ory": 795,
      "rib": 796,
      "unc": 797,
      "ara": 798,
      "umb": 799,
      "oth": 800,
      "ke": 801,
      "Int": 802,
      "ics": 803,
      "onent": 804,
      "uth": 805,
      "urrent": 806,
      "arm": 807,
      "urs": 808,
      "ql": 809,
      "ena": 810,
      "uch": 811,
      "ger": 812,
      "lement": 813,
      "Pl": 814,
      "yst": 815,
      "ego": 816,
      "Field": 817,
      "Ġan": 818,
      "Ġen": 819,
      "Image": 820,
      "iro": 821,
      "ora": 822,
      "isc": 823,
      "osit": 824,
      "File": 825,
      "AC": 826,
      "ute": 827,
      "PS": 828,
      "ira": 829,
      "App": 830,
      "reate": 831,
      "reen": 832,
      "ih": 833,
      "roup": 834,
      "ama": 835,
      "Ġac": 836,
      "ze": 837,
      "ĠGu": 838,
      "ager": 839,
      "use": 840,
      "ater": 841,
      "CP": 842,
      "va": 843,
      "ala": 844,
      "Ġdes": 845,
      "str": 846,
      "Mod": 847,
      "Ġsl": 848,
      "ve": 849,
      "uto": 850,
      "umber": 851,
      "fl": 852,
      "Ġar": 853,
      "off": 854,
      "Ġap": 855,
      "Get": 856,
      "che": 857,
      "DA": 858,
      "uy": 859,
      "Ġset": 860,
      "ism": 861,
      "den": 862,
      "atth": 863,
      "ery": 864,
      "ĠX": 865,
      "Ġrec": 866,
      "Time": 867,
      "als": 868,
      "me": 869,
      "equest": 870,
      "Man": 871,
      "kh": 872,
      "roll": 873,
      "ress": 874,
      "IA": 875,
      "ise": 876,
      "State": 877,
      "par": 878,
      "ament": 879,
      "Ġper": 880,
      "dex": 881,
      "IS": 882,
      "po": 883,
      "ner": 884,
      "ille": 885,
      "urn": 886,
      "PC": 887,
      "itz": 888,
      "arc": 889,
      "uz": 890,
      "ates": 891,
      "Ġro": 892,
      "ular": 893,
      "orr": 894,
      "ech": 895,
      "let": 896,
      "ius": 897,
      "rad": 898,
      "order": 899,
      "ave": 900,
      "alt": 901,
      "raw": 902,
      "anj": 903,
      "ha": 904,
      "Color": 905,
      "fe": 906,
      "Sh": 907,
      "ets": 908,
      "arb": 909,
      "orb": 910,
      "du": 911,
      "Code": 912,
      "IL": 913,
      "iff": 914,
      "oph": 915,
      "ref": 916,
      "rev": 917,
      "ose": 918,
      "Index": 919,
      "lock": 920,
      "uv": 921,
      "Char": 922,
      "ource": 923,
      "DP": 924,
      "Fl": 925,
      "ES": 926,
      "ili": 927,
      "UT": 928,
      "rist": 929,
      "Ġres": 930,
      "Ġis": 931,
      "uh": 932,
      "gl": 933,
      "bar": 934,
      "pi": 935,
      "ml": 936,
      "iter": 937,
      "Component": 938,
      "MS": 939,
      "ks": 940,
      "kt": 941,
      "ied": 942,
      "ians": 943,
      "ruct": 944,
      "ych": 945,
      "ayout": 946,
      "ree": 947,
      "IP": 948,
      "Request": 949,
      "uan": 950,
      "ld": 951,
      "Ġmen": 952,
      "yr": 953,
      "ĠTh": 954,
      "ington": 955,
      "rack": 956,
      "CH": 957,
      "ii": 958,
      "omb": 959,
      "och": 960,
      "elect": 961,
      "sub": 962,
      "Out": 963,
      "rag": 964,
      "eme": 965,
      "ux": 966,
      "Set": 967,
      "All": 968,
      "ĠAm": 969,
      "ete": 970,
      "SI": 971,
      "rim": 972,
      "Call": 973,
      "MA": 974,
      "cz": 975,
      "CA": 976,
      "fig": 977,
      "ano": 978,
      "ae": 979,
      "abb": 980,
      "ao": 981,
      "rol": 982,
      "form": 983,
      "sw": 984,
      "Ġcont": 985,
      "ely": 986,
      "En": 987,
      "Event": 988,
      "Ref": 989,
      "ĠSc": 990,
      "Group": 991,
      "TR": 992,
      "ays": 993,
      "rans": 994,
      "go": 995,
      "ake": 996,
      "za": 997,
      "asc": 998,
      "ET": 999,
      "erd": 1000,
      "oxy": 1001,
      "Ġjed": 1002,
      "Box": 1003,
      "Ġod": 1004,
      "Action": 1005,
      "oid": 1006,
      "back": 1007,
      "yle": 1008,
      "Ġam": 1009,
      "red": 1010,
      "ros": 1011,
      "ĠLe": 1012,
      "riv": 1013,
      "ese": 1014,
      "oa": 1015,
      "ots": 1016,
      "la": 1017,
      "ork": 1018,
      "oo": 1019,
      "line": 1020,
      "Ġret": 1021,
      "Ġund": 1022,
      "aff": 1023,
      "Result": 1024,
      "UN": 1025,
      "atur": 1026,
      "Sp": 1027,
      "rt": 1028,
      "ĠCon": 1029,
      "ered": 1030,
      "Ġind": 1031,
      "indow": 1032,
      "ception": 1033,
      "Prop": 1034,
      "endo": 1035,
      "Input": 1036,
      "Manager": 1037,
      "Ġcom": 1038,
      "ĠBar": 1039,
      "Up": 1040,
      "MP": 1041,
      "Ġob": 1042,
      "rec": 1043,
      "Exception": 1044,
      "Ġant": 1045,
      "Service": 1046,
      "men": 1047,
      "ling": 1048,
      "ĠAd": 1049,
      "ump": 1050,
      "Count": 1051,
      "AG": 1052,
      "ester": 1053,
      "shire": 1054,
      "ĠEd": 1055,
      "unter": 1056,
      "uild": 1057,
      "ej": 1058,
      "Ad": 1059,
      "aya": 1060,
      "anam": 1061,
      "ios": 1062,
      "rl": 1063,
      "ĠEm": 1064,
      "Class": 1065,
      "els": 1066,
      "Ġimp": 1067,
      "ten": 1068,
      "ocal": 1069,
      "PA": 1070,
      "mer": 1071,
      "eut": 1072,
      "ower": 1073,
      "ats": 1074,
      "Layout": 1075,
      "Table": 1076,
      "ask": 1077,
      "ener": 1078,
      "uit": 1079,
      "ĠRe": 1080,
      "ars": 1081,
      "bur": 1082,
      "ĠAn": 1083,
      "TS": 1084,
      "For": 1085,
      "ocation": 1086,
      "amil": 1087,
      "Ġem": 1088,
      "idd": 1089,
      "my": 1090,
      "ione": 1091,
      "oss": 1092,
      "iqu": 1093,
      "As": 1094,
      "uck": 1095,
      "port": 1096,
      "elle": 1097,
      "ized": 1098,
      "ucle": 1099,
      "ange": 1100,
      "ule": 1101,
      "nik": 1102,
      "SM": 1103,
      "ound": 1104,
      "Ġtr": 1105,
      "ogg": 1106,
      "atic": 1107,
      "ual": 1108,
      "ility": 1109,
      "raph": 1110,
      "org": 1111,
      "ract": 1112,
      "Element": 1113,
      "ouse": 1114,
      "ette": 1115,
      "ED": 1116,
      "last": 1117,
      "pro": 1118,
      "With": 1119,
      "las": 1120,
      "Info": 1121,
      "Config": 1122,
      "DR": 1123,
      "pon": 1124,
      "ayer": 1125,
      "User": 1126,
      "anel": 1127,
      "AD": 1128,
      "lad": 1129,
      "AP": 1130,
      "Api": 1131,
      "berg": 1132,
      "iej": 1133,
      "Ġco": 1134,
      "Ġov": 1135,
      "Ġel": 1136,
      "BC": 1137,
      "Ġph": 1138,
      "ui": 1139,
      "ĠEl": 1140,
      "edi": 1141,
      "idth": 1142,
      "ino": 1143,
      "SS": 1144,
      "be": 1145,
      "icht": 1146,
      "ĠBr": 1147,
      "eader": 1148,
      "reg": 1149,
      "oto": 1150,
      "olic": 1151,
      "hi": 1152,
      "Al": 1153,
      "ome": 1154,
      "IM": 1155,
      "bit": 1156,
      "br": 1157,
      "Is": 1158,
      "unk": 1159,
      "map": 1160,
      "load": 1161,
      "cent": 1162,
      "Ġfl": 1163,
      "inal": 1164,
      "ral": 1165,
      "aut": 1166,
      "Window": 1167,
      "web": 1168,
      "iet": 1169,
      "lect": 1170,
      "CO": 1171,
      "ough": 1172,
      "EC": 1173,
      "ura": 1174,
      "ating": 1175,
      "Ġinc": 1176,
      "Ġent": 1177,
      "Ġon": 1178,
      "Ġx": 1179,
      "Ġed": 1180,
      "Ġsk": 1181,
      "wood": 1182,
      "path": 1183,
      "any": 1184,
      "SRP": 1185,
      "tn": 1186,
      "ali": 1187,
      "Ġang": 1188,
      "ior": 1189,
      "cht": 1190,
      "ski": 1191,
      "abel": 1192,
      "new": 1193,
      "IV": 1194,
      "DK": 1195,
      "Model": 1196,
      "erk": 1197,
      "Ġop": 1198,
      "ĠSal": 1199,
      "arn": 1200,
      "Test": 1201,
      "da": 1202,
      "anti": 1203,
      "PM": 1204,
      "eep": 1205,
      "uid": 1206,
      "rv": 1207,
      "ional": 1208,
      "rab": 1209,
      "Ġgr": 1210,
      "arch": 1211,
      "ENT": 1212,
      "aan": 1213,
      "ider": 1214,
      "Ġmult": 1215,
      "field": 1216,
      "ript": 1217,
      "board": 1218,
      "Ġuse": 1219,
      "aur": 1220,
      "Ph": 1221,
      "Log": 1222,
      "ulf": 1223,
      "fer": 1224,
      "ection": 1225,
      "iment": 1226,
      "Params": 1227,
      "ts": 1228,
      "ima": 1229,
      "BA": 1230,
      "oad": 1231,
      "ega": 1232,
      "ris": 1233,
      "MC": 1234,
      "udd": 1235,
      "lic": 1236,
      "ĠSp": 1237,
      "GF": 1238,
      "igh": 1239,
      "Ġint": 1240,
      "item": 1241,
      "etail": 1242,
      "erty": 1243,
      "US": 1244,
      "oke": 1245,
      "UM": 1246,
      "cal": 1247,
      "Node": 1248,
      "ible": 1249,
      "Ġdi": 1250,
      "Ġcl": 1251,
      "key": 1252,
      "ĠWil": 1253,
      "Panel": 1254,
      "enu": 1255,
      "ations": 1256,
      "olog": 1257,
      "anth": 1258,
      "OA": 1259,
      "ody": 1260,
      "ync": 1261,
      "by": 1262,
      "Ġout": 1263,
      "acter": 1264,
      "Stat": 1265,
      "kow": 1266,
      "HT": 1267,
      "leg": 1268,
      "At": 1269,
      "Map": 1270,
      "PT": 1271,
      "MD": 1272,
      "akan": 1273,
      "Ġra": 1274,
      "vert": 1275,
      "Bar": 1276,
      "sed": 1277,
      "ores": 1278,
      "emp": 1279,
      "Col": 1280,
      "bra": 1281,
      "oken": 1282,
      "je": 1283,
      "Ġbl": 1284,
      "for": 1285,
      "ĠSw": 1286,
      "ĠCl": 1287,
      "adi": 1288,
      "ĠCo": 1289,
      "CM": 1290,
      "hat": 1291,
      "iem": 1292,
      "Number": 1293,
      "ched": 1294,
      "ita": 1295,
      "mo": 1296,
      "Ġau": 1297,
      "Un": 1298,
      "icul": 1299,
      "Ġol": 1300,
      "date": 1301,
      "Start": 1302,
      "eron": 1303,
      "zy": 1304,
      "aud": 1305,
      "ny": 1306,
      "ethod": 1307,
      "ĠMcC": 1308,
      "atri": 1309,
      "CI": 1310,
      "Ġconv": 1311,
      "Or": 1312,
      "aro": 1313,
      "iri": 1314,
      "Ġmax": 1315,
      "Ġpost": 1316,
      "ils": 1317,
      "Content": 1318,
      "TE": 1319,
      "lin": 1320,
      "aa": 1321,
      "Const": 1322,
      "ercent": 1323,
      "Em": 1324,
      "IB": 1325,
      "onic": 1326,
      "ĠBur": 1327,
      "ument": 1328,
      "ponse": 1329,
      "Width": 1330,
      "ĠBh": 1331,
      "omer": 1332,
      "Ġult": 1333,
      "zt": 1334,
      "rich": 1335,
      "alk": 1336,
      "net": 1337,
      "ook": 1338,
      "aus": 1339,
      "Arg": 1340,
      "ua": 1341,
      "CE": 1342,
      "Block": 1343,
      "Date": 1344,
      "SR": 1345,
      "ms": 1346,
      "eer": 1347,
      "ido": 1348,
      "amente": 1349,
      "Ġtrans": 1350,
      "ero": 1351,
      "ona": 1352,
      "On": 1353,
      "etri": 1354,
      "Line": 1355,
      "hr": 1356,
      "Header": 1357,
      "FA": 1358,
      "ender": 1359,
      "Ġas": 1360,
      "OM": 1361,
      "Star": 1362,
      "ommand": 1363,
      "het": 1364,
      "jsk": 1365,
      "Auto": 1366,
      "Ġinter": 1367,
      "lor": 1368,
      "ĠPal": 1369,
      "its": 1370,
      "ois": 1371,
      "AS": 1372,
      "IR": 1373,
      "win": 1374,
      "Ġvol": 1375,
      "Ġer": 1376,
      "Off": 1377,
      "ative": 1378,
      "read": 1379,
      "Server": 1380,
      "imp": 1381,
      "EL": 1382,
      "Ġpot": 1383,
      "DC": 1384,
      "ialog": 1385,
      "ethyl": 1386,
      "stra": 1387,
      "IF": 1388,
      "essage": 1389,
      "Mode": 1390,
      "Output": 1391,
      "js": 1392,
      "UI": 1393,
      "osh": 1394,
      "de": 1395,
      "db": 1396,
      "utter": 1397,
      "aster": 1398,
      "CL": 1399,
      "Ġsw": 1400,
      "urt": 1401,
      "orth": 1402,
      "xc": 1403,
      "rob": 1404,
      "An": 1405,
      "Menu": 1406,
      "itor": 1407,
      "less": 1408,
      "iles": 1409,
      "aks": 1410,
      "ipp": 1411,
      "Mut": 1412,
      "Ġdec": 1413,
      "acch": 1414,
      "Ġto": 1415,
      "LO": 1416,
      "li": 1417,
      "round": 1418,
      "Ġadd": 1419,
      "ouch": 1420,
      "thor": 1421,
      "erson": 1422,
      "aki": 1423,
      "DB": 1424,
      "Pop": 1425,
      "Ġep": 1426,
      "Ġber": 1427,
      "lex": 1428,
      "Ġtest": 1429,
      "ven": 1430,
      "pen": 1431,
      "lar": 1432,
      "Ġjedn": 1433,
      "uffer": 1434,
      "ocus": 1435,
      "Ġbh": 1436,
      "der": 1437,
      "ycl": 1438,
      "ition": 1439,
      "orph": 1440,
      "icz": 1441,
      "MB": 1442,
      "box": 1443,
      "asi": 1444,
      "esp": 1445,
      "Go": 1446,
      "illa": 1447,
      "Ġsal": 1448,
      "ency": 1449,
      "atan": 1450,
      "ols": 1451,
      "ength": 1452,
      "vi": 1453,
      "Ġdef": 1454,
      "raz": 1455,
      "TA": 1456,
      "PE": 1457,
      "ami": 1458,
      "Ġag": 1459,
      "roph": 1460,
      "zo": 1461,
      "PR": 1462,
      "Url": 1463,
      "arth": 1464,
      "ING": 1465,
      "min": 1466,
      "KA": 1467,
      "edia": 1468,
      "eight": 1469,
      "TC": 1470,
      "ious": 1471,
      "aire": 1472,
      "udent": 1473,
      "ola": 1474,
      "met": 1475,
      "ities": 1476,
      "com": 1477,
      "aul": 1478,
      "Conn": 1479,
      "Nav": 1480,
      "bl": 1481,
      "ĠWh": 1482,
      "econd": 1483,
      "amera": 1484,
      "ault": 1485,
      "Av": 1486,
      "cess": 1487,
      "ymb": 1488,
      "ĠQu": 1489,
      "input": 1490,
      "Dialog": 1491,
      "Ġsm": 1492,
      "Ġsch": 1493,
      "ĠPr": 1494,
      "ĠMah": 1495,
      "Control": 1496,
      "ĠAg": 1497,
      "plic": 1498,
      "SO": 1499,
      "eli": 1500,
      "rey": 1501,
      "ĠDor": 1502,
      "ML": 1503,
      "eld": 1504,
      "well": 1505,
      "rain": 1506,
      "rap": 1507,
      "ca": 1508,
      "Ġrem": 1509,
      "ĠMcG": 1510,
      "Ġoc": 1511,
      "Qu": 1512,
      "amm": 1513,
      "IG": 1514,
      "rum": 1515,
      "Ġpal": 1516,
      "oot": 1517,
      "find": 1518,
      "ebug": 1519,
      "Bit": 1520,
      "ĠCB": 1521,
      "Ġrep": 1522,
      "Ġcurrent": 1523,
      "wa": 1524,
      "ĠKn": 1525,
      "ically": 1526,
      "ias": 1527,
      "onn": 1528,
      "Ġmil": 1529,
      "Resource": 1530,
      "uro": 1531,
      "ope": 1532,
      "raft": 1533,
      "Ġpre": 1534,
      "Response": 1535,
      "Init": 1536,
      "lu": 1537,
      "alle": 1538,
      "nya": 1539,
      "Ġapp": 1540,
      "New": 1541,
      "oi": 1542,
      "ability": 1543,
      "awa": 1544,
      "Ġnew": 1545,
      "ĠEr": 1546,
      "ĠWood": 1547,
      "ove": 1548,
      "Ġdel": 1549,
      "ukan": 1550,
      "FBS": 1551,
      "Buffer": 1552,
      "andle": 1553,
      "anz": 1554,
      "user": 1555,
      "Def": 1556,
      "eral": 1557,
      "ropri": 1558,
      "FBSDK": 1559,
      "Inter": 1560,
      "atis": 1561,
      "ream": 1562,
      "itri": 1563,
      "arget": 1564,
      "uer": 1565,
      "ava": 1566,
      "Focus": 1567,
      "van": 1568,
      "Ġsup": 1569,
      "angan": 1570,
      "Var": 1571,
      "aka": 1572,
      "ji": 1573,
      "Oper": 1574,
      "stein": 1575,
      "ĠApp": 1576,
      "ateg": 1577,
      "vis": 1578,
      "ĠBx": 1579,
      "ift": 1580,
      "imm": 1581,
      "OP": 1582,
      "Change": 1583,
      "SD": 1584,
      "Ġup": 1585,
      "ras": 1586,
      "anh": 1587,
      "apt": 1588,
      "oun": 1589,
      "Select": 1590,
      "ante": 1591,
      "Ġcreate": 1592,
      "rz": 1593,
      "cp": 1594,
      "pring": 1595,
      "acy": 1596,
      "ĠWar": 1597,
      "ever": 1598,
      "Ġmeng": 1599,
      "ĠCor": 1600,
      "ĠPh": 1601,
      "ization": 1602,
      "Ġter": 1603,
      "not": 1604,
      "ific": 1605,
      "ĠBro": 1606,
      "ector": 1607,
      "Client": 1608,
      "akt": 1609,
      "iki": 1610,
      "ila": 1611,
      "ste": 1612,
      "Ġleg": 1613,
      "Rec": 1614,
      "Page": 1615,
      "Message": 1616,
      "from": 1617,
      "AF": 1618,
      "type": 1619,
      "Ġgl": 1620,
      "ĠMan": 1621,
      "DI": 1622,
      "akkh": 1623,
      "Ġo": 1624,
      "aga": 1625,
      "Property": 1626,
      "ĠQx": 1627,
      "data": 1628,
      "Down": 1629,
      "current": 1630,
      "nal": 1631,
      "send": 1632,
      "oul": 1633,
      "TP": 1634,
      "do": 1635,
      "Ġact": 1636,
      "erence": 1637,
      "ges": 1638,
      "Ġinf": 1639,
      "vol": 1640,
      "IO": 1641,
      "alf": 1642,
      "eger": 1643,
      "igg": 1644,
      "cont": 1645,
      "ben": 1646,
      "End": 1647,
      "ster": 1648,
      "ION": 1649,
      "anyl": 1650,
      "isT": 1651,
      "erman": 1652,
      "eda": 1653,
      "ean": 1654,
      "CB": 1655,
      "ula": 1656,
      "AY": 1657,
      "uct": 1658,
      "open": 1659,
      "oma": 1660,
      "Detail": 1661,
      "ander": 1662,
      "gar": 1663,
      "Sw": 1664,
      "stit": 1665,
      "ibus": 1666,
      "ĠBe": 1667,
      "Cell": 1668,
      "aft": 1669,
      "ĠAt": 1670,
      "atha": 1671,
      "Sub": 1672,
      "kin": 1673,
      "ypes": 1674,
      "ersion": 1675,
      "DE": 1676,
      "itch": 1677,
      "cad": 1678,
      "ertex": 1679,
      "andler": 1680,
      "elly": 1681,
      "itth": 1682,
      "ages": 1683,
      "And": 1684,
      "RG": 1685,
      "ko": 1686,
      "arks": 1687,
      "oles": 1688,
      "CD": 1689,
      "tot": 1690,
      "ignment": 1691,
      "Ġev": 1692,
      "rat": 1693,
      "ww": 1694,
      "EM": 1695,
      "ĠVill": 1696,
      "down": 1697,
      "Ġcor": 1698,
      "rin": 1699,
      "ney": 1700,
      "ged": 1701,
      "yan": 1702,
      "ced": 1703,
      "MR": 1704,
      "uel": 1705,
      "ants": 1706,
      "Ġir": 1707,
      "ĠMar": 1708,
      "Ġpor": 1709,
      "sm": 1710,
      "Location": 1711,
      "ĠEn": 1712,
      "inch": 1713,
      "imb": 1714,
      "Web": 1715,
      "start": 1716,
      "older": 1717,
      "Main": 1718,
      "ando": 1719,
      "ico": 1720,
      "Att": 1721,
      "inate": 1722,
      "Ġman": 1723,
      "Ġhem": 1724,
      "Ġpat": 1725,
      "imento": 1726,
      "oder": 1727,
      "odes": 1728,
      "asm": 1729,
      "Null": 1730,
      "Ġend": 1731,
      "PP": 1732,
      "Back": 1733,
      "ues": 1734,
      "ĠAb": 1735,
      "roc": 1736,
      "yte": 1737,
      "ken": 1738,
      "TT": 1739,
      "ttp": 1740,
      "Buf": 1741,
      "nam": 1742,
      "patch": 1743,
      "Link": 1744,
      "oint": 1745,
      "ĠRock": 1746,
      "Dis": 1747,
      "ices": 1748,
      "Spr": 1749,
      "ye": 1750,
      "Ġav": 1751,
      "acc": 1752,
      "Status": 1753,
      "ĠSm": 1754,
      "ova": 1755,
      "Form": 1756,
      "ved": 1757,
      "GC": 1758,
      "icks": 1759,
      "Json": 1760,
      "LU": 1761,
      "Card": 1762,
      "enz": 1763,
      "HP": 1764,
      "ja": 1765,
      "Ġexp": 1766,
      "ĠMcK": 1767,
      "Ġmon": 1768,
      "riff": 1769,
      "ĠMon": 1770,
      "Height": 1771,
      "auc": 1772,
      "uen": 1773,
      "rip": 1774,
      "yth": 1775,
      "fs": 1776,
      "Pref": 1777,
      "earch": 1778,
      "ĠRo": 1779,
      "MN": 1780,
      "Posit": 1781,
      "qual": 1782,
      "Debug": 1783,
      "Rect": 1784,
      "rac": 1785,
      "Ed": 1786,
      "umer": 1787,
      "ĠMcD": 1788,
      "var": 1789,
      "mm": 1790,
      "Ġpay": 1791,
      "ather": 1792,
      "irt": 1793,
      "Ġkn": 1794,
      "stance": 1795,
      "Ġrel": 1796,
      "oft": 1797,
      "Ġne": 1798,
      "Ġip": 1799,
      "ally": 1800,
      "Row": 1801,
      "ella": 1802,
      "ente": 1803,
      "sb": 1804,
      "rif": 1805,
      "mp": 1806,
      "iev": 1807,
      "Ġur": 1808,
      "aps": 1809,
      "name": 1810,
      "etry": 1811,
      "text": 1812,
      "Build": 1813,
      "ĠMad": 1814,
      "ahan": 1815,
      "Ġsol": 1816,
      "Ġut": 1817,
      "oin": 1818,
      "elt": 1819,
      "TL": 1820,
      "Exp": 1821,
      "play": 1822,
      "Ġadj": 1823,
      "Find": 1824,
      "ci": 1825,
      "Ġver": 1826,
      "eta": 1827,
      "omen": 1828,
      "Sync": 1829,
      "point": 1830,
      "ison": 1831,
      "ivity": 1832,
      "awn": 1833,
      "ĠCar": 1834,
      "pty": 1835,
      "adr": 1836,
      "yk": 1837,
      "pond": 1838,
      "lay": 1839,
      "igest": 1840,
      "HDR": 1841,
      "ĠVer": 1842,
      "Ġcons": 1843,
      "itter": 1844,
      "ination": 1845,
      "Open": 1846,
      "eni": 1847,
      "From": 1848,
      "usc": 1849,
      "ĠAng": 1850,
      "ĠRx": 1851,
      "unch": 1852,
      "urb": 1853,
      "aug": 1854,
      "lob": 1855,
      "ted": 1856,
      "inu": 1857,
      "han": 1858,
      "Length": 1859,
      "ĠNew": 1860,
      "eit": 1861,
      "ĠMont": 1862,
      "ader": 1863,
      "getB": 1864,
      "ushed": 1865,
      "Method": 1866,
      "utto": 1867,
      "odel": 1868,
      "UC": 1869,
      "RC": 1870,
      "print": 1871,
      "Dec": 1872,
      "anda": 1873,
      "file": 1874,
      "ape": 1875,
      "chen": 1876,
      "ĠFl": 1877,
      "lection": 1878,
      "agn": 1879,
      "Create": 1880,
      "init": 1881,
      "HA": 1882,
      "ctive": 1883,
      "Ġcur": 1884,
      "Ġes": 1885,
      "Query": 1886,
      "Cho": 1887,
      "idaz": 1888,
      "ĠRed": 1889,
      "Ġnot": 1890,
      "igned": 1891,
      "ville": 1892,
      "Num": 1893,
      "Auth": 1894,
      "ersh": 1895,
      "hou": 1896,
      "ustom": 1897,
      "Ġimm": 1898,
      "iya": 1899,
      "sel": 1900,
      "omot": 1901,
      "lem": 1902,
      "mat": 1903,
      "Student": 1904,
      "md": 1905,
      "Ġprz": 1906,
      "way": 1907,
      "ĠOr": 1908,
      "apter": 1909,
      "Update": 1910,
      "mann": 1911,
      "ĠPar": 1912,
      "ĠUn": 1913,
      "oard": 1914,
      "iver": 1915,
      "eto": 1916,
      "Ġemb": 1917,
      "Ġpart": 1918,
      "ei": 1919,
      "SX": 1920,
      "word": 1921,
      "gu": 1922,
      "raf": 1923,
      "ollow": 1924,
      "des": 1925,
      "xy": 1926,
      "riz": 1927,
      "UL": 1928,
      "room": 1929,
      "auf": 1930,
      "Per": 1931,
      "Ġover": 1932,
      "osa": 1933,
      "Ġoff": 1934,
      "GE": 1935,
      "mi": 1936,
      "LC": 1937,
      "del": 1938,
      "rea": 1939,
      "IST": 1940,
      "cop": 1941,
      "Game": 1942,
      "riter": 1943,
      "ines": 1944,
      "allow": 1945,
      "duct": 1946,
      "VC": 1947,
      "Ġfor": 1948,
      "ĠLor": 1949,
      "ful": 1950,
      "Label": 1951,
      "ĠMart": 1952,
      "roid": 1953,
      "ĠBel": 1954,
      "una": 1955,
      "olo": 1956,
      "Ġann": 1957,
      "eal": 1958,
      "Ġbil": 1959,
      "anch": 1960,
      "draw": 1961,
      "sa": 1962,
      "press": 1963,
      "Token": 1964,
      "ume": 1965,
      "irst": 1966,
      "Ġdem": 1967,
      "under": 1968,
      "ĠHar": 1969,
      "argin": 1970,
      "Asset": 1971,
      "Ġref": 1972,
      "ĠCol": 1973,
      "elles": 1974,
      "TH": 1975,
      "obj": 1976,
      "ellen": 1977,
      "vas": 1978,
      "ribute": 1979,
      "Not": 1980,
      "Sl": 1981,
      "Tool": 1982,
      "eks": 1983,
      "Ġneut": 1984,
      "vers": 1985,
      "DS": 1986,
      "atrix": 1987,
      "Style": 1988,
      "ĠSe": 1989,
      "Attribute": 1990,
      "hav": 1991,
      "counter": 1992,
      "Ġpol": 1993,
      "emia": 1994,
      "Ġspl": 1995,
      "ains": 1996,
      "ende": 1997,
      "unn": 1998,
      "gi": 1999,
      "ides": 2000,
      "color": 2001,
      "ba": 2002,
      "ĠFre": 2003,
      "embre": 2004,
      "Position": 2005,
      "ades": 2006,
      "Ġval": 2007,
      "ulfanyl": 2008,
      "Ġq": 2009,
      "space": 2010,
      "ared": 2011,
      "hel": 2012,
      "Builder": 2013,
      "sulfanyl": 2014,
      "Ġacc": 2015,
      "pie": 2016,
      "sal": 2017,
      "arat": 2018,
      "phen": 2019,
      "Full": 2020,
      "URN": 2021,
      "ense": 2022,
      "ĠEll": 2023,
      "ĠBlack": 2024,
      "len": 2025,
      "lov": 2026,
      "esthet": 2027,
      "Ġhum": 2028,
      "ives": 2029,
      "inst": 2030,
      "vel": 2031,
      "bu": 2032,
      "Cent": 2033,
      "Add": 2034,
      "esi": 2035,
      "perm": 2036,
      "Sprite": 2037,
      "Ġsn": 2038,
      "aat": 2039,
      "GR": 2040,
      "ijk": 2041,
      "onc": 2042,
      "api": 2043,
      "ourn": 2044,
      "ites": 2045,
      "Ġtri": 2046,
      "inding": 2047,
      "ungen": 2048,
      "ceed": 2049,
      "ote": 2050,
      "ents": 2051,
      "eton": 2052,
      "iego": 2053,
      "aires": 2054,
      "onne": 2055,
      "opp": 2056,
      "acute": 2057,
      "Ġfre": 2058,
      "irect": 2059,
      "Components": 2060,
      "ĠMor": 2061,
      "rone": 2062,
      "har": 2063,
      "angk": 2064,
      "Offset": 2065,
      "agen": 2066,
      "rog": 2067,
      "Ġtra": 2068,
      "itar": 2069,
      "enna": 2070,
      "cs": 2071,
      "Vertex": 2072,
      "view": 2073,
      "rie": 2074,
      "bb": 2075,
      "ĠWal": 2076,
      "war": 2077,
      "Now": 2078,
      "Ġcar": 2079,
      "bor": 2080,
      "link": 2081,
      "Th": 2082,
      "ugin": 2083,
      "OC": 2084,
      "prop": 2085,
      "sky": 2086,
      "sis": 2087,
      "aph": 2088,
      "ito": 2089,
      "EG": 2090,
      "test": 2091,
      "class": 2092,
      "Ġwh": 2093,
      "esto": 2094,
      "pton": 2095,
      "arsh": 2096,
      "eller": 2097,
      "itis": 2098,
      "ams": 2099,
      "SF": 2100,
      "Source": 2101,
      "Ġpres": 2102,
      "ucc": 2103,
      "iento": 2104,
      "eil": 2105,
      "iler": 2106,
      "ĠGal": 2107,
      "LP": 2108,
      "pos": 2109,
      "string": 2110,
      "isi": 2111,
      "ries": 2112,
      "ital": 2113,
      "sen": 2114,
      "oom": 2115,
      "ĠRaj": 2116,
      "ĠKe": 2117,
      "ĠMo": 2118,
      "ution": 2119,
      "Ġpret": 2120,
      "Port": 2121,
      "ohn": 2122,
      "ique": 2123,
      "Record": 2124,
      "uring": 2125,
      "Non": 2126,
      "rite": 2127,
      "CR": 2128,
      "ERN": 2129,
      "log": 2130,
      "hn": 2131,
      "Body": 2132,
      "Keys": 2133,
      "so": 2134,
      "Sett": 2135,
      "ĠRUT": 2136,
      "umn": 2137,
      "ranch": 2138,
      "Pos": 2139,
      "ĠUI": 2140,
      "ours": 2141,
      "ĠPol": 2142,
      "hab": 2143,
      "ĠHo": 2144,
      "Ġdist": 2145,
      "aker": 2146,
      "ilt": 2147,
      "Login": 2148,
      "akukan": 2149,
      "ideo": 2150,
      "emy": 2151,
      "El": 2152,
      "Video": 2153,
      "ueue": 2154,
      "inct": 2155,
      "Ġmy": 2156,
      "Marks": 2157,
      "review": 2158,
      "ymbol": 2159,
      "Ġpop": 2160,
      "lig": 2161,
      "eler": 2162,
      "ĠHe": 2163,
      "efont": 2164,
      "ĠGar": 2165,
      "eport": 2166,
      "elli": 2167,
      "Ġhab": 2168,
      "mond": 2169,
      "ocket": 2170,
      "Settings": 2171,
      "eft": 2172,
      "ĠEp": 2173,
      "ocalVar": 2174,
      "gg": 2175,
      "other": 2176,
      "TI": 2177,
      "Ġple": 2178,
      "bert": 2179,
      "page": 2180,
      "Sup": 2181,
      "yo": 2182,
      "atu": 2183,
      "etter": 2184,
      "ĠCav": 2185,
      "zn": 2186,
      "Script": 2187,
      "ahi": 2188,
      "annya": 2189,
      "Sal": 2190,
      "Did": 2191,
      "HL": 2192,
      "itle": 2193,
      "big": 2194,
      "ingen": 2195,
      "cher": 2196,
      "rel": 2197,
      "TO": 2198,
      "vo": 2199,
      "ĠCro": 2200,
      "uda": 2201,
      "Ġsur": 2202,
      "Screen": 2203,
      "Player": 2204,
      "Temp": 2205,
      "Ġmel": 2206,
      "ĠCont": 2207,
      "Rad": 2208,
      "FS": 2209,
      "ves": 2210,
      "Counter": 2211,
      "lich": 2212,
      "eston": 2213,
      "eva": 2214,
      "Types": 2215,
      "HS": 2216,
      "Show": 2217,
      "Ġvatt": 2218,
      "ĠIr": 2219,
      "Sql": 2220,
      "OU": 2221,
      "zin": 2222,
      "rvGroup": 2223,
      "ista": 2224,
      "MT": 2225,
      "Ġcyt": 2226,
      "ĠRh": 2227,
      "Queue": 2228,
      "Load": 2229,
      "ilde": 2230,
      "upt": 2231,
      "Ġaus": 2232,
      "count": 2233,
      "Para": 2234,
      "ĠHor": 2235,
      "right": 2236,
      "Ġcomp": 2237,
      "imi": 2238,
      "ude": 2239,
      "tils": 2240,
      "Items": 2241,
      "BE": 2242,
      "reens": 2243,
      "Dict": 2244,
      "ĠSom": 2245,
      "hd": 2246,
      "ashi": 2247,
      "Parameter": 2248,
      "lish": 2249,
      "Parser": 2250,
      "dl": 2251,
      "Ġstat": 2252,
      "ists": 2253,
      "yg": 2254,
      "RS": 2255,
      "ehyd": 2256,
      "illy": 2257,
      "nc": 2258,
      "ocument": 2259,
      "Compat": 2260,
      "yll": 2261,
      "htt": 2262,
      "vider": 2263,
      "Ġbr": 2264,
      "Ġconc": 2265,
      "ece": 2266,
      "omy": 2267,
      "Com": 2268,
      "Ġhot": 2269,
      "getC": 2270,
      "ystem": 2271,
      "aten": 2272,
      "osis": 2273,
      "rome": 2274,
      "gram": 2275,
      "iendo": 2276,
      "efore": 2277,
      "ones": 2278,
      "mouse": 2279,
      "ollis": 2280,
      "FT": 2281,
      "istic": 2282,
      "eed": 2283,
      "AB": 2284,
      "Ġins": 2285,
      "PL": 2286,
      "ki": 2287,
      "augh": 2288,
      "itte": 2289,
      "Ġtre": 2290,
      "atter": 2291,
      "Module": 2292,
      "ymph": 2293,
      "ĠGo": 2294,
      "Btn": 2295,
      "otrop": 2296,
      "ĠBerg": 2297,
      "ĠEst": 2298,
      "Ġele": 2299,
      "Bound": 2300,
      "FF": 2301,
      "create": 2302,
      "wick": 2303,
      "ika": 2304,
      "Wait": 2305,
      "Ġmin": 2306,
      "ĠPA": 2307,
      "Ġcontent": 2308,
      "URL": 2309,
      "irm": 2310,
      "ony": 2311,
      "ativ": 2312,
      "BL": 2313,
      "math": 2314,
      "aria": 2315,
      "une": 2316,
      "rine": 2317,
      "owan": 2318,
      "ĠPl": 2319,
      "aret": 2320,
      "Ġmast": 2321,
      "ici": 2322,
      "Plugin": 2323,
      "etta": 2324,
      "nej": 2325,
      "OL": 2326,
      "Ġpur": 2327,
      "imer": 2328,
      "icons": 2329,
      "BI": 2330,
      "ilit": 2331,
      "iley": 2332,
      "Ġmag": 2333,
      "ytes": 2334,
      "Ġenc": 2335,
      "iled": 2336,
      "hot": 2337,
      "AA": 2338,
      "hm": 2339,
      "ther": 2340,
      "GP": 2341,
      "ival": 2342,
      "ĠSte": 2343,
      "elet": 2344,
      "Ġconse": 2345,
      "obac": 2346,
      "aran": 2347,
      "Ġass": 2348,
      "SU": 2349,
      "ĠAy": 2350,
      "ache": 2351,
      "oen": 2352,
      "Struct": 2353,
      "allback": 2354,
      "andom": 2355,
      "ogen": 2356,
      "Ġcre": 2357,
      "Pk": 2358,
      "aint": 2359,
      "aler": 2360,
      "Operation": 2361,
      "Command": 2362,
      "Dev": 2363,
      "uml": 2364,
      "eek": 2365,
      "ĠAsh": 2366,
      "Ġtor": 2367,
      "zen": 2368,
      "bs": 2369,
      "Scroll": 2370,
      "atham": 2371,
      "uble": 2372,
      "iye": 2373,
      "bury": 2374,
      "Ġdham": 2375,
      "Ret": 2376,
      "Avg": 2377,
      "ited": 2378,
      "Sch": 2379,
      "ĠArch": 2380,
      "Ġpos": 2381,
      "Ġor": 2382,
      "imo": 2383,
      "osc": 2384,
      "Vis": 2385,
      "stock": 2386,
      "ayam": 2387,
      "Ġinv": 2388,
      "Font": 2389,
      "ample": 2390,
      "rou": 2391,
      "AE": 2392,
      "rug": 2393,
      "ether": 2394,
      "ĠPL": 2395,
      "eon": 2396,
      "Rout": 2397,
      "inf": 2398,
      "hal": 2399,
      "rown": 2400,
      "anja": 2401,
      "erto": 2402,
      "amo": 2403,
      "ulation": 2404,
      "Ġstr": 2405,
      "Ġpe": 2406,
      "mas": 2407,
      "roller": 2408,
      "tim": 2409,
      "opl": 2410,
      "Right": 2411,
      "ike": 2412,
      "tered": 2413,
      "Ġreg": 2414,
      "kit": 2415,
      "osph": 2416,
      "ristian": 2417,
      "rowser": 2418,
      "Ġvel": 2419,
      "ga": 2420,
      "ĠNag": 2421,
      "ogram": 2422,
      "ework": 2423,
      "Pack": 2424,
      "Top": 2425,
      "eco": 2426,
      "ogo": 2427,
      "ness": 2428,
      "olson": 2429,
      "vation": 2430,
      "ND": 2431,
      "Ptr": 2432,
      "ĠReg": 2433,
      "ĠRos": 2434,
      "outs": 2435,
      "Ġpers": 2436,
      "etch": 2437,
      "ono": 2438,
      "ados": 2439,
      "unsch": 2440,
      "GS": 2441,
      "asis": 2442,
      "CF": 2443,
      "Press": 2444,
      "face": 2445,
      "olicy": 2446,
      "nem": 2447,
      "Ġsil": 2448,
      "Task": 2449,
      "Ġduk": 2450,
      "lav": 2451,
      "oggle": 2452,
      "Ġmer": 2453,
      "ania": 2454,
      "ĠGir": 2455,
      "iol": 2456,
      "SXml": 2457,
      "Version": 2458,
      "ĠEM": 2459,
      "image": 2460,
      "assa": 2461,
      "umph": 2462,
      "czn": 2463,
      "oup": 2464,
      "Ġloc": 2465,
      "lj": 2466,
      "Search": 2467,
      "hes": 2468,
      "obb": 2469,
      "UID": 2470,
      "ĠMcInt": 2471,
      "Navig": 2472,
      "Http": 2473,
      "Equal": 2474,
      "Gl": 2475,
      "Ġsput": 2476,
      "Instance": 2477,
      "edit": 2478,
      "akes": 2479,
      "oji": 2480,
      "Character": 2481,
      "Ġinput": 2482,
      "Connection": 2483,
      "Unary": 2484,
      "olm": 2485,
      "illes": 2486,
      "lio": 2487,
      "Ġrect": 2488,
      "ilda": 2489,
      "Ġdo": 2490,
      "rame": 2491,
      "ĠDom": 2492,
      "atform": 2493,
      "angu": 2494,
      "asena": 2495,
      "ĠBer": 2496,
      "onucle": 2497,
      "Ġaf": 2498,
      "Props": 2499,
      "ĠEx": 2500,
      "aton": 2501,
      "Ġbul": 2502,
      "icker": 2503,
      "Ġext": 2504,
      "SON": 2505,
      "ĠMcL": 2506,
      "atas": 2507,
      "ART": 2508,
      "aron": 2509,
      "erred": 2510,
      "Ġing": 2511,
      "cre": 2512,
      "racket": 2513,
      "asal": 2514,
      "Pix": 2515,
      "uced": 2516,
      "getM": 2517,
      "Camera": 2518,
      "ology": 2519,
      "rew": 2520,
      "irl": 2521,
      "Ġparab": 2522,
      "Empty": 2523,
      "OW": 2524,
      "Ġsam": 2525,
      "ify": 2526,
      "screen": 2527,
      "Ġlle": 2528,
      "Mutability": 2529,
      "Ġsymbol": 2530,
      "head": 2531,
      "econds": 2532,
      "PD": 2533,
      "idden": 2534,
      "aliz": 2535,
      "idazole": 2536,
      "Ġmic": 2537,
      "Interface": 2538,
      "isTrack": 2539,
      "ador": 2540,
      "Ġgi": 2541,
      "ori": 2542,
      "ained": 2543,
      "alan": 2544,
      "rep": 2545,
      "arant": 2546,
      "cy": 2547,
      "ILL": 2548,
      "hy": 2549,
      "Ow": 2550,
      "apping": 2551,
      "ĠHay": 2552,
      "DL": 2553,
      "Fit": 2554,
      "ground": 2555,
      "Push": 2556,
      "azar": 2557,
      "Ġred": 2558,
      "rod": 2559,
      "ective": 2560,
      "Policy": 2561,
      "miss": 2562,
      "EP": 2563,
      "ury": 2564,
      "ikt": 2565,
      "Ġkar": 2566,
      "ĠLuc": 2567,
      "ials": 2568,
      "Target": 2569,
      "pm": 2570,
      "VCT": 2571,
      "Ġte": 2572,
      "ske": 2573,
      "lectic": 2574,
      "BP": 2575,
      "Ġfo": 2576,
      "Ġde": 2577,
      "ief": 2578,
      "ORT": 2579,
      "enden": 2580,
      "ĠCH": 2581,
      "osk": 2582,
      "nav": 2583,
      "FC": 2584,
      "raven": 2585,
      "Board": 2586,
      "eros": 2587,
      "Bl": 2588,
      "Callback": 2589,
      "bad": 2590,
      "RA": 2591,
      "oor": 2592,
      "Project": 2593,
      "iana": 2594,
      "vr": 2595,
      "Ġcol": 2596,
      "Handler": 2597,
      "rows": 2598,
      "ĠGi": 2599,
      "ister": 2600,
      "amily": 2601,
      "appe": 2602,
      "PO": 2603,
      "Device": 2604,
      "Sample": 2605,
      "ingham": 2606,
      "ĠSk": 2607,
      "race": 2608,
      "ytic": 2609,
      "inde": 2610,
      "ondo": 2611,
      "idin": 2612,
      "Ġpercent": 2613,
      "erno": 2614,
      "ardi": 2615,
      "char": 2616,
      "Ġviv": 2617,
      "Fact": 2618,
      "Flight": 2619,
      "arker": 2620,
      "eground": 2621,
      "esus": 2622,
      "ife": 2623,
      "Used": 2624,
      "Ġvutt": 2625,
      "ĠKx": 2626,
      "Ġmeg": 2627,
      "atiti": 2628,
      "ersch": 2629,
      "ĠBad": 2630,
      "code": 2631,
      "esse": 2632,
      "umann": 2633,
      "Ġbet": 2634,
      "Ġsu": 2635,
      "search": 2636,
      "oney": 2637,
      "ĠMax": 2638,
      "peat": 2639,
      "PI": 2640,
      "imple": 2641,
      "Ġmost": 2642,
      "ungs": 2643,
      "itone": 2644,
      "Ġferr": 2645,
      "Ġren": 2646,
      "Ġgel": 2647,
      "ilis": 2648,
      "wise": 2649,
      "ired": 2650,
      "pear": 2651,
      "inner": 2652,
      "Ġfamil": 2653,
      "ordan": 2654,
      "Ġdiss": 2655,
      "rift": 2656,
      "Ġknock": 2657,
      "rish": 2658,
      "Details": 2659,
      "ĠMaur": 2660,
      "ursor": 2661,
      "ushroom": 2662,
      "ergic": 2663,
      "ĠAll": 2664,
      "osi": 2665,
      "oon": 2666,
      "ĠGall": 2667,
      "eza": 2668,
      "Ġic": 2669,
      "outh": 2670,
      "Ġdata": 2671,
      "ĠBeat": 2672,
      "aze": 2673,
      "burg": 2674,
      "angle": 2675,
      "ahu": 2676,
      "aim": 2677,
      "anny": 2678,
      "DT": 2679,
      "zi": 2680,
      "ilm": 2681,
      "ĠRUTAR": 2682,
      "Save": 2683,
      "url": 2684,
      "ĠOb": 2685,
      "FR": 2686,
      "sid": 2687,
      "ahul": 2688,
      "ague": 2689,
      "rot": 2690,
      "ida": 2691,
      "Ġsubt": 2692,
      "urope": 2693,
      "roke": 2694,
      "lyn": 2695,
      "Ġphen": 2696,
      "tha": 2697,
      "ebra": 2698,
      "Bin": 2699,
      "eres": 2700,
      "stream": 2701,
      "OH": 2702,
      "Ġcle": 2703,
      "UD": 2704,
      "Ġbro": 2705,
      "ures": 2706,
      "ikan": 2707,
      "yatt": 2708,
      "stone": 2709,
      "Ext": 2710,
      "ĠBuk": 2711,
      "Provider": 2712,
      "Ġax": 2713,
      "Ġhead": 2714,
      "owell": 2715,
      "had": 2716,
      "ĠGh": 2717,
      "Wall": 2718,
      "ĠShe": 2719,
      "Adapter": 2720,
      "ĠBoy": 2721,
      "amine": 2722,
      "abbam": 2723,
      "Ġdign": 2724,
      "rust": 2725,
      "Args": 2726,
      "igo": 2727,
      "Ġposit": 2728,
      "amento": 2729,
      "ĠDal": 2730,
      "ĠAnd": 2731,
      "olver": 2732,
      "Des": 2733,
      "Ġmot": 2734,
      "ĠHumph": 2735,
      "tb": 2736,
      "mult": 2737,
      "Flag": 2738,
      "him": 2739,
      "odor": 2740,
      "rant": 2741,
      "ward": 2742,
      "uls": 2743,
      "NS": 2744,
      "Center": 2745,
      "iers": 2746,
      "arah": 2747,
      "Ġvert": 2748,
      "ĠCR": 2749,
      "sad": 2750,
      "ERC": 2751,
      "Ġhand": 2752,
      "Utils": 2753,
      "Ġprop": 2754,
      "Ġcr": 2755,
      "alam": 2756,
      "ffen": 2757,
      "EY": 2758,
      "raul": 2759,
      "Ġtot": 2760,
      "alar": 2761,
      "allel": 2762,
      "stant": 2763,
      "ational": 2764,
      "ĠMarg": 2765,
      "ranc": 2766,
      "urd": 2767,
      "aye": 2768,
      "umm": 2769,
      "VER": 2770,
      "ieg": 2771,
      "Ġmill": 2772,
      "ĠGr": 2773,
      "Controller": 2774,
      "Tab": 2775,
      "alm": 2776,
      "eno": 2777,
      "eless": 2778,
      "tol": 2779,
      "edd": 2780,
      "Ġabh": 2781,
      "ĠCorn": 2782,
      "Ġdil": 2783,
      "Str": 2784,
      "Ass": 2785,
      "ĠNorth": 2786,
      "ĠUt": 2787,
      "ello": 2788,
      "Ġkey": 2789,
      "Dto": 2790,
      "Ġexc": 2791,
      "por": 2792,
      "ĠNL": 2793,
      "uest": 2794,
      "Del": 2795,
      "Opt": 2796,
      "Ġten": 2797,
      "BT": 2798,
      "bre": 2799,
      "revi": 2800,
      "akespe": 2801,
      "wrap": 2802,
      "kar": 2803,
      "itrile": 2804,
      "Current": 2805,
      "Ġvucc": 2806,
      "aad": 2807,
      "ĠBa": 2808,
      "dk": 2809,
      "Ġat": 2810,
      "Ġkah": 2811,
      "Radius": 2812,
      "auer": 2813,
      "pop": 2814,
      "Ġmyc": 2815,
      "sche": 2816,
      "Ġprim": 2817,
      "ĠUIC": 2818,
      "inder": 2819,
      "Ġunder": 2820,
      "itting": 2821,
      "endez": 2822,
      "sy": 2823,
      "reet": 2824,
      "ryst": 2825,
      "fordshire": 2826,
      "VS": 2827,
      "anger": 2828,
      "trl": 2829,
      "esu": 2830,
      "idad": 2831,
      "ĠMull": 2832,
      "oster": 2833,
      "si": 2834,
      "ĠCan": 2835,
      "ily": 2836,
      "Beat": 2837,
      "ĠGreen": 2838,
      "Vector": 2839,
      "ches": 2840,
      "imation": 2841,
      "ommon": 2842,
      "sn": 2843,
      "iaz": 2844,
      "sec": 2845,
      "eder": 2846,
      "Ġven": 2847,
      "Ġsem": 2848,
      "house": 2849,
      "Dir": 2850,
      "Child": 2851,
      "aird": 2852,
      "Re": 2853,
      "atir": 2854,
      "Chang": 2855,
      "icate": 2856,
      "obil": 2857,
      "Popup": 2858,
      "andal": 2859,
      "eze": 2860,
      "struct": 2861,
      "ĠComp": 2862,
      "ĠTon": 2863,
      "Photo": 2864,
      "ĠStaff": 2865,
      "Stack": 2866,
      "ĠStr": 2867,
      "One": 2868,
      "Ġtub": 2869,
      "ences": 2870,
      "ging": 2871,
      "acht": 2872,
      "ĠWeb": 2873,
      "quier": 2874,
      "System": 2875,
      "nes": 2876,
      "drop": 2877,
      "fol": 2878,
      "ypt": 2879,
      "bum": 2880,
      "Byte": 2881,
      "alur": 2882,
      "ĠBarcl": 2883,
      "ĠSab": 2884,
      "ilib": 2885,
      "enie": 2886,
      "INT": 2887,
      "lia": 2888,
      "ĠAp": 2889,
      "ije": 2890,
      "Keyboard": 2891,
      "brevi": 2892,
      "Ġwarm": 2893,
      "ĠFerr": 2894,
      "Ġconf": 2895,
      "Ġest": 2896,
      "cor": 2897,
      "quam": 2898,
      "ayan": 2899,
      "ska": 2900,
      "ĠHer": 2901,
      "ulin": 2902,
      "Mov": 2903,
      "iros": 2904,
      "orum": 2905,
      "Route": 2906,
      "iyet": 2907,
      "has": 2908,
      "iller": 2909,
      "azi": 2910,
      "sql": 2911,
      "Ġet": 2912,
      "abs": 2913,
      "sman": 2914,
      "ME": 2915,
      "Aud": 2916,
      "Case": 2917,
      "eman": 2918,
      "ĠMain": 2919,
      "Ġbe": 2920,
      "uchi": 2921,
      "zym": 2922,
      "orrh": 2923,
      "ikum": 2924,
      "Ġfile": 2925,
      "jel": 2926,
      "ĠsubTest": 2927,
      "olds": 2928,
      "elf": 2929,
      "RAN": 2930,
      "ĠMa": 2931,
      "Ġrup": 2932,
      "ements": 2933,
      "Ġeg": 2934,
      "Percent": 2935,
      "lt": 2936,
      "QL": 2937,
      "uang": 2938,
      "Document": 2939,
      "Product": 2940,
      "ĠFair": 2941,
      "Ġatth": 2942,
      "ewer": 2943,
      "Ġodp": 2944,
      "Ġcin": 2945,
      "Ac": 2946,
      "Ġtem": 2947,
      "iner": 2948,
      "ators": 2949,
      "asp": 2950,
      "Ġmet": 2951,
      "Ġbo": 2952,
      "GA": 2953,
      "ĠHein": 2954,
      "ube": 2955,
      "ĠGer": 2956,
      "Ġmod": 2957,
      "ehen": 2958,
      "wen": 2959,
      "erre": 2960,
      "Ġaff": 2961,
      "kk": 2962,
      "arra": 2963,
      "ĠGro": 2964,
      "cd": 2965,
      "inh": 2966,
      "ĠLut": 2967,
      "aste": 2968,
      "aries": 2969,
      "ograph": 2970,
      "spl": 2971,
      "DF": 2972,
      "onda": 2973,
      "aris": 2974,
      "vach": 2975,
      "wt": 2976,
      "iper": 2977,
      "olt": 2978,
      "Pass": 2979,
      "ieht": 2980,
      "atin": 2981,
      "elo": 2982,
      "ĠCam": 2983,
      "aneu": 2984,
      "ramework": 2985,
      "ission": 2986,
      "ryl": 2987,
      "XY": 2988,
      "ĠAss": 2989,
      "We": 2990,
      "ĠRad": 2991,
      "rach": 2992,
      "ĠEng": 2993,
      "rik": 2994,
      "Navigator": 2995,
      "ĠHaw": 2996,
      "ruff": 2997,
      "webElement": 2998,
      "ermi": 2999,
      "Tree": 3000,
      "inden": 3001,
      "Ġdev": 3002,
      "unct": 3003,
      "stat": 3004,
      "Ġmit": 3005,
      "ofar": 3006,
      "iser": 3007,
      "arin": 3008,
      "ongo": 3009,
      "ĠSur": 3010,
      "igan": 3011,
      "yloxy": 3012,
      "col": 3013,
      "Area": 3014,
      "align": 3015,
      "lands": 3016,
      "sun": 3017,
      "ibb": 3018,
      "phal": 3019,
      "YPE": 3020,
      "romo": 3021,
      "iko": 3022,
      "Each": 3023,
      "Unit": 3024,
      "write": 3025,
      "Kind": 3026,
      "ĠMal": 3027,
      "Core": 3028,
      "If": 3029,
      "VP": 3030,
      "ĠUl": 3031,
      "adam": 3032,
      "Ab": 3033,
      "ĠPet": 3034,
      "ells": 3035,
      "ky": 3036,
      "feit": 3037,
      "Ġart": 3038,
      "def": 3039,
      "iph": 3040,
      "ool": 3041,
      "ĠBrit": 3042,
      "Cap": 3043,
      "Ġoct": 3044,
      "atts": 3045,
      "ela": 3046,
      "rex": 3047,
      "nown": 3048,
      "Ġand": 3049,
      "lis": 3050,
      "Ġid": 3051,
      "rypt": 3052,
      "olid": 3053,
      "hens": 3054,
      "ĠFA": 3055,
      "list": 3056,
      "Grid": 3057,
      "ucleaires": 3058,
      "UE": 3059,
      "umble": 3060,
      "LAG": 3061,
      "Ap": 3062,
      "agger": 3063,
      "etz": 3064,
      "ysz": 3065,
      "posit": 3066,
      "Preview": 3067,
      "greg": 3068,
      "Pane": 3069,
      "ĠSL": 3070,
      "owe": 3071,
      "ubs": 3072,
      "urk": 3073,
      "angs": 3074,
      "rote": 3075,
      "oku": 3076,
      "Ġauto": 3077,
      "ising": 3078,
      "Ġrealiz": 3079,
      "Drop": 3080,
      "Ġmar": 3081,
      "0x": 3082,
      "<0x": 3083,
      "Ġcond": 3084,
      "ĠWill": 3085,
      "etic": 3086,
      "RGB": 3087,
      "IK": 3088,
      "resh": 3089,
      "ĠGab": 3090,
      "iffer": 3091,
      "Ġther": 3092,
      "Rx": 3093,
      "RxDocument": 3094,
      "Ġatt": 3095,
      "rict": 3096,
      "comstock": 3097,
      "ĠSRP": 3098,
      "Asp": 3099,
      "icle": 3100,
      "ahl": 3101,
      "ekt": 3102,
      "Support": 3103,
      "chn": 3104,
      "agon": 3105,
      "Ġbre": 3106,
      "ĠYam": 3107,
      "kinson": 3108,
      "ĠMaj": 3109,
      "Ġnov": 3110,
      "phenyl": 3111,
      "Ġbeg": 3112,
      "ĠAug": 3113,
      "thorax": 3114,
      "igation": 3115,
      "Events": 3116,
      "rane": 3117,
      "ToProps": 3118,
      "iddle": 3119,
      "ĠBal": 3120,
      "anes": 3121,
      "ĠFitz": 3122,
      "erial": 3123,
      "illus": 3124,
      "Concept": 3125,
      "YY": 3126,
      "Ġtw": 3127,
      "Ġmand": 3128,
      "Graph": 3129,
      "ĠPad": 3130,
      "beat": 3131,
      "ATIV": 3132,
      "Perm": 3133,
      "ophor": 3134,
      "xx": 3135,
      "http": 3136,
      "rington": 3137,
      "follow": 3138,
      "ĠBern": 3139,
      "Ġrev": 3140,
      "agin": 3141,
      "uana": 3142,
      "Ġla": 3143,
      "illon": 3144,
      "Ġneg": 3145,
      "aved": 3146,
      "isms": 3147,
      "Ent": 3148,
      "Ġhalf": 3149,
      "cup": 3150,
      "Ġped": 3151,
      "expr": 3152,
      "Ġcele": 3153,
      "Ġgacch": 3154,
      "oe": 3155,
      "onom": 3156,
      "Ġfast": 3157,
      "Compl": 3158,
      "ermin": 3159,
      "ĠLiv": 3160,
      "hook": 3161,
      "Edit": 3162,
      "She": 3163,
      "Choice": 3164,
      "Ġju": 3165,
      "Root": 3166,
      "acet": 3167,
      "Ġport": 3168,
      "iot": 3169,
      "anche": 3170,
      "Trans": 3171,
      "ĠKais": 3172,
      "imiz": 3173,
      "Br": 3174,
      "GT": 3175,
      "XYZ": 3176,
      "Ġsob": 3177,
      "wan": 3178,
      "exec": 3179,
      "irth": 3180,
      "Matrix": 3181,
      "Dispatch": 3182,
      "ommod": 3183,
      "SL": 3184,
      "ently": 3185,
      "Shape": 3186,
      "cul": 3187,
      "ĠCyr": 3188,
      "iat": 3189,
      "arded": 3190,
      "etr": 3191,
      "onna": 3192,
      "yer": 3193,
      "ikut": 3194,
      "iert": 3195,
      "Ġbas": 3196,
      "idget": 3197,
      "ĠBog": 3198,
      "offset": 3199,
      "uge": 3200,
      "ympt": 3201,
      "Lua": 3202,
      "plot": 3203,
      "method": 3204,
      "egu": 3205,
      "corr": 3206,
      "BU": 3207,
      "Ġinst": 3208,
      "thol": 3209,
      "iary": 3210,
      "rek": 3211,
      "esz": 3212,
      "ctivity": 3213,
      "sie": 3214,
      "bib": 3215,
      "Ġtro": 3216,
      "II": 3217,
      "SH": 3218,
      "Ġwa": 3219,
      "ĠLak": 3220,
      "quare": 3221,
      "ried": 3222,
      "icles": 3223,
      "ĠPe": 3224,
      "anvas": 3225,
      "obe": 3226,
      "BR": 3227,
      "ateral": 3228,
      "ĠPro": 3229,
      "nego": 3230,
      "ĠEug": 3231,
      "adal": 3232,
      "Ġfe": 3233,
      "rig": 3234,
      "Base": 3235,
      "Column": 3236,
      "ydro": 3237,
      "unes": 3238,
      "sor": 3239,
      "erecht": 3240,
      "iran": 3241,
      "Ġall": 3242,
      "ĠDown": 3243,
      "apsed": 3244,
      "jal": 3245,
      "urity": 3246,
      "DM": 3247,
      "Factory": 3248,
      "Ġbase": 3249,
      "okat": 3250,
      "etto": 3251,
      "ĠDod": 3252,
      "Before": 3253,
      "IZ": 3254,
      "param": 3255,
      "Platform": 3256,
      "iber": 3257,
      "asus": 3258,
      "Ġdep": 3259,
      "ĠDh": 3260,
      "Ġyath": 3261,
      "iven": 3262,
      "ĠAugust": 3263,
      "itten": 3264,
      "Ġnaj": 3265,
      "itim": 3266,
      "Arch": 3267,
      "hatu": 3268,
      "imet": 3269,
      "yb": 3270,
      "anne": 3271,
      "then": 3272,
      "namefont": 3273,
      "Canvas": 3274,
      "udan": 3275,
      "mund": 3276,
      "evel": 3277,
      "opy": 3278,
      "mont": 3279,
      "ullam": 3280,
      "post": 3281,
      "rade": 3282,
      "CTOR": 3283,
      "Background": 3284,
      "Sort": 3285,
      "Ġphot": 3286,
      "Enc": 3287,
      "ĠOl": 3288,
      "Space": 3289,
      "ĠlocalVar": 3290,
      "ottom": 3291,
      "ĠViv": 3292,
      "ublic": 3293,
      "game": 3294,
      "ĠNP": 3295,
      "oja": 3296,
      "ARR": 3297,
      "Folder": 3298,
      "cest": 3299,
      "Texture": 3300,
      "dd": 3301,
      "organ": 3302,
      "ivo": 3303,
      "Level": 3304,
      "erme": 3305,
      "adis": 3306,
      "Ġdob": 3307,
      "Activity": 3308,
      "engu": 3309,
      "encent": 3310,
      "ASE": 3311,
      "ĠPel": 3312,
      "ungan": 3313,
      "arbox": 3314,
      "ELE": 3315,
      "ĠBo": 3316,
      "ipe": 3317,
      "ĠIN": 3318,
      "ĠKey": 3319,
      "ousse": 3320,
      "Scale": 3321,
      "ELEASE": 3322,
      "Ġitem": 3323,
      "rech": 3324,
      "eben": 3325,
      "SrvGroup": 3326,
      "rij": 3327,
      "Tmp": 3328,
      "ĠSpring": 3329,
      "Ġconsequ": 3330,
      "ential": 3331,
      "cel": 3332,
      "ple": 3333,
      "odh": 3334,
      "time": 3335,
      "ept": 3336,
      "Ġaliqu": 3337,
      "www": 3338,
      "wwwpond": 3339,
      "ento": 3340,
      "Ġlib": 3341,
      "Ġdrag": 3342,
      "andl": 3343,
      "ctx": 3344,
      "Post": 3345,
      "Ġmultic": 3346,
      "iam": 3347,
      "Match": 3348,
      "CPP": 3349,
      "ĠInput": 3350,
      "ĠKish": 3351,
      "AI": 3352,
      "Ġlab": 3353,
      "ĠPap": 3354,
      "antile": 3355,
      "urry": 3356,
      "erton": 3357,
      "ĠMH": 3358,
      "gd": 3359,
      "RAM": 3360,
      "loud": 3361,
      "uses": 3362,
      "ARG": 3363,
      "max": 3364,
      "cos": 3365,
      "ĠJac": 3366,
      "dis": 3367,
      "Package": 3368,
      "Idle": 3369,
      "vm": 3370,
      "IdleSync": 3371,
      "Pkg": 3372,
      "ParaPkg": 3373,
      "lus": 3374,
      "ĠBrid": 3375,
      "Ġrh": 3376,
      "dam": 3377,
      "uman": 3378,
      "aras": 3379,
      "Ġlu": 3380,
      "Ġgah": 3381,
      "nah": 3382,
      "ALL": 3383,
      "otlin": 3384,
      "icture": 3385,
      "Ġsac": 3386,
      "henium": 3387,
      "iom": 3388,
      "buf": 3389,
      "ĠHeid": 3390,
      "fu": 3391,
      "Ġtran": 3392,
      "awks": 3393,
      "Take": 3394,
      "ship": 3395,
      "ĠWat": 3396,
      "feat": 3397,
      "ENUM": 3398,
      "NewUrl": 3399,
      "formed": 3400,
      "Ġgahet": 3401,
      "Ġmicro": 3402,
      "ĠhalfCanvas": 3403,
      "amos": 3404,
      "Ġmem": 3405,
      "omes": 3406,
      "ĠAv": 3407,
      "ershire": 3408,
      "usp": 3409,
      "ĠVen": 3410,
      "arlene": 3411,
      "MethodBeat": 3412,
      "mit": 3413,
      "coprote": 3414,
      "Ġanis": 3415,
      "gn": 3416,
      "Raw": 3417,
      "Ġneutral": 3418,
      "Ġgol": 3419,
      "ĠPat": 3420,
      "Ġmorph": 3421,
      "ĠMerc": 3422,
      "aric": 3423,
      "enny": 3424,
      "ĠAst": 3425,
      "job": 3426,
      "enia": 3427,
      "osin": 3428,
      "apped": 3429,
      "Do": 3430,
      "sten": 3431,
      "ĠMod": 3432,
      "ober": 3433,
      "OCC": 3434,
      "Point": 3435,
      "aniy": 3436,
      "uo": 3437,
      "rar": 3438,
      "NN": 3439,
      "alg": 3440,
      "size": 3441,
      "fill": 3442,
      "Ġsett": 3443,
      "Ġinterview": 3444,
      "Ġsle": 3445,
      "enth": 3446,
      "ĠBang": 3447,
      "abbo": 3448,
      "ĠPfe": 3449,
      "FER": 3450,
      "ago": 3451,
      "tin": 3452,
      "Ġus": 3453,
      "otherm": 3454,
      "esting": 3455,
      "WMN": 3456,
      "sz": 3457,
      "atory": 3458,
      "hed": 3459,
      "orman": 3460,
      "Put": 3461,
      "alaikum": 3462,
      "ĠPear": 3463,
      "orrent": 3464,
      "ehyde": 3465,
      "ordon": 3466,
      "EE": 3467,
      "ĠCov": 3468,
      "VOA": 3469,
      "lr": 3470,
      "ilian": 3471,
      "lef": 3472,
      "ungk": 3473,
      "StructOf": 3474,
      "ĠPay": 3475,
      "ycle": 3476,
      "iente": 3477,
      "jug": 3478,
      "ĠMcM": 3479,
      "Archive": 3480,
      "curs": 3481,
      "Left": 3482,
      "stm": 3483,
      "keit": 3484,
      "ified": 3485,
      "egen": 3486,
      "inter": 3487,
      "Pressed": 3488,
      "piece": 3489,
      "bed": 3490,
      "ĠLD": 3491,
      "ilon": 3492,
      "erat": 3493,
      "Ġrepet": 3494,
      "band": 3495,
      "ued": 3496,
      "utte": 3497,
      "LAN": 3498,
      "ohl": 3499,
      "burn": 3500,
      "ĠHod": 3501,
      "command": 3502,
      "imura": 3503,
      "Ġher": 3504,
      "DBOutput": 3505,
      "Ġcal": 3506,
      "river": 3507,
      "akam": 3508,
      "Ġprec": 3509,
      "Mapping": 3510,
      "rizz": 3511,
      "arts": 3512,
      "ongs": 3513,
      "ategory": 3514,
      "dal": 3515,
      "ummy": 3516,
      "ĠInd": 3517,
      "ivers": 3518,
      "Values": 3519,
      "Ġu": 3520,
      "ĠMcKin": 3521,
      "Ġtop": 3522,
      "aty": 3523,
      "amom": 3524,
      "Max": 3525,
      "itu": 3526,
      "ifier": 3527,
      "arshal": 3528,
      "exual": 3529,
      "ugo": 3530,
      "oxic": 3531,
      "EO": 3532,
      "estruct": 3533,
      "ĠLour": 3534,
      "slide": 3535,
      "BitCount": 3536,
      "Ġodb": 3537,
      "mic": 3538,
      "ĠDomin": 3539,
      "uration": 3540,
      "atal": 3541,
      "Ġdisc": 3542,
      "estro": 3543,
      "Ġsadd": 3544,
      "Findings": 3545,
      "idu": 3546,
      "ying": 3547,
      "ateMutability": 3548,
      "ously": 3549,
      "eps": 3550,
      "ĠGod": 3551,
      "ardin": 3552,
      "Ġaut": 3553,
      "ByURL": 3554,
      "ĠSa": 3555,
      "Ġausten": 3556,
      "ĠMend": 3557,
      "amanam": 3558,
      "edRight": 3559,
      "Ġit": 3560,
      "ĠLev": 3561,
      "aking": 3562,
      "hang": 3563,
      "setF": 3564,
      "border": 3565,
      "Ok": 3566,
      "Ġprimary": 3567,
      "phrine": 3568,
      "Ġselect": 3569,
      "Ġiz": 3570,
      "dev": 3571,
      "zhou": 3572,
      "ĠSlov": 3573,
      "ĠAri": 3574,
      "ature": 3575,
      "Ġtuberc": 3576,
      "Bib": 3577,
      "uncul": 3578,
      "ected": 3579,
      "este": 3580,
      "ariant": 3581,
      "Ġnam": 3582,
      "ATE": 3583,
      "Ant": 3584,
      "iesz": 3585,
      "iga": 3586,
      "Listener": 3587,
      "assing": 3588,
      "ĠEnd": 3589,
      "methyl": 3590,
      "mak": 3591,
      "uent": 3592,
      "egan": 3593,
      "Nam": 3594,
      "uje": 3595,
      "ĠGust": 3596,
      "Ġflav": 3597,
      "aldehyde": 3598,
      "ĠBos": 3599,
      "Rew": 3600,
      "Ġkon": 3601,
      "rained": 3602,
      "abin": 3603,
      "iao": 3604,
      "Ġbit": 3605,
      "ĠNor": 3606,
      "elia": 3607,
      "hatt": 3608,
      "ĠServ": 3609,
      "aq": 3610,
      "Delete": 3611,
      "olan": 3612,
      "Ġbes": 3613,
      "spec": 3614,
      "UND": 3615,
      "hut": 3616,
      "Ġpinch": 3617,
      "atholic": 3618,
      "Mat": 3619,
      "iance": 3620,
      "Ġpri": 3621,
      "ĠSil": 3622,
      "findBy": 3623,
      "ĠSomers": 3624,
      "calright": 3625,
      "erken": 3626,
      "Preference": 3627,
      "dPar": 3628,
      "flow": 3629,
      "ibility": 3630,
      "oza": 3631,
      "BUR": 3632,
      "anas": 3633,
      "ĠGen": 3634,
      "ĠObject": 3635,
      "overe": 3636,
      "Ġhomot": 3637,
      "eff": 3638,
      "mooth": 3639,
      "alBlock": 3640,
      "uzz": 3641,
      "Guid": 3642,
      "Ġnek": 3643,
      "utan": 3644,
      "election": 3645,
      "cell": 3646,
      "resc": 3647,
      "Fields": 3648,
      "unci": 3649,
      "ĠNo": 3650,
      "getR": 3651,
      "Selection": 3652,
      "arik": 3653,
      "adow": 3654,
      "arkar": 3655,
      "aily": 3656,
      "STR": 3657,
      "inger": 3658,
      "Ġfont": 3659,
      "Ġdiff": 3660,
      "qt": 3661,
      "utta": 3662,
      "Ġdek": 3663,
      "empor": 3664,
      "kes": 3665,
      "ymp": 3666,
      "cation": 3667,
      "sem": 3668,
      "Visual": 3669,
      "rival": 3670,
      "ird": 3671,
      "Ġparl": 3672,
      "abc": 3673,
      "ITH": 3674,
      "ĠIP": 3675,
      "Ġunb": 3676,
      "ĠEhn": 3677,
      "ĠEhnerg": 3678,
      "rident": 3679,
      "ĠSyl": 3680,
      "esti": 3681,
      "oving": 3682,
      "ĠData": 3683,
      "eled": 3684,
      "ĠPack": 3685,
      "wyn": 3686,
      "yar": 3687,
      "ĠDer": 3688,
      "Ġexceed": 3689,
      "thal": 3690,
      "Ġgo": 3691,
      "ueva": 3692,
      "enda": 3693,
      "idal": 3694,
      "mn": 3695,
      "Pen": 3696,
      "nail": 3697,
      "nique": 3698,
      "Password": 3699,
      "ored": 3700,
      "ointer": 3701,
      "ĠRam": 3702,
      "hole": 3703,
      "LOT": 3704,
      "enberg": 3705,
      "Unique": 3706,
      "CV": 3707,
      "Picker": 3708,
      "ulu": 3709,
      "VR": 3710,
      "ensch": 3711,
      "FieldContext": 3712,
      "owied": 3713,
      "ollo": 3714,
      "issions": 3715,
      "Owner": 3716,
      "thel": 3717,
      "Okno": 3718,
      "ORN": 3719,
      "Ġthrom": 3720,
      "ĠDon": 3721,
      "ĠHan": 3722,
      "build": 3723,
      "Ġaug": 3724,
      "etty": 3725,
      "ylate": 3726,
      "Ġline": 3727,
      "eca": 3728,
      "ĠTim": 3729,
      "Ġcheck": 3730,
      "lg": 3731,
      "Ġnucle": 3732,
      "vey": 3733,
      "wd": 3734,
      "hl": 3735,
      "gh": 3736,
      "acher": 3737,
      "ibul": 3738,
      "ahon": 3739,
      "assel": 3740,
      "Ġprob": 3741,
      "ceptron": 3742,
      "noc": 3743,
      "ĠMcGu": 3744,
      "Ġps": 3745,
      "non": 3746,
      "orbid": 3747,
      "ĠNau": 3748,
      "ĠLob": 3749,
      "agy": 3750,
      "Ġtend": 3751,
      "Cycle": 3752,
      "Ġsoft": 3753,
      "Spec": 3754,
      "EF": 3755,
      "Ġanth": 3756,
      "Ġcap": 3757,
      "ondition": 3758,
      "Ġhandle": 3759,
      "akespeare": 3760,
      "oration": 3761,
      "dec": 3762,
      "ogn": 3763,
      "ĠBru": 3764,
      "chester": 3765,
      "atherm": 3766,
      "args": 3767,
      "json": 3768,
      "handle": 3769,
      "ĠGold": 3770,
      "ĠSn": 3771,
      "arca": 3772,
      "Ġstock": 3773,
      "jac": 3774,
      "HE": 3775,
      "bro": 3776,
      "ĠNe": 3777,
      "erea": 3778,
      "orod": 3779,
      "assert": 3780,
      "Ġguz": 3781,
      "uden": 3782,
      "Ġpron": 3783,
      "ĠdSample": 3784,
      "Selector": 3785,
      "acles": 3786,
      "BD": 3787,
      "next": 3788,
      "adas": 3789,
      "No": 3790,
      "Te": 3791,
      "valid": 3792,
      "asmim": 3793,
      "rivalTime": 3794,
      "Order": 3795,
      "Ġprof": 3796,
      "igen": 3797,
      "heel": 3798,
      "lid": 3799,
      "ĠKar": 3800,
      "plication": 3801,
      "Ġmal": 3802,
      "Display": 3803,
      "BinBuf": 3804,
      "ahin": 3805,
      "attha": 3806,
      "itre": 3807,
      "cpHeader": 3808,
      "slate": 3809,
      "Ġuser": 3810,
      "Ġaw": 3811,
      "ban": 3812,
      "eln": 3813,
      "eo": 3814,
      "Ġdigest": 3815,
      "ĠCom": 3816,
      "Condition": 3817,
      "thorace": 3818,
      "used": 3819,
      "uted": 3820,
      "ught": 3821,
      "ican": 3822,
      "icher": 3823,
      "ims": 3824,
      "agi": 3825,
      "aid": 3826,
      "action": 3827,
      "bin": 3828,
      "Ġstri": 3829,
      "MVC": 3830,
      "epo": 3831,
      "occo": 3832,
      "swire": 3833,
      "Ġsig": 3834,
      "aldo": 3835,
      "ĠDav": 3836,
      "ĠBag": 3837,
      "astic": 3838,
      "bi": 3839,
      "ĠDun": 3840,
      "ozz": 3841,
      "Ġist": 3842,
      "ĠImm": 3843,
      "xim": 3844,
      "haman": 3845,
      "ĠBis": 3846,
      "oda": 3847,
      "Penis": 3848,
      "ERS": 3849,
      "ĠSy": 3850,
      "anguage": 3851,
      "aux": 3852,
      "BURTS": 3853,
      "addington": 3854,
      "foreground": 3855,
      "marshal": 3856,
      "Ġung": 3857,
      "pre": 3858,
      "Ġpon": 3859,
      "tik": 3860,
      "Accept": 3861,
      "ecode": 3862,
      "Ġwav": 3863,
      "Ġform": 3864,
      "ustomer": 3865,
      "dom": 3866,
      "arp": 3867,
      "ĠRen": 3868,
      "tf": 3869,
      "uba": 3870,
      "Ġpartur": 3871,
      "Ġadh": 3872,
      "Proxy": 3873,
      "iquid": 3874,
      "erche": 3875,
      "MO": 3876,
      "eming": 3877,
      "info": 3878,
      "ewise": 3879,
      "ĠText": 3880,
      "ided": 3881,
      "enumer": 3882,
      "Ġtet": 3883,
      "oper": 3884,
      "adig": 3885,
      "eronica": 3886,
      "omon": 3887,
      "vid": 3888,
      "JSON": 3889,
      "VCTarget": 3890,
      "ieben": 3891,
      "inds": 3892,
      "irs": 3893,
      "izer": 3894,
      "furt": 3895,
      "lass": 3896,
      "Ġanesthet": 3897,
      "hib": 3898,
      "ĠReich": 3899,
      "afa": 3900,
      "rave": 3901,
      "bracket": 3902,
      "ku": 3903,
      "ĠPrit": 3904,
      "ulpt": 3905,
      "riend": 3906,
      "Ġsmear": 3907,
      "leps": 3908,
      "usses": 3909,
      "ares": 3910,
      "braith": 3911,
      "select": 3912,
      "vationMap": 3913,
      "eas": 3914,
      "Pr": 3915,
      "ĠMcGr": 3916,
      "alde": 3917,
      "inz": 3918,
      "olut": 3919,
      "lyPlugin": 3920,
      "Ġri": 3921,
      "wait": 3922,
      "model": 3923,
      "oso": 3924,
      "astian": 3925,
      "ĠInt": 3926,
      "Options": 3927,
      "ipal": 3928,
      "odnik": 3929,
      "span": 3930,
      "ĠAF": 3931,
      "oring": 3932,
      "pg": 3933,
      "Face": 3934,
      "Ġvolt": 3935,
      "recht": 3936,
      "epin": 3937,
      "ECT": 3938,
      "opic": 3939,
      "obec": 3940,
      "ritz": 3941,
      "ĠRoan": 3942,
      "Ġnum": 3943,
      "Theme": 3944,
      "thar": 3945,
      "Dep": 3946,
      "recl": 3947,
      "CU": 3948,
      "ables": 3949,
      "LL": 3950,
      "ĠPand": 3951,
      "illian": 3952,
      "Math": 3953,
      "Ġlymph": 3954,
      "ply": 3955,
      "inander": 3956,
      "cm": 3957,
      "mid": 3958,
      "reten": 3959,
      "Ġfauc": 3960,
      "FO": 3961,
      "itro": 3962,
      "Enum": 3963,
      "adani": 3964,
      "Ġug": 3965,
      "eiro": 3966,
      "utor": 3967,
      "idunt": 3968,
      "rm": 3969,
      "anis": 3970,
      "isting": 3971,
      "ICK": 3972,
      "scale": 3973,
      "yz": 3974,
      "ĠPic": 3975,
      "enko": 3976,
      "Bad": 3977,
      "ĠAT": 3978,
      "athy": 3979,
      "ĠHait": 3980,
      "ICAL": 3981,
      "Cle": 3982,
      "ĠRUTARE": 3983,
      "ĠSales": 3984,
      "Ins": 3985,
      "ingan": 3986,
      "Ġmenjal": 3987,
      "ige": 3988,
      "VID": 3989,
      "Long": 3990,
      "ĠBST": 3991,
      "ĠNST": 3992,
      "return": 3993,
      "Ġmont": 3994,
      "inia": 3995,
      "Ġphotoc": 3996,
      "Ġmart": 3997,
      "zej": 3998,
      "nest": 3999,
      "VIC": 4000,
      "Ġperj": 4001,
      "lyph": 4002,
      "ĠSey": 4003,
      "ocz": 4004,
      "Ġcard": 4005,
      "apkan": 4006,
      "Active": 4007,
      "Ġunt": 4008,
      "irc": 4009,
      "INE": 4010,
      "apar": 4011,
      "Ġdeg": 4012,
      "ecz": 4013,
      "Ġdiv": 4014,
      "Ġkahel": 4015,
      "ollision": 4016,
      "warl": 4017,
      "ened": 4018,
      "acer": 4019,
      "Collision": 4020,
      "OSS": 4021,
      "Construct": 4022,
      "mington": 4023,
      "weatherm": 4024,
      "ĠHerm": 4025,
      "KR": 4026,
      "GFS": 4027,
      "ĠVerd": 4028,
      "Ġback": 4029,
      "ĠWarwick": 4030,
      "ĠGerr": 4031,
      "ocyan": 4032,
      "DialogOpen": 4033,
      "Art": 4034,
      "Integer": 4035,
      "ety": 4036,
      "obacter": 4037,
      "append": 4038,
      "ments": 4039,
      "orld": 4040,
      "usive": 4041,
      "amer": 4042,
      "hin": 4043,
      "vonne": 4044,
      "Ġvedit": 4045,
      "ITT": 4046,
      "ojo": 4047,
      "ĠTol": 4048,
      "uts": 4049,
      "Ġrib": 4050,
      "olyb": 4051,
      "Ġview": 4052,
      "ycler": 4053,
      "ĠDev": 4054,
      "ĠCur": 4055,
      "ublicKey": 4056,
      "omn": 4057,
      "brado": 4058,
      "Mutex": 4059,
      "Ġsat": 4060,
      "Ġhe": 4061,
      "nung": 4062,
      "yne": 4063,
      "olytic": 4064,
      "Extens": 4065,
      "Days": 4066,
      "oding": 4067,
      "ĠNich": 4068,
      "Ġplead": 4069,
      "NonUser": 4070,
      "MBT": 4071,
      "aine": 4072,
      "ĠVillar": 4073,
      "idas": 4074,
      "Modal": 4075,
      "inas": 4076,
      "onuclear": 4077,
      "anal": 4078,
      "ounc": 4079,
      "CON": 4080,
      "azz": 4081,
      "ns": 4082,
      "ĠHert": 4083,
      "ourg": 4084,
      "ĠRet": 4085,
      "property": 4086,
      "here": 4087,
      "ovi": 4088,
      "UV": 4089,
      "Ġot": 4090,
      "Ġsag": 4091,
      "ynth": 4092,
      "Ġerg": 4093,
      "UVW": 4094,
      "ancy": 4095,
      "Ġvolupt": 4096,
      "ĠChron": 4097,
      "esso": 4098,
      "nalia": 4099,
      "ĠMich": 4100,
      "Ġng": 4101,
      "jee": 4102,
      "child": 4103,
      "atat": 4104,
      "ocalObject": 4105,
      "issense": 4106,
      "ORD": 4107,
      "wall": 4108,
      "Ġbland": 4109,
      "Ġpunct": 4110,
      "aina": 4111,
      "ĠNA": 4112,
      "owski": 4113,
      "oughton": 4114,
      "irectory": 4115,
      "itoneal": 4116,
      "ĠMiy": 4117,
      "aje": 4118,
      "jiwarl": 4119,
      "umberland": 4120,
      "bark": 4121,
      "token": 4122,
      "ĠgetDate": 4123,
      "uster": 4124,
      "Ġho": 4125,
      "erog": 4126,
      "Ġdess": 4127,
      "ĠCap": 4128,
      "ĠBhag": 4129,
      "anje": 4130,
      "Ġsb": 4131,
      "ĠMin": 4132,
      "obic": 4133,
      "toch": 4134,
      "Letter": 4135,
      "thur": 4136,
      "ĠCant": 4137,
      "akar": 4138,
      "ĠCal": 4139,
      "aught": 4140,
      "ParamNum": 4141,
      "ortal": 4142,
      "YAN": 4143,
      "double": 4144,
      "ĠDord": 4145,
      "eri": 4146,
      "Part": 4147,
      "Files": 4148,
      "enean": 4149,
      "ringe": 4150,
      "ĠFo": 4151,
      "urul": 4152,
      "gress": 4153,
      "Ġspray": 4154,
      "loria": 4155,
      "untamento": 4156,
      "ĠAs": 4157,
      "ĠMN": 4158,
      "ĠIng": 4159,
      "UniqueID": 4160,
      "Async": 4161,
      "Ġok": 4162,
      "unay": 4163,
      "arras": 4164,
      "multi": 4165,
      "pat": 4166,
      "Ġcul": 4167,
      "etti": 4168,
      "was": 4169,
      "ullie": 4170,
      "Ġpen": 4171,
      "ĠVillan": 4172,
      "ession": 4173,
      "Ġhor": 4174,
      "CharCode": 4175,
      "permal": 4176,
      "Store": 4177,
      "Ġfort": 4178,
      "ieter": 4179,
      "quest": 4180,
      "Ġadjourn": 4181,
      "Ġsph": 4182,
      "Ġchamp": 4183,
      "ĠChong": 4184,
      "Strip": 4185,
      "akath": 4186,
      "ĠSql": 4187,
      "hile": 4188,
      "Mesh": 4189,
      "alph": 4190,
      "Ġmut": 4191,
      "ancho": 4192,
      "ĠBelle": 4193,
      "ĠBellev": 4194,
      "asuk": 4195,
      "ĠGunn": 4196,
      "oauth": 4197,
      "Reader": 4198,
      "esc": 4199,
      "Keep": 4200,
      "Cube": 4201,
      "ymplectic": 4202,
      "CubeSize": 4203,
      "prot": 4204,
      "ycin": 4205,
      "reas": 4206,
      "Ġold": 4207,
      "Ġquin": 4208,
      "attoo": 4209,
      "gramModel": 4210,
      "ourier": 4211,
      "ubro": 4212,
      "dig": 4213,
      "pec": 4214,
      "ousel": 4215,
      "yak": 4216,
      "ĠBow": 4217,
      "vec": 4218,
      "ront": 4219,
      "kut": 4220,
      "ymi": 4221,
      "Media": 4222,
      "ĠGood": 4223,
      "ker": 4224,
      "Spawn": 4225,
      "ayashi": 4226,
      "etering": 4227,
      "Ġsv": 4228,
      "gou": 4229,
      "iw": 4230,
      "ories": 4231,
      "paths": 4232,
      "Xpaths": 4233,
      "adt": 4234,
      "Ġvad": 4235,
      "Ġplayer": 4236,
      "ieurs": 4237,
      "erce": 4238,
      "tree": 4239,
      "apur": 4240,
      "Ġwax": 4241,
      "full": 4242,
      "StarSXml": 4243,
      "qttr": 4244,
      "coni": 4245,
      "Servlet": 4246,
      "Ġak": 4247,
      "ĠNad": 4248,
      "Choose": 4249,
      "ĠKra": 4250,
      "ruz": 4251,
      "DBG": 4252,
      "ATION": 4253,
      "ĠBhagav": 4254,
      "pay": 4255,
      "aver": 4256,
      "enner": 4257,
      "jav": 4258,
      "OUG": 4259,
      "ismar": 4260,
      "aucer": 4261,
      "WT": 4262,
      "estown": 4263,
      "acanam": 4264,
      "adiene": 4265,
      "ostrum": 4266,
      "Move": 4267,
      "utable": 4268,
      "ĠAngel": 4269,
      "Has": 4270,
      "ssex": 4271,
      "aked": 4272,
      "inity": 4273,
      "wer": 4274,
      "ĠHil": 4275,
      "ifolds": 4276,
      "ĠSam": 4277,
      "Ġhal": 4278,
      "rout": 4279,
      "LM": 4280,
      "ĠSylv": 4281,
      "atz": 4282,
      "ĠChrist": 4283,
      "oten": 4284,
      "lc": 4285,
      "ĠHen": 4286,
      "ately": 4287,
      "ĠRCL": 4288,
      "ĠNav": 4289,
      "exus": 4290,
      "ĠGren": 4291,
      "Ġlo": 4292,
      "ĠSad": 4293,
      "encia": 4294,
      "ittam": 4295,
      "LogRow": 4296,
      "Ġproced": 4297,
      "abat": 4298,
      "izz": 4299,
      "aunch": 4300,
      "tri": 4301,
      "ĠEuc": 4302,
      "urst": 4303,
      "azy": 4304,
      "onyl": 4305,
      "Writer": 4306,
      "aise": 4307,
      "cha": 4308,
      "ĠRUD": 4309,
      "Ġprinc": 4310,
      "MainNav": 4311,
      "esch": 4312,
      "yles": 4313,
      "etric": 4314,
      "apet": 4315,
      "ĠEdmond": 4316,
      "ĠLo": 4317,
      "Fold": 4318,
      "ĠDur": 4319,
      "Ġlepton": 4320,
      "ĠHab": 4321,
      "ĠDeep": 4322,
      "ahang": 4323,
      "ranche": 4324,
      "Sec": 4325,
      "URNIZ": 4326,
      "Ġgew": 4327,
      "ady": 4328,
      "umbnail": 4329,
      "ogs": 4330,
      "yw": 4331,
      "andt": 4332,
      "ynch": 4333,
      "idean": 4334,
      "Ġequ": 4335,
      "instr": 4336,
      "ĠStafford": 4337,
      "instrList": 4338,
      "ropy": 4339,
      "ĠCons": 4340,
      "ripper": 4341,
      "MDA": 4342,
      "ithdraw": 4343,
      "ards": 4344,
      "ota": 4345,
      "sum": 4346,
      "illColor": 4347,
      "ĠJordan": 4348,
      "ĠPer": 4349,
      "Preferred": 4350,
      "ansing": 4351,
      "ĠGuil": 4352,
      "ApiPath": 4353,
      "CharArray": 4354,
      "Muc": 4355,
      "endale": 4356,
      "Inset": 4357,
      "Ġfur": 4358,
      "inho": 4359,
      "Ġparthen": 4360,
      "Ġcro": 4361,
      "ancell": 4362,
      "arrow": 4363,
      "iale": 4364,
      "tochrome": 4365,
      "seur": 4366,
      "olare": 4367,
      "herent": 4368,
      "Min": 4369,
      "skii": 4370,
      "eq": 4371,
      "rait": 4372,
      "Mar": 4373,
      "Ġpower": 4374,
      "ĠPop": 4375,
      "Sdk": 4376,
      "olves": 4377,
      "arantad": 4378,
      "irg": 4379,
      "QR": 4380,
      "ĠHick": 4381,
      "detail": 4382,
      "Ġfield": 4383,
      "abic": 4384,
      "innie": 4385,
      "ĠDar": 4386,
      "ppo": 4387,
      "GM": 4388,
      "zan": 4389,
      "emon": 4390,
      "isR": 4391,
      "ĠPrab": 4392,
      "asan": 4393,
      "Glare": 4394,
      "ĠMerr": 4395,
      "lens": 4396,
      "tres": 4397,
      "AU": 4398,
      "cer": 4399,
      "oslav": 4400,
      "Ald": 4401,
      "unted": 4402,
      "Arr": 4403,
      "Bibitem": 4404,
      "itable": 4405,
      "ĠPa": 4406,
      "nst": 4407,
      "Ġfra": 4408,
      "Ġuns": 4409,
      "egi": 4410,
      "sent": 4411,
      "Ġec": 4412,
      "OrderFlight": 4413,
      "ĠWor": 4414,
      "ĠNiet": 4415,
      "Ġuit": 4416,
      "Security": 4417,
      "ĠJoh": 4418,
      "ĠOut": 4419,
      "ridge": 4420,
      "addassa": 4421,
      "andan": 4422,
      "auff": 4423,
      "ĠTr": 4424,
      "illing": 4425,
      "GoObject": 4426,
      "Default": 4427,
      "Seconds": 4428,
      "Ġtok": 4429,
      "Foldout": 4430,
      "ichen": 4431,
      "ĠHel": 4432,
      "Encoder": 4433,
      "tain": 4434,
      "Ġvan": 4435,
      "Ġinfl": 4436,
      "ĠRey": 4437,
      "ĠFern": 4438,
      "Ġunw": 4439,
      "tti": 4440,
      "lytres": 4441,
      "emi": 4442,
      "ĠPey": 4443,
      "waard": 4444,
      "ariable": 4445,
      "ingu": 4446,
      "ignore": 4447,
      "ema": 4448,
      "Ġhy": 4449,
      "Ġfac": 4450,
      "ĠList": 4451,
      "oton": 4452,
      "ridLayout": 4453,
      "lik": 4454,
      "Ġbed": 4455,
      "ĠDel": 4456,
      "ĠBeck": 4457,
      "Ġcall": 4458,
      "rvats": 4459,
      "icular": 4460,
      "show": 4461,
      "ĠLaksh": 4462,
      "convol": 4463,
      "onian": 4464,
      "ĠCarl": 4465,
      "iales": 4466,
      "AutoScale": 4467,
      "sprech": 4468,
      "Ġchem": 4469,
      "ipher": 4470,
      "ĠCorb": 4471,
      "ocs": 4472,
      "into": 4473,
      "ardo": 4474,
      "awar": 4475,
      "ĠMidd": 4476,
      "ived": 4477,
      "ĠAcc": 4478,
      "ĠPDP": 4479,
      "ĠActive": 4480,
      "iping": 4481,
      "atches": 4482,
      "nab": 4483,
      "houette": 4484,
      "ĠGog": 4485,
      "ĠUly": 4486,
      "ĠAS": 4487,
      "xin": 4488,
      "ĠMats": 4489,
      "entz": 4490,
      "ends": 4491,
      "Custom": 4492,
      "VA": 4493,
      "Fil": 4494,
      "phalodes": 4495,
      "ĠEle": 4496,
      "Grad": 4497,
      "ĠKier": 4498,
      "ranian": 4499,
      "olg": 4500,
      "riendo": 4501,
      "ufen": 4502,
      "ĠLorentz": 4503,
      "ifer": 4504,
      "asey": 4505,
      "Danh": 4506,
      "aused": 4507,
      "ips": 4508,
      "DanhMuc": 4509,
      "ismarck": 4510,
      "Ġrun": 4511,
      "zet": 4512,
      "uri": 4513,
      "Ġwyk": 4514,
      "DO": 4515,
      "PTV": 4516,
      "estin": 4517,
      "Ġalle": 4518,
      "titor": 4519,
      "ucid": 4520,
      "Ġforb": 4521,
      "nash": 4522,
      "Ġyoj": 4523,
      "mac": 4524,
      "rogen": 4525,
      "Ġlegal": 4526,
      "Ġtart": 4527,
      "ĠCCS": 4528,
      "urp": 4529,
      "Animation": 4530,
      "Ġiccad": 4531,
      "vrd": 4532,
      "unov": 4533,
      "constra": 4534,
      "dn": 4535,
      "uncan": 4536,
      "constraint": 4537,
      "Ġdesp": 4538,
      "atthav": 4539,
      "rystall": 4540,
      "Ġdisorder": 4541,
      "hold": 4542,
      "irra": 4543,
      "iggins": 4544,
      "Antae": 4545,
      "First": 4546,
      "Ġdred": 4547,
      "Ary": 4548,
      "iliated": 4549,
      "tone": 4550,
      "arking": 4551,
      "rial": 4552,
      "irtual": 4553,
      "smith": 4554,
      "isia": 4555,
      "Ġlist": 4556,
      "uatu": 4557,
      "ĠPlast": 4558,
      "ĠTul": 4559,
      "eland": 4560,
      "isa": 4561,
      "btn": 4562,
      "process": 4563,
      "artz": 4564,
      "heed": 4565,
      "Lint": 4566,
      "getString": 4567,
      "Exists": 4568,
      "Clr": 4569,
      "Ġpok": 4570,
      "Ġof": 4571,
      "ĠEver": 4572,
      "kov": 4573,
      "ĠMag": 4574,
      "rer": 4575,
      "dy": 4576,
      "QAry": 4577,
      "ĠVan": 4578,
      "ĠConstant": 4579,
      "ocr": 4580,
      "StateToProps": 4581,
      "ucker": 4582,
      "ylic": 4583,
      "onal": 4584,
      "Ġey": 4585,
      "leton": 4586,
      "toL": 4587,
      "index": 4588,
      "engk": 4589,
      "amin": 4590,
      "Title": 4591,
      "oter": 4592,
      "ikkh": 4593,
      "Ġcustom": 4594,
      "ĠDra": 4595,
      "ĠId": 4596,
      "ĠMed": 4597,
      "Ġton": 4598,
      "arma": 4599,
      "ounce": 4600,
      "NO": 4601,
      "ĠLomb": 4602,
      "ĠWolver": 4603,
      "ĠMcF": 4604,
      "asser": 4605,
      "Ġsab": 4606,
      "Ġmaneu": 4607,
      "Plus": 4608,
      "Ġchew": 4609,
      "Ġunim": 4610,
      "Ġhotsp": 4611,
      "DER": 4612,
      "XR": 4613,
      "ember": 4614,
      "erview": 4615,
      "ENC": 4616,
      "empl": 4617,
      "Ġdib": 4618,
      "urch": 4619,
      "ipped": 4620,
      "igence": 4621,
      "rung": 4622,
      "ipboard": 4623,
      "ĠSar": 4624,
      "ractor": 4625,
      "enian": 4626,
      "avor": 4627,
      "awatts": 4628,
      "ĠGra": 4629,
      "ĠShel": 4630,
      "orage": 4631,
      "ĠWest": 4632,
      "Ġdisappe": 4633,
      "ioc": 4634,
      "ished": 4635,
      "ielding": 4636,
      "otherap": 4637,
      "Ġrut": 4638,
      "acak": 4639,
      "ayette": 4640,
      "Ġbif": 4641,
      "abled": 4642,
      "ĠAlb": 4643,
      "Ver": 4644,
      "itya": 4645,
      "iu": 4646,
      "DKEY": 4647,
      "onese": 4648,
      "ExpNow": 4649,
      "Ġswe": 4650,
      "anos": 4651,
      "rough": 4652,
      "beit": 4653,
      "urkish": 4654,
      "agher": 4655,
      "chym": 4656,
      "ynucleaires": 4657,
      "usen": 4658,
      "emes": 4659,
      "Bsky": 4660,
      "lysis": 4661,
      "ĠBrook": 4662,
      "aal": 4663,
      "xt": 4664,
      "arkan": 4665,
      "ĠVol": 4666,
      "ires": 4667,
      "Ġbhikkh": 4668,
      "Ġemanc": 4669,
      "Cart": 4670,
      "arif": 4671,
      "ashing": 4672,
      "asta": 4673,
      "ailles": 4674,
      "illet": 4675,
      "wm": 4676,
      "rony": 4677,
      "TING": 4678,
      "Ġbu": 4679,
      "lobulin": 4680,
      "ryn": 4681,
      "Ġtab": 4682,
      "serv": 4683,
      "NAM": 4684,
      "PlusEvents": 4685,
      "Criter": 4686,
      "Ġtant": 4687,
      "ĠWord": 4688,
      "Ġullam": 4689,
      "ophen": 4690,
      "Ġauth": 4691,
      "lier": 4692,
      "Ġzoom": 4693,
      "inos": 4694,
      "ĠMil": 4695,
      "getMain": 4696,
      "IUN": 4697,
      "Ġbel": 4698,
      "ords": 4699,
      "rick": 4700,
      "graph": 4701,
      "inca": 4702,
      "ĠKeat": 4703,
      "ydraul": 4704,
      "Acc": 4705,
      "ĠPry": 4706,
      "uku": 4707,
      "ĠCly": 4708,
      "popup": 4709,
      "vc": 4710,
      "PEG": 4711,
      "issy": 4712,
      "jati": 4713,
      "Net": 4714,
      "ause": 4715,
      "ruc": 4716,
      "BUGFS": 4717,
      "atedBy": 4718,
      "gax": 4719,
      "MSFont": 4720,
      "Ġbook": 4721,
      "rank": 4722,
      "Ġme": 4723,
      "Alignment": 4724,
      "asa": 4725,
      "arius": 4726,
      "ĠUS": 4727,
      "roir": 4728,
      "ĠMann": 4729,
      "Ġmj": 4730,
      "onti": 4731,
      "Ġpabb": 4732,
      "ambra": 4733,
      "eneg": 4734,
      "Handle": 4735,
      "ĠFig": 4736,
      "Ġrepe": 4737,
      "ould": 4738,
      "ĠBrom": 4739,
      "ĠBrent": 4740,
      "IsNull": 4741,
      "acion": 4742,
      "Ġhorr": 4743,
      "olit": 4744,
      "ukannya": 4745,
      "ande": 4746,
      "akukannya": 4747,
      "ennes": 4748,
      "erta": 4749,
      "anca": 4750,
      "IGHT": 4751,
      "WI": 4752,
      "width": 4753,
      "left": 4754,
      "mar": 4755,
      "ycop": 4756,
      "otheli": 4757,
      "romed": 4758,
      "lep": 4759,
      "Tag": 4760,
      "ĠUSA": 4761,
      "Ġrad": 4762,
      "Ġtag": 4763,
      "eback": 4764,
      "ĠSI": 4765,
      "Ziel": 4766,
      "Ġzir": 4767,
      "gest": 4768,
      "ktCap": 4769,
      "idata": 4770,
      "Java": 4771,
      "Middle": 4772,
      "Ġplur": 4773,
      "zem": 4774,
      "Ġkeh": 4775,
      "ikidata": 4776,
      "trash": 4777,
      "amble": 4778,
      "ullo": 4779,
      "ĠSmack": 4780,
      "ĠMcCle": 4781,
      "Cache": 4782,
      "Na": 4783,
      "Ġbron": 4784,
      "mett": 4785,
      "ĠSH": 4786,
      "Ġindem": 4787,
      "Ġbronch": 4788,
      "Ġbip": 4789,
      "Ġtrit": 4790,
      "emat": 4791,
      "itian": 4792,
      "vors": 4793,
      "udy": 4794,
      "scroll": 4795,
      "getSt": 4796,
      "peng": 4797,
      "ensa": 4798,
      "Rest": 4799,
      "ĠGewer": 4800,
      "ĠAdri": 4801,
      "heim": 4802,
      "chiev": 4803,
      "gio": 4804,
      "ĠGret": 4805,
      "asper": 4806,
      "Ġprincipal": 4807,
      "gdock": 4808,
      "Statement": 4809,
      "NumConst": 4810,
      "KY": 4811,
      "ĠBere": 4812,
      "ĠUml": 4813,
      "anim": 4814,
      "Ġmo": 4815,
      "ihad": 4816,
      "acul": 4817,
      "FP": 4818,
      "Track": 4819,
      "zia": 4820,
      "ikk": 4821,
      "iejsc": 4822,
      "TM": 4823,
      "ĠCheck": 4824,
      "Ġyl": 4825,
      "location": 4826,
      "anya": 4827,
      "Reference": 4828,
      "olean": 4829,
      "ĠThess": 4830,
      "ekar": 4831,
      "enched": 4832,
      "Ġgri": 4833,
      "ĠService": 4834,
      "ĠTob": 4835,
      "abr": 4836,
      "Ġoverd": 4837,
      "ILLI": 4838,
      "Cleared": 4839,
      "ĠObit": 4840,
      "ClearedBy": 4841,
      "arod": 4842,
      "olocation": 4843,
      "Obj": 4844,
      "ĠCG": 4845,
      "achen": 4846,
      "xis": 4847,
      "Need": 4848,
      "setKeep": 4849,
      "undle": 4850,
      "EOUS": 4851,
      "acon": 4852,
      "ighton": 4853,
      "ĠChin": 4854,
      "Movie": 4855,
      "ĠTij": 4856,
      "acao": 4857,
      "ĠRev": 4858,
      "zat": 4859,
      "Ġhas": 4860,
      "COc": 4861,
      "ictureBox": 4862,
      "abri": 4863,
      "ramp": 4864,
      "Ġprecinct": 4865,
      "Ġdesc": 4866,
      "azon": 4867,
      "orough": 4868,
      "UTH": 4869,
      "wyd": 4870,
      "edTest": 4871,
      "Category": 4872,
      "elijk": 4873,
      "DropDown": 4874,
      "Ġnag": 4875,
      "renzia": 4876,
      "Read": 4877,
      "neider": 4878,
      "otrex": 4879,
      "socket": 4880,
      "uffy": 4881,
      "SFER": 4882,
      "ĠTN": 4883,
      "aio": 4884,
      "onka": 4885,
      "itud": 4886,
      "ĠBrug": 4887,
      "witz": 4888,
      "itin": 4889,
      "Ġinform": 4890,
      "Mont": 4891,
      "ĠVers": 4892,
      "margin": 4893,
      "ĠShah": 4894,
      "ouri": 4895,
      "angzhou": 4896,
      "Launch": 4897,
      "Ġpav": 4898,
      "TakeVideo": 4899,
      "ĠGreens": 4900,
      "Stream": 4901,
      "yped": 4902,
      "part": 4903,
      "ertools": 4904,
      "athed": 4905,
      "low": 4906,
      "borough": 4907,
      "OUR": 4908,
      "Prz": 4909,
      "Dom": 4910,
      "Ġpadam": 4911,
      "instag": 4912,
      "arrer": 4913,
      "Ġindemn": 4914,
      "ACTOR": 4915,
      "IH": 4916,
      "nder": 4917,
      "iram": 4918,
      "mous": 4919,
      "Scaler": 4920,
      "Ġvisc": 4921,
      "elon": 4922,
      "vind": 4923,
      "arted": 4924,
      "poetry": 4925,
      "ĠHaz": 4926,
      "Missense": 4927,
      "Check": 4928,
      "ieder": 4929,
      "ĠISP": 4930,
      "Ġmez": 4931,
      "ĠTRAN": 4932,
      "esehen": 4933,
      "Ġsim": 4934,
      "Ġrandom": 4935,
      "button": 4936,
      "Ġpel": 4937,
      "ilig": 4938,
      "Ġrecept": 4939,
      "Ġbez": 4940,
      "ĠBon": 4941,
      "entry": 4942,
      "hir": 4943,
      "Ġsequest": 4944,
      "schl": 4945,
      "ĠSN": 4946,
      "Ġincub": 4947,
      "rast": 4948,
      "onitrile": 4949,
      "isor": 4950,
      "Ġalter": 4951,
      "esthetics": 4952,
      "arlton": 4953,
      "ĠFal": 4954,
      "ĠFull": 4955,
      "utup": 4956,
      "ĠMSC": 4957,
      "script": 4958,
      "Ġdefault": 4959,
      "Fullscreen": 4960,
      "JECT": 4961,
      "annie": 4962,
      "ĠGiul": 4963,
      "Entry": 4964,
      "CCCC": 4965,
      "icon": 4966,
      "Audio": 4967,
      "ĠGuild": 4968,
      "ysis": 4969,
      "gue": 4970,
      "ĠBenn": 4971,
      "ĠAk": 4972,
      "icio": 4973,
      "iyesi": 4974,
      "Kill": 4975,
      "addKill": 4976,
      "Ġdik": 4977,
      "HTree": 4978,
      "IndexOf": 4979,
      "aruh": 4980,
      "fter": 4981,
      "Ġsev": 4982,
      "lal": 4983,
      "upu": 4984,
      "ĠCO": 4985,
      "Bottom": 4986,
      "rya": 4987,
      "Ġgrant": 4988,
      "Constants": 4989,
      "ython": 4990,
      "inite": 4991,
      "Ġml": 4992,
      "iels": 4993,
      "Ġbifur": 4994,
      "attu": 4995,
      "Ġenj": 4996,
      "itattu": 4997,
      "ĠWalth": 4998,
      "peg": 4999,
      "STM": 5000,
      "StarObject": 5001,
      "Ġsuper": 5002,
      "inuous": 5003,
      "itas": 5004,
      "ĠMey": 5005,
      "UIA": 5006,
      "olls": 5007,
      "InCM": 5008,
      "rass": 5009,
      "ients": 5010,
      "ĠEt": 5011,
      "ĠBarang": 5012,
      "unken": 5013,
      "Ġtherm": 5014,
      "ĠString": 5015,
      "asu": 5016,
      "ieron": 5017,
      "ĠDi": 5018,
      "Return": 5019,
      "Ġtransf": 5020,
      "Ġeyel": 5021,
      "AspNet": 5022,
      "LOR": 5023,
      "iffe": 5024,
      "orie": 5025,
      "ObjectID": 5026,
      "ascular": 5027,
      "agg": 5028,
      "unton": 5029,
      "existing": 5030,
      "fx": 5031,
      "Ġrecomb": 5032,
      "ĠMedia": 5033,
      "ĠBurg": 5034,
      "Ġvij": 5035,
      "Ġpengu": 5036,
      "estroy": 5037,
      "Ġovip": 5038,
      "aia": 5039,
      "ended": 5040,
      "Ġtep": 5041,
      "ainer": 5042,
      "onnie": 5043,
      "Ġtool": 5044,
      "ably": 5045,
      "Ġcongen": 5046,
      "obacz": 5047,
      "Ġnozz": 5048,
      "aper": 5049,
      "ĠTah": 5050,
      "ĠBernad": 5051,
      "sia": 5052,
      "ersen": 5053,
      "Alert": 5054,
      "zok": 5055,
      "Ġadjud": 5056,
      "astan": 5057,
      "NewUrlParser": 5058,
      "bai": 5059,
      "Hash": 5060,
      "genstein": 5061,
      "PTMR": 5062,
      "DidLoad": 5063,
      "can": 5064,
      "De": 5065,
      "ĠJama": 5066,
      "utsch": 5067,
      "udi": 5068,
      "Ġoffset": 5069,
      "ocity": 5070,
      "atakan": 5071,
      "agles": 5072,
      "Op": 5073,
      "Leg": 5074,
      "camera": 5075,
      "Ġfind": 5076,
      "NA": 5077,
      "Ġkap": 5078,
      "ĠBey": 5079,
      "ZielPanel": 5080,
      "ĠSher": 5081,
      "ĠPo": 5082,
      "Ġmasc": 5083,
      "olph": 5084,
      "ĠWel": 5085,
      "ĠRw": 5086,
      "Ġig": 5087,
      "ibals": 5088,
      "radio": 5089,
      "rlen": 5090,
      "Ġpern": 5091,
      "ĠKeen": 5092,
      "ĠDIC": 5093,
      "ural": 5094,
      "Ġhed": 5095,
      "uity": 5096,
      "uffered": 5097,
      "omyc": 5098,
      "Ġtes": 5099,
      "itted": 5100,
      "ĠCoch": 5101,
      "yllium": 5102,
      "otia": 5103,
      "elius": 5104,
      "oking": 5105,
      "OnInit": 5106,
      "Bundle": 5107,
      "ALT": 5108,
      "centaje": 5109,
      "Ġbhav": 5110,
      "oblast": 5111,
      "ellular": 5112,
      "ikian": 5113,
      "aliana": 5114,
      "ĠHu": 5115,
      "ĠMuk": 5116,
      "mey": 5117,
      "ĠPatt": 5118,
      "IAN": 5119,
      "ĠMos": 5120,
      "Ġgreen": 5121,
      "LOTRE": 5122,
      "Ġpotenc": 5123,
      "ollah": 5124,
      "egal": 5125,
      "Ġlug": 5126,
      "URNIZOR": 5127,
      "olf": 5128,
      "Changed": 5129,
      "usBar": 5130,
      "Ġferm": 5131,
      "rafo": 5132,
      "aksan": 5133,
      "ĠJez": 5134,
      "Copy": 5135,
      "AtIndex": 5136,
      "osto": 5137,
      "EqualTo": 5138,
      "illings": 5139,
      "Ġverteb": 5140,
      "kup": 5141,
      "yre": 5142,
      "eline": 5143,
      "WallArray": 5144,
      "imens": 5145,
      "Img": 5146,
      "omo": 5147,
      "iox": 5148,
      "Ġlau": 5149,
      "niOkno": 5150,
      "ĠmorphOutput": 5151,
      "reek": 5152,
      "Ġafter": 5153,
      "hots": 5154,
      "Ġcoll": 5155,
      "haya": 5156,
      "Ġperi": 5157,
      "regor": 5158,
      "adoc": 5159,
      "ĠDy": 5160,
      "square": 5161,
      "ohVP": 5162,
      "ecek": 5163,
      "ĠBarn": 5164,
      "avage": 5165,
      "inces": 5166,
      "weight": 5167,
      "ĠOrr": 5168,
      "Ġsho": 5169,
      "onduct": 5170,
      "ococ": 5171,
      "slateg": 5172,
      "Ġfenc": 5173,
      "img": 5174,
      "ĠNai": 5175,
      "ornare": 5176,
      "ĠBrown": 5177,
      "ggbb": 5178,
      "ĠLock": 5179,
      "Pherson": 5180,
      "uple": 5181,
      "ĠGl": 5182,
      "CUR": 5183,
      "ĠNa": 5184,
      "ĠSpart": 5185,
      "oni": 5186,
      "ption": 5187,
      "Over": 5188,
      "orges": 5189,
      "oplas": 5190,
      "hta": 5191,
      "BeforeText": 5192,
      "ariate": 5193,
      "orne": 5194,
      "fit": 5195,
      "ĠCumm": 5196,
      "Ġpushed": 5197,
      "plement": 5198,
      "ĠVall": 5199,
      "fromRGB": 5200,
      "Ġhib": 5201,
      "ĠCoron": 5202,
      "ixed": 5203,
      "mus": 5204,
      "iav": 5205,
      "Ġlob": 5206,
      "eville": 5207,
      "Ġspe": 5208,
      "unp": 5209,
      "apole": 5210,
      "ĠRech": 5211,
      "Cmd": 5212,
      "ukawa": 5213,
      "bank": 5214,
      "ibt": 5215,
      "iax": 5216,
      "orate": 5217,
      "Ġdv": 5218,
      "ĠIO": 5219,
      "idos": 5220,
      "ĠGriff": 5221,
      "oxal": 5222,
      "Ġramp": 5223,
      "iliar": 5224,
      "cien": 5225,
      "anesulf": 5226,
      "calup": 5227,
      "zcz": 5228,
      "abbat": 5229,
      "ĠAle": 5230,
      "ĠHS": 5231,
      "sci": 5232,
      "abad": 5233,
      "ushing": 5234,
      "df": 5235,
      "Ġeff": 5236,
      "Emoji": 5237,
      "ĠCec": 5238,
      "ĠPercent": 5239,
      "king": 5240,
      "ĠRom": 5241,
      "IServer": 5242,
      "squarePos": 5243,
      "auth": 5244,
      "otts": 5245,
      "yin": 5246,
      "adast": 5247,
      "ĠMill": 5248,
      "ĠEmil": 5249,
      "click": 5250,
      "roqu": 5251,
      "Tran": 5252,
      "ilic": 5253,
      "aisi": 5254,
      "andel": 5255,
      "ĠRef": 5256,
      "comp": 5257,
      "Ġprotot": 5258,
      "Ġburl": 5259,
      "ĠPanth": 5260,
      "roud": 5261,
      "UCLE": 5262,
      "userd": 5263,
      "Ġsting": 5264,
      "Ġlac": 5265,
      "kte": 5266,
      "eckt": 5267,
      "ActionBar": 5268,
      "HTTP": 5269,
      "bpm": 5270,
      "bpmOb": 5271,
      "asz": 5272,
      "Ġprototyp": 5273,
      "Ġno": 5274,
      "Water": 5275,
      "havam": 5276,
      "Ġgra": 5277,
      "ozer": 5278,
      "aluronic": 5279,
      "Ġpih": 5280,
      "ĠDu": 5281,
      "kat": 5282,
      "gett": 5283,
      "itos": 5284,
      "ugia": 5285,
      "iad": 5286,
      "ylinder": 5287,
      "ĠLib": 5288,
      "opt": 5289,
      "ount": 5290,
      "ipot": 5291,
      "ĠHU": 5292,
      "urit": 5293,
      "webtoken": 5294,
      "Npm": 5295,
      "uation": 5296,
      "loadNpm": 5297,
      "IFORN": 5298,
      "Binding": 5299,
      "iton": 5300,
      "ĠHub": 5301,
      "ĠSait": 5302,
      "Ġmac": 5303,
      "LLO": 5304,
      "Ġsudd": 5305,
      "Ġesp": 5306,
      "nie": 5307,
      "untime": 5308,
      "Ġsor": 5309,
      "ĠNakam": 5310,
      "omial": 5311,
      "InOut": 5312,
      "Report": 5313,
      "weathermap": 5314,
      "KK": 5315,
      "sPath": 5316,
      "ByteArray": 5317,
      "KAKK": 5318,
      "KAKKIA": 5319,
      "AYLOR": 5320,
      "Fcm": 5321,
      "Ang": 5322,
      "Cel": 5323,
      "Ġbod": 5324,
      "ziem": 5325,
      "clare": 5326,
      "iots": 5327,
      "rier": 5328,
      "rops": 5329,
      "Ġsubsid": 5330,
      "sorb": 5331,
      "Ġoverr": 5332,
      "OSE": 5333,
      "Ġger": 5334,
      "ittal": 5335,
      "ĠParr": 5336,
      "amilton": 5337,
      "oret": 5338,
      "lash": 5339,
      "zuk": 5340,
      "Ġoutper": 5341,
      "Ġgele": 5342,
      "sciutto": 5343,
      "usst": 5344,
      "udar": 5345,
      "gal": 5346,
      "ithin": 5347,
      "jorie": 5348,
      "ĠLa": 5349,
      "Ġya": 5350,
      "Team": 5351,
      "ĠBian": 5352,
      "inks": 5353,
      "Zaw": 5354,
      "Ġalk": 5355,
      "ĠMaul": 5356,
      "Ġpref": 5357,
      "enam": 5358,
      "Ġsurp": 5359,
      "Ġmargin": 5360,
      "Operand": 5361,
      "annten": 5362,
      "ahkan": 5363,
      "ised": 5364,
      "ding": 5365,
      "ĠLanc": 5366,
      "ril": 5367,
      "fetch": 5368,
      "Ġreset": 5369,
      "ivalent": 5370,
      "IRE": 5371,
      "asone": 5372,
      "kins": 5373,
      "ĠUIF": 5374,
      "Ġtari": 5375,
      "RouteChange": 5376,
      "ede": 5377,
      "ĠOm": 5378,
      "Ġsa": 5379,
      "ipi": 5380,
      "UAG": 5381,
      "Ġcam": 5382,
      "orf": 5383,
      "Bitmap": 5384,
      "elho": 5385,
      "weise": 5386,
      "iejs": 5387,
      "acerItem": 5388,
      "ening": 5389,
      "egir": 5390,
      "real": 5391,
      "gerufen": 5392,
      "Me": 5393,
      "Signed": 5394,
      "SelectList": 5395,
      "ImgBoard": 5396,
      "enamefont": 5397,
      "orem": 5398,
      "Ġmenget": 5399,
      "elope": 5400,
      "iliy": 5401,
      "avkh": 5402,
      "ĠPog": 5403,
      "ĠOld": 5404,
      "Send": 5405,
      "CTime": 5406,
      "Ġouts": 5407,
      "ĠBridg": 5408,
      "ĠMO": 5409,
      "<UNK>": 5410
    },
    "merges": [
      "e r",
      "a n",
      "i n",
      "e n",
      "o n",
      "a r",
      "a t",
      "e s",
      "a l",
      "o r",
      "e t",
      "i t",
      "s t",
      "l e",
      "i c",
      "e l",
      "e d",
      "c h",
      "a m",
      "r o",
      "i s",
      "r e",
      "a d",
      "Ġ s",
      "Ġ p",
      "u n",
      "i l",
      "Ġ S",
      "a s",
      "in g",
      "u t",
      "Ġ C",
      "en t",
      "o l",
      "u r",
      "Ġ M",
      "u s",
      "Ġ B",
      "r a",
      "i on",
      "Ġ c",
      "i d",
      "Ġ d",
      "Ġ P",
      "u l",
      "i m",
      "Ġ t",
      "Ġ m",
      "o m",
      "Ġ A",
      "a c",
      "a g",
      "e m",
      "a b",
      "Ġ D",
      "o s",
      "o t",
      "u m",
      "i g",
      "c t",
      "o d",
      "Ġ b",
      "r i",
      "Ġ T",
      "Ġ G",
      "Ġ R",
      "Ġ H",
      "a p",
      "i e",
      "a k",
      "o c",
      "i r",
      "Ġ N",
      "es t",
      "Ġ L",
      "a y",
      "o w",
      "Ġ f",
      "Ġ E",
      "Ġ g",
      "e x",
      "o p",
      "Ġ v",
      "Ġ h",
      "an d",
      "t h",
      "i a",
      "Ġ K",
      "c e",
      "q u",
      "Ġ n",
      "i v",
      "Ġ F",
      "at e",
      "a v",
      "er s",
      "Ġ W",
      "an g",
      "at ion",
      "o g",
      "Ġ l",
      "an t",
      "I n",
      "i k",
      "o v",
      "a h",
      "e c",
      "e g",
      "Ġ k",
      "i st",
      "en d",
      "u b",
      "u d",
      "t er",
      "f f",
      "in e",
      "on t",
      "S t",
      "o b",
      "i b",
      "Ġ r",
      "u p",
      "i p",
      "t on",
      "es s",
      "at h",
      "i z",
      "i an",
      "e y",
      "el l",
      "u g",
      "e ct",
      "Ġ V",
      "Ġ I",
      "in d",
      "ar d",
      "l y",
      "er t",
      "a st",
      "Ġ J",
      "p e",
      "or d",
      "p h",
      "o k",
      "g et",
      "il l",
      "Ġ w",
      "p t",
      "ar t",
      "u e",
      "Ġ re",
      "u c",
      "n e",
      "h t",
      "y l",
      "ag e",
      "Ġ in",
      "Ġ U",
      "Ġ O",
      "i f",
      "e b",
      "t e",
      "as s",
      "i o",
      "s e",
      "a u",
      "un g",
      "al l",
      "e v",
      "un d",
      "e k",
      "e f",
      "e p",
      "o x",
      "ab le",
      "i le",
      "en s",
      "u k",
      "a w",
      "Ġ st",
      "Ġ j",
      "ex t",
      "at a",
      "er m",
      "ac k",
      "h e",
      "ul t",
      "o ut",
      "ĠC h",
      "s et",
      "in t",
      "it y",
      "a z",
      "e w",
      "i al",
      "p l",
      "a ch",
      "o ur",
      "i es",
      "y m",
      "ro p",
      "r an",
      "o u",
      "s k",
      "a j",
      "or t",
      "Ġ ch",
      "ic k",
      "am e",
      "oc k",
      "Ġ a",
      "r y",
      "an n",
      "Ġ un",
      "o st",
      "a i",
      "c l",
      "Ġc on",
      "s h",
      "s on",
      "ĠM c",
      "at t",
      "iv e",
      "p r",
      "u st",
      "j ect",
      "m ent",
      "ie w",
      "h er",
      "i el",
      "y n",
      "l l",
      "o us",
      "p er",
      "e le",
      "y a",
      "i er",
      "od e",
      "y pe",
      "a in",
      "ad d",
      "un t",
      "er v",
      "ar e",
      "p ut",
      "t o",
      "n a",
      "ic h",
      "i j",
      "is h",
      "E R",
      "on g",
      "en g",
      "it e",
      "l o",
      "a x",
      "ig n",
      "on d",
      "C ont",
      "s p",
      "r ing",
      "p p",
      "b er",
      "an e",
      "ul l",
      "at i",
      "or e",
      "ic e",
      "V al",
      "e z",
      "A r",
      "i re",
      "u re",
      "C h",
      "O b",
      "ro m",
      "ar y",
      "il d",
      "id e",
      "om p",
      "T o",
      "m an",
      "r on",
      "as h",
      "at ed",
      "S T",
      "o h",
      "r u",
      "f t",
      "r es",
      "im e",
      "in k",
      "et t",
      "Ġ z",
      "s c",
      "ĠS h",
      "is s",
      "ig ht",
      "n d",
      "an a",
      "er r",
      "iel d",
      "Ġp ro",
      "ar k",
      "en c",
      "Ob ject",
      "T ype",
      "g e",
      "it h",
      "C on",
      "er n",
      "iz e",
      "Ġs p",
      "et h",
      "er e",
      "ow n",
      "I D",
      "l es",
      "e h",
      "P ar",
      "i y",
      "t r",
      "C l",
      "Ġ e",
      "or m",
      "it t",
      "in s",
      "en e",
      "V iew",
      "ra y",
      "O R",
      "Val ue",
      "er c",
      "ol l",
      "le y",
      "o y",
      "O N",
      "h am",
      "Ġ le",
      "Ġp r",
      "or s",
      "al e",
      "A R",
      "R es",
      "on s",
      "m a",
      "c o",
      "E N",
      "i um",
      "U R",
      "r r",
      "Ġ im",
      "L ist",
      "k a",
      "I C",
      "o j",
      "ac e",
      "i ent",
      "E x",
      "h o",
      "s s",
      "ic al",
      "ro w",
      "ct ion",
      "t t",
      "in a",
      "Ġ Y",
      "I N",
      "Ġt h",
      "P ath",
      "ol d",
      "v er",
      "w e",
      "A N",
      "ĠA r",
      "ac t",
      "en ce",
      "P ro",
      "ol or",
      "y s",
      "qu e",
      "r it",
      "S C",
      "ut ton",
      "as e",
      "en n",
      "at o",
      "n o",
      "ar g",
      "l er",
      "r am",
      "E rr",
      "ĠS t",
      "ce pt",
      "e ad",
      "n i",
      "on e",
      "Ġ Z",
      "at ch",
      "Ġ qu",
      "Ġ ex",
      "Ġ ab",
      "al d",
      "Ġs c",
      "c k",
      "o le",
      "t em",
      "C C",
      "I d",
      "o od",
      "us h",
      "om m",
      "s ch",
      "L E",
      "Ġp l",
      "N ame",
      "an s",
      "Ġ Q",
      "Err or",
      "e e",
      "o z",
      "r ent",
      "b o",
      "r ic",
      "s er",
      "an ce",
      "o f",
      "i x",
      "er g",
      "a il",
      "D ata",
      "I m",
      "ar i",
      "Ġd is",
      "an k",
      "A L",
      "ap p",
      "Ġ ad",
      "ar l",
      "C T",
      "S c",
      "y d",
      "an c",
      "ad o",
      "in i",
      "A T",
      "K ey",
      "Ġ al",
      "u f",
      "am p",
      "Ġs ub",
      "y t",
      "C omp",
      "r id",
      "u ff",
      "ĠS ch",
      "le d",
      "S erv",
      "ĠA l",
      "B utton",
      "em ent",
      "em b",
      "S E",
      "r et",
      "an i",
      "a it",
      "T ext",
      "s l",
      "Ġ In",
      "a f",
      "or n",
      "ra v",
      "ar r",
      "g en",
      "A M",
      "at or",
      "f o",
      "Ġ y",
      "e qu",
      "h en",
      "a is",
      "l and",
      "am b",
      "S P",
      "ing s",
      "v al",
      "I T",
      "S ize",
      "y p",
      "e ar",
      "et er",
      "Ar ray",
      "St ring",
      "ad a",
      "f ord",
      "a ir",
      "R E",
      "in n",
      "it i",
      "I tem",
      "i en",
      "ion s",
      "es h",
      "C o",
      "S A",
      "r en",
      "Par am",
      "B y",
      "O f",
      "ug h",
      "ad e",
      "ot t",
      "Ġg et",
      "c on",
      "Ġs h",
      "R P",
      "k an",
      "ec k",
      "in c",
      "e in",
      "c c",
      "u j",
      "ut t",
      "B S",
      "ic t",
      "er a",
      "ic a",
      "ov er",
      "Cont ext",
      "C S",
      "ĠB l",
      "n g",
      "us s",
      "y c",
      "e at",
      "v ent",
      "Ġp ar",
      "n t",
      "p s",
      "or y",
      "ri b",
      "un c",
      "ar a",
      "um b",
      "ot h",
      "k e",
      "In t",
      "ic s",
      "on ent",
      "ut h",
      "ur rent",
      "ar m",
      "ur s",
      "q l",
      "en a",
      "u ch",
      "g er",
      "le ment",
      "P l",
      "y st",
      "eg o",
      "F ield",
      "Ġ an",
      "Ġ en",
      "Im age",
      "i ro",
      "or a",
      "is c",
      "os it",
      "F ile",
      "A C",
      "ut e",
      "P S",
      "i ra",
      "A pp",
      "re ate",
      "re en",
      "i h",
      "ro up",
      "am a",
      "Ġ ac",
      "z e",
      "ĠG u",
      "ag er",
      "us e",
      "at er",
      "C P",
      "v a",
      "al a",
      "Ġd es",
      "st r",
      "M od",
      "Ġs l",
      "v e",
      "ut o",
      "um ber",
      "f l",
      "Ġ ar",
      "o ff",
      "Ġ ap",
      "G et",
      "ch e",
      "D A",
      "u y",
      "Ġs et",
      "is m",
      "d en",
      "at th",
      "er y",
      "Ġ X",
      "Ġre c",
      "T ime",
      "al s",
      "m e",
      "equ est",
      "M an",
      "k h",
      "ro ll",
      "r ess",
      "I A",
      "is e",
      "St ate",
      "p ar",
      "am ent",
      "Ġp er",
      "d ex",
      "I S",
      "p o",
      "n er",
      "il le",
      "ur n",
      "P C",
      "it z",
      "ar c",
      "u z",
      "at es",
      "Ġ ro",
      "ul ar",
      "or r",
      "e ch",
      "l et",
      "i us",
      "r ad",
      "ord er",
      "av e",
      "al t",
      "ra w",
      "an j",
      "h a",
      "C olor",
      "f e",
      "S h",
      "et s",
      "ar b",
      "or b",
      "d u",
      "C ode",
      "I L",
      "i ff",
      "op h",
      "re f",
      "re v",
      "os e",
      "In dex",
      "l ock",
      "u v",
      "Ch ar",
      "our ce",
      "D P",
      "F l",
      "E S",
      "il i",
      "U T",
      "ri st",
      "Ġr es",
      "Ġ is",
      "u h",
      "g l",
      "b ar",
      "p i",
      "m l",
      "it er",
      "Comp onent",
      "M S",
      "k s",
      "k t",
      "i ed",
      "ian s",
      "ru ct",
      "y ch",
      "ay out",
      "re e",
      "I P",
      "R equest",
      "u an",
      "l d",
      "Ġm en",
      "y r",
      "ĠT h",
      "ing ton",
      "ra ck",
      "C H",
      "i i",
      "om b",
      "o ch",
      "ele ct",
      "s ub",
      "O ut",
      "ra g",
      "em e",
      "u x",
      "S et",
      "A ll",
      "ĠA m",
      "et e",
      "S I",
      "r im",
      "C all",
      "M A",
      "c z",
      "C A",
      "f ig",
      "an o",
      "a e",
      "ab b",
      "a o",
      "ro l",
      "f orm",
      "s w",
      "Ġc ont",
      "el y",
      "E n",
      "E vent",
      "R ef",
      "ĠS c",
      "G roup",
      "T R",
      "ay s",
      "ran s",
      "g o",
      "ak e",
      "z a",
      "as c",
      "E T",
      "er d",
      "ox y",
      "Ġj ed",
      "B ox",
      "Ġ od",
      "A ction",
      "o id",
      "b ack",
      "y le",
      "Ġ am",
      "r ed",
      "ro s",
      "ĠL e",
      "ri v",
      "es e",
      "o a",
      "ot s",
      "l a",
      "or k",
      "o o",
      "l ine",
      "Ġr et",
      "Ġ und",
      "a ff",
      "Res ult",
      "U N",
      "at ur",
      "S p",
      "r t",
      "ĠC on",
      "er ed",
      "Ġ ind",
      "ind ow",
      "cept ion",
      "P rop",
      "end o",
      "In put",
      "Man ager",
      "Ġc om",
      "ĠB ar",
      "U p",
      "M P",
      "Ġ ob",
      "re c",
      "Ex ception",
      "Ġ ant",
      "Serv ice",
      "m en",
      "l ing",
      "ĠA d",
      "um p",
      "Co unt",
      "A G",
      "est er",
      "sh ire",
      "ĠE d",
      "un ter",
      "u ild",
      "e j",
      "A d",
      "ay a",
      "an am",
      "i os",
      "r l",
      "ĠE m",
      "Cl ass",
      "el s",
      "Ġim p",
      "t en",
      "oc al",
      "P A",
      "m er",
      "e ut",
      "ow er",
      "at s",
      "L ayout",
      "T able",
      "as k",
      "en er",
      "u it",
      "ĠR e",
      "ar s",
      "b ur",
      "ĠA n",
      "T S",
      "F or",
      "oc ation",
      "am il",
      "Ġ em",
      "id d",
      "m y",
      "ion e",
      "os s",
      "i qu",
      "A s",
      "uc k",
      "p ort",
      "el le",
      "iz ed",
      "uc le",
      "ang e",
      "u le",
      "n ik",
      "S M",
      "o und",
      "Ġt r",
      "og g",
      "at ic",
      "u al",
      "il ity",
      "ra ph",
      "or g",
      "ra ct",
      "E lement",
      "ous e",
      "et te",
      "E D",
      "l ast",
      "p ro",
      "W ith",
      "l as",
      "In fo",
      "Con fig",
      "D R",
      "p on",
      "ay er",
      "U ser",
      "an el",
      "A D",
      "l ad",
      "A P",
      "A pi",
      "ber g",
      "ie j",
      "Ġc o",
      "Ġ ov",
      "Ġ el",
      "B C",
      "Ġp h",
      "u i",
      "ĠE l",
      "ed i",
      "id th",
      "in o",
      "S S",
      "b e",
      "ic ht",
      "ĠB r",
      "ead er",
      "re g",
      "ot o",
      "ol ic",
      "h i",
      "A l",
      "om e",
      "I M",
      "b it",
      "b r",
      "I s",
      "un k",
      "m ap",
      "lo ad",
      "c ent",
      "Ġf l",
      "in al",
      "r al",
      "a ut",
      "W indow",
      "w eb",
      "i et",
      "le ct",
      "C O",
      "o ugh",
      "E C",
      "ur a",
      "at ing",
      "Ġin c",
      "Ġ ent",
      "Ġ on",
      "Ġ x",
      "Ġ ed",
      "Ġs k",
      "w ood",
      "p ath",
      "an y",
      "S RP",
      "t n",
      "al i",
      "Ġ ang",
      "i or",
      "ch t",
      "sk i",
      "ab el",
      "ne w",
      "I V",
      "D K",
      "Mod el",
      "er k",
      "Ġ op",
      "ĠS al",
      "ar n",
      "T est",
      "d a",
      "ant i",
      "P M",
      "e ep",
      "u id",
      "r v",
      "ion al",
      "ra b",
      "Ġg r",
      "ar ch",
      "EN T",
      "a an",
      "id er",
      "Ġm ult",
      "f ield",
      "ri pt",
      "bo ard",
      "Ġ use",
      "a ur",
      "P h",
      "L og",
      "ul f",
      "f er",
      "ect ion",
      "im ent",
      "Param s",
      "t s",
      "im a",
      "B A",
      "o ad",
      "eg a",
      "r is",
      "M C",
      "ud d",
      "l ic",
      "ĠS p",
      "G F",
      "ig h",
      "Ġin t",
      "it em",
      "et ail",
      "ert y",
      "U S",
      "ok e",
      "U M",
      "c al",
      "N ode",
      "ib le",
      "Ġd i",
      "Ġc l",
      "k ey",
      "ĠW il",
      "P anel",
      "en u",
      "ation s",
      "ol og",
      "an th",
      "O A",
      "od y",
      "yn c",
      "b y",
      "Ġ out",
      "ac ter",
      "St at",
      "k ow",
      "H T",
      "le g",
      "A t",
      "M ap",
      "P T",
      "M D",
      "ak an",
      "Ġ ra",
      "v ert",
      "B ar",
      "s ed",
      "or es",
      "em p",
      "C ol",
      "b ra",
      "ok en",
      "j e",
      "Ġb l",
      "f or",
      "ĠS w",
      "ĠC l",
      "ad i",
      "ĠC o",
      "C M",
      "h at",
      "i em",
      "N umber",
      "ch ed",
      "it a",
      "m o",
      "Ġ au",
      "U n",
      "ic ul",
      "Ġ ol",
      "d ate",
      "St art",
      "er on",
      "z y",
      "a ud",
      "n y",
      "eth od",
      "ĠMc C",
      "at ri",
      "C I",
      "Ġcon v",
      "O r",
      "ar o",
      "i ri",
      "Ġm ax",
      "Ġp ost",
      "il s",
      "Cont ent",
      "T E",
      "l in",
      "a a",
      "Con st",
      "erc ent",
      "E m",
      "I B",
      "on ic",
      "ĠB ur",
      "um ent",
      "pon se",
      "W idth",
      "ĠB h",
      "om er",
      "Ġ ult",
      "z t",
      "r ich",
      "al k",
      "n et",
      "o ok",
      "a us",
      "Ar g",
      "u a",
      "C E",
      "B lock",
      "D ate",
      "S R",
      "m s",
      "e er",
      "id o",
      "ament e",
      "Ġt rans",
      "er o",
      "on a",
      "O n",
      "et ri",
      "L ine",
      "h r",
      "H eader",
      "F A",
      "end er",
      "Ġ as",
      "O M",
      "St ar",
      "omm and",
      "h et",
      "j sk",
      "A uto",
      "Ġin ter",
      "l or",
      "ĠP al",
      "it s",
      "o is",
      "A S",
      "I R",
      "w in",
      "Ġv ol",
      "Ġ er",
      "O ff",
      "at ive",
      "re ad",
      "Serv er",
      "im p",
      "E L",
      "Ġp ot",
      "D C",
      "ial og",
      "eth yl",
      "st ra",
      "I F",
      "ess age",
      "M ode",
      "Out put",
      "j s",
      "U I",
      "os h",
      "d e",
      "d b",
      "ut ter",
      "ast er",
      "C L",
      "Ġs w",
      "ur t",
      "or th",
      "x c",
      "ro b",
      "A n",
      "M enu",
      "it or",
      "l ess",
      "il es",
      "ak s",
      "ip p",
      "M ut",
      "Ġd ec",
      "ac ch",
      "Ġt o",
      "L O",
      "l i",
      "ro und",
      "Ġ add",
      "ou ch",
      "th or",
      "ers on",
      "ak i",
      "D B",
      "P op",
      "Ġ ep",
      "Ġb er",
      "le x",
      "Ġt est",
      "v en",
      "p en",
      "l ar",
      "Ġjed n",
      "uff er",
      "oc us",
      "Ġb h",
      "d er",
      "y cl",
      "it ion",
      "or ph",
      "ic z",
      "M B",
      "b ox",
      "as i",
      "es p",
      "G o",
      "ill a",
      "Ġs al",
      "enc y",
      "at an",
      "ol s",
      "eng th",
      "v i",
      "Ġd ef",
      "ra z",
      "T A",
      "P E",
      "am i",
      "Ġ ag",
      "ro ph",
      "z o",
      "P R",
      "U rl",
      "ar th",
      "IN G",
      "m in",
      "K A",
      "ed ia",
      "e ight",
      "T C",
      "io us",
      "ai re",
      "ud ent",
      "ol a",
      "m et",
      "it ies",
      "c om",
      "a ul",
      "Con n",
      "N av",
      "b l",
      "ĠW h",
      "ec ond",
      "am era",
      "a ult",
      "A v",
      "c ess",
      "ym b",
      "ĠQ u",
      "in put",
      "D ialog",
      "Ġs m",
      "Ġs ch",
      "ĠP r",
      "ĠM ah",
      "Cont rol",
      "ĠA g",
      "pl ic",
      "S O",
      "el i",
      "re y",
      "ĠD or",
      "M L",
      "el d",
      "w ell",
      "ra in",
      "ra p",
      "c a",
      "Ġre m",
      "ĠMc G",
      "Ġ oc",
      "Q u",
      "am m",
      "I G",
      "r um",
      "Ġp al",
      "o ot",
      "f ind",
      "eb ug",
      "B it",
      "ĠC B",
      "Ġre p",
      "Ġc urrent",
      "w a",
      "ĠK n",
      "ical ly",
      "i as",
      "on n",
      "Ġm il",
      "Res ource",
      "u ro",
      "op e",
      "ra ft",
      "Ġp re",
      "Res ponse",
      "In it",
      "l u",
      "al le",
      "n ya",
      "Ġ app",
      "N ew",
      "o i",
      "ab ility",
      "aw a",
      "Ġn ew",
      "ĠE r",
      "ĠW ood",
      "ov e",
      "Ġd el",
      "uk an",
      "F BS",
      "B uffer",
      "and le",
      "an z",
      "us er",
      "D ef",
      "er al",
      "rop ri",
      "FBS DK",
      "In ter",
      "at is",
      "re am",
      "it ri",
      "ar get",
      "u er",
      "av a",
      "F ocus",
      "v an",
      "Ġs up",
      "ang an",
      "V ar",
      "ak a",
      "j i",
      "O per",
      "st ein",
      "ĠA pp",
      "ate g",
      "v is",
      "ĠB x",
      "if t",
      "im m",
      "O P",
      "Ch ange",
      "S D",
      "Ġ up",
      "r as",
      "an h",
      "ap t",
      "o un",
      "S elect",
      "ant e",
      "Ġc reate",
      "r z",
      "c p",
      "pr ing",
      "ac y",
      "ĠW ar",
      "ev er",
      "Ġm eng",
      "ĠC or",
      "ĠP h",
      "iz ation",
      "Ġt er",
      "n ot",
      "if ic",
      "ĠB ro",
      "ect or",
      "Cl ient",
      "ak t",
      "ik i",
      "il a",
      "st e",
      "Ġle g",
      "R ec",
      "P age",
      "M essage",
      "f rom",
      "A F",
      "t ype",
      "Ġg l",
      "ĠM an",
      "D I",
      "ak kh",
      "Ġ o",
      "ag a",
      "Prop erty",
      "ĠQ x",
      "d ata",
      "D own",
      "c urrent",
      "n al",
      "s end",
      "o ul",
      "T P",
      "d o",
      "Ġ act",
      "er ence",
      "g es",
      "Ġin f",
      "v ol",
      "I O",
      "al f",
      "eg er",
      "ig g",
      "c ont",
      "b en",
      "E nd",
      "st er",
      "I ON",
      "an yl",
      "is T",
      "erm an",
      "ed a",
      "e an",
      "C B",
      "ul a",
      "A Y",
      "u ct",
      "op en",
      "om a",
      "D etail",
      "and er",
      "g ar",
      "S w",
      "st it",
      "ib us",
      "ĠB e",
      "C ell",
      "a ft",
      "ĠA t",
      "ath a",
      "S ub",
      "k in",
      "yp es",
      "ers ion",
      "D E",
      "it ch",
      "c ad",
      "ert ex",
      "and ler",
      "ell y",
      "it th",
      "ag es",
      "A nd",
      "R G",
      "k o",
      "ark s",
      "ol es",
      "C D",
      "t ot",
      "ign ment",
      "Ġ ev",
      "r at",
      "w w",
      "E M",
      "ĠV ill",
      "d own",
      "Ġc or",
      "r in",
      "n ey",
      "g ed",
      "y an",
      "c ed",
      "M R",
      "u el",
      "ant s",
      "Ġ ir",
      "ĠM ar",
      "Ġp or",
      "s m",
      "L ocation",
      "ĠE n",
      "in ch",
      "im b",
      "W eb",
      "st art",
      "old er",
      "M ain",
      "and o",
      "ic o",
      "A tt",
      "in ate",
      "Ġm an",
      "Ġh em",
      "Ġp at",
      "iment o",
      "od er",
      "od es",
      "as m",
      "N ull",
      "Ġ end",
      "P P",
      "B ack",
      "u es",
      "ĠA b",
      "ro c",
      "y te",
      "k en",
      "T T",
      "tt p",
      "B uf",
      "n am",
      "p atch",
      "L ink",
      "o int",
      "ĠR ock",
      "D is",
      "ic es",
      "S pr",
      "y e",
      "Ġ av",
      "ac c",
      "Stat us",
      "ĠS m",
      "ov a",
      "F orm",
      "v ed",
      "G C",
      "ick s",
      "J son",
      "L U",
      "C ard",
      "en z",
      "H P",
      "j a",
      "Ġex p",
      "ĠMc K",
      "Ġm on",
      "ri ff",
      "ĠM on",
      "H eight",
      "a uc",
      "u en",
      "ri p",
      "y th",
      "f s",
      "P ref",
      "ear ch",
      "ĠR o",
      "M N",
      "P osit",
      "qu al",
      "D ebug",
      "R ect",
      "ra c",
      "E d",
      "um er",
      "ĠMc D",
      "v ar",
      "m m",
      "Ġp ay",
      "ath er",
      "ir t",
      "Ġk n",
      "st ance",
      "Ġr el",
      "o ft",
      "Ġn e",
      "Ġ ip",
      "al ly",
      "R ow",
      "ell a",
      "ent e",
      "s b",
      "ri f",
      "m p",
      "ie v",
      "Ġ ur",
      "ap s",
      "n ame",
      "et ry",
      "t ext",
      "B uild",
      "ĠM ad",
      "ah an",
      "Ġs ol",
      "Ġ ut",
      "o in",
      "el t",
      "T L",
      "Ex p",
      "pl ay",
      "Ġad j",
      "F ind",
      "c i",
      "Ġv er",
      "et a",
      "om en",
      "S ync",
      "po int",
      "is on",
      "iv ity",
      "aw n",
      "ĠC ar",
      "pt y",
      "ad r",
      "y k",
      "p ond",
      "l ay",
      "ig est",
      "H DR",
      "ĠV er",
      "Ġcon s",
      "it ter",
      "in ation",
      "O pen",
      "en i",
      "F rom",
      "us c",
      "ĠA ng",
      "ĠR x",
      "un ch",
      "ur b",
      "a ug",
      "l ob",
      "t ed",
      "in u",
      "h an",
      "L ength",
      "ĠN ew",
      "e it",
      "ĠM ont",
      "ad er",
      "get B",
      "ush ed",
      "M ethod",
      "ut to",
      "od el",
      "U C",
      "R C",
      "pr int",
      "D ec",
      "and a",
      "f ile",
      "ap e",
      "ch en",
      "ĠF l",
      "le ction",
      "ag n",
      "C reate",
      "in it",
      "H A",
      "ct ive",
      "Ġc ur",
      "Ġ es",
      "Qu ery",
      "Ch o",
      "id az",
      "ĠR ed",
      "Ġn ot",
      "ign ed",
      "v ille",
      "N um",
      "A uth",
      "ers h",
      "h ou",
      "ust om",
      "Ġim m",
      "i ya",
      "s el",
      "om ot",
      "le m",
      "m at",
      "St udent",
      "m d",
      "Ġpr z",
      "w ay",
      "ĠO r",
      "ap ter",
      "Up date",
      "m ann",
      "ĠP ar",
      "ĠU n",
      "o ard",
      "iv er",
      "et o",
      "Ġ emb",
      "Ġp art",
      "e i",
      "S X",
      "w ord",
      "g u",
      "ra f",
      "oll ow",
      "d es",
      "x y",
      "ri z",
      "U L",
      "ro om",
      "au f",
      "P er",
      "Ġ over",
      "os a",
      "Ġ off",
      "G E",
      "m i",
      "L C",
      "d el",
      "re a",
      "I ST",
      "c op",
      "G ame",
      "rit er",
      "in es",
      "all ow",
      "du ct",
      "V C",
      "Ġf or",
      "ĠL or",
      "f ul",
      "L abel",
      "ĠM art",
      "ro id",
      "ĠB el",
      "un a",
      "ol o",
      "Ġ ann",
      "e al",
      "Ġb il",
      "an ch",
      "d raw",
      "s a",
      "pr ess",
      "T oken",
      "um e",
      "ir st",
      "Ġd em",
      "und er",
      "ĠH ar",
      "arg in",
      "As set",
      "Ġre f",
      "ĠC ol",
      "ell es",
      "T H",
      "ob j",
      "ell en",
      "v as",
      "rib ute",
      "N ot",
      "S l",
      "To ol",
      "ek s",
      "Ġn eut",
      "v ers",
      "D S",
      "atri x",
      "St yle",
      "ĠS e",
      "Att ribute",
      "h av",
      "co unter",
      "Ġp ol",
      "em ia",
      "Ġs pl",
      "ain s",
      "end e",
      "un n",
      "g i",
      "id es",
      "c olor",
      "b a",
      "ĠF re",
      "emb re",
      "Posit ion",
      "ad es",
      "Ġv al",
      "ulf anyl",
      "Ġ q",
      "sp ace",
      "ar ed",
      "h el",
      "Build er",
      "s ulfanyl",
      "Ġac c",
      "p ie",
      "s al",
      "ar at",
      "ph en",
      "F ull",
      "UR N",
      "en se",
      "ĠE ll",
      "ĠBl ack",
      "l en",
      "l ov",
      "est het",
      "Ġh um",
      "iv es",
      "in st",
      "v el",
      "b u",
      "C ent",
      "Ad d",
      "es i",
      "p erm",
      "Spr ite",
      "Ġs n",
      "a at",
      "G R",
      "ij k",
      "on c",
      "ap i",
      "our n",
      "it es",
      "Ġt ri",
      "ind ing",
      "ung en",
      "ce ed",
      "ot e",
      "ent s",
      "et on",
      "ie go",
      "air es",
      "on ne",
      "op p",
      "ac ute",
      "Ġf re",
      "ire ct",
      "Component s",
      "ĠM or",
      "ron e",
      "h ar",
      "ang k",
      "Off set",
      "ag en",
      "ro g",
      "Ġt ra",
      "it ar",
      "en na",
      "c s",
      "V ertex",
      "v iew",
      "ri e",
      "b b",
      "ĠW al",
      "w ar",
      "N ow",
      "Ġc ar",
      "b or",
      "l ink",
      "T h",
      "ug in",
      "O C",
      "p rop",
      "sk y",
      "s is",
      "ap h",
      "it o",
      "E G",
      "t est",
      "cl ass",
      "Ġw h",
      "est o",
      "p ton",
      "ar sh",
      "ell er",
      "it is",
      "am s",
      "S F",
      "S ource",
      "Ġp res",
      "uc c",
      "ient o",
      "e il",
      "il er",
      "ĠG al",
      "L P",
      "p os",
      "st ring",
      "is i",
      "ri es",
      "it al",
      "s en",
      "o om",
      "ĠR aj",
      "ĠK e",
      "ĠM o",
      "ut ion",
      "Ġpr et",
      "P ort",
      "oh n",
      "i que",
      "Rec ord",
      "ur ing",
      "N on",
      "r ite",
      "C R",
      "ER N",
      "l og",
      "h n",
      "B ody",
      "Key s",
      "s o",
      "S ett",
      "ĠR UT",
      "um n",
      "ran ch",
      "P os",
      "ĠU I",
      "our s",
      "ĠP ol",
      "h ab",
      "ĠH o",
      "Ġd ist",
      "ak er",
      "il t",
      "Log in",
      "ak ukan",
      "ide o",
      "em y",
      "E l",
      "V ideo",
      "ue ue",
      "in ct",
      "Ġm y",
      "M arks",
      "rev iew",
      "ymb ol",
      "Ġp op",
      "l ig",
      "el er",
      "ĠH e",
      "ef ont",
      "ĠG ar",
      "ep ort",
      "ell i",
      "Ġh ab",
      "m ond",
      "ock et",
      "Sett ings",
      "ef t",
      "ĠE p",
      "ocal Var",
      "g g",
      "ot her",
      "T I",
      "Ġp le",
      "b ert",
      "p age",
      "S up",
      "y o",
      "at u",
      "et ter",
      "ĠC av",
      "z n",
      "Sc ript",
      "ah i",
      "ann ya",
      "S al",
      "D id",
      "H L",
      "it le",
      "b ig",
      "ing en",
      "ch er",
      "r el",
      "T O",
      "v o",
      "ĠC ro",
      "ud a",
      "Ġs ur",
      "Sc reen",
      "Pl ayer",
      "T emp",
      "Ġm el",
      "ĠC ont",
      "R ad",
      "F S",
      "v es",
      "Co unter",
      "l ich",
      "est on",
      "ev a",
      "T ypes",
      "H S",
      "Sh ow",
      "Ġv att",
      "ĠI r",
      "S ql",
      "O U",
      "z in",
      "rv Group",
      "ist a",
      "M T",
      "Ġc yt",
      "ĠR h",
      "Q ueue",
      "L oad",
      "ild e",
      "up t",
      "Ġa us",
      "co unt",
      "Par a",
      "ĠH or",
      "r ight",
      "Ġc omp",
      "im i",
      "ud e",
      "t ils",
      "Item s",
      "B E",
      "re ens",
      "D ict",
      "ĠS om",
      "h d",
      "ash i",
      "Param eter",
      "l ish",
      "Par ser",
      "d l",
      "Ġst at",
      "ist s",
      "y g",
      "R S",
      "eh yd",
      "il ly",
      "n c",
      "oc ument",
      "Comp at",
      "yl l",
      "ht t",
      "v ider",
      "Ġb r",
      "Ġcon c",
      "e ce",
      "om y",
      "C om",
      "Ġh ot",
      "get C",
      "yst em",
      "at en",
      "os is",
      "rom e",
      "g ram",
      "i endo",
      "ef ore",
      "on es",
      "m ouse",
      "oll is",
      "F T",
      "ist ic",
      "e ed",
      "A B",
      "Ġin s",
      "P L",
      "k i",
      "a ugh",
      "it te",
      "Ġt re",
      "at ter",
      "Mod ule",
      "ym ph",
      "ĠG o",
      "B tn",
      "ot rop",
      "ĠB erg",
      "ĠE st",
      "Ġ ele",
      "B ound",
      "F F",
      "c reate",
      "w ick",
      "ik a",
      "W ait",
      "Ġm in",
      "ĠP A",
      "Ġcont ent",
      "UR L",
      "ir m",
      "on y",
      "at iv",
      "B L",
      "m ath",
      "ar ia",
      "un e",
      "r ine",
      "ow an",
      "ĠP l",
      "ar et",
      "Ġm ast",
      "ic i",
      "Pl ugin",
      "ett a",
      "ne j",
      "O L",
      "Ġp ur",
      "im er",
      "ic ons",
      "B I",
      "il it",
      "ile y",
      "Ġm ag",
      "yt es",
      "Ġ enc",
      "ile d",
      "h ot",
      "A A",
      "h m",
      "th er",
      "G P",
      "iv al",
      "ĠS te",
      "el et",
      "Ġcon se",
      "ob ac",
      "ar an",
      "Ġ ass",
      "S U",
      "ĠA y",
      "ach e",
      "o en",
      "St ruct",
      "all back",
      "and om",
      "og en",
      "Ġc re",
      "P k",
      "a int",
      "al er",
      "Oper ation",
      "C ommand",
      "D ev",
      "um l",
      "e ek",
      "ĠA sh",
      "Ġt or",
      "z en",
      "b s",
      "Sc roll",
      "ath am",
      "ub le",
      "iy e",
      "bur y",
      "Ġd ham",
      "R et",
      "Av g",
      "it ed",
      "S ch",
      "ĠAr ch",
      "Ġp os",
      "Ġ or",
      "im o",
      "os c",
      "V is",
      "st ock",
      "ay am",
      "Ġin v",
      "F ont",
      "amp le",
      "ro u",
      "A E",
      "r ug",
      "et her",
      "ĠP L",
      "e on",
      "R out",
      "in f",
      "h al",
      "row n",
      "anj a",
      "ert o",
      "am o",
      "ul ation",
      "Ġst r",
      "Ġp e",
      "m as",
      "roll er",
      "t im",
      "op l",
      "R ight",
      "ik e",
      "ter ed",
      "Ġre g",
      "k it",
      "os ph",
      "rist ian",
      "row ser",
      "Ġv el",
      "g a",
      "ĠN ag",
      "og ram",
      "ew ork",
      "P ack",
      "T op",
      "ec o",
      "og o",
      "n ess",
      "ol son",
      "v ation",
      "N D",
      "P tr",
      "ĠR eg",
      "ĠR os",
      "out s",
      "Ġp ers",
      "et ch",
      "on o",
      "ad os",
      "un sch",
      "G S",
      "as is",
      "C F",
      "P ress",
      "f ace",
      "olic y",
      "n em",
      "Ġs il",
      "T ask",
      "Ġd uk",
      "l av",
      "ogg le",
      "Ġm er",
      "an ia",
      "ĠG ir",
      "i ol",
      "SX ml",
      "V ersion",
      "ĠE M",
      "im age",
      "ass a",
      "um ph",
      "cz n",
      "o up",
      "Ġl oc",
      "l j",
      "S earch",
      "h es",
      "ob b",
      "U ID",
      "ĠMc Int",
      "Nav ig",
      "H ttp",
      "E qual",
      "G l",
      "Ġs put",
      "In stance",
      "ed it",
      "ak es",
      "oj i",
      "Char acter",
      "Ġin put",
      "Conn ection",
      "Un ary",
      "ol m",
      "ill es",
      "l io",
      "Ġre ct",
      "ild a",
      "Ġd o",
      "r ame",
      "ĠD om",
      "at form",
      "ang u",
      "as ena",
      "ĠB er",
      "on ucle",
      "Ġa f",
      "Prop s",
      "ĠE x",
      "at on",
      "Ġb ul",
      "ick er",
      "Ġ ext",
      "S ON",
      "ĠMc L",
      "at as",
      "AR T",
      "ar on",
      "err ed",
      "Ġ ing",
      "c re",
      "rack et",
      "as al",
      "P ix",
      "uc ed",
      "get M",
      "C amera",
      "olog y",
      "re w",
      "ir l",
      "Ġpar ab",
      "Em pty",
      "O W",
      "Ġs am",
      "if y",
      "sc reen",
      "Ġl le",
      "Mut ability",
      "Ġs ymbol",
      "he ad",
      "econd s",
      "P D",
      "id den",
      "al iz",
      "idaz ole",
      "Ġm ic",
      "Inter face",
      "isT rack",
      "ad or",
      "Ġg i",
      "or i",
      "ain ed",
      "al an",
      "re p",
      "ar ant",
      "c y",
      "IL L",
      "h y",
      "O w",
      "app ing",
      "ĠH ay",
      "D L",
      "F it",
      "g round",
      "P ush",
      "az ar",
      "Ġr ed",
      "ro d",
      "ect ive",
      "P olicy",
      "m iss",
      "E P",
      "ur y",
      "ik t",
      "Ġk ar",
      "ĠL uc",
      "ial s",
      "T arget",
      "p m",
      "V CT",
      "Ġt e",
      "sk e",
      "lect ic",
      "B P",
      "Ġf o",
      "Ġd e",
      "ie f",
      "OR T",
      "end en",
      "ĠC H",
      "os k",
      "n av",
      "F C",
      "rav en",
      "B oard",
      "er os",
      "B l",
      "Call back",
      "b ad",
      "R A",
      "o or",
      "Pro ject",
      "ian a",
      "v r",
      "Ġc ol",
      "H andler",
      "row s",
      "ĠG i",
      "ist er",
      "amil y",
      "ap pe",
      "P O",
      "Dev ice",
      "S ample",
      "ing ham",
      "ĠS k",
      "ra ce",
      "yt ic",
      "ind e",
      "ond o",
      "id in",
      "Ġp ercent",
      "ern o",
      "ard i",
      "ch ar",
      "Ġv iv",
      "F act",
      "Fl ight",
      "ark er",
      "eg round",
      "es us",
      "if e",
      "U sed",
      "Ġv utt",
      "ĠK x",
      "Ġm eg",
      "at iti",
      "ers ch",
      "ĠB ad",
      "c ode",
      "ess e",
      "um ann",
      "Ġb et",
      "Ġs u",
      "se arch",
      "on ey",
      "ĠM ax",
      "pe at",
      "P I",
      "imp le",
      "Ġm ost",
      "ung s",
      "it one",
      "Ġf err",
      "Ġr en",
      "Ġg el",
      "il is",
      "w ise",
      "ir ed",
      "pe ar",
      "inn er",
      "Ġf amil",
      "ord an",
      "Ġd iss",
      "ri ft",
      "Ġkn ock",
      "r ish",
      "Detail s",
      "ĠM aur",
      "urs or",
      "ush room",
      "erg ic",
      "ĠA ll",
      "os i",
      "o on",
      "ĠG all",
      "ez a",
      "Ġ ic",
      "out h",
      "Ġd ata",
      "ĠB eat",
      "az e",
      "bur g",
      "ang le",
      "ah u",
      "a im",
      "ann y",
      "D T",
      "z i",
      "il m",
      "ĠRUT AR",
      "S ave",
      "ur l",
      "ĠO b",
      "F R",
      "s id",
      "ah ul",
      "ag ue",
      "ro t",
      "id a",
      "Ġsub t",
      "uro pe",
      "ro ke",
      "ly n",
      "Ġp hen",
      "th a",
      "eb ra",
      "B in",
      "er es",
      "st ream",
      "O H",
      "Ġc le",
      "U D",
      "Ġb ro",
      "ur es",
      "ik an",
      "y att",
      "st one",
      "Ex t",
      "ĠB uk",
      "Pro vider",
      "Ġa x",
      "Ġh ead",
      "ow ell",
      "h ad",
      "ĠG h",
      "W all",
      "ĠS he",
      "Ad apter",
      "ĠB oy",
      "am ine",
      "abb am",
      "Ġd ign",
      "r ust",
      "Arg s",
      "ig o",
      "Ġp osit",
      "ament o",
      "ĠD al",
      "ĠA nd",
      "ol ver",
      "D es",
      "Ġm ot",
      "ĠH umph",
      "t b",
      "m ult",
      "Fl ag",
      "h im",
      "od or",
      "r ant",
      "w ard",
      "ul s",
      "N S",
      "Cent er",
      "i ers",
      "ar ah",
      "Ġv ert",
      "ĠC R",
      "s ad",
      "ER C",
      "Ġh and",
      "U tils",
      "Ġp rop",
      "Ġc r",
      "al am",
      "ff en",
      "E Y",
      "ra ul",
      "Ġt ot",
      "al ar",
      "alle l",
      "st ant",
      "ation al",
      "ĠM arg",
      "ran c",
      "ur d",
      "ay e",
      "um m",
      "V ER",
      "ie g",
      "Ġm ill",
      "ĠG r",
      "Cont roller",
      "T ab",
      "al m",
      "en o",
      "el ess",
      "t ol",
      "ed d",
      "Ġab h",
      "ĠC orn",
      "Ġd il",
      "St r",
      "A ss",
      "ĠN orth",
      "ĠU t",
      "ell o",
      "Ġk ey",
      "D to",
      "Ġex c",
      "p or",
      "ĠN L",
      "u est",
      "D el",
      "O pt",
      "Ġt en",
      "B T",
      "b re",
      "rev i",
      "akes pe",
      "w rap",
      "k ar",
      "itri le",
      "C urrent",
      "Ġv ucc",
      "a ad",
      "ĠB a",
      "d k",
      "Ġ at",
      "Ġk ah",
      "Rad ius",
      "au er",
      "p op",
      "Ġm yc",
      "sch e",
      "Ġpr im",
      "ĠU IC",
      "ind er",
      "Ġund er",
      "itt ing",
      "end ez",
      "s y",
      "re et",
      "ry st",
      "ford shire",
      "V S",
      "ang er",
      "tr l",
      "es u",
      "id ad",
      "ĠM ull",
      "ost er",
      "s i",
      "ĠC an",
      "il y",
      "B eat",
      "ĠG reen",
      "V ector",
      "ch es",
      "im ation",
      "omm on",
      "s n",
      "ia z",
      "s ec",
      "ed er",
      "Ġv en",
      "Ġs em",
      "h ouse",
      "D ir",
      "Ch ild",
      "air d",
      "R e",
      "at ir",
      "Ch ang",
      "ic ate",
      "ob il",
      "Pop up",
      "and al",
      "ez e",
      "st ruct",
      "ĠC omp",
      "ĠT on",
      "Ph oto",
      "ĠSt aff",
      "St ack",
      "ĠS tr",
      "O ne",
      "Ġt ub",
      "enc es",
      "g ing",
      "ach t",
      "ĠW eb",
      "qu ier",
      "S ystem",
      "n es",
      "d rop",
      "f ol",
      "y pt",
      "b um",
      "By te",
      "al ur",
      "ĠBar cl",
      "ĠS ab",
      "il ib",
      "en ie",
      "IN T",
      "l ia",
      "ĠA p",
      "ij e",
      "Key board",
      "b revi",
      "Ġw arm",
      "ĠF err",
      "Ġcon f",
      "Ġ est",
      "c or",
      "qu am",
      "ay an",
      "sk a",
      "ĠH er",
      "ul in",
      "M ov",
      "iro s",
      "or um",
      "Rout e",
      "iy et",
      "h as",
      "ill er",
      "az i",
      "s ql",
      "Ġ et",
      "ab s",
      "s man",
      "M E",
      "A ud",
      "C ase",
      "em an",
      "ĠM ain",
      "Ġb e",
      "uch i",
      "z ym",
      "orr h",
      "ik um",
      "Ġf ile",
      "j el",
      "Ġsub Test",
      "old s",
      "el f",
      "R AN",
      "ĠM a",
      "Ġr up",
      "ement s",
      "Ġ eg",
      "P ercent",
      "l t",
      "Q L",
      "u ang",
      "D ocument",
      "Pro duct",
      "ĠF air",
      "Ġ atth",
      "ew er",
      "Ġod p",
      "Ġc in",
      "A c",
      "Ġt em",
      "in er",
      "at ors",
      "as p",
      "Ġm et",
      "Ġb o",
      "G A",
      "ĠH ein",
      "ub e",
      "ĠG er",
      "Ġm od",
      "eh en",
      "w en",
      "er re",
      "Ġa ff",
      "k k",
      "ar ra",
      "ĠG ro",
      "c d",
      "in h",
      "ĠL ut",
      "ast e",
      "ar ies",
      "og raph",
      "s pl",
      "D F",
      "ond a",
      "ar is",
      "v ach",
      "w t",
      "ip er",
      "ol t",
      "P ass",
      "ie ht",
      "at in",
      "el o",
      "ĠC am",
      "ane u",
      "ram ework",
      "iss ion",
      "r yl",
      "X Y",
      "ĠA ss",
      "W e",
      "ĠR ad",
      "ra ch",
      "ĠE ng",
      "ri k",
      "Navig ator",
      "ĠH aw",
      "ru ff",
      "web Element",
      "erm i",
      "T ree",
      "ind en",
      "Ġd ev",
      "un ct",
      "st at",
      "Ġm it",
      "of ar",
      "is er",
      "ar in",
      "ong o",
      "ĠS ur",
      "ig an",
      "yl oxy",
      "c ol",
      "A rea",
      "al ign",
      "land s",
      "s un",
      "ib b",
      "ph al",
      "Y PE",
      "rom o",
      "ik o",
      "E ach",
      "Un it",
      "w rite",
      "K ind",
      "ĠM al",
      "C ore",
      "I f",
      "V P",
      "ĠU l",
      "ad am",
      "A b",
      "ĠP et",
      "ell s",
      "k y",
      "fe it",
      "Ġ art",
      "d ef",
      "ip h",
      "o ol",
      "ĠB rit",
      "C ap",
      "Ġo ct",
      "att s",
      "el a",
      "re x",
      "n own",
      "Ġ and",
      "l is",
      "Ġ id",
      "ry pt",
      "ol id",
      "h ens",
      "ĠF A",
      "l ist",
      "G rid",
      "ucle aires",
      "U E",
      "umb le",
      "L AG",
      "A p",
      "ag ger",
      "et z",
      "ys z",
      "p osit",
      "P review",
      "g reg",
      "P ane",
      "ĠS L",
      "ow e",
      "ub s",
      "ur k",
      "ang s",
      "ro te",
      "ok u",
      "Ġa uto",
      "is ing",
      "Ġre aliz",
      "D rop",
      "Ġm ar",
      "0 x",
      "< 0x",
      "Ġcon d",
      "ĠW ill",
      "et ic",
      "RG B",
      "I K",
      "res h",
      "ĠG ab",
      "iff er",
      "Ġt her",
      "R x",
      "Rx Document",
      "Ġ att",
      "ric t",
      "com stock",
      "ĠS RP",
      "A sp",
      "ic le",
      "ah l",
      "ek t",
      "Sup port",
      "ch n",
      "ag on",
      "Ġb re",
      "ĠY am",
      "kin son",
      "ĠM aj",
      "Ġn ov",
      "phen yl",
      "Ġb eg",
      "ĠA ug",
      "thor ax",
      "ig ation",
      "Event s",
      "ran e",
      "To Props",
      "idd le",
      "ĠB al",
      "an es",
      "ĠF itz",
      "er ial",
      "ill us",
      "Con cept",
      "Y Y",
      "Ġt w",
      "Ġm and",
      "G raph",
      "ĠP ad",
      "b eat",
      "AT IV",
      "P erm",
      "oph or",
      "x x",
      "htt p",
      "ring ton",
      "f ollow",
      "ĠB ern",
      "Ġre v",
      "ag in",
      "u ana",
      "Ġl a",
      "ill on",
      "Ġn eg",
      "av ed",
      "ism s",
      "E nt",
      "Ġh alf",
      "c up",
      "Ġp ed",
      "ex pr",
      "Ġc ele",
      "Ġg acch",
      "o e",
      "on om",
      "Ġf ast",
      "Com pl",
      "erm in",
      "ĠL iv",
      "ho ok",
      "Ed it",
      "S he",
      "Cho ice",
      "Ġj u",
      "R oot",
      "ac et",
      "Ġp ort",
      "i ot",
      "an che",
      "T rans",
      "ĠK ais",
      "im iz",
      "B r",
      "G T",
      "XY Z",
      "Ġs ob",
      "w an",
      "ex ec",
      "ir th",
      "M atrix",
      "Dis patch",
      "omm od",
      "S L",
      "ent ly",
      "Sh ape",
      "c ul",
      "ĠC yr",
      "i at",
      "ard ed",
      "et r",
      "on na",
      "y er",
      "ik ut",
      "i ert",
      "Ġb as",
      "id get",
      "ĠB og",
      "off set",
      "ug e",
      "ym pt",
      "L ua",
      "pl ot",
      "m ethod",
      "eg u",
      "c orr",
      "B U",
      "Ġin st",
      "th ol",
      "i ary",
      "re k",
      "es z",
      "ct ivity",
      "s ie",
      "b ib",
      "Ġt ro",
      "I I",
      "S H",
      "Ġw a",
      "ĠL ak",
      "qu are",
      "ri ed",
      "ic les",
      "ĠP e",
      "an vas",
      "ob e",
      "B R",
      "ater al",
      "ĠP ro",
      "n ego",
      "ĠE ug",
      "ad al",
      "Ġf e",
      "r ig",
      "B ase",
      "Col umn",
      "yd ro",
      "un es",
      "s or",
      "ere cht",
      "ir an",
      "Ġ all",
      "ĠD own",
      "ap sed",
      "j al",
      "ur ity",
      "D M",
      "Fact ory",
      "Ġb ase",
      "ok at",
      "et to",
      "ĠD od",
      "B efore",
      "I Z",
      "par am",
      "Pl atform",
      "ib er",
      "as us",
      "Ġd ep",
      "ĠD h",
      "Ġy ath",
      "iv en",
      "ĠAug ust",
      "itt en",
      "Ġn aj",
      "it im",
      "Ar ch",
      "hat u",
      "im et",
      "y b",
      "an ne",
      "th en",
      "nam efont",
      "C anvas",
      "ud an",
      "m und",
      "ev el",
      "op y",
      "m ont",
      "ull am",
      "p ost",
      "r ade",
      "CT OR",
      "Back ground",
      "S ort",
      "Ġph ot",
      "En c",
      "ĠO l",
      "Sp ace",
      "Ġl ocalVar",
      "ott om",
      "ĠV iv",
      "ub lic",
      "g ame",
      "ĠN P",
      "oj a",
      "AR R",
      "F older",
      "c est",
      "Text ure",
      "d d",
      "org an",
      "iv o",
      "L evel",
      "erm e",
      "ad is",
      "Ġd ob",
      "A ctivity",
      "eng u",
      "enc ent",
      "A SE",
      "ĠP el",
      "ung an",
      "arb ox",
      "E LE",
      "ĠB o",
      "ip e",
      "ĠI N",
      "ĠK ey",
      "ous se",
      "Sc ale",
      "ELE ASE",
      "Ġ item",
      "re ch",
      "eb en",
      "S rvGroup",
      "ri j",
      "T mp",
      "ĠS pring",
      "Ġconse qu",
      "ent ial",
      "c el",
      "p le",
      "od h",
      "t ime",
      "e pt",
      "Ġal iqu",
      "ww w",
      "www pond",
      "ent o",
      "Ġl ib",
      "Ġd rag",
      "and l",
      "ct x",
      "P ost",
      "Ġmult ic",
      "i am",
      "M atch",
      "CP P",
      "ĠIn put",
      "ĠK ish",
      "A I",
      "Ġl ab",
      "ĠP ap",
      "ant ile",
      "ur ry",
      "er ton",
      "ĠM H",
      "g d",
      "R AM",
      "lo ud",
      "us es",
      "AR G",
      "m ax",
      "c os",
      "ĠJ ac",
      "d is",
      "Pack age",
      "Id le",
      "v m",
      "Idle Sync",
      "Pk g",
      "Para Pkg",
      "l us",
      "ĠB rid",
      "Ġr h",
      "d am",
      "um an",
      "ar as",
      "Ġl u",
      "Ġg ah",
      "n ah",
      "AL L",
      "ot lin",
      "ict ure",
      "Ġs ac",
      "hen ium",
      "i om",
      "b uf",
      "ĠHe id",
      "f u",
      "Ġt ran",
      "aw ks",
      "T ake",
      "sh ip",
      "ĠW at",
      "f eat",
      "EN UM",
      "New Url",
      "form ed",
      "Ġgah et",
      "Ġmic ro",
      "Ġhalf Canvas",
      "am os",
      "Ġm em",
      "om es",
      "ĠA v",
      "ersh ire",
      "us p",
      "ĠV en",
      "arl ene",
      "Method Beat",
      "m it",
      "cop rote",
      "Ġan is",
      "g n",
      "R aw",
      "Ġneut ral",
      "Ġg ol",
      "ĠP at",
      "Ġm orph",
      "ĠM erc",
      "ar ic",
      "enn y",
      "ĠA st",
      "j ob",
      "en ia",
      "os in",
      "app ed",
      "D o",
      "st en",
      "ĠM od",
      "ob er",
      "O CC",
      "P oint",
      "an iy",
      "u o",
      "r ar",
      "N N",
      "al g",
      "s ize",
      "f ill",
      "Ġs ett",
      "Ġinter view",
      "Ġs le",
      "ent h",
      "ĠB ang",
      "ab bo",
      "ĠP fe",
      "F ER",
      "ag o",
      "t in",
      "Ġ us",
      "oth erm",
      "est ing",
      "W MN",
      "s z",
      "ator y",
      "h ed",
      "or man",
      "P ut",
      "ala ikum",
      "ĠP ear",
      "or rent",
      "ehyd e",
      "ord on",
      "E E",
      "ĠC ov",
      "V OA",
      "l r",
      "il ian",
      "le f",
      "ung k",
      "Struct Of",
      "ĠP ay",
      "yc le",
      "ient e",
      "j ug",
      "ĠMc M",
      "Arch ive",
      "c urs",
      "L eft",
      "st m",
      "ke it",
      "if ied",
      "eg en",
      "in ter",
      "Press ed",
      "pie ce",
      "b ed",
      "ĠL D",
      "il on",
      "er at",
      "Ġrep et",
      "b and",
      "u ed",
      "ut te",
      "L AN",
      "oh l",
      "b urn",
      "ĠH od",
      "c ommand",
      "im ura",
      "Ġh er",
      "DB Output",
      "Ġc al",
      "ri ver",
      "ak am",
      "Ġp rec",
      "M apping",
      "riz z",
      "art s",
      "ong s",
      "ateg ory",
      "d al",
      "um my",
      "ĠIn d",
      "iv ers",
      "Val ues",
      "Ġ u",
      "ĠMcK in",
      "Ġt op",
      "at y",
      "am om",
      "M ax",
      "it u",
      "if ier",
      "arsh al",
      "ex ual",
      "ug o",
      "ox ic",
      "E O",
      "est ruct",
      "ĠL our",
      "sl ide",
      "Bit Count",
      "Ġod b",
      "m ic",
      "ĠDom in",
      "ur ation",
      "at al",
      "Ġdis c",
      "est ro",
      "Ġs add",
      "Find ings",
      "id u",
      "y ing",
      "ate Mutability",
      "ous ly",
      "ep s",
      "ĠG od",
      "ard in",
      "Ġa ut",
      "By URL",
      "ĠS a",
      "Ġau sten",
      "ĠM end",
      "am anam",
      "ed Right",
      "Ġ it",
      "ĠL ev",
      "ak ing",
      "h ang",
      "set F",
      "b order",
      "O k",
      "Ġprim ary",
      "ph rine",
      "Ġs elect",
      "Ġ iz",
      "d ev",
      "z hou",
      "ĠS lov",
      "ĠA ri",
      "at ure",
      "Ġtub erc",
      "B ib",
      "unc ul",
      "ect ed",
      "est e",
      "ari ant",
      "Ġn am",
      "AT E",
      "A nt",
      "ies z",
      "ig a",
      "List ener",
      "ass ing",
      "ĠE nd",
      "m ethyl",
      "m ak",
      "u ent",
      "eg an",
      "N am",
      "uj e",
      "ĠG ust",
      "Ġfl av",
      "ald ehyde",
      "ĠB os",
      "R ew",
      "Ġk on",
      "rain ed",
      "ab in",
      "ia o",
      "Ġb it",
      "ĠN or",
      "el ia",
      "h att",
      "ĠS erv",
      "a q",
      "Del ete",
      "ol an",
      "Ġb es",
      "sp ec",
      "UN D",
      "h ut",
      "Ġp inch",
      "ath olic",
      "M at",
      "ian ce",
      "Ġp ri",
      "ĠS il",
      "find By",
      "ĠSom ers",
      "cal right",
      "erk en",
      "Pref erence",
      "d Par",
      "fl ow",
      "ib ility",
      "oz a",
      "B UR",
      "an as",
      "ĠG en",
      "ĠOb ject",
      "ov ere",
      "Ġh omot",
      "e ff",
      "mo oth",
      "al Block",
      "uz z",
      "G uid",
      "Ġn ek",
      "ut an",
      "ele ction",
      "c ell",
      "res c",
      "Field s",
      "unc i",
      "ĠN o",
      "get R",
      "S election",
      "ar ik",
      "ad ow",
      "ark ar",
      "ail y",
      "ST R",
      "ing er",
      "Ġf ont",
      "Ġd iff",
      "q t",
      "utt a",
      "Ġd ek",
      "emp or",
      "k es",
      "ym p",
      "c ation",
      "s em",
      "Vis ual",
      "ri val",
      "ir d",
      "Ġp arl",
      "ab c",
      "IT H",
      "ĠI P",
      "Ġun b",
      "ĠE hn",
      "ĠEhn erg",
      "rid ent",
      "ĠS yl",
      "est i",
      "ov ing",
      "ĠD ata",
      "ele d",
      "ĠP ack",
      "w yn",
      "y ar",
      "ĠD er",
      "Ġex ceed",
      "th al",
      "Ġg o",
      "ue va",
      "end a",
      "id al",
      "m n",
      "P en",
      "na il",
      "ni que",
      "Pass word",
      "or ed",
      "oin ter",
      "ĠR am",
      "ho le",
      "LO T",
      "en berg",
      "U nique",
      "C V",
      "P icker",
      "ul u",
      "V R",
      "ens ch",
      "Field Context",
      "ow ied",
      "ol lo",
      "iss ions",
      "Ow ner",
      "th el",
      "Ok no",
      "OR N",
      "Ġth rom",
      "ĠD on",
      "ĠH an",
      "b uild",
      "Ġa ug",
      "ett y",
      "yl ate",
      "Ġl ine",
      "ec a",
      "ĠT im",
      "Ġch eck",
      "l g",
      "Ġn ucle",
      "v ey",
      "w d",
      "h l",
      "g h",
      "ach er",
      "ib ul",
      "ah on",
      "ass el",
      "Ġpro b",
      "cept ron",
      "n oc",
      "ĠMcG u",
      "Ġp s",
      "n on",
      "orb id",
      "ĠN au",
      "ĠL ob",
      "ag y",
      "Ġt end",
      "C ycle",
      "Ġs oft",
      "Sp ec",
      "E F",
      "Ġan th",
      "Ġc ap",
      "ond ition",
      "Ġh andle",
      "akespe are",
      "or ation",
      "d ec",
      "og n",
      "ĠB ru",
      "ch ester",
      "ath erm",
      "arg s",
      "j son",
      "h andle",
      "ĠG old",
      "ĠS n",
      "arc a",
      "Ġst ock",
      "j ac",
      "H E",
      "b ro",
      "ĠN e",
      "ere a",
      "or od",
      "ass ert",
      "Ġg uz",
      "ud en",
      "Ġp ron",
      "Ġd Sample",
      "Select or",
      "ac les",
      "B D",
      "n ext",
      "ad as",
      "N o",
      "T e",
      "val id",
      "asm im",
      "rival Time",
      "Or der",
      "Ġpro f",
      "ig en",
      "he el",
      "l id",
      "ĠK ar",
      "plic ation",
      "Ġm al",
      "Dis play",
      "Bin Buf",
      "ah in",
      "atth a",
[...]
