{
  "version": "1.0",
  "truncation": null,
  "padding": null,
  "added_tokens": [
    {
      "id": 4387,
      "content": "<UNK>",
      "single_word": false,
      "lstrip": false,
      "rstrip": false,
      "normalized": true,
      "special": true
    },
    {
      "id": 4388,
      "content": "<｜end▁of▁sentence｜>",
      "single_word": false,
      "lstrip": false,
      "rstrip": false,
      "normalized": true,
      "special": true
    },
    {
      "id": 4389,
      "content": "<｜pad｜>",
      "single_word": false,
      "lstrip": false,
      "rstrip": false,
      "normalized": true,
      "special": true
    },
    {
      "id": 4390,
      "content": "<｜begin▁of▁sentence｜>",
      "single_word": false,
      "lstrip": false,
      "rstrip": false,
      "normalized": true,
      "special": true
    }
  ],
  "normalizer": {
    "type": "Sequence",
    "normalizers": []
  },
  "pre_tokenizer": {
    "type": "Sequence",
    "pretokenizers": [
      {
        "type": "Split",
        "pattern": {
          "Regex": "[\\r\\n]"
        },
        "behavior": "Isolated",
        "invert": false
      },
      {
        "type": "Split",
        "pattern": {
          "Regex": "\\s?[A-Za-zµÀ-ÖØ-öø-ƺƼ-ƿǄ-ʓʕ-ʯͰ-ͳͶͷͻ-ͽͿΆΈ-ΊΌΎ-ΡΣ-ϵϷ-ҁҊ-ԯԱ-ՖႠ-ჅᎠ-Ᏽᏸ-ᏽᲐ-ᲺᲽ-Ჿᴀ-ᴫᵫ-ᵷᵹ-ᶚḀ-ἕἘ-Ἕἠ-ὅὈ-Ὅὐ-ὗὙὛὝὟ-ώᾀ-ᾴᾶ-ᾼιῂ-ῄῆ-ῌῐ-ΐῖ-Ίῠ-Ῥῲ-ῴῶ-ῼℂℇℊ-ℓℕℙ-ℝℤΩℨK-ℭℯ-ℴℹℼ-ℿⅅ-ⅉⅎↃↄⰀ-ⱻⱾ-ⳤⳫ-ⳮⳲⳳꙀ-ꙭꚀ-ꚛꜢ-ꝯꝱ-ꞇꞋ-ꞎꭰ-ꮿﬀ-ﬆﬓ-ﬗＡ-Ｚａ-ｚ𐐀-𐑏𐒰-𐓓𐓘-𐓻𐲀-𐲲𐳀-𐳲𑢠-𑣟𞤀-𞥃]+"
        },
        "behavior": "Isolated",
        "invert": false
      },
      {
        "type": "Split",
        "pattern": {
          "Regex": "\\s?[!-/:-~！-／：-～‘-‟　-。]+"
        },
        "behavior": "Isolated",
        "invert": false
      },
      {
        "type": "Split",
        "pattern": {
          "Regex": "\\s+$"
        },
        "behavior": "Isolated",
        "invert": false
      },
      {
        "type": "Split",
        "pattern": {
          "Regex": "[一-龥ࠀ-一가-퟿]+"
        },
        "behavior": "Isolated",
        "invert": false
      },
      {
        "type": "Digits",
        "individual_digits": true
      },
      {
        "type": "ByteLevel",
        "add_prefix_space": false,
        "trim_offsets": true,
        "use_regex": false
      }
    ]
  },
  "post_processor": {
    "type": "ByteLevel",
    "add_prefix_space": true,
    "trim_offsets": false,
    "use_regex": true
  },
  "decoder": {
    "type": "ByteLevel",
    "add_prefix_space": true,
    "trim_offsets": true,
    "use_regex": true
  },
  "model": {
    "type": "BPE",
    "dropout": null,
    "unk_token": "<UNK>",
    "continuing_subword_prefix": null,
    "end_of_word_suffix": null,
    "fuse_unk": false,
    "byte_fallback": false,
    "ignore_merges": false,
    "bMax_frequency": true,
    "max_frequency": 63649887,
    "vocab": {
      "ĠWaterloo": 0,
      "steller": 1,
      "ĠMarjorie": 2,
      "Ġrearranging": 3,
      "Ġkahe": 4,
      "ynyt": 5,
      "Ġconform": 6,
      "Ġspilled": 7,
      "atina": 8,
      "ĠSwann": 9,
      "ĠMalang": 10,
      "umably": 11,
      "olly": 12,
      "aca": 13,
      "ographs": 14,
      "ĠRaster": 15,
      "ĠEtappe": 16,
      "ĠresetButton": 17,
      "ĠConch": 18,
      "ifton": 19,
      "unehm": 20,
      "ĠPeralta": 21,
      "Spring": 22,
      "omar": 23,
      "arus": 24,
      "TrackedDevice": 25,
      "ĠBundest": 26,
      "Ġrutrum": 27,
      "Ġvir": 28,
      "ounding": 29,
      "ĠBaik": 30,
      "rona": 31,
      "ĠKnox": 32,
      "iranda": 33,
      "plet": 34,
      "ĠGSR": 35,
      "isio": 36,
      "ĠTomlinson": 37,
      "Ġrichi": 38,
      "arland": 39,
      "Ġbim": 40,
      "reti": 41,
      "Ġdeck": 42,
      "maan": 43,
      "Ġpropagate": 44,
      "ĠMushrooms": 45,
      "abul": 46,
      "tope": 47,
      "Bounding": 48,
      "ĠTabor": 49,
      "Ġviscos": 50,
      "wind": 51,
      "inositol": 52,
      "Yun": 53,
      "ucian": 54,
      "ijj": 55,
      "Ġtorsional": 56,
      "Ġundermin": 57,
      "rying": 58,
      "cg": 59,
      "CCP": 60,
      "sadurdu": 61,
      "Ġembro": 62,
      "Ġcruc": 63,
      "Ġembroiled": 64,
      "Ġtal": 65,
      "vant": 66,
      "Ġdungeon": 67,
      "dinga": 68,
      "usis": 69,
      "coff": 70,
      "ĠNRG": 71,
      "ataka": 72,
      "Ġhysteresis": 73,
      "Ġautophagy": 74,
      "AppComponent": 75,
      "MAC": 76,
      "ĠHMAC": 77,
      "Ġchemokine": 78,
      "Ġinvertible": 79,
      "Ġboric": 80,
      "Parallel": 81,
      "tool": 82,
      "ulai": 83,
      "ĠHSA": 84,
      "SMutable": 85,
      "ĠPrussians": 86,
      "ĠFlexstr": 87,
      "Ġsopr": 88,
      "ĠSusanne": 89,
      "screens": 90,
      "Ġcoqu": 91,
      "ĠHAC": 92,
      "ĠIRA": 93,
      "ipos": 94,
      "mlst": 95,
      "Ġspying": 96,
      "utia": 97,
      "Ġnonstop": 98,
      "hiq": 99,
      "ellan": 100,
      "Ġurt": 101,
      "drone": 102,
      "odisc": 103,
      "lasti": 104,
      "ippi": 105,
      "infodisc": 106,
      "Ġaws": 107,
      "Ġtrich": 108,
      "Ġdiscontinuation": 109,
      "agli": 110,
      "Ġpalabras": 111,
      "amyl": 112,
      "ĠnumOf": 113,
      "title": 114,
      "fieldContext": 115,
      "ĠKxa": 116,
      "steroidal": 117,
      "abeled": 118,
      "Ġundetermined": 119,
      "Ġundeni": 120,
      "ĠArabidopsis": 121,
      "ĠAqu": 122,
      "ricia": 123,
      "VERT": 124,
      "Ġobses": 125,
      "abeledtr": 126,
      "Ġtand": 127,
      "ĠKull": 128,
      "Ġprostit": 129,
      "ĠRasterModelGrid": 130,
      "look": 131,
      "ĠFan": 132,
      "ĠFanDuel": 133,
      "Ġconsta": 134,
      "Ġmaio": 135,
      "avier": 136,
      "ikoa": 137,
      "landish": 138,
      "Ġjournal": 139,
      "gaxModule": 140,
      "Ġspher": 141,
      "apetiti": 142,
      "mouseover": 143,
      "LOAD": 144,
      "ocard": 145,
      "enya": 146,
      "ĠUIView": 147,
      "issippi": 148,
      "ĠAmer": 149,
      "pev": 150,
      "ANIM": 151,
      "rocchia": 152,
      "hteet": 153,
      "aterslide": 154,
      "udni": 155,
      "odule": 156,
      "owanie": 157,
      "uttu": 158,
      "ibre": 159,
      "handleChange": 160,
      "yecto": 161,
      "settes": 162,
      "Ġtouch": 163,
      "Ġwallet": 164,
      "Ġsplenic": 165,
      "aholic": 166,
      "Fluent": 167,
      "prent": 168,
      "ĠClifton": 169,
      "Ġquiver": 170,
      "codehaus": 171,
      "QTT": 172,
      "ParallelGroup": 173,
      "tur": 174,
      "access": 175,
      "Ġyarg": 176,
      "MQTT": 177,
      "ĠTod": 178,
      "ymmetric": 179,
      "roz": 180,
      "Ġalleg": 181,
      "dsp": 182,
      "angat": 183,
      "ĠHuo": 184,
      "Ġcori": 185,
      "GUN": 186,
      "BAD": 187,
      "Ġcima": 188,
      "ĠZuma": 189,
      "DABAD": 190,
      "alakip": 191,
      "GUNDABAD": 192,
      "Xiv": 193,
      "Ġdeixou": 194,
      "hej": 195,
      "ĠKelu": 196,
      "ondata": 197,
      "ĠOpus": 198,
      "thione": 199,
      "Ġinplace": 200,
      "Mixin": 201,
      "Ġperiod": 202,
      "ĠVega": 203,
      "mets": 204,
      "Ġemuls": 205,
      "Ġzas": 206,
      "ĠBart": 207,
      "imizde": 208,
      "odimensional": 209,
      "Cxx": 210,
      "ĠMae": 211,
      "insertCell": 212,
      "bromo": 213,
      "Ġfantast": 214,
      "Ġhide": 215,
      "Ġbrush": 216,
      "Ġwhan": 217,
      "Ġwhanne": 218,
      "apel": 219,
      "Ġfantastical": 220,
      "Ġhideous": 221,
      "illion": 222,
      "ĠGoll": 223,
      "xcuserd": 224,
      "ĠGarvey": 225,
      "oraus": 226,
      "ĠGST": 227,
      "ĠCEF": 228,
      "Variable": 229,
      "ĠAlltag": 230,
      "awcy": 231,
      "idle": 232,
      "ĠKalyan": 233,
      "hiqdev": 234,
      "Ġemin": 235,
      "ĠDijk": 236,
      "Ġjalap": 237,
      "Ġterroir": 238,
      "Ġzost": 239,
      "erved": 240,
      "Ġdelves": 241,
      "ĠKENT": 242,
      "ĠFuncParamNum": 243,
      "ĠDST": 244,
      "ograf": 245,
      "renees": 246,
      "Ġcred": 247,
      "aghe": 248,
      "Lapangan": 249,
      "Ġpersondata": 250,
      "ĠSGS": 251,
      "PictureBox": 252,
      "ĠAmazon": 253,
      "ĠAmazonas": 254,
      "Ġbatches": 255,
      "VertexBuffer": 256,
      "ĠBaiklah": 257,
      "ibol": 258,
      "oplayer": 259,
      "bard": 260,
      "Ġtars": 261,
      "lab": 262,
      "ĠWessex": 263,
      "ĠEdvard": 264,
      "Preprocessing": 265,
      "ADOC": 266,
      "ĠMons": 267,
      "orul": 268,
      "SError": 269,
      "Busy": 270,
      "firm": 271,
      "FBSDKInternal": 272,
      "Ġmell": 273,
      "inelli": 274,
      "Ġunsaturated": 275,
      "ToGo": 276,
      "ĠJah": 277,
      "kumar": 278,
      "ĠOkamoto": 279,
      "ĠAkt": 280,
      "ĠKnut": 281,
      "Ġsetia": 282,
      "moi": 283,
      "zyloxy": 284,
      "ĠPeabody": 285,
      "Tri": 286,
      "deco": 287,
      "atoon": 288,
      "setUrl": 289,
      "Triplet": 290,
      "Ġpigg": 291,
      "Ġpiggy": 292,
      "ĠAktien": 293,
      "simpleTriplet": 294,
      "jda": 295,
      "Ġylim": 296,
      "agnetic": 297,
      "Ġnid": 298,
      "Ġentourage": 299,
      "Ġgird": 300,
      "Fragmentation": 301,
      "onyms": 302,
      "ĠHogg": 303,
      "intFragmentation": 304,
      "ĠProp": 305,
      "Ġfud": 306,
      "Ġahu": 307,
      "anet": 308,
      "EMP": 309,
      "Ġbhikkhu": 310,
      "Ġperiodista": 311,
      "ĠBereits": 312,
      "ĠShand": 313,
      "Roaming": 314,
      "ĠInquisition": 315,
      "Trial": 316,
      "PerTrial": 317,
      "ĠGoff": 318,
      "lip": 319,
      "Ġvip": 320,
      "Ġmub": 321,
      "flag": 322,
      "ĠMoi": 323,
      "ceded": 324,
      "rolo": 325,
      "ĠuseContext": 326,
      "italization": 327,
      "ĠDiet": 328,
      "ĠIngg": 329,
      "ĠInggris": 330,
      "Ġdeserving": 331,
      "ĠDietrich": 332,
      "ĠpathMatch": 333,
      "ĠIndex": 334,
      "pkins": 335,
      "ĠBie": 336,
      "Ġshedding": 337,
      "otp": 338,
      "printStackTrace": 339,
      "ĠGATT": 340,
      "lemy": 341,
      "ĠBard": 342,
      "itled": 343,
      "AutoHide": 344,
      "Ġneutralized": 345,
      "ETO": 346,
      "ionally": 347,
      "ĠFrid": 348,
      "ddagger": 349,
      "NGC": 350,
      "avigation": 351,
      "Ġthorn": 352,
      "Ġbash": 353,
      "setdefault": 354,
      "Ġringan": 355,
      "ordeaux": 356,
      "lett": 357,
      "bach": 358,
      "astype": 359,
      "Virtual": 360,
      "orylation": 361,
      "ĠTobin": 362,
      "tmp": 363,
      "slidesPerGroup": 364,
      "Ġmultival": 365,
      "tmpobj": 366,
      "ĠBritton": 367,
      "ecan": 368,
      "ureen": 369,
      "Ġcut": 370,
      "Ġnovembre": 371,
      "ouard": 372,
      "Ġpowering": 373,
      "jin": 374,
      "ĠFras": 375,
      "ĠFraser": 376,
      "halt": 377,
      "azd": 378,
      "SMB": 379,
      "ĠEhrlich": 380,
      "Ġdesen": 381,
      "ĠMcKinney": 382,
      "ilateral": 383,
      "Ġargparse": 384,
      "Ġhuts": 385,
      "ĠInglis": 386,
      "ĠBeverly": 387,
      "rzym": 388,
      "ButtonPressed": 389,
      "ProcessAvg": 390,
      "Ġpev": 391,
      "ĠBedien": 392,
      "ĠDharmendra": 393,
      "ĠMcKay": 394,
      "ĠESL": 395,
      "idebar": 396,
      "ĠGCP": 397,
      "ĠShandong": 398,
      "Ġtieto": 399,
      "Ġbasil": 400,
      "bitflag": 401,
      "tral": 402,
      "GBuf": 403,
      "Ġtrunc": 404,
      "inosaur": 405,
      "ltr": 406,
      "pozn": 407,
      "oneProcessAvg": 408,
      "Ġdinosaur": 409,
      "ĠLSM": 410,
      "ĠBurnham": 411,
      "father": 412,
      "lde": 413,
      "ĠMacedonian": 414,
      "ĠSwans": 415,
      "ĠLyn": 416,
      "Ġtenets": 417,
      "exists": 418,
      "ĠPriya": 419,
      "ĠTanner": 420,
      "izons": 421,
      "brace": 422,
      "ĠMcFarland": 423,
      "hum": 424,
      "ĠsubTestAvg": 425,
      "indeterminate": 426,
      "ĠFrida": 427,
      "seo": 428,
      "tey": 429,
      "ĠCrank": 430,
      "ĠTian": 431,
      "bewer": 432,
      "ĠTianjin": 433,
      "Ġtarsi": 434,
      "ĠKoon": 435,
      "Ġulcerative": 436,
      "Past": 437,
      "Frm": 438,
      "memberNameLink": 439,
      "akul": 440,
      "Ġnarrow": 441,
      "ĠGodfather": 442,
      "ĠSamir": 443,
      "cepted": 444,
      "Ġanisotropic": 445,
      "rigley": 446,
      "existsSync": 447,
      "enem": 448,
      "ĠErm": 449,
      "rupted": 450,
      "AMAG": 451,
      "parin": 452,
      "adh": 453,
      "ĠBentley": 454,
      "reys": 455,
      "scp": 456,
      "ardt": 457,
      "ptir": 458,
      "acji": 459,
      "ctor": 460,
      "Ġdaga": 461,
      "reeting": 462,
      "Ġwaxaa": 463,
      "ffield": 464,
      "rees": 465,
      "ATS": 466,
      "Ġtoll": 467,
      "InstanceManager": 468,
      "bdm": 469,
      "KindOfClass": 470,
      "ingin": 471,
      "ĠTal": 472,
      "Ġfamiliarize": 473,
      "LLC": 474,
      "riction": 475,
      "LLCATS": 476,
      "esset": 477,
      "ĠKnesset": 478,
      "ĠTakah": 479,
      "Ġantisense": 480,
      "linestyle": 481,
      "ĠKLE": 482,
      "Ġkraj": 483,
      "nouns": 484,
      "Ġpptn": 485,
      "ryk": 486,
      "ObjectName": 487,
      "ĠcheckFor": 488,
      "jata": 489,
      "tbLabel": 490,
      "SKY": 491,
      "ificant": 492,
      "setObjectName": 493,
      "ĠEck": 494,
      "Ġoffice": 495,
      "ĠCBR": 496,
      "BIN": 497,
      "avn": 498,
      "bandit": 499,
      "ĠMSP": 500,
      "Ġfest": 501,
      "Ġvit": 502,
      "Ġnahil": 503,
      "irr": 504,
      "Edt": 505,
      "ĠDene": 506,
      "Ġwalkable": 507,
      "eds": 508,
      "arska": 509,
      "rafish": 510,
      "ĠManohar": 511,
      "ĠDonne": 512,
      "ustering": 513,
      "ĠOPC": 514,
      "Loss": 515,
      "profitLoss": 516,
      "bestro": 517,
      "bestroute": 518,
      "Ġposthum": 519,
      "Positions": 520,
      "Ġmexican": 521,
      "Ġcategory": 522,
      "stitial": 523,
      "leyici": 524,
      "Ġblink": 525,
      "PastPositions": 526,
      "ĠMedved": 527,
      "ĠFhir": 528,
      "PPh": 529,
      "igr": 530,
      "Ġcession": 531,
      "andon": 532,
      "ĠrequestId": 533,
      "zadeh": 534,
      "ĠNeut": 535,
      "ĠHendrick": 536,
      "holt": 537,
      "ĠNic": 538,
      "ĠBuildableName": 539,
      "ubles": 540,
      "Ġcarinatis": 541,
      "pag": 542,
      "Ġifstream": 543,
      "omegranate": 544,
      "ĠTipper": 545,
      "uddh": 546,
      "Ġrekla": 547,
      "lcd": 548,
      "Ġcoriander": 549,
      "iletto": 550,
      "ĠLoz": 551,
      "anton": 552,
      "ifeng": 553,
      "ĠRetry": 554,
      "Ġerythemat": 555,
      "MGMT": 556,
      "Ġmenjalankan": 557,
      "indari": 558,
      "kner": 559,
      "ĠFaul": 560,
      "ĠFaulkner": 561,
      "Ġolmak": 562,
      "deren": 563,
      "Ġpalust": 564,
      "ĠLazar": 565,
      "Ġdidik": 566,
      "Ġvitamine": 567,
      "chetti": 568,
      "Authenticate": 569,
      "Ġdhin": 570,
      "Ġdhinak": 571,
      "Ġfactual": 572,
      "Ġartistdata": 573,
      "YNAMIC": 574,
      "Ġsom": 575,
      "Trimethyl": 576,
      "Ġevitando": 577,
      "Ġmutagen": 578,
      "Ġench": 579,
      "Ġmutagenesis": 580,
      "ĠLavinia": 581,
      "unary": 582,
      "ertz": 583,
      "frameNStart": 584,
      "angga": 585,
      "ElementName": 586,
      "ĠErich": 587,
      "Ġsucht": 588,
      "ualan": 589,
      "ĠDataSet": 590,
      "getExternal": 591,
      "echa": 592,
      "HashTable": 593,
      "irected": 594,
      "Ġvastaan": 595,
      "ewana": 596,
      "Transaction": 597,
      "pd": 598,
      "egrees": 599,
      "wpt": 600,
      "ofo": 601,
      "Toc": 602,
      "ectoria": 603,
      "iqi": 604,
      "hk": 605,
      "hought": 606,
      "hkse": 607,
      "ĠVilliers": 608,
      "WORD": 609,
      "zarchiwizowane": 610,
      "lades": 611,
      "hau": 612,
      "ĠBogdan": 613,
      "ĠKAP": 614,
      "Degrees": 615,
      "unde": 616,
      "ĠLynd": 617,
      "EPT": 618,
      "amic": 619,
      "Ġhaunts": 620,
      "Mask": 621,
      "ĠACO": 622,
      "ĠREACTOR": 623,
      "LockButton": 624,
      "Ġhall": 625,
      "Ġunary": 626,
      "Ġextrav": 627,
      "ĠTSA": 628,
      "ĠKip": 629,
      "ichael": 630,
      "Sprites": 631,
      "Ġdub": 632,
      "alypt": 633,
      "heatmap": 634,
      "alyptus": 635,
      "ucalyptus": 636,
      "ĠPicchu": 637,
      "Ġunpack": 638,
      "getTime": 639,
      "ungsk": 640,
      "UMN": 641,
      "apatos": 642,
      "Ġeffluents": 643,
      "ĠLHS": 644,
      "the": 645,
      "tak": 646,
      "ovor": 647,
      "Ġradiographs": 648,
      "bibnamefont": 649,
      "roseconds": 650,
      "uyama": 651,
      "ĠSLOT": 652,
      "bahn": 653,
      "ĠYong": 654,
      "SUFF": 655,
      "Ġhumiliation": 656,
      "Dice": 657,
      "ODE": 658,
      "Ġvoraus": 659,
      "Ġnahilalakip": 660,
      "ĠOPCODE": 661,
      "ripe": 662,
      "redni": 663,
      "ĠEP": 664,
      "cidas": 665,
      "Ġfflush": 666,
      "Ġta": 667,
      "REEN": 668,
      "ĠBoh": 669,
      "cieron": 670,
      "Serializer": 671,
      "Ġake": 672,
      "ĠLPC": 673,
      "Ġrenorm": 674,
      "SuppressLint": 675,
      "jazd": 676,
      "istern": 677,
      "atenate": 678,
      "Ġmura": 679,
      "Ġfak": 680,
      "Ġacredito": 681,
      "DU": 682,
      "Archer": 683,
      "Ġdistracted": 684,
      "salexpr": 685,
      "gav": 686,
      "Ġgstlal": 687,
      "Ġnumquam": 688,
      "jach": 689,
      "Ġconversational": 690,
      "Ġsillon": 691,
      "Ġgent": 692,
      "Ġganas": 693,
      "ikai": 694,
      "gheatmap": 695,
      "annte": 696,
      "roots": 697,
      "Ġgrass": 698,
      "Ġconjugacy": 699,
      "Ġbulldozer": 700,
      "Ġboven": 701,
      "utch": 702,
      "oyed": 703,
      "Annotations": 704,
      "Ġgrassroots": 705,
      "ĠIPv": 706,
      "honia": 707,
      "Ġeeu": 708,
      "DEBUGFS": 709,
      "Ġquench": 710,
      "Ġwchar": 711,
      "Ġolv": 712,
      "permit": 713,
      "HLER": 714,
      "ropolitana": 715,
      "permitAll": 716,
      "labelText": 717,
      "MAT": 718,
      "megapixel": 719,
      "httpClient": 720,
      "Rece": 721,
      "ĠCTL": 722,
      "astically": 723,
      "INATION": 724,
      "ĠDataType": 725,
      "Gast": 726,
      "Ġsont": 727,
      "ĠPipp": 728,
      "orphism": 729,
      "ĠGorg": 730,
      "ittet": 731,
      "asukkan": 732,
      "ĠlistItem": 733,
      "orado": 734,
      "owany": 735,
      "Ġmyopia": 736,
      "Masukkan": 737,
      "aysia": 738,
      "ipfs": 739,
      "oarding": 740,
      "ĠBPA": 741,
      "Ġskut": 742,
      "alah": 743,
      "Ġseater": 744,
      "Ġserv": 745,
      "Ġmeager": 746,
      "ansas": 747,
      "ocin": 748,
      "Ġturnkey": 749,
      "aken": 750,
      "bigoplus": 751,
      "ytocin": 752,
      "Ġmqtt": 753,
      "elj": 754,
      "queira": 755,
      "iata": 756,
      "omina": 757,
      "ĠCantonese": 758,
      "ĠDLP": 759,
      "ĠVest": 760,
      "Ġconco": 761,
      "veli": 762,
      "iaio": 763,
      "btc": 764,
      "haf": 765,
      "Labels": 766,
      "Ġaile": 767,
      "myLabels": 768,
      "ĠWorte": 769,
      "SRPControl": 770,
      "yta": 771,
      "riezmann": 772,
      "inck": 773,
      "Ġzroz": 774,
      "Ġpions": 775,
      "uva": 776,
      "schluss": 777,
      "ĠChar": 778,
      "unnable": 779,
      "KAKKIAINEN": 780,
      "ĠuseEffect": 781,
      "hafte": 782,
      "vili": 783,
      "Ġmetering": 784,
      "ĠIndexPath": 785,
      "DataSource": 786,
      "ecoin": 787,
      "aziland": 788,
      "Ġgyak": 789,
      "ĠZuh": 790,
      "Ġdisturb": 791,
      "ĠBache": 792,
      "valence": 793,
      "ĠSare": 794,
      "UALA": 795,
      "hner": 796,
      "Mogo": 797,
      "ulver": 798,
      "ĠinputRange": 799,
      "ĠOdinga": 800,
      "moniker": 801,
      "ANN": 802,
      "ĠKeluarga": 803,
      "ĠYeats": 804,
      "lendi": 805,
      "Ġscon": 806,
      "Ġcinemat": 807,
      "ĠTarr": 808,
      "jo": 809,
      "elta": 810,
      "words": 811,
      "mniej": 812,
      "Ġcart": 813,
      "Ġcinematography": 814,
      "cex": 815,
      "Ġcann": 816,
      "Ġbites": 817,
      "jahtera": 818,
      "cene": 819,
      "selves": 820,
      "Ġmaggio": 821,
      "Ġmascara": 822,
      "Ġrecite": 823,
      "ashvili": 824,
      "chit": 825,
      "skcipher": 826,
      "Ġacha": 827,
      "Ġhomotopy": 828,
      "ilte": 829,
      "Ġbenthic": 830,
      "clipboard": 831,
      "ModelAdmin": 832,
      "StartAddress": 833,
      "DVR": 834,
      "Ġhin": 835,
      "Ġcull": 836,
      "DVRIP": 837,
      "Ġdora": 838,
      "bright": 839,
      "Ġwaxay": 840,
      "gca": 841,
      "ignant": 842,
      "Ġpued": 843,
      "ĠMas": 844,
      "microseconds": 845,
      "oys": 846,
      "Ġwaxed": 847,
      "ilip": 848,
      "ĠLucid": 849,
      "iago": 850,
      "ĠThiago": 851,
      "uclease": 852,
      "ĠWalsh": 853,
      "Ġdesal": 854,
      "Ġpoignant": 855,
      "Ġtruff": 856,
      "Ġtruffle": 857,
      "Sibling": 858,
      "Ġbrushless": 859,
      "Ġsakammak": 860,
      "ĠIMC": 861,
      "ĠsetCart": 862,
      "riek": 863,
      "auce": 864,
      "ĠNobles": 865,
      "oine": 866,
      "hound": 867,
      "Ġundermining": 868,
      "StringType": 869,
      "ĠLynch": 870,
      "ĠcategoryService": 871,
      "ĠBrod": 872,
      "ĠPAINE": 873,
      "CreateWall": 874,
      "adple": 875,
      "Ġjerk": 876,
      "attled": 877,
      "Ġbasilaires": 878,
      "Ġsep": 879,
      "atives": 880,
      "ĠSoaException": 881,
      "Ġcircum": 882,
      "kele": 883,
      "Ġforgiving": 884,
      "stilling": 885,
      "TIMEST": 886,
      "setError": 887,
      "copyWith": 888,
      "ValArr": 889,
      "antes": 890,
      "ĠSaudi": 891,
      "ĠStrat": 892,
      "Bearer": 893,
      "AMPD": 894,
      "TIMESTAMPD": 895,
      "TIMESTAMPDIFF": 896,
      "Ng": 897,
      "Ġdhatunam": 898,
      "avaju": 899,
      "DebugType": 900,
      "proken": 901,
      "BET": 902,
      "mort": 903,
      "arios": 904,
      "Ġhydrothermal": 905,
      "ĠDre": 906,
      "Ġdrawstring": 907,
      "Ġsuperconductor": 908,
      "Ġbipartite": 909,
      "jecha": 910,
      "ĠSpartan": 911,
      "config": 912,
      "Ġatthudd": 913,
      "ĠCheval": 914,
      "Ġflax": 915,
      "ĠHaal": 916,
      "ĠHaaland": 917,
      "Ġdira": 918,
      "ĠPolaris": 919,
      "Ġmyd": 920,
      "menuStrip": 921,
      "ĠWatan": 922,
      "astopol": 923,
      "Ġgreg": 924,
      "Ġih": 925,
      "ĠRBI": 926,
      "ĠHee": 927,
      "ĠslidesToShow": 928,
      "ĠPavlov": 929,
      "nych": 930,
      "LOTREntity": 931,
      "ĠMorel": 932,
      "rile": 933,
      "UpDown": 934,
      "TransactionLog": 935,
      "ayon": 936,
      "ularity": 937,
      "ijdens": 938,
      "Ġfestge": 939,
      "FieldNumber": 940,
      "oglob": 941,
      "VII": 942,
      "Ġcoherent": 943,
      "ĠMonsanto": 944,
      "temper": 945,
      "loh": 946,
      "Ġlanjutan": 947,
      "Ġmenutup": 948,
      "ĠFTA": 949,
      "giers": 950,
      "project": 951,
      "ĠIshikawa": 952,
      "ĠReLU": 953,
      "Ġmiejscu": 954,
      "ocardial": 955,
      "Ġdaz": 956,
      "ĠFag": 957,
      "Ġanest": 958,
      "Ġnies": 959,
      "addon": 960,
      "imbra": 961,
      "Ġpoured": 962,
      "Cxt": 963,
      "ĠPUR": 964,
      "Ġspermatozoa": 965,
      "lude": 966,
      "aggreg": 967,
      "intValue": 968,
      "Receive": 969,
      "Ġstandoff": 970,
      "uya": 971,
      "Ġshen": 972,
      "vag": 973,
      "ĠJok": 974,
      "Ġsubordin": 975,
      "kel": 976,
      "Ġregent": 977,
      "achelor": 978,
      "enay": 979,
      "ĠVerdun": 980,
      "ĠSchen": 981,
      "Ġsemidefinite": 982,
      "spacerItem": 983,
      "oggled": 984,
      "ĠCros": 985,
      "urv": 986,
      "ĠTito": 987,
      "ekra": 988,
      "onesian": 989,
      "Ġlah": 990,
      "ĠRens": 991,
      "oporosis": 992,
      "Ġtyrant": 993,
      "ennem": 994,
      "nati": 995,
      "Ġsus": 996,
      "ĠHef": 997,
      "ĠMasaki": 998,
      "estan": 999,
      "Dre": 1000,
      "aderie": 1001,
      "Ġdran": 1002,
      "ĠIss": 1003,
      "cono": 1004,
      "ĠGaruda": 1005,
      "orra": 1006,
      "StudentVector": 1007,
      "ĠAndorra": 1008,
      "req": 1009,
      "aar": 1010,
      "Ġcess": 1011,
      "abela": 1012,
      "Ġquenching": 1013,
      "Ġheadcount": 1014,
      "staking": 1015,
      "Ġcessation": 1016,
      "openweathermap": 1017,
      "pImage": 1018,
      "contentText": 1019,
      "olla": 1020,
      "Ġconceding": 1021,
      "setScale": 1022,
      "Ġwedi": 1023,
      "ĠImmaculate": 1024,
      "arith": 1025,
      "ĠGriffin": 1026,
      "ĠKew": 1027,
      "aleza": 1028,
      "blichen": 1029,
      "substrate": 1030,
      "oulders": 1031,
      "istere": 1032,
      "Ġhorrendous": 1033,
      "adf": 1034,
      "efe": 1035,
      "Misc": 1036,
      "enity": 1037,
      "ĠAlh": 1038,
      "urrency": 1039,
      "Ġminutos": 1040,
      "ElementSibling": 1041,
      "Ġdissem": 1042,
      "ishi": 1043,
      "Ġhangat": 1044,
      "ĠDonner": 1045,
      "ungee": 1046,
      "ĠCrosby": 1047,
      "shy": 1048,
      "ĠGUID": 1049,
      "now": 1050,
      "igion": 1051,
      "Ġlegalization": 1052,
      "Ġsubtitles": 1053,
      "ĠIPs": 1054,
      "Ġsquash": 1055,
      "ursive": 1056,
      "Ġmontagnes": 1057,
      "IX": 1058,
      "Ġppb": 1059,
      "Ġcapilla": 1060,
      "ĠaddNew": 1061,
      "langan": 1062,
      "Ġtestify": 1063,
      "ĠAust": 1064,
      "Ġsnow": 1065,
      "Ġdredged": 1066,
      "ĠRedox": 1067,
      "urne": 1068,
      "parentId": 1069,
      "liu": 1070,
      "Ġworld": 1071,
      "ĠGUIDATA": 1072,
      "jada": 1073,
      "LinkLabel": 1074,
      "etus": 1075,
      "Ġolvides": 1076,
      "GetString": 1077,
      "zes": 1078,
      "Ġkose": 1079,
      "utacji": 1080,
      "ostal": 1081,
      "ĠprimarySwatch": 1082,
      "ritten": 1083,
      "setFixed": 1084,
      "setFixedHeight": 1085,
      "Ġpenatibus": 1086,
      "Ġblaming": 1087,
      "hedral": 1088,
      "uso": 1089,
      "Ġturban": 1090,
      "ylis": 1091,
      "egraphics": 1092,
      "Ġintravascular": 1093,
      "ernsey": 1094,
      "ewo": 1095,
      "iked": 1096,
      "ĠGhan": 1097,
      "Ġhina": 1098,
      "Ġcaliber": 1099,
      "Ġneutralize": 1100,
      "HTMLElement": 1101,
      "paration": 1102,
      "Daemon": 1103,
      "setChecked": 1104,
      "ucine": 1105,
      "vand": 1106,
      "UIApplication": 1107,
      "Ġodpowied": 1108,
      "alker": 1109,
      "ĠFaj": 1110,
      "ĠIra": 1111,
      "Ġmonoton": 1112,
      "Ġtamen": 1113,
      "carts": 1114,
      "iju": 1115,
      "kola": 1116,
      "ĠShelby": 1117,
      "lw": 1118,
      "lwjgl": 1119,
      "ĠSwarovski": 1120,
      "Ġexcav": 1121,
      "habi": 1122,
      "iniai": 1123,
      "ITCH": 1124,
      "Ġchewed": 1125,
      "QUrl": 1126,
      "isl": 1127,
      "Ġtunt": 1128,
      "erek": 1129,
      "ĠMaud": 1130,
      "Ġneigh": 1131,
      "Ġast": 1132,
      "ĠHowe": 1133,
      "Ġdoublet": 1134,
      "ĠBonifacio": 1135,
      "ĠBxf": 1136,
      "illante": 1137,
      "uxx": 1138,
      "ĠFreeport": 1139,
      "EFL": 1140,
      "ĠTOEFL": 1141,
      "ĠLance": 1142,
      "ĠAAS": 1143,
      "azos": 1144,
      "ĠLinear": 1145,
      "ĠlineHeight": 1146,
      "foh": 1147,
      "ĠMaterial": 1148,
      "ahasan": 1149,
      "fohlen": 1150,
      "ĠTSE": 1151,
      "reetings": 1152,
      "ĠMaterialApp": 1153,
      "Ġfich": 1154,
      "ocratic": 1155,
      "Ġdecoup": 1156,
      "ĠtoNumber": 1157,
      "iosas": 1158,
      "ĠWhyte": 1159,
      "inus": 1160,
      "kim": 1161,
      "zne": 1162,
      "Ġstrcpy": 1163,
      "ĠArg": 1164,
      "Ġdiagon": 1165,
      "zana": 1166,
      "agogue": 1167,
      "Ġhimsayam": 1168,
      "yeh": 1169,
      "noi": 1170,
      "ĠOts": 1171,
      "ĠCOM": 1172,
      "alkoz": 1173,
      "selected": 1174,
      "Ġgeld": 1175,
      "ĠNGF": 1176,
      "getRed": 1177,
      "brad": 1178,
      "uyen": 1179,
      "Ġhairy": 1180,
      "Ġhoarding": 1181,
      "attr": 1182,
      "ĠactionPerformed": 1183,
      "cji": 1184,
      "Ġmenjel": 1185,
      "Batch": 1186,
      "popo": 1187,
      "Ġmenjelaskan": 1188,
      "Ġsagittal": 1189,
      "prentices": 1190,
      "ĠHarc": 1191,
      "ĠHarcourt": 1192,
      "Ġisotropy": 1193,
      "ĠMaynard": 1194,
      "avasena": 1195,
      "actoring": 1196,
      "SELE": 1197,
      "isho": 1198,
      "elu": 1199,
      "Ġpaused": 1200,
      "ammed": 1201,
      "Ġausgesch": 1202,
      "Ġintens": 1203,
      "ĠLinearLayout": 1204,
      "ĠQnrB": 1205,
      "asmuch": 1206,
      "ĠParadis": 1207,
      "ĠAlbright": 1208,
      "Ġhana": 1209,
      "Mk": 1210,
      "Ġsobr": 1211,
      "Mkv": 1212,
      "ĠTenny": 1213,
      "ĠTennyson": 1214,
      "Ġannot": 1215,
      "Telemetry": 1216,
      "ĠkeyValue": 1217,
      "iting": 1218,
      "Nguyen": 1219,
      "Ġpretended": 1220,
      "amiseks": 1221,
      "hny": 1222,
      "ĠRostock": 1223,
      "Ġleis": 1224,
      "keun": 1225,
      "ĠBuck": 1226,
      "mdan": 1227,
      "chon": 1228,
      "mmss": 1229,
      "Ġonload": 1230,
      "zhihu": 1231,
      "ĠAshes": 1232,
      "SELECTOR": 1233,
      "ĠSLAs": 1234,
      "endosi": 1235,
      "uire": 1236,
      "ĠRxSwift": 1237,
      "ponym": 1238,
      "PropertyChanged": 1239,
      "Ġeta": 1240,
      "Ġcan": 1241,
      "Appropri": 1242,
      "Unmarshal": 1243,
      "Ġethane": 1244,
      "odec": 1245,
      "orato": 1246,
      "lees": 1247,
      "bido": 1248,
      "Ġpouches": 1249,
      "ĠYosh": 1250,
      "ĠLeila": 1251,
      "methoxy": 1252,
      "espace": 1253,
      "ĠApprentices": 1254,
      "wane": 1255,
      "yce": 1256,
      "chtel": 1257,
      "gfx": 1258,
      "ĠIraqi": 1259,
      "oinette": 1260,
      "eree": 1261,
      "pathname": 1262,
      "ĠBole": 1263,
      "egr": 1264,
      "antry": 1265,
      "astia": 1266,
      "SecurityCenter": 1267,
      "Ġlocomotive": 1268,
      "ĠSina": 1269,
      "alchemy": 1270,
      "ĠJol": 1271,
      "Ġintercepted": 1272,
      "ĠCac": 1273,
      "Hlav": 1274,
      "cati": 1275,
      "HlavniOkno": 1276,
      "ĠCDI": 1277,
      "anan": 1278,
      "Ġprzer": 1279,
      "Ġrhiz": 1280,
      "ĠSui": 1281,
      "Bitt": 1282,
      "Concini": 1283,
      "akuwa": 1284,
      "Ġmidline": 1285,
      "orizontal": 1286,
      "Been": 1287,
      "ĠAbh": 1288,
      "ournament": 1289,
      "ĠGiveaway": 1290,
      "orderEntry": 1291,
      "toHaveBeen": 1292,
      "mortem": 1293,
      "Ġaccolade": 1294,
      "Ġtropic": 1295,
      "ĠDuff": 1296,
      "theria": 1297,
      "punk": 1298,
      "Ġdiphtheria": 1299,
      "Ġeuropean": 1300,
      "Ġniew": 1301,
      "comma": 1302,
      "ĠBitmap": 1303,
      "Ġautocratic": 1304,
      "InputNum": 1305,
      "aiser": 1306,
      "ĠSay": 1307,
      "intis": 1308,
      "ĠSayles": 1309,
      "ĠMane": 1310,
      "occan": 1311,
      "Ġnec": 1312,
      "aneers": 1313,
      "textColour": 1314,
      "Ġneighbor": 1315,
      "ĠMoroccan": 1316,
      "Ġdeplet": 1317,
      "ateful": 1318,
      "ĠAOC": 1319,
      "ĠStratford": 1320,
      "ĠVAS": 1321,
      "erstone": 1322,
      "Ġsupplic": 1323,
      "Ġllevo": 1324,
      "Ġdute": 1325,
      "Ġkivy": 1326,
      "Ġvhod": 1327,
      "ĠRegno": 1328,
      "Ġtou": 1329,
      "edf": 1330,
      "splitted": 1331,
      "Ġsparsely": 1332,
      "siege": 1333,
      "Ġsuro": 1334,
      "ĠReykjavik": 1335,
      "Thought": 1336,
      "ĠMercer": 1337,
      "ĠHutton": 1338,
      "ĠtileSize": 1339,
      "vang": 1340,
      "ThoughtData": 1341,
      "unan": 1342,
      "phed": 1343,
      "oyama": 1344,
      "Ġnut": 1345,
      "ĠKaran": 1346,
      "epot": 1347,
      "Ġdeco": 1348,
      "ilibus": 1349,
      "asati": 1350,
      "ERSON": 1351,
      "yx": 1352,
      "Ġtransferencia": 1353,
      "rization": 1354,
      "rador": 1355,
      "ĠPres": 1356,
      "alista": 1357,
      "iann": 1358,
      "alamy": 1359,
      "pti": 1360,
      "skiego": 1361,
      "StarService": 1362,
      "ĠScri": 1363,
      "Ġnarrowing": 1364,
      "Shadow": 1365,
      "ĠContent": 1366,
      "Ġkelly": 1367,
      "ĠAvner": 1368,
      "Ġhistogram": 1369,
      "Ġsatirical": 1370,
      "gor": 1371,
      "Ġexistent": 1372,
      "ActionPerformed": 1373,
      "Ġexistentes": 1374,
      "StringBuilder": 1375,
      "Ġspyw": 1376,
      "Ġspyware": 1377,
      "loor": 1378,
      "heses": 1379,
      "ĠHiggins": 1380,
      "essi": 1381,
      "Ġnim": 1382,
      "ĠCoriol": 1383,
      "ĠCoriolis": 1384,
      "ĠJobList": 1385,
      "ĠUITextField": 1386,
      "ĠCochrane": 1387,
      "sab": 1388,
      "Ġauspicious": 1389,
      "uszt": 1390,
      "onglet": 1391,
      "ĠPhil": 1392,
      "ĠSBA": 1393,
      "ĠPVA": 1394,
      "REX": 1395,
      "Ġnedir": 1396,
      "rapie": 1397,
      "Crane": 1398,
      "Ġperme": 1399,
      "BLIC": 1400,
      "Ġjane": 1401,
      "Ġdesalination": 1402,
      "ght": 1403,
      "wght": 1404,
      "STON": 1405,
      "Ġparib": 1406,
      "lowing": 1407,
      "ĠEX": 1408,
      "ĠBuckley": 1409,
      "irteen": 1410,
      "jsoup": 1411,
      "ontiti": 1412,
      "RETURN": 1413,
      "Ġpice": 1414,
      "shev": 1415,
      "bench": 1416,
      "Ġfracking": 1417,
      "gles": 1418,
      "schirm": 1419,
      "ierz": 1420,
      "RETURNTRANSFER": 1421,
      "Ġdeewana": 1422,
      "arasi": 1423,
      "alous": 1424,
      "ĠNavarre": 1425,
      "DUNLAND": 1426,
      "raut": 1427,
      "ibo": 1428,
      "Ġjorn": 1429,
      "ueroa": 1430,
      "SpringMVCProject": 1431,
      "ĠGericht": 1432,
      "ĠGMC": 1433,
      "Ġbicolor": 1434,
      "sbad": 1435,
      "ĠCarlsbad": 1436,
      "entreprise": 1437,
      "Indexs": 1438,
      "ĠPresley": 1439,
      "Tucker": 1440,
      "Ġundisturbed": 1441,
      "ĠPampl": 1442,
      "marshalN": 1443,
      "redis": 1444,
      "eryllium": 1445,
      "dings": 1446,
      "ĠHarare": 1447,
      "adays": 1448,
      "ĠHayden": 1449,
      "searchview": 1450,
      "Ġbomb": 1451,
      "Ġfalo": 1452,
      "Ġridd": 1453,
      "Ġioe": 1454,
      "Ġatoi": 1455,
      "ĠGCC": 1456,
      "Ġveliki": 1457,
      "ĠSine": 1458,
      "ĠHSPB": 1459,
      "liny": 1460,
      "ĠPEAR": 1461,
      "spd": 1462,
      "Ġthrex": 1463,
      "simeq": 1464,
      "ĠneighborIndexs": 1465,
      "ĠTORT": 1466,
      "Ġkoment": 1467,
      "ĠEgan": 1468,
      "ĠWaterford": 1469,
      "punkte": 1470,
      "ĠSankt": 1471,
      "sets": 1472,
      "Ġnoses": 1473,
      "rafpunkte": 1474,
      "ĠAhm": 1475,
      "ensure": 1476,
      "gebracht": 1477,
      "ĠSrvGroup": 1478,
      "MainWindow": 1479,
      "downcase": 1480,
      "yacute": 1481,
      "OCc": 1482,
      "ĠAnat": 1483,
      "ĠHaziran": 1484,
      "ĠdrawSprites": 1485,
      "setBadge": 1486,
      "cgColor": 1487,
      "akrishna": 1488,
      "Ġshelving": 1489,
      "Decrypt": 1490,
      "ĠRubens": 1491,
      "ĠMycobacterium": 1492,
      "RIN": 1493,
      "Ġroz": 1494,
      "vius": 1495,
      "enciales": 1496,
      "ServiceProvider": 1497,
      "ĠPavia": 1498,
      "Ġrupani": 1499,
      "kho": 1500,
      "radioButton": 1501,
      "ULL": 1502,
      "ĠBoud": 1503,
      "ĠYamazaki": 1504,
      "Ġwong": 1505,
      "Ġfuc": 1506,
      "ĠTFS": 1507,
      "issie": 1508,
      "ĠAvr": 1509,
      "Ġperic": 1510,
      "unun": 1511,
      "Ġamely": 1512,
      "ikation": 1513,
      "Ġvijf": 1514,
      "tements": 1515,
      "ĠWanda": 1516,
      "ggen": 1517,
      "ĠAbram": 1518,
      "ĠCDA": 1519,
      "Ġmember": 1520,
      "Stage": 1521,
      "nvarchar": 1522,
      "ĠEns": 1523,
      "ĠprimaryStage": 1524,
      "Ġpois": 1525,
      "wiek": 1526,
      "Ġphenolic": 1527,
      "juana": 1528,
      "alja": 1529,
      "ĠAlma": 1530,
      "Ġmarbled": 1531,
      "Ġtending": 1532,
      "loos": 1533,
      "ĠhashTable": 1534,
      "ĠAvril": 1535,
      "acia": 1536,
      "ĠFertil": 1537,
      "ĠGretchen": 1538,
      "ĠNam": 1539,
      "ĠJillian": 1540,
      "ĠTukey": 1541,
      "WindowClass": 1542,
      "ĠviewBox": 1543,
      "ĠReuben": 1544,
      "inei": 1545,
      "Ġgetpath": 1546,
      "Ġdoctr": 1547,
      "Ġarrond": 1548,
      "ioctl": 1549,
      "ĠEllen": 1550,
      "ĠCheby": 1551,
      "uestra": 1552,
      "ĠChebyshev": 1553,
      "arit": 1554,
      "ĠRTP": 1555,
      "Ġszok": 1556,
      "Ġvalue": 1557,
      "cuno": 1558,
      "MATIC": 1559,
      "ĠvalueForKey": 1560,
      "iorno": 1561,
      "ĠPobl": 1562,
      "umma": 1563,
      "Ġblinked": 1564,
      "ĠShale": 1565,
      "gli": 1566,
      "Ġsconf": 1567,
      "ĠChe": 1568,
      "Strafpunkte": 1569,
      "STRA": 1570,
      "setBounds": 1571,
      "BUG": 1572,
      "postdata": 1573,
      "ĠsuperClass": 1574,
      "iangs": 1575,
      "ĠJiangs": 1576,
      "ĠJiangsu": 1577,
      "ĠonCreate": 1578,
      "ĠGoObjectTo": 1579,
      "Ġveo": 1580,
      "ĠEverett": 1581,
      "itudinal": 1582,
      "ĠFe": 1583,
      "createElement": 1584,
      "ĠAgustus": 1585,
      "unid": 1586,
      "Ġnuo": 1587,
      "ĠNairobi": 1588,
      "ĠWestinghouse": 1589,
      "ĠBernd": 1590,
      "ĠComment": 1591,
      "Ġbien": 1592,
      "IllegalArgument": 1593,
      "ĠCommod": 1594,
      "emony": 1595,
      "Ġtabindex": 1596,
      "laid": 1597,
      "akh": 1598,
      "ĠDuane": 1599,
      "ĠVign": 1600,
      "iee": 1601,
      "Ġschen": 1602,
      "urate": 1603,
      "ĠCross": 1604,
      "Ġreign": 1605,
      "returnData": 1606,
      "bies": 1607,
      "sModule": 1608,
      "ifiziert": 1609,
      "ILabel": 1610,
      "Ġretrospective": 1611,
      "ĠWhittier": 1612,
      "FormsModule": 1613,
      "maja": 1614,
      "chenk": 1615,
      "Ġfaker": 1616,
      "irao": 1617,
      "Ġschne": 1618,
      "ĠHIT": 1619,
      "uluk": 1620,
      "rals": 1621,
      "ijo": 1622,
      "ĠPrada": 1623,
      "azes": 1624,
      "ĠHashTable": 1625,
      "ĠPich": 1626,
      "ĠMackay": 1627,
      "ĠDoherty": 1628,
      "Lng": 1629,
      "wanath": 1630,
      "Ġgraham": 1631,
      "Ġthinner": 1632,
      "ĠBajaj": 1633,
      "ĠTavares": 1634,
      "dup": 1635,
      "ĠRov": 1636,
      "IDE": 1637,
      "silyl": 1638,
      "rombin": 1639,
      "Ġapice": 1640,
      "ĠonCreateView": 1641,
      "Ġcoercion": 1642,
      "Codec": 1643,
      "abbani": 1644,
      "vection": 1645,
      "rary": 1646,
      "WIDE": 1647,
      "sqcup": 1648,
      "ENTE": 1649,
      "Ġunderp": 1650,
      "ĠLTP": 1651,
      "eyim": 1652,
      "alate": 1653,
      "ields": 1654,
      "leine": 1655,
      "ĠFitzsimmons": 1656,
      "ĠVetter": 1657,
      "ĠCPR": 1658,
      "wh": 1659,
      "ĠFarr": 1660,
      "ĠDesmond": 1661,
      "ĠFeCl": 1662,
      "ĠDeuteron": 1663,
      "aniyu": 1664,
      "ĠDeuteronomy": 1665,
      "ĠLar": 1666,
      "ĠEmerson": 1667,
      "iration": 1668,
      "Ġpihaknya": 1669,
      "agu": 1670,
      "oglier": 1671,
      "ogliere": 1672,
      "ĠOprah": 1673,
      "beek": 1674,
      "itta": 1675,
      "ĠZwe": 1676,
      "Ġbutler": 1677,
      "ĠLarissa": 1678,
      "tsc": 1679,
      "TakePhoto": 1680,
      "ĠPadma": 1681,
      "Ġairl": 1682,
      "forgett": 1683,
      "Ġairlift": 1684,
      "forgettable": 1685,
      "enei": 1686,
      "Comment": 1687,
      "Ġmerasakan": 1688,
      "Ġmix": 1689,
      "Ġque": 1690,
      "Ġanesthesia": 1691,
      "ĠEastwood": 1692,
      "ĠdSampleWidth": 1693,
      "Ġbootstra": 1694,
      "getBlock": 1695,
      "Ġprun": 1696,
      "salam": 1697,
      "apay": 1698,
      "ĠHumphreys": 1699,
      "ĠFermi": 1700,
      "lden": 1701,
      "opot": 1702,
      "Ġparis": 1703,
      "ausch": 1704,
      "atzeko": 1705,
      "iligung": 1706,
      "dale": 1707,
      "ĠChac": 1708,
      "ĠRupert": 1709,
      "Ġkiss": 1710,
      "ĠKarth": 1711,
      "ĠhighScore": 1712,
      "Ġctrl": 1713,
      "ĠMainland": 1714,
      "dziel": 1715,
      "ĠMNR": 1716,
      "PickerController": 1717,
      "Ġblunt": 1718,
      "atatype": 1719,
      "Ġnus": 1720,
      "emics": 1721,
      "ĠArnaud": 1722,
      "Ġelabor": 1723,
      "Ġkaka": 1724,
      "Ġmengenal": 1725,
      "ĠEmpor": 1726,
      "ĠViceroy": 1727,
      "ilo": 1728,
      "Ġbina": 1729,
      "estima": 1730,
      "ĠSperm": 1731,
      "Ġoccupies": 1732,
      "Ġautoestima": 1733,
      "ifizieren": 1734,
      "ĠPAOK": 1735,
      "orak": 1736,
      "Drag": 1737,
      "derd": 1738,
      "ĠTFT": 1739,
      "trick": 1740,
      "romino": 1741,
      "UAGES": 1742,
      "stick": 1743,
      "Ġtx": 1744,
      "Invalids": 1745,
      "ierno": 1746,
      "Specular": 1747,
      "WMNDA": 1748,
      "Ġsculptural": 1749,
      "Ġwww": 1750,
      "ifical": 1751,
      "Ġveh": 1752,
      "Ġwwwpond": 1753,
      "Ġpyar": 1754,
      "ĠPue": 1755,
      "Ġthrombosis": 1756,
      "isie": 1757,
      "ĠEsp": 1758,
      "ĠServicePolicy": 1759,
      "Ġmotility": 1760,
      "Ġmodeller": 1761,
      "heon": 1762,
      "ĠPig": 1763,
      "ĠAvoid": 1764,
      "rtol": 1765,
      "rjust": 1766,
      "Ġelucidated": 1767,
      "ervlak": 1768,
      "uhl": 1769,
      "ĠEspinosa": 1770,
      "Ġaha": 1771,
      "ĠFie": 1772,
      "Ġser": 1773,
      "ĠBarcel": 1774,
      "umbling": 1775,
      "Ġrebound": 1776,
      "ondere": 1777,
      "ichtlich": 1778,
      "Ġgood": 1779,
      "ipsis": 1780,
      "gameObject": 1781,
      "ĠENG": 1782,
      "ĠEinwohner": 1783,
      "mataspid": 1784,
      "ServiceObject": 1785,
      "Ġligula": 1786,
      "Ġdichlor": 1787,
      "hoom": 1788,
      "opss": 1789,
      "Ġinfused": 1790,
      "Ġhinaus": 1791,
      "Ġbrachte": 1792,
      "Ġstaked": 1793,
      "ikiem": 1794,
      "ugg": 1795,
      "esters": 1796,
      "ĠSchon": 1797,
      "bungen": 1798,
      "resher": 1799,
      "tez": 1800,
      "RM": 1801,
      "Dragging": 1802,
      "ddar": 1803,
      "ĠMcE": 1804,
      "geven": 1805,
      "ĠJade": 1806,
      "ĠJadeja": 1807,
      "Ġocupar": 1808,
      "Ġdelet": 1809,
      "Sicilian": 1810,
      "road": 1811,
      "Ġeconom": 1812,
      "findung": 1813,
      "aktif": 1814,
      "styl": 1815,
      "Ġzom": 1816,
      "Ġdichloromethane": 1817,
      "puted": 1818,
      "Ġlang": 1819,
      "oura": 1820,
      "ĠFul": 1821,
      "stylers": 1822,
      "dac": 1823,
      "ĠPinto": 1824,
      "Ġbrows": 1825,
      "zenes": 1826,
      "ĠScripps": 1827,
      "Ġmushroom": 1828,
      "ĠKurd": 1829,
      "obytes": 1830,
      "FU": 1831,
      "Ġpurnama": 1832,
      "FUENTE": 1833,
      "din": 1834,
      "ifol": 1835,
      "ingStamp": 1836,
      "ĠbrowsingStamp": 1837,
      "Ġamn": 1838,
      "ĠWent": 1839,
      "arest": 1840,
      "ĠWentworth": 1841,
      "Ġextinguishers": 1842,
      "ilov": 1843,
      "spect": 1844,
      "ctime": 1845,
      "Ġgus": 1846,
      "fing": 1847,
      "ĠHakone": 1848,
      "rivez": 1849,
      "ĠDVR": 1850,
      "peda": 1851,
      "Ġphal": 1852,
      "ofen": 1853,
      "beatable": 1854,
      "ĠNRI": 1855,
      "cevam": 1856,
      "copic": 1857,
      "SLICE": 1858,
      "ieten": 1859,
      "Ġabras": 1860,
      "urni": 1861,
      "ĠIso": 1862,
      "ĠSharif": 1863,
      "Ġmiljoen": 1864,
      "RIB": 1865,
      "ANDER": 1866,
      "brecht": 1867,
      "Ġrepressive": 1868,
      "ĠPirates": 1869,
      "ĠformContext": 1870,
      "ĠrunApp": 1871,
      "opathy": 1872,
      "slime": 1873,
      "ĠAries": 1874,
      "opausal": 1875,
      "ectar": 1876,
      "agnie": 1877,
      "ĠFamilien": 1878,
      "Ġtanah": 1879,
      "ysts": 1880,
      "yesters": 1881,
      "ĠEnrich": 1882,
      "qua": 1883,
      "ullah": 1884,
      "ĠLobby": 1885,
      "Ġremettre": 1886,
      "Ġenfor": 1887,
      "Ġpericard": 1888,
      "Ġthug": 1889,
      "encephal": 1890,
      "Ġcatast": 1891,
      "Expire": 1892,
      "ĠDahl": 1893,
      "ĠSkyw": 1894,
      "ĠSkywalker": 1895,
      "pouring": 1896,
      "Ġgiddy": 1897,
      "Hist": 1898,
      "ocrite": 1899,
      "hede": 1900,
      "Mqua": 1901,
      "prim": 1902,
      "Ġoprav": 1903,
      "angkalan": 1904,
      "Ġlast": 1905,
      "Ġpict": 1906,
      "ĠKuo": 1907,
      "fasst": 1908,
      "Ġentrev": 1909,
      "Ġmcc": 1910,
      "idio": 1911,
      "Ġpend": 1912,
      "ĠFCM": 1913,
      "Ġmascul": 1914,
      "Ġtinct": 1915,
      "Ġkicks": 1916,
      "tat": 1917,
      "akkhan": 1918,
      "hauled": 1919,
      "ĠAns": 1920,
      "HSV": 1921,
      "imon": 1922,
      "GetChar": 1923,
      "ĠAsc": 1924,
      "Ġleop": 1925,
      "Ġentrust": 1926,
      "Ġhemicontinuous": 1927,
      "ĠMeck": 1928,
      "ĠMecklenburg": 1929,
      "lowercase": 1930,
      "idine": 1931,
      "Ġsomet": 1932,
      "ĠSunak": 1933,
      "isma": 1934,
      "Shader": 1935,
      "Ġzeigte": 1936,
      "itemView": 1937,
      "Ġpictogram": 1938,
      "iedad": 1939,
      "Ġbum": 1940,
      "ĠGalapagos": 1941,
      "mluv": 1942,
      "ws": 1943,
      "Ġkilobytes": 1944,
      "Ġdisfrut": 1945,
      "ĠCuomo": 1946,
      "Ġinstantiate": 1947,
      "PagerAdapter": 1948,
      "Ġugl": 1949,
      "ĠXavier": 1950,
      "ieties": 1951,
      "Curtis": 1952,
      "Ġdiente": 1953,
      "rawData": 1954,
      "Ġcis": 1955,
      "Ġnectar": 1956,
      "imizing": 1957,
      "Ġschrift": 1958,
      "testTakeVideo": 1959,
      "selectbox": 1960,
      "Ġeingesch": 1961,
      "fasis": 1962,
      "nfasis": 1963,
      "ĠMiddletown": 1964,
      "ĠMink": 1965,
      "Ġvividly": 1966,
      "ĠMinkowski": 1967,
      "MenuStyle": 1968,
      "Ġnumb": 1969,
      "apurna": 1970,
      "gete": 1971,
      "lie": 1972,
      "Ġdiced": 1973,
      "ĠKxe": 1974,
      "ĠScriptInterface": 1975,
      "rme": 1976,
      "Ġpesto": 1977,
      "Ġaureus": 1978,
      "Ġocc": 1979,
      "ococcus": 1980,
      "ĠCulver": 1981,
      "ĠBlob": 1982,
      "TX": 1983,
      "elegate": 1984,
      "Ġnumbness": 1985,
      "ĠRTX": 1986,
      "drav": 1987,
      "AppData": 1988,
      "Ġrespect": 1989,
      "Ġtapped": 1990,
      "ĠAny": 1991,
      "sbin": 1992,
      "henden": 1993,
      "Gand": 1994,
      "ĠLoyola": 1995,
      "Ġbhakti": 1996,
      "Ġcher": 1997,
      "ĠStout": 1998,
      "ĠAnyObject": 1999,
      "fters": 2000,
      "Ġgraphql": 2001,
      "ĠGeno": 2002,
      "ubit": 2003,
      "Ġdifficult": 2004,
      "ĠobjRequest": 2005,
      "picture": 2006,
      "ismuth": 2007,
      "tikzpicture": 2008,
      "ĠViper": 2009,
      "ewalk": 2010,
      "about": 2011,
      "ĠElekt": 2012,
      "Delegate": 2013,
      "Ġappreciates": 2014,
      "Ġpresso": 2015,
      "ĠRoder": 2016,
      "Dam": 2017,
      "Ġdemurrer": 2018,
      "ĠDICE": 2019,
      "Ġwalter": 2020,
      "ulent": 2021,
      "Ġmiliar": 2022,
      "PSS": 2023,
      "ĠKPSS": 2024,
      "ydraulic": 2025,
      "Ġsubstation": 2026,
      "Bang": 2027,
      "ĠGrail": 2028,
      "ilitas": 2029,
      "Verbose": 2030,
      "rogate": 2031,
      "Ġatom": 2032,
      "Ġhorrors": 2033,
      "mnopqr": 2034,
      "oler": 2035,
      "queda": 2036,
      "ĠPohl": 2037,
      "Ġpoised": 2038,
      "amaya": 2039,
      "Ġgenau": 2040,
      "Ġdatatype": 2041,
      "FileManager": 2042,
      "Ġnidassanam": 2043,
      "ĠBirken": 2044,
      "stice": 2045,
      "Ġdecouple": 2046,
      "iculaire": 2047,
      "yaratan": 2048,
      "Ġcannula": 2049,
      "ĠHew": 2050,
      "Ġarrogant": 2051,
      "avip": 2052,
      "ĠArnav": 2053,
      "Ġpotom": 2054,
      "igkeits": 2055,
      "ĠAllg": 2056,
      "ĠExec": 2057,
      "Ġbung": 2058,
      "beros": 2059,
      "ĠNauchno": 2060,
      "Ġvif": 2061,
      "ĠHoy": 2062,
      "ĠAnglia": 2063,
      "Ġcentrif": 2064,
      "Witam": 2065,
      "ornado": 2066,
      "ĠHoyt": 2067,
      "hydraulic": 2068,
      "Ġpube": 2069,
      "locator": 2070,
      "ĠNightingale": 2071,
      "ouns": 2072,
      "locatorType": 2073,
      "alls": 2074,
      "ĠIAF": 2075,
      "getProgress": 2076,
      "Ġderr": 2077,
      "REAM": 2078,
      "ruar": 2079,
      "ullet": 2080,
      "Ġdvije": 2081,
      "isert": 2082,
      "ifice": 2083,
      "antly": 2084,
      "iture": 2085,
      "Ġagat": 2086,
      "Potential": 2087,
      "apura": 2088,
      "aratus": 2089,
      "Ġpresta": 2090,
      "Ġagosto": 2091,
      "gano": 2092,
      "ĠAdler": 2093,
      "encial": 2094,
      "capture": 2095,
      "Ġwithdrawing": 2096,
      "getChild": 2097,
      "aland": 2098,
      "ĠCourier": 2099,
      "Ġtros": 2100,
      "Ġroue": 2101,
      "ĠMHK": 2102,
      "ĠArteta": 2103,
      "ĠMi": 2104,
      "ĠRIM": 2105,
      "ĠMiG": 2106,
      "omatik": 2107,
      "Ġgrados": 2108,
      "platin": 2109,
      "ThemeProvider": 2110,
      "ĠDjibouti": 2111,
      "ezig": 2112,
      "Ġcisplatin": 2113,
      "addRow": 2114,
      "ĠBih": 2115,
      "ĠCast": 2116,
      "Riga": 2117,
      "intes": 2118,
      "Ġshaved": 2119,
      "Trashed": 2120,
      "andang": 2121,
      "ExpireTime": 2122,
      "kke": 2123,
      "Ġpedigree": 2124,
      "Ġescrit": 2125,
      "Ġeuer": 2126,
      "Ġhirs": 2127,
      "ORGE": 2128,
      "ĠBuccaneers": 2129,
      "HUS": 2130,
      "ifera": 2131,
      "ceptar": 2132,
      "Ġtenders": 2133,
      "ĠaHUS": 2134,
      "Ġjornalista": 2135,
      "iglian": 2136,
      "UIView": 2137,
      "igliano": 2138,
      "Ġsassy": 2139,
      "Ġarra": 2140,
      "Ġantiph": 2141,
      "Ġiri": 2142,
      "Ġanhydride": 2143,
      "aufs": 2144,
      "Ġexceeds": 2145,
      "anej": 2146,
      "maximizing": 2147,
      "FFA": 2148,
      "ĠNye": 2149,
      "RewardedVideo": 2150,
      "Ġgriego": 2151,
      "LUGIN": 2152,
      "Ġseres": 2153,
      "Ġroux": 2154,
      "hesive": 2155,
      "hrmacht": 2156,
      "Ġgestaltet": 2157,
      "Ġrunes": 2158,
      "Ġdelinquent": 2159,
      "Ġrepar": 2160,
      "Ġdragging": 2161,
      "ĠPaisley": 2162,
      "ĠAFB": 2163,
      "Ġtils": 2164,
      "ĠTCE": 2165,
      "hashMap": 2166,
      "Ġnepot": 2167,
      "psum": 2168,
      "Ġbroch": 2169,
      "reeze": 2170,
      "turbo": 2171,
      "ĠReddy": 2172,
      "artition": 2173,
      "Ġemojis": 2174,
      "FileDialog": 2175,
      "Ġkew": 2176,
      "hype": 2177,
      "Ship": 2178,
      "Ġspace": 2179,
      "ĠFulton": 2180,
      "ĠRouse": 2181,
      "ĠspaceShip": 2182,
      "umo": 2183,
      "Ġisbn": 2184,
      "ĠOreo": 2185,
      "Ġaback": 2186,
      "ĠSukh": 2187,
      "acios": 2188,
      "reno": 2189,
      "jsbpmOb": 2190,
      "viendo": 2191,
      "Ġswo": 2192,
      "csproj": 2193,
      "vg": 2194,
      "Ġacet": 2195,
      "ĠFus": 2196,
      "ĠFreud": 2197,
      "Ġkelet": 2198,
      "icoter": 2199,
      "ĠFusarium": 2200,
      "ĠHager": 2201,
      "namento": 2202,
      "Ġsolitaire": 2203,
      "WB": 2204,
      "toJson": 2205,
      "aniyam": 2206,
      "ĠCHIKV": 2207,
      "haran": 2208,
      "Ġghee": 2209,
      "Ġrebord": 2210,
      "ĠPelt": 2211,
      "Ġhaue": 2212,
      "Ġencont": 2213,
      "Ġgallium": 2214,
      "ĠGuildford": 2215,
      "ĠAeg": 2216,
      "Ġimputation": 2217,
      "ĠElektro": 2218,
      "ulen": 2219,
      "hiyan": 2220,
      "ĠElektrokh": 2221,
      "vanja": 2222,
      "Ġantennae": 2223,
      "InputField": 2224,
      "NES": 2225,
      "ershed": 2226,
      "Ġtelenov": 2227,
      "ĠDain": 2228,
      "menes": 2229,
      "Orden": 2230,
      "akk": 2231,
      "ĠWrigley": 2232,
      "Ġdort": 2233,
      "sendKeys": 2234,
      "Ġkahi": 2235,
      "Ġump": 2236,
      "ĠBader": 2237,
      "Ġinstance": 2238,
      "nere": 2239,
      "ĠHigh": 2240,
      "chal": 2241,
      "aways": 2242,
      "ĠServlet": 2243,
      "Ġthirteen": 2244,
      "yrics": 2245,
      "Ġcapt": 2246,
      "ochrom": 2247,
      "Ġvitro": 2248,
      "ĠFoy": 2249,
      "Ġgoodies": 2250,
      "omento": 2251,
      "NESDAY": 2252,
      "garh": 2253,
      "fele": 2254,
      "Ġmegfele": 2255,
      "Ġmegfelel": 2256,
      "axis": 2257,
      "Ġolig": 2258,
      "ining": 2259,
      "tbtn": 2260,
      "Ġtouchpad": 2261,
      "gst": 2262,
      "ECaut": 2263,
      "Ġsoftening": 2264,
      "anning": 2265,
      "Ġpermitt": 2266,
      "ASTM": 2267,
      "Ġsmrt": 2268,
      "Ġpermittivity": 2269,
      "ĠuserRepository": 2270,
      "legraf": 2271,
      "Ġprav": 2272,
      "Ġboto": 2273,
      "celain": 2274,
      "Ġsquirr": 2275,
      "Ġsquirrels": 2276,
      "Ordenar": 2277,
      "UserModel": 2278,
      "acam": 2279,
      "Ġclings": 2280,
      "ourd": 2281,
      "Ġsedimentary": 2282,
      "irac": 2283,
      "Fallback": 2284,
      "Ġcrucifix": 2285,
      "ibacter": 2286,
      "redi": 2287,
      "nestjs": 2288,
      "Ġmacaw": 2289,
      "geti": 2290,
      "Ġadsorbent": 2291,
      "zeta": 2292,
      "ĠBout": 2293,
      "ĠRadha": 2294,
      "WordInterval": 2295,
      "ĠBoutique": 2296,
      "alay": 2297,
      "uska": 2298,
      "Ġtpr": 2299,
      "Ġkeer": 2300,
      "ouncy": 2301,
      "graphql": 2302,
      "NavController": 2303,
      "ĠQFile": 2304,
      "inafter": 2305,
      "opter": 2306,
      "Ġpours": 2307,
      "addAlignment": 2308,
      "ĠEld": 2309,
      "ĠFRP": 2310,
      "ĠKxd": 2311,
      "Ġdonn": 2312,
      "ĠEldorado": 2313,
      "regn": 2314,
      "ĠKRS": 2315,
      "FromJson": 2316,
      "ĠCabr": 2317,
      "ĠCabrera": 2318,
      "Ġyax": 2319,
      "clementine": 2320,
      "Ġzina": 2321,
      "ometric": 2322,
      "OutputFile": 2323,
      "ktir": 2324,
      "PIO": 2325,
      "ĠTasma": 2326,
      "yama": 2327,
      "ĠMcCoy": 2328,
      "gave": 2329,
      "falf": 2330,
      "anat": 2331,
      "falfa": 2332,
      "leye": 2333,
      "Ġinstanceof": 2334,
      "Ġtle": 2335,
      "ricane": 2336,
      "ults": 2337,
      "Ġarras": 2338,
      "Ġsar": 2339,
      "ĠRhine": 2340,
      "Ġmerhabalar": 2341,
      "buckets": 2342,
      "ĠSoto": 2343,
      "REE": 2344,
      "Ġlegality": 2345,
      "uus": 2346,
      "Ġavanz": 2347,
      "ĠCornish": 2348,
      "ĠStrap": 2349,
      "ommit": 2350,
      "ĠGigi": 2351,
      "hattisgarh": 2352,
      "Ġtransferred": 2353,
      "usega": 2354,
      "astanza": 2355,
      "sna": 2356,
      "STRACT": 2357,
      "Ġheml": 2358,
      "ilk": 2359,
      "Ġtaala": 2360,
      "Ġscreens": 2361,
      "therly": 2362,
      "Ġwaived": 2363,
      "emore": 2364,
      "Ġwinters": 2365,
      "ĠSIRT": 2366,
      "grafo": 2367,
      "Ġsolstice": 2368,
      "Ġreprim": 2369,
      "ratulations": 2370,
      "FIED": 2371,
      "ting": 2372,
      "andas": 2373,
      "rega": 2374,
      "Ġsayameva": 2375,
      "ĠSRPGoGetStr": 2376,
      "ĠKoj": 2377,
      "Nonce": 2378,
      "NPC": 2379,
      "dete": 2380,
      "Ġbost": 2381,
      "ernels": 2382,
      "Ġprofiter": 2383,
      "Ġcatastrophic": 2384,
      "ĠPatil": 2385,
      "ĠWatershed": 2386,
      "Ġpotentials": 2387,
      "Ġdescends": 2388,
      "ĠPEG": 2389,
      "ĠFuss": 2390,
      "feel": 2391,
      "ĠHbdm": 2392,
      "andfeel": 2393,
      "ĠelementType": 2394,
      "autor": 2395,
      "ĠKhr": 2396,
      "dataProvider": 2397,
      "buru": 2398,
      "Ġniti": 2399,
      "endige": 2400,
      "Existe": 2401,
      "ĠFmat": 2402,
      "sar": 2403,
      "raron": 2404,
      "halen": 2405,
      "Ġsusceptible": 2406,
      "arakatuh": 2407,
      "ackage": 2408,
      "cosh": 2409,
      "dden": 2410,
      "gdx": 2411,
      "outof": 2412,
      "hedron": 2413,
      "ĠElias": 2414,
      "ĠYung": 2415,
      "timeInterval": 2416,
      "ĠHagen": 2417,
      "orten": 2418,
      "ball": 2419,
      "ĠtakePhotoButton": 2420,
      "ĠMoreau": 2421,
      "ĠSalas": 2422,
      "cado": 2423,
      "sped": 2424,
      "meed": 2425,
      "Ġconsig": 2426,
      "AOrdenar": 2427,
      "The": 2428,
      "icl": 2429,
      "einer": 2430,
      "esinde": 2431,
      "omid": 2432,
      "ĠmorphOutputComp": 2433,
      "gis": 2434,
      "Ġelastic": 2435,
      "ĠBeatrice": 2436,
      "ĠBACH": 2437,
      "hag": 2438,
      "object": 2439,
      "Ġdisgust": 2440,
      "ĠBounty": 2441,
      "ĠDaw": 2442,
      "ĠHARR": 2443,
      "ioni": 2444,
      "HTML": 2445,
      "flatten": 2446,
      "opssynth": 2447,
      "arele": 2448,
      "Ġcame": 2449,
      "ezers": 2450,
      "Perform": 2451,
      "ĠSchriftsteller": 2452,
      "wellery": 2453,
      "datat": 2454,
      "PerformLayout": 2455,
      "ĠNagar": 2456,
      "Ġmonotonically": 2457,
      "ighed": 2458,
      "IRED": 2459,
      "hlas": 2460,
      "odi": 2461,
      "Virtualized": 2462,
      "ĠCla": 2463,
      "atche": 2464,
      "Ġdick": 2465,
      "alid": 2466,
      "Ġarbitrary": 2467,
      "pJPEG": 2468,
      "pJPEGBuf": 2469,
      "Ġjum": 2470,
      "ĠSON": 2471,
      "ĠGlu": 2472,
      "Ġunir": 2473,
      "Ġmydict": 2474,
      "Ġarchived": 2475,
      "ĠTRP": 2476,
      "ĠTRPV": 2477,
      "machen": 2478,
      "lwjglVersion": 2479,
      "Ġray": 2480,
      "Ġtetrach": 2481,
      "Ġintron": 2482,
      "Ġnapp": 2483,
      "ĠPeltier": 2484,
      "ĠKham": 2485,
      "dit": 2486,
      "tbx": 2487,
      "ĠCach": 2488,
      "arden": 2489,
      "ĠBadal": 2490,
      "gypt": 2491,
      "Ġinsul": 2492,
      "ĠTextInputLayout": 2493,
      "ĠscrollView": 2494,
      "includ": 2495,
      "gypte": 2496,
      "amia": 2497,
      "ĠWuhan": 2498,
      "ĠCarras": 2499,
      "ĠCarrasco": 2500,
      "itty": 2501,
      "Viewport": 2502,
      "ĠCrystall": 2503,
      "includegraphics": 2504,
      "orbic": 2505,
      "Ġascorbic": 2506,
      "ĠsetItems": 2507,
      "accessToken": 2508,
      "ĠPhar": 2509,
      "daten": 2510,
      "eliers": 2511,
      "ĠjPanel": 2512,
      "conjug": 2513,
      "ithing": 2514,
      "Ġcomputer": 2515,
      "wezig": 2516,
      "opath": 2517,
      "ĠMantra": 2518,
      "classes": 2519,
      "OfThe": 2520,
      "Acet": 2521,
      "Ġportavoz": 2522,
      "ĠNiro": 2523,
      "ĠHaj": 2524,
      "ylen": 2525,
      "Ġadmiss": 2526,
      "Capt": 2527,
      "Ġvu": 2528,
      "aboutme": 2529,
      "otiti": 2530,
      "ĠRouen": 2531,
      "ulli": 2532,
      "ĠTextFormField": 2533,
      "Ġenforces": 2534,
      "ĠCzech": 2535,
      "ĠSeo": 2536,
      "Ġdehydrated": 2537,
      "ĠBy": 2538,
      "akeda": 2539,
      "areader": 2540,
      "UTR": 2541,
      "ĠByron": 2542,
      "Ġxaxis": 2543,
      "ĠLapl": 2544,
      "ĠLaplacian": 2545,
      "Ġgroovy": 2546,
      "ractic": 2547,
      "getBounding": 2548,
      "ĠTug": 2549,
      "ahit": 2550,
      "Ġatomizer": 2551,
      "ĠScottsdale": 2552,
      "ĠDELLA": 2553,
      "ClrType": 2554,
      "iteits": 2555,
      "ĠBelize": 2556,
      "Ġimmunoblot": 2557,
      "San": 2558,
      "Ġmann": 2559,
      "SanPham": 2560,
      "achelors": 2561,
      "IAB": 2562,
      "Ġhyphen": 2563,
      "ugawa": 2564,
      "Ġadmissibility": 2565,
      "Ġdiaz": 2566,
      "XSSF": 2567,
      "deel": 2568,
      "WindowConstants": 2569,
      "ĠBulld": 2570,
      "ikir": 2571,
      "arlight": 2572,
      "Ġiti": 2573,
      "ĠkPa": 2574,
      "Ġyojetabbani": 2575,
      "Ġsque": 2576,
      "Ġlipos": 2577,
      "Ġvis": 2578,
      "ĠCarmel": 2579,
      "omination": 2580,
      "ĠCortez": 2581,
      "LocalAppData": 2582,
      "gebras": 2583,
      "ming": 2584,
      "ĠLinde": 2585,
      "uelve": 2586,
      "ĠBry": 2587,
      "grafoExiste": 2588,
      "ĠFenton": 2589,
      "Ġzeros": 2590,
      "Ġfudai": 2591,
      "ongiorno": 2592,
      "actica": 2593,
      "digit": 2594,
      "ĠMani": 2595,
      "Ġhunch": 2596,
      "Ġnotor": 2597,
      "onesome": 2598,
      "isdigit": 2599,
      "lande": 2600,
      "awk": 2601,
      "Ġsel": 2602,
      "ToolStripItem": 2603,
      "itiert": 2604,
      "recen": 2605,
      "hoot": 2606,
      "THRESH": 2607,
      "ĠMohawk": 2608,
      "ĠuserInput": 2609,
      "atakse": 2610,
      "GaAs": 2611,
      "izmu": 2612,
      "ligen": 2613,
      "Ġmembranes": 2614,
      "akiem": 2615,
      "ardom": 2616,
      "Ġagreg": 2617,
      "ModuleManager": 2618,
      "Ġservlet": 2619,
      "ĠAgra": 2620,
      "Ġpade": 2621,
      "abouts": 2622,
      "Ġcreeping": 2623,
      "Ġconseil": 2624,
      "ĠHester": 2625,
      "ĠDrapeau": 2626,
      "IService": 2627,
      "ĠBail": 2628,
      "oulton": 2629,
      "olese": 2630,
      "Ġpaliyam": 2631,
      "intestin": 2632,
      "Warn": 2633,
      "oner": 2634,
      "eventId": 2635,
      "Ġhinders": 2636,
      "ĠEllington": 2637,
      "Ġsorprend": 2638,
      "Normdaten": 2639,
      "ĠEurop": 2640,
      "athyroid": 2641,
      "ĠSuresh": 2642,
      "Ġadmi": 2643,
      "ĠAVL": 2644,
      "Ġquer": 2645,
      "Ġyap": 2646,
      "ambuf": 2647,
      "ypse": 2648,
      "rasekhar": 2649,
      "Ġavenge": 2650,
      "Ġchoked": 2651,
      "BF": 2652,
      "BFAppLink": 2653,
      "dew": 2654,
      "Ġdiffract": 2655,
      "nun": 2656,
      "iline": 2657,
      "presa": 2658,
      "ighthouse": 2659,
      "ollen": 2660,
      "iction": 2661,
      "Ġmaj": 2662,
      "ceo": 2663,
      "cstdlib": 2664,
      "Ġpant": 2665,
      "ĠGPIO": 2666,
      "BST": 2667,
      "axal": 2668,
      "Ġkai": 2669,
      "helle": 2670,
      "Ġdeme": 2671,
      "Ġrighth": 2672,
      "ĠAzad": 2673,
      "paginate": 2674,
      "ĠDyson": 2675,
      "pmap": 2676,
      "Ġaer": 2677,
      "Ġmajest": 2678,
      "Ġuner": 2679,
      "Foster": 2680,
      "Ġbhavati": 2681,
      "ĠEuropese": 2682,
      "atari": 2683,
      "ĠFinch": 2684,
      "afat": 2685,
      "Argb": 2686,
      "aln": 2687,
      "ĠSidebar": 2688,
      "Ġiv": 2689,
      "isten": 2690,
      "yme": 2691,
      "Ġspoof": 2692,
      "iolet": 2693,
      "uvo": 2694,
      "indigo": 2695,
      "inence": 2696,
      "badbreak": 2697,
      "ĠShou": 2698,
      "ĠPard": 2699,
      "Ġtoolbar": 2700,
      "ĠPHE": 2701,
      "raved": 2702,
      "ziu": 2703,
      "pin": 2704,
      "adores": 2705,
      "ĠFoley": 2706,
      "oldCount": 2707,
      "iscing": 2708,
      "Ġadipiscing": 2709,
      "jamin": 2710,
      "Ġzoomed": 2711,
      "ĠArchersUnit": 2712,
      "yllic": 2713,
      "Ġserr": 2714,
      "skih": 2715,
      "Ġauteur": 2716,
      "Ġacquitted": 2717,
      "oacute": 2718,
      "inian": 2719,
      "Ġqueridos": 2720,
      "ritical": 2721,
      "Ġdistal": 2722,
      "Ġszem": 2723,
      "ettiin": 2724,
      "emic": 2725,
      "untas": 2726,
      "Ġolen": 2727,
      "ĠTAYLOR": 2728,
      "ypic": 2729,
      "vans": 2730,
      "DEBUG": 2731,
      "Ġinvierno": 2732,
      "edded": 2733,
      "Ġbaat": 2734,
      "rong": 2735,
      "Ġtrex": 2736,
      "bedded": 2737,
      "Ġsdk": 2738,
      "ckpt": 2739,
      "ĠMone": 2740,
      "oms": 2741,
      "Ġzaj": 2742,
      "borhood": 2743,
      "ĠPeel": 2744,
      "ication": 2745,
      "ĠAnnotation": 2746,
      "Ġloco": 2747,
      "Ġexplained": 2748,
      "uridad": 2749,
      "Ġsilt": 2750,
      "Ġmarc": 2751,
      "ĠTruss": 2752,
      "rym": 2753,
      "Ġbuttocks": 2754,
      "pada": 2755,
      "Ġquanta": 2756,
      "Ġawak": 2757,
      "ĠHUB": 2758,
      "Ġcameos": 2759,
      "irane": 2760,
      "ĠCDT": 2761,
      "capturePlayer": 2762,
      "ĠDim": 2763,
      "sonian": 2764,
      "imai": 2765,
      "ĠDry": 2766,
      "zeni": 2767,
      "aloo": 2768,
      "Ġfringe": 2769,
      "ĠDryden": 2770,
      "ĠGAA": 2771,
      "CurrentImage": 2772,
      "nnc": 2773,
      "lebr": 2774,
      "amese": 2775,
      "ĠGarner": 2776,
      "Ġbilan": 2777,
      "ensureEqual": 2778,
      "Ġvattabb": 2779,
      "ĠSAD": 2780,
      "Ġcsal": 2781,
      "ĠIti": 2782,
      "Ġduch": 2783,
      "Ġscrot": 2784,
      "Flipper": 2785,
      "otide": 2786,
      "ĠNagoya": 2787,
      "Ġtoothp": 2788,
      "Ġtoothpick": 2789,
      "Ġmerito": 2790,
      "anding": 2791,
      "swith": 2792,
      "Lah": 2793,
      "ĠLTC": 2794,
      "utiva": 2795,
      "Ġbar": 2796,
      "ĠConsole": 2797,
      "torio": 2798,
      "Ġwaisted": 2799,
      "cylinder": 2800,
      "ĠCopern": 2801,
      "aduras": 2802,
      "acz": 2803,
      "Ġemphas": 2804,
      "Ġdepleted": 2805,
      "Ġreass": 2806,
      "Ġfrictionless": 2807,
      "kommen": 2808,
      "Ġoppressive": 2809,
      "ĠBartlett": 2810,
      "ultima": 2811,
      "itesse": 2812,
      "rages": 2813,
      "HO": 2814,
      "esl": 2815,
      "ĠBAM": 2816,
      "getResource": 2817,
      "ifices": 2818,
      "Ġhairpin": 2819,
      "ibers": 2820,
      "OF": 2821,
      "ĠBO": 2822,
      "ĠAlia": 2823,
      "ĠHir": 2824,
      "otsu": 2825,
      "ĠQVector": 2826,
      "uito": 2827,
      "ĠEIR": 2828,
      "ĠMEP": 2829,
      "HI": 2830,
      "raint": 2831,
      "strup": 2832,
      "ĠSMB": 2833,
      "Ġsakk": 2834,
      "ĠZab": 2835,
      "Ġmarcas": 2836,
      "oran": 2837,
      "ichiro": 2838,
      "LEncoder": 2839,
      "whitelist": 2840,
      "Ġjinfo": 2841,
      "iris": 2842,
      "Ġitin": 2843,
      "Philip": 2844,
      "Philippe": 2845,
      "fes": 2846,
      "uzzle": 2847,
      "kelijke": 2848,
      "koord": 2849,
      "imc": 2850,
      "addie": 2851,
      "Ġplen": 2852,
      "Ġheterocyclic": 2853,
      "eke": 2854,
      "propoxy": 2855,
      "Ġzasi": 2856,
      "Ġzebra": 2857,
      "Confirm": 2858,
      "romeDriver": 2859,
      "ĠFamilie": 2860,
      "ĠKoen": 2861,
      "ĠKoenig": 2862,
      "IBOutlet": 2863,
      "activ": 2864,
      "Ġnarrows": 2865,
      "hyth": 2866,
      "ĠChromeDriver": 2867,
      "ynos": 2868,
      "ĠBCC": 2869,
      "ĠAlberts": 2870,
      "ĠBCCI": 2871,
      "ĠAvoiding": 2872,
      "lorescence": 2873,
      "vedad": 2874,
      "nb": 2875,
      "ĠMFG": 2876,
      "svr": 2877,
      "Ġailing": 2878,
      "Jung": 2879,
      "ĠLangevin": 2880,
      "opes": 2881,
      "ivism": 2882,
      "allclasses": 2883,
      "itake": 2884,
      "icol": 2885,
      "ĠSNP": 2886,
      "itr": 2887,
      "EGO": 2888,
      "ĠAllgeme": 2889,
      "EIS": 2890,
      "ĠDIEGO": 2891,
      "Ġalkalies": 2892,
      "atop": 2893,
      "ĠVishal": 2894,
      "aray": 2895,
      "ifiers": 2896,
      "ussion": 2897,
      "ĠMaas": 2898,
      "igail": 2899,
      "brains": 2900,
      "ĠBres": 2901,
      "ĠDion": 2902,
      "jetbrains": 2903,
      "ewater": 2904,
      "ĠClaud": 2905,
      "igneur": 2906,
      "ĠSeng": 2907,
      "raintree": 2908,
      "ĠAap": 2909,
      "Ġdala": 2910,
      "upp": 2911,
      "ekte": 2912,
      "ĠManip": 2913,
      "Ġduct": 2914,
      "Ġamper": 2915,
      "ologist": 2916,
      "ĠHorst": 2917,
      "Ġsavk": 2918,
      "anakk": 2919,
      "WhiteElo": 2920,
      "ĠJunt": 2921,
      "Ġusurp": 2922,
      "Ġrecital": 2923,
      "anzen": 2924,
      "erald": 2925,
      "ĠPamp": 2926,
      "atap": 2927,
      "RAIT": 2928,
      "Hir": 2929,
      "ttamente": 2930,
      "essive": 2931,
      "Ġonc": 2932,
      "Ġsubordination": 2933,
      "Ġoncologist": 2934,
      "ĠPueblo": 2935,
      "leys": 2936,
      "agat": 2937,
      "obbies": 2938,
      "geordnet": 2939,
      "atore": 2940,
      "exempt": 2941,
      "atthena": 2942,
      "cessing": 2943,
      "ifferenti": 2944,
      "Ġerkek": 2945,
      "Ġtimest": 2946,
      "Ġdissip": 2947,
      "Ġtimestep": 2948,
      "Ġsobra": 2949,
      "enol": 2950,
      "bation": 2951,
      "Ġforfeit": 2952,
      "owice": 2953,
      "getBy": 2954,
      "gerFactory": 2955,
      "Ġoutsource": 2956,
      "Ġrahe": 2957,
      "Ġgrep": 2958,
      "beard": 2959,
      "Ġsilice": 2960,
      "voie": 2961,
      "ĠDurban": 2962,
      "lantic": 2963,
      "Ġtov": 2964,
      "kbar": 2965,
      "atlantic": 2966,
      "Ġtransatlantic": 2967,
      "ĠCBE": 2968,
      "drawcountery": 2969,
      "Arrow": 2970,
      "ArrowToggle": 2971,
      "scend": 2972,
      "HCO": 2973,
      "matica": 2974,
      "ToGoResult": 2975,
      "insic": 2976,
      "Ġchi": 2977,
      "Ġshingles": 2978,
      "Annotation": 2979,
      "ĠNotiflix": 2980,
      "Payload": 2981,
      "ParaPackage": 2982,
      "istem": 2983,
      "hofer": 2984,
      "Ġoscuridad": 2985,
      "leck": 2986,
      "ĠIGBT": 2987,
      "ractal": 2988,
      "ĠConsoleKey": 2989,
      "Ġraiding": 2990,
      "ĠPrometheus": 2991,
      "ĠCasta": 2992,
      "ĠConley": 2993,
      "items": 2994,
      "Ġvalign": 2995,
      "opre": 2996,
      "ylim": 2997,
      "Ġembar": 2998,
      "ibusdam": 2999,
      "PSG": 3000,
      "Ġkring": 3001,
      "ĠYang": 3002,
      "ĠYangtze": 3003,
      "UISE": 3004,
      "Sax": 3005,
      "gable": 3006,
      "dragging": 3007,
      "Ġkim": 3008,
      "utzer": 3009,
      "Ġfastener": 3010,
      "Ġemotive": 3011,
      "ĠSalerno": 3012,
      "uju": 3013,
      "tender": 3014,
      "Ġulterior": 3015,
      "oelect": 3016,
      "mittedly": 3017,
      "ĠKogi": 3018,
      "vedere": 3019,
      "Ġbenches": 3020,
      "Ġlaurea": 3021,
      "openia": 3022,
      "swiper": 3023,
      "Ġfob": 3024,
      "Ġsuppress": 3025,
      "getNome": 3026,
      "diaz": 3027,
      "ĠSIP": 3028,
      "Ġducha": 3029,
      "Ġinsign": 3030,
      "Ġhandcuffs": 3031,
      "TabData": 3032,
      "schap": 3033,
      "ĠVert": 3034,
      "posX": 3035,
      "ĠplayerData": 3036,
      "agis": 3037,
      "noy": 3038,
      "ĠGiac": 3039,
      "targetReference": 3040,
      "BAR": 3041,
      "uedata": 3042,
      "ĠOffices": 3043,
      "ĠRes": 3044,
      "ayakan": 3045,
      "Ġutil": 3046,
      "Ġpresided": 3047,
      "ĠILO": 3048,
      "keyPressed": 3049,
      "Ġinasmuch": 3050,
      "ĠTagore": 3051,
      "Ġsobri": 3052,
      "reme": 3053,
      "acruz": 3054,
      "indexOf": 3055,
      "ldg": 3056,
      "ĠVeracruz": 3057,
      "ilik": 3058,
      "jate": 3059,
      "Ġbith": 3060,
      "Ġepistem": 3061,
      "iny": 3062,
      "ĠLord": 3063,
      "azie": 3064,
      "ĠBaumann": 3065,
      "Plain": 3066,
      "PlainText": 3067,
      "ĠDeja": 3068,
      "returnSystemCall": 3069,
      "vspace": 3070,
      "asking": 3071,
      "Cement": 3072,
      "ĠRA": 3073,
      "ĠCallOptions": 3074,
      "DICT": 3075,
      "ĠHose": 3076,
      "Ġplufieurs": 3077,
      "Rite": 3078,
      "uille": 3079,
      "ĠShields": 3080,
      "icano": 3081,
      "hevik": 3082,
      "RiteOfThe": 3083,
      "ouli": 3084,
      "rezent": 3085,
      "Conc": 3086,
      "Locator": 3087,
      "anzia": 3088,
      "ĠSling": 3089,
      "Ġcrass": 3090,
      "ĠIngers": 3091,
      "lighthouse": 3092,
      "Ġanz": 3093,
      "compat": 3094,
      "Ġmemberi": 3095,
      "daq": 3096,
      "damageCount": 3097,
      "relu": 3098,
      "mata": 3099,
      "OMB": 3100,
      "Ġcatap": 3101,
      "engen": 3102,
      "ĠlistView": 3103,
      "ĠTsche": 3104,
      "ĠKick": 3105,
      "pase": 3106,
      "ĠIsis": 3107,
      "Ġsleep": 3108,
      "ĠDou": 3109,
      "ĠPadres": 3110,
      "Ġsqueez": 3111,
      "itching": 3112,
      "gget": 3113,
      "thi": 3114,
      "ĠWeston": 3115,
      "celles": 3116,
      "offsetX": 3117,
      "alizable": 3118,
      "Ġdiagonalizable": 3119,
      "ĠTull": 3120,
      "ibles": 3121,
      "ermeister": 3122,
      "Ġnewsp": 3123,
      "Ġpean": 3124,
      "feer": 3125,
      "Ġtranscend": 3126,
      "ĠBennet": 3127,
      "Ġvulgar": 3128,
      "UTIONS": 3129,
      "DeleteMapping": 3130,
      "orphan": 3131,
      "ĠAppropriate": 3132,
      "akana": 3133,
      "MORDOR": 3134,
      "CFBundle": 3135,
      "songs": 3136,
      "Ġfreck": 3137,
      "vet": 3138,
      "Ġjato": 3139,
      "Ġpeanuts": 3140,
      "IOA": 3141,
      "ĠGuth": 3142,
      "Ġrodzin": 3143,
      "ICT": 3144,
      "ĠWestwood": 3145,
      "TLE": 3146,
      "Ġphishing": 3147,
      "Ġchopped": 3148,
      "Bromo": 3149,
      "GPIOA": 3150,
      "acto": 3151,
      "ĠThin": 3152,
      "Weblinks": 3153,
      "chandise": 3154,
      "ĠThinQ": 3155,
      "chm": 3156,
      "Ġrufis": 3157,
      "utm": 3158,
      "ATUS": 3159,
      "ĠArmenia": 3160,
      "omerase": 3161,
      "CIAL": 3162,
      "INH": 3163,
      "iby": 3164,
      "ĠThor": 3165,
      "Ġwund": 3166,
      "apha": 3167,
      "ĠEDTA": 3168,
      "patched": 3169,
      "ilevel": 3170,
      "ĠLaub": 3171,
      "ĠDend": 3172,
      "Ġdapp": 3173,
      "Ġclutter": 3174,
      "levi": 3175,
      "Ġavut": 3176,
      "BPACK": 3177,
      "Ġburn": 3178,
      "ĠShenz": 3179,
      "ĠShenzhen": 3180,
      "bels": 3181,
      "ident": 3182,
      "Ġlar": 3183,
      "Ġporch": 3184,
      "omencl": 3185,
      "ĠDDo": 3186,
      "forge": 3187,
      "ĠDDoS": 3188,
      "Ġlyd": 3189,
      "TableView": 3190,
      "Ġcuch": 3191,
      "Ġersch": 3192,
      "esar": 3193,
      "Ġknapp": 3194,
      "sourceforge": 3195,
      "retry": 3196,
      "epy": 3197,
      "ĠCalcd": 3198,
      "lichting": 3199,
      "igm": 3200,
      "Ġlangs": 3201,
      "cccs": 3202,
      "Ġsangu": 3203,
      "ĠPalaise": 3204,
      "ĠPalaiseau": 3205,
      "cester": 3206,
      "agons": 3207,
      "Ġherum": 3208,
      "ĠUILabel": 3209,
      "bled": 3210,
      "Ġmach": 3211,
      "Ġunknown": 3212,
      "ĠSylvie": 3213,
      "shells": 3214,
      "atching": 3215,
      "Ġleopards": 3216,
      "omenclature": 3217,
      "ografia": 3218,
      "akim": 3219,
      "iguation": 3220,
      "Ġwhak": 3221,
      "ileno": 3222,
      "ampions": 3223,
      "Pooling": 3224,
      "Patch": 3225,
      "aanse": 3226,
      "ĠDubois": 3227,
      "Ġvya": 3228,
      "assment": 3229,
      "essing": 3230,
      "Concurrency": 3231,
      "Ġpelvis": 3232,
      "otype": 3233,
      "ĠKhalil": 3234,
      "Axis": 3235,
      "ĠdoneProcessAvg": 3236,
      "ĠUserManager": 3237,
      "akty": 3238,
      "IRQ": 3239,
      "Ġcompacto": 3240,
      "escent": 3241,
      "playerPosition": 3242,
      "rocessing": 3243,
      "Ġmultilevel": 3244,
      "Ġhypers": 3245,
      "Ġimmobilized": 3246,
      "Ġfences": 3247,
      "Ġorthogon": 3248,
      "ieno": 3249,
      "ceries": 3250,
      "ĠMontserrat": 3251,
      "loot": 3252,
      "ameras": 3253,
      "HEX": 3254,
      "ĠJMJ": 3255,
      "ĠJMJD": 3256,
      "distan": 3257,
      "ĠCald": 3258,
      "Ġnyil": 3259,
      "etherlands": 3260,
      "Ġnetherlands": 3261,
      "boy": 3262,
      "Ġbenchm": 3263,
      "reira": 3264,
      "Ġbenchmarking": 3265,
      "enek": 3266,
      "rameb": 3267,
      "startswith": 3268,
      "ggak": 3269,
      "ramebuffer": 3270,
      "IRQHandler": 3271,
      "ĠIRC": 3272,
      "ĠSRPObject": 3273,
      "ucose": 3274,
      "Ġredondo": 3275,
      "Ġnai": 3276,
      "engono": 3277,
      "ankton": 3278,
      "ĠREACTORS": 3279,
      "rally": 3280,
      "ĠMait": 3281,
      "cated": 3282,
      "Scheduled": 3283,
      "ĠProspect": 3284,
      "ĠJacoby": 3285,
      "wegs": 3286,
      "ScheduledAction": 3287,
      "uenti": 3288,
      "ĠBridgewater": 3289,
      "ĠdidReceive": 3290,
      "entive": 3291,
      "eluarkan": 3292,
      "ĠPRC": 3293,
      "achev": 3294,
      "Snackbar": 3295,
      "ngo": 3296,
      "Ġpriori": 3297,
      "Ġgetchar": 3298,
      "Ġnoemen": 3299,
      "ĠGenn": 3300,
      "Ġlagged": 3301,
      "ĠDo": 3302,
      "Ġjoka": 3303,
      "andelion": 3304,
      "mati": 3305,
      "ĠBabb": 3306,
      "DataType": 3307,
      "ĠBerman": 3308,
      "Ġpotens": 3309,
      "wax": 3310,
      "Ġinertial": 3311,
      "ĠJovi": 3312,
      "Ġcreencias": 3313,
      "REN": 3314,
      "PropertyName": 3315,
      "Ġutens": 3316,
      "Ġtien": 3317,
      "EEP": 3318,
      "Ġannak": 3319,
      "ĠRout": 3320,
      "rinsim": 3321,
      "ĠAED": 3322,
      "yank": 3323,
      "inor": 3324,
      "Ġmultiprocessing": 3325,
      "EMANN": 3326,
      "Ġdann": 3327,
      "tsch": 3328,
      "resel": 3329,
      "UART": 3330,
      "hehi": 3331,
      "Ġcos": 3332,
      "ĠParagon": 3333,
      "FromServer": 3334,
      "Ġappendages": 3335,
      "ĠMets": 3336,
      "tega": 3337,
      "Ġnonchal": 3338,
      "osaic": 3339,
      "selectedValue": 3340,
      "Ġlitro": 3341,
      "itent": 3342,
      "Ġclots": 3343,
      "alin": 3344,
      "Nodes": 3345,
      "Ġsensibilities": 3346,
      "ĠBuscar": 3347,
      "menuid": 3348,
      "childNodes": 3349,
      "riline": 3350,
      "Ġovertaken": 3351,
      "ityManager": 3352,
      "mavros": 3353,
      "arnas": 3354,
      "ĠDand": 3355,
      "tand": 3356,
      "remove": 3357,
      "ustat": 3358,
      "ĠGuadeloupe": 3359,
      "Ġfortiter": 3360,
      "Permutacji": 3361,
      "Ġdiciembre": 3362,
      "ĠJoule": 3363,
      "AllResult": 3364,
      "ĠCanning": 3365,
      "akah": 3366,
      "cored": 3367,
      "ĠSchad": 3368,
      "Ġpretri": 3369,
      "Ġpretrial": 3370,
      "Ġured": 3371,
      "Lambert": 3372,
      "ĠBeale": 3373,
      "Ġeos": 3374,
      "zac": 3375,
      "ljik": 3376,
      "Ġugljik": 3377,
      "nexus": 3378,
      "ĠBering": 3379,
      "ĠPlayboy": 3380,
      "Ġnin": 3381,
      "StarParaPkgBody": 3382,
      "prung": 3383,
      "Ġemboss": 3384,
      "katana": 3385,
      "Ġgrated": 3386,
      "Ġacuer": 3387,
      "eel": 3388,
      "ĠSRC": 3389,
      "usted": 3390,
      "Ġticked": 3391,
      "zze": 3392,
      "equiv": 3393,
      "ĠMic": 3394,
      "Ġaswell": 3395,
      "awatt": 3396,
      "ocommit": 3397,
      "Ġindemnify": 3398,
      "ĠNEM": 3399,
      "Ġglyc": 3400,
      "cu": 3401,
      "Ġfallacy": 3402,
      "ouched": 3403,
      "Ġannihil": 3404,
      "fromRGBO": 3405,
      "ĠSald": 3406,
      "Ġoprac": 3407,
      "Ġnegativ": 3408,
      "totime": 3409,
      "Ġdijeron": 3410,
      "Ġsik": 3411,
      "ĠTant": 3412,
      "holen": 3413,
      "teenth": 3414,
      "Shir": 3415,
      "abba": 3416,
      "frist": 3417,
      "dao": 3418,
      "Ġfarine": 3419,
      "bp": 3420,
      "ccbp": 3421,
      "Ġsauv": 3422,
      "uric": 3423,
      "ĠNorthrop": 3424,
      "Ġemphasis": 3425,
      "ĠBatch": 3426,
      "DLJ": 3427,
      "erkraut": 3428,
      "ĠVerstappen": 3429,
      "rove": 3430,
      "ANCIAL": 3431,
      "istered": 3432,
      "suff": 3433,
      "Bach": 3434,
      "Ġliz": 3435,
      "sap": 3436,
      "ĠAAU": 3437,
      "ouz": 3438,
      "Ġsanguin": 3439,
      "Bounce": 3440,
      "ĠHust": 3441,
      "Ġdescans": 3442,
      "ĠCots": 3443,
      "USART": 3444,
      "ĠSchle": 3445,
      "ĠSarge": 3446,
      "loc": 3447,
      "Ġjezik": 3448,
      "sop": 3449,
      "yns": 3450,
      "ĠEsch": 3451,
      "ListPage": 3452,
      "iselle": 3453,
      "Ġsongs": 3454,
      "ĠBlas": 3455,
      "lir": 3456,
      "Collection": 3457,
      "itemBackground": 3458,
      "XMLLoader": 3459,
      "ĠFXMLLoader": 3460,
      "ktur": 3461,
      "Ġattractor": 3462,
      "BackgroundTask": 3463,
      "reak": 3464,
      "ĠZeit": 3465,
      "iativa": 3466,
      "otechn": 3467,
      "Ġgenna": 3468,
      "Ġgennaio": 3469,
      "attham": 3470,
      "IVE": 3471,
      "houses": 3472,
      "orrhea": 3473,
      "ĠPrelude": 3474,
      "leetcode": 3475,
      "HD": 3476,
      "ĠOlymp": 3477,
      "ineda": 3478,
      "ugu": 3479,
      "acchi": 3480,
      "spare": 3481,
      "ĠSeigneur": 3482,
      "tsConfig": 3483,
      "Ġrub": 3484,
      "fileupload": 3485,
      "variable": 3486,
      "Ġmeson": 3487,
      "ĠFullHD": 3488,
      "Ġbushings": 3489,
      "Ġcork": 3490,
      "cwd": 3491,
      "Ġallegory": 3492,
      "Ġdar": 3493,
      "ĠWoo": 3494,
      "ĠsetSnackbar": 3495,
      "ĠMendel": 3496,
      "NaHCO": 3497,
      "Ġinterloc": 3498,
      "utables": 3499,
      "TU": 3500,
      "aven": 3501,
      "center": 3502,
      "getcwd": 3503,
      "mers": 3504,
      "ĠChandler": 3505,
      "ĠNCB": 3506,
      "verage": 3507,
      "ĠGuernsey": 3508,
      "Ġapropri": 3509,
      "Ġtalaga": 3510,
      "Ġproz": 3511,
      "vata": 3512,
      "itionally": 3513,
      "erView": 3514,
      "esgue": 3515,
      "Ġshalt": 3516,
      "traction": 3517,
      "DisplayStyle": 3518,
      "ĠTiber": 3519,
      "ovolta": 3520,
      "pyplot": 3521,
      "oscope": 3522,
      "Ġferret": 3523,
      "ouc": 3524,
      "Ġgubit": 3525,
      "angin": 3526,
      "Ġentrevist": 3527,
      "ĠMai": 3528,
      "ugel": 3529,
      "ĠCAD": 3530,
      "ammers": 3531,
      "projectView": 3532,
      "apat": 3533,
      "oyin": 3534,
      "ismas": 3535,
      "ilded": 3536,
      "ĠCler": 3537,
      "aging": 3538,
      "xml": 3539,
      "DataContext": 3540,
      "Ġcrack": 3541,
      "TableViewCell": 3542,
      "athering": 3543,
      "Ġabi": 3544,
      "ascii": 3545,
      "Ġkeren": 3546,
      "Ġstries": 3547,
      "ĠMcNeil": 3548,
      "Ġbranching": 3549,
      "ĠFamily": 3550,
      "indle": 3551,
      "Ġjur": 3552,
      "serialize": 3553,
      "ToGoObject": 3554,
      "qus": 3555,
      "Ġcrackdown": 3556,
      "ĠtpVar": 3557,
      "ismes": 3558,
      "ODBA": 3559,
      "Ġeased": 3560,
      "quina": 3561,
      "elyn": 3562,
      "DOM": 3563,
      "Ġswoim": 3564,
      "Ġleggera": 3565,
      "Ġkapan": 3566,
      "ĠDup": 3567,
      "EDED": 3568,
      "Ġfiss": 3569,
      "Ġgrec": 3570,
      "inching": 3571,
      "Ġeth": 3572,
      "ĠCMake": 3573,
      "ĠScreen": 3574,
      "Ġannihilated": 3575,
      "Ġfx": 3576,
      "Ġweathering": 3577,
      "INFO": 3578,
      "amide": 3579,
      "ĠHilton": 3580,
      "agrave": 3581,
      "ĠBelvedere": 3582,
      "Db": 3583,
      "otron": 3584,
      "incia": 3585,
      "ĠWaring": 3586,
      "heus": 3587,
      "Ġdegener": 3588,
      "umbles": 3589,
      "ĠcreateContext": 3590,
      "Ġnamam": 3591,
      "liance": 3592,
      "tsk": 3593,
      "jwt": 3594,
      "bums": 3595,
      "ĠGarry": 3596,
      "ĠNEX": 3597,
      "ĠVolker": 3598,
      "Break": 3599,
      "otechnical": 3600,
      "Breakpoint": 3601,
      "mutable": 3602,
      "adamia": 3603,
      "Ġbode": 3604,
      "ospheric": 3605,
      "igold": 3606,
      "adus": 3607,
      "SACTION": 3608,
      "Ġhotel": 3609,
      "PushMatrix": 3610,
      "ĠDLL": 3611,
      "liche": 3612,
      "kich": 3613,
      "scriptop": 3614,
      "ĠYal": 3615,
      "irani": 3616,
      "quer": 3617,
      "LOUISE": 3618,
      "ĠobjectForKey": 3619,
      "entliche": 3620,
      "ĠKle": 3621,
      "nika": 3622,
      "ĠBurb": 3623,
      "inyin": 3624,
      "ureux": 3625,
      "Ġatha": 3626,
      "pha": 3627,
      "oulos": 3628,
      "Ġszyb": 3629,
      "ĠJunta": 3630,
      "ĠAmiri": 3631,
      "zer": 3632,
      "opoulos": 3633,
      "CustomGlareDef": 3634,
      "jalpha": 3635,
      "Gul": 3636,
      "odora": 3637,
      "Ġsmelly": 3638,
      "lux": 3639,
      "plicit": 3640,
      "Ġfaci": 3641,
      "Kabhi": 3642,
      "OMBRE": 3643,
      "Ġhalter": 3644,
      "faster": 3645,
      "ĠSRM": 3646,
      "fasterxml": 3647,
      "akot": 3648,
      "lookandfeel": 3649,
      "ĠYukawa": 3650,
      "ĠBeth": 3651,
      "igua": 3652,
      "ievable": 3653,
      "Ġplasmids": 3654,
      "Ġlistop": 3655,
      "ĠAscot": 3656,
      "obut": 3657,
      "ilim": 3658,
      "About": 3659,
      "aiset": 3660,
      "AboutDlg": 3661,
      "TermObjectDefer": 3662,
      "Clicked": 3663,
      "ĠIPM": 3664,
      "ĠCarly": 3665,
      "ĠCarlyle": 3666,
      "ĠBosnia": 3667,
      "Ġgrasped": 3668,
      "asshi": 3669,
      "quarters": 3670,
      "Retry": 3671,
      "Ġunequiv": 3672,
      "Ġnata": 3673,
      "ĠNKG": 3674,
      "Ġwitty": 3675,
      "Logan": 3676,
      "khart": 3677,
      "urts": 3678,
      "Ġleisten": 3679,
      "Ġorigami": 3680,
      "hap": 3681,
      "itus": 3682,
      "Ġvrat": 3683,
      "arten": 3684,
      "Ġlih": 3685,
      "ĠCognito": 3686,
      "ARD": 3687,
      "Ġteinture": 3688,
      "avid": 3689,
      "Tabuleiro": 3690,
      "nev": 3691,
      "CMake": 3692,
      "owsky": 3693,
      "Ġluk": 3694,
      "uggish": 3695,
      "wink": 3696,
      "iah": 3697,
      "uruan": 3698,
      "Ġatrophy": 3699,
      "ĠSchloss": 3700,
      "TOOL": 3701,
      "SourceObject": 3702,
      "Ġware": 3703,
      "Ġagregado": 3704,
      "ĠMSCI": 3705,
      "Ġdipping": 3706,
      "iculo": 3707,
      "TOOLBAR": 3708,
      "rosyn": 3709,
      "engkapi": 3710,
      "arabang": 3711,
      "arabangsa": 3712,
      "orse": 3713,
      "Cards": 3714,
      "Ġphenotypic": 3715,
      "Ġcolor": 3716,
      "Ġunm": 3717,
      "ĠCrowe": 3718,
      "ĠRembr": 3719,
      "ĠRembrandt": 3720,
      "hla": 3721,
      "lipstick": 3722,
      "fgScrollView": 3723,
      "ocoder": 3724,
      "will": 3725,
      "Ġif": 3726,
      "ruvic": 3727,
      "Ġsauvage": 3728,
      "Ġcero": 3729,
      "ohama": 3730,
      "ĠSBC": 3731,
      "ĠSmol": 3732,
      "ĠYok": 3733,
      "ĠSaleh": 3734,
      "ĠYokohama": 3735,
      "Trick": 3736,
      "plain": 3737,
      "Ġseventeen": 3738,
      "Ġfossa": 3739,
      "Brien": 3740,
      "Ġforfeiture": 3741,
      "ARROW": 3742,
      "Ġautores": 3743,
      "Ġjih": 3744,
      "oop": 3745,
      "Ġskillet": 3746,
      "famil": 3747,
      "noh": 3748,
      "PathParam": 3749,
      "clientID": 3750,
      "intendo": 3751,
      "usa": 3752,
      "Ġboja": 3753,
      "ByType": 3754,
      "ĠStaten": 3755,
      "runk": 3756,
      "ĠSpartans": 3757,
      "ĠJor": 3758,
      "Flags": 3759,
      "zungen": 3760,
      "odbc": 3761,
      "Ġmocked": 3762,
      "nesty": 3763,
      "ResourceType": 3764,
      "Ġuntouch": 3765,
      "oprec": 3766,
      "ndor": 3767,
      "ĠLump": 3768,
      "Ġassay": 3769,
      "ervis": 3770,
      "RIBUTION": 3771,
      "ĠBowser": 3772,
      "Ġwayside": 3773,
      "preter": 3774,
      "onedDateTime": 3775,
      "Ġsweaty": 3776,
      "ldon": 3777,
      "rets": 3778,
      "feats": 3779,
      "Ġnarc": 3780,
      "ĠSSB": 3781,
      "Ġschak": 3782,
      "ĠNab": 3783,
      "ildet": 3784,
      "Ġabril": 3785,
      "Ġtheref": 3786,
      "pered": 3787,
      "QUAD": 3788,
      "Ġvissza": 3789,
      "Ġtherefrom": 3790,
      "Ġdard": 3791,
      "Ġfinal": 3792,
      "noDB": 3793,
      "nol": 3794,
      "Ġprot": 3795,
      "attho": 3796,
      "Ġfertil": 3797,
      "ĠLumpur": 3798,
      "Ġcag": 3799,
      "awang": 3800,
      "Friendly": 3801,
      "yiz": 3802,
      "Ġexpon": 3803,
      "Ġrong": 3804,
      "Griff": 3805,
      "dinner": 3806,
      "Ġsauerkraut": 3807,
      "ntitled": 3808,
      "ĠWoodrow": 3809,
      "Ġrecombin": 3810,
      "Ġomin": 3811,
      "NHK": 3812,
      "uose": 3813,
      "uzzi": 3814,
      "IGet": 3815,
      "rium": 3816,
      "ĠRSP": 3817,
      "Ġablation": 3818,
      "Ġtease": 3819,
      "itect": 3820,
      "using": 3821,
      "Ġbleached": 3822,
      "RefManager": 3823,
      "Ġjaan": 3824,
      "Ġthatch": 3825,
      "Ġrepatri": 3826,
      "ĠApex": 3827,
      "Ġrepatriation": 3828,
      "andingan": 3829,
      "Ġasymptomatic": 3830,
      "ĠSculpt": 3831,
      "ĠPearson": 3832,
      "ragonal": 3833,
      "Ġtetragonal": 3834,
      "Ġden": 3835,
      "Ġeighty": 3836,
      "ParentObject": 3837,
      "ApiOperation": 3838,
      "ĠMaxPooling": 3839,
      "ĠLyme": 3840,
      "ophytic": 3841,
      "icky": 3842,
      "omyel": 3843,
      "Ġpendulum": 3844,
      "Ġanthracene": 3845,
      "Ġunanim": 3846,
      "custId": 3847,
      "Ġkyl": 3848,
      "arini": 3849,
      "ĠMagellan": 3850,
      "nextProps": 3851,
      "uated": 3852,
      "henius": 3853,
      "ĠBOARD": 3854,
      "Ġbetrayal": 3855,
      "Ġsnout": 3856,
      "annes": 3857,
      "uarine": 3858,
      "Ġcanh": 3859,
      "SIZ": 3860,
      "colorChoice": 3861,
      "ĠTatum": 3862,
      "ĠTrier": 3863,
      "SIZE": 3864,
      "Ġsuperoxide": 3865,
      "bus": 3866,
      "ĠBOARDSIZE": 3867,
      "Ġlangue": 3868,
      "Embark": 3869,
      "Embarked": 3870,
      "timeouts": 3871,
      "Ġmutter": 3872,
      "opro": 3873,
      "appcompat": 3874,
      "xCoordinate": 3875,
      "ĠShia": 3876,
      "rps": 3877,
      "Ġdelay": 3878,
      "autorBinding": 3879,
      "eking": 3880,
      "Ġdeceleration": 3881,
      "egg": 3882,
      "ĠRaina": 3883,
      "angenheit": 3884,
      "cherichia": 3885,
      "Ġconseg": 3886,
      "olis": 3887,
      "ĠAal": 3888,
      "Ġdear": 3889,
      "ĠFay": 3890,
      "mse": 3891,
      "efois": 3892,
      "stral": 3893,
      "Ġwirken": 3894,
      "ConstPtr": 3895,
      "ĠKear": 3896,
      "othiaz": 3897,
      "Ġfissure": 3898,
      "vaise": 3899,
      "Ġveil": 3900,
      "staat": 3901,
      "ietro": 3902,
      "Ġpolled": 3903,
      "ĠMicah": 3904,
      "zeros": 3905,
      "Ġbrane": 3906,
      "INavigation": 3907,
      "ĠTest": 3908,
      "minLength": 3909,
      "rana": 3910,
      "ajna": 3911,
      "ĠIUE": 3912,
      "ĠBalliye": 3913,
      "ellis": 3914,
      "rews": 3915,
      "windowFixedWidth": 3916,
      "Ġcatechol": 3917,
      "ovsk": 3918,
      "Ġzami": 3919,
      "armos": 3920,
      "Ġvoltam": 3921,
      "ĠGori": 3922,
      "Ġutilizz": 3923,
      "ĠODBC": 3924,
      "Ġferv": 3925,
      "gangenheit": 3926,
      "Ġberi": 3927,
      "atown": 3928,
      "ĠXOR": 3929,
      "Yon": 3930,
      "ĠChinatown": 3931,
      "Ġpedicure": 3932,
      "ijks": 3933,
      "ĠSosa": 3934,
      "ĠVerlust": 3935,
      "Neal": 3936,
      "acamole": 3937,
      "szyst": 3938,
      "ĠMaier": 3939,
      "Ġorifices": 3940,
      "ĠLoyalty": 3941,
      "nxt": 3942,
      "uzen": 3943,
      "Population": 3944,
      "Ġbeteg": 3945,
      "ĠEze": 3946,
      "raining": 3947,
      "rontier": 3948,
      "ikey": 3949,
      "Ġkoa": 3950,
      "ĠPendleton": 3951,
      "erevan": 3952,
      "Ġkuulu": 3953,
      "jekte": 3954,
      "Ġhyperfine": 3955,
      "ĠCous": 3956,
      "tiles": 3957,
      "oras": 3958,
      "estal": 3959,
      "odium": 3960,
      "omyelitis": 3961,
      "Ġisotype": 3962,
      "aconit": 3963,
      "SK": 3964,
      "Ġpfs": 3965,
      "ĠTew": 3966,
      "ĠBento": 3967,
      "emeter": 3968,
      "Ġferrite": 3969,
      "ĠBim": 3970,
      "emetery": 3971,
      "rafos": 3972,
      "Ġovercame": 3973,
      "amante": 3974,
      "Ġhesitated": 3975,
      "CreateSaveFolder": 3976,
      "Ġspout": 3977,
      "anean": 3978,
      "Ġmillion": 3979,
      "ĠBowen": 3980,
      "ĠBoxLayout": 3981,
      "yaar": 3982,
      "ĠplayerCards": 3983,
      "codone": 3984,
      "Ġtoggle": 3985,
      "IVACON": 3986,
      "boxylic": 3987,
      "resa": 3988,
      "ilibrium": 3989,
      "mnopqrst": 3990,
      "Ġtiro": 3991,
      "Ġnozzle": 3992,
      "elol": 3993,
      "ĠManik": 3994,
      "elolaan": 3995,
      "ĠContador": 3996,
      "ĠKMS": 3997,
      "Hitting": 3998,
      "Baj": 3999,
      "Ġsound": 4000,
      "Ġjan": 4001,
      "Ġdvara": 4002,
      "Ġmannit": 4003,
      "acritic": 4004,
      "Mutable": 4005,
      "ĠByrd": 4006,
      "ĠPLIST": 4007,
      "ĠDoremi": 4008,
      "ĠRowland": 4009,
      "iate": 4010,
      "ankr": 4011,
      "Ġvelcro": 4012,
      "withTrashed": 4013,
      "uvial": 4014,
      "ĠSteffen": 4015,
      "Ġmoe": 4016,
      "ĠAER": 4017,
      "ĠACR": 4018,
      "ĠGit": 4019,
      "Ġpozy": 4020,
      "gpg": 4021,
      "ĠRudi": 4022,
      "inition": 4023,
      "Ġdelays": 4024,
      "like": 4025,
      "Ġsma": 4026,
      "hensible": 4027,
      "embang": 4028,
      "FileType": 4029,
      "ikations": 4030,
      "ĠJamm": 4031,
      "ĠJammu": 4032,
      "ĠCuth": 4033,
      "histos": 4034,
      "apabb": 4035,
      "endere": 4036,
      "Courier": 4037,
      "ecchio": 4038,
      "ĠRuman": 4039,
      "ĠMessage": 4040,
      "Ġdwar": 4041,
      "Ġlahan": 4042,
      "Ġsuprem": 4043,
      "Ġlesquels": 4044,
      "Ġcot": 4045,
      "azir": 4046,
      "uterte": 4047,
      "wanza": 4048,
      "Ġancol": 4049,
      "rette": 4050,
      "FCO": 4051,
      "Rank": 4052,
      "SetParameter": 4053,
      "guard": 4054,
      "ĠworldRank": 4055,
      "walt": 4056,
      "ayad": 4057,
      "ĠNIL": 4058,
      "isometric": 4059,
      "ultipl": 4060,
      "ĠMessageBox": 4061,
      "osus": 4062,
      "Forgery": 4063,
      "iForgery": 4064,
      "AntiForgery": 4065,
      "imee": 4066,
      "risa": 4067,
      "fee": 4068,
      "Ġein": 4069,
      "QRCode": 4070,
      "ilight": 4071,
      "ĠWick": 4072,
      "ĠmainMenu": 4073,
      "ĠAstral": 4074,
      "Ġimmunoprec": 4075,
      "ĠFGD": 4076,
      "CLIP": 4077,
      "kn": 4078,
      "ĠCrest": 4079,
      "ĠWSA": 4080,
      "raman": 4081,
      "LinkClicked": 4082,
      "argos": 4083,
      "staaten": 4084,
      "Ġsocket": 4085,
      "Ġtracheal": 4086,
      "weh": 4087,
      "byt": 4088,
      "ĠMioc": 4089,
      "ĠMiocene": 4090,
      "adins": 4091,
      "ttore": 4092,
      "Ġmier": 4093,
      "quin": 4094,
      "Ġstolet": 4095,
      "Ġtherap": 4096,
      "ĠLampang": 4097,
      "anitize": 4098,
      "Ġmenggel": 4099,
      "tellers": 4100,
      "BlackElo": 4101,
      "incremental": 4102,
      "Ġrej": 4103,
      "Ġbezieht": 4104,
      "ivided": 4105,
      "ibliography": 4106,
      "ĠImmac": 4107,
      "thebibliography": 4108,
      "Ġascor": 4109,
      "Ġgren": 4110,
      "UTS": 4111,
      "Ġsatu": 4112,
      "Ġistem": 4113,
      "isp": 4114,
      "ouser": 4115,
      "ĠitemList": 4116,
      "Ġgeldiniz": 4117,
      "aysys": 4118,
      "yCoordinate": 4119,
      "ĠisIn": 4120,
      "aitre": 4121,
      "Ġrap": 4122,
      "ĠNow": 4123,
      "assim": 4124,
      "Ġmiesz": 4125,
      "ĠEpit": 4126,
      "ĠQU": 4127,
      "ĠNowak": 4128,
      "ĠReinhard": 4129,
      "Ġfastball": 4130,
      "Ġtemu": 4131,
      "ukov": 4132,
      "underbrace": 4133,
      "Ġreson": 4134,
      "ĠKnudsen": 4135,
      "Ġbog": 4136,
      "GoString": 4137,
      "ĠmTOR": 4138,
      "ĠAgu": 4139,
      "atterns": 4140,
      "Ġchutes": 4141,
      "ĠBons": 4142,
      "Ġfay": 4143,
      "HttpSecurity": 4144,
      "Ġsorpresa": 4145,
      "ĠDHA": 4146,
      "opal": 4147,
      "Ġmultiplic": 4148,
      "Ġbass": 4149,
      "EndOf": 4150,
      "nok": 4151,
      "ĠgameObject": 4152,
      "ĠBuster": 4153,
      "riks": 4154,
      "azzi": 4155,
      "hetes": 4156,
      "onneur": 4157,
      "Ġgrenades": 4158,
      "Ġenero": 4159,
      "Pid": 4160,
      "Ġdov": 4161,
      "ivano": 4162,
      "orsese": 4163,
      "atee": 4164,
      "Kenn": 4165,
      "ĠInter": 4166,
      "ĠGolgi": 4167,
      "osur": 4168,
      "Kennedy": 4169,
      "ruck": 4170,
      "Ġprendere": 4171,
      "Ġirrit": 4172,
      "ilikom": 4173,
      "Webhook": 4174,
      "ĠSqlConnection": 4175,
      "Ġgreenhouses": 4176,
      "afio": 4177,
      "ĠMannes": 4178,
      "CFLAGS": 4179,
      "ĠBangk": 4180,
      "ĠBangkok": 4181,
      "Ġdiny": 4182,
      "patterns": 4183,
      "Ġdinyatakan": 4184,
      "DefaultFor": 4185,
      "Ġquo": 4186,
      "Ġhef": 4187,
      "Ġhefyd": 4188,
      "woocommerce": 4189,
      "ĠDirk": 4190,
      "pul": 4191,
      "ĠLithuanian": 4192,
      "Ġovershoot": 4193,
      "eksiyon": 4194,
      "Ġfibras": 4195,
      "wege": 4196,
      "ĠKlu": 4197,
      "ĠTig": 4198,
      "ĠLCS": 4199,
      "unding": 4200,
      "grad": 4201,
      "ĠVARCHAR": 4202,
      "Ġgrau": 4203,
      "Ġsoundness": 4204,
      "adex": 4205,
      "tect": 4206,
      "Ġhereditary": 4207,
      "sle": 4208,
      "Ġzure": 4209,
      "ĠPenang": 4210,
      "atron": 4211,
      "chid": 4212,
      "ĠEben": 4213,
      "lec": 4214,
      "ĠGustaf": 4215,
      "irsiniz": 4216,
      "ĠMoura": 4217,
      "PlayerData": 4218,
      "Ġestado": 4219,
      "ĠEngel": 4220,
      "ilirsiniz": 4221,
      "ĠSmooth": 4222,
      "ebilirsiniz": 4223,
      "ehl": 4224,
      "Ġestadounid": 4225,
      "Ġviolently": 4226,
      "ĠPRET": 4227,
      "Ġamnesty": 4228,
      "ĠdirBL": 4229,
      "issances": 4230,
      "ĠMichel": 4231,
      "ompan": 4232,
      "Ġkoi": 4233,
      "jang": 4234,
      "Ġzam": 4235,
      "ĠMichelangelo": 4236,
      "smooth": 4237,
      "ĠSilas": 4238,
      "loir": 4239,
      "Ġisop": 4240,
      "rieb": 4241,
      "ĠDimit": 4242,
      "Ġright": 4243,
      "ropout": 4244,
      "ĠBIC": 4245,
      "ĠGators": 4246,
      "ashback": 4247,
      "BarStyle": 4248,
      "Ġdreary": 4249,
      "ĠIngle": 4250,
      "riol": 4251,
      "ansive": 4252,
      "Embedded": 4253,
      "epic": 4254,
      "ĠCashback": 4255,
      "Ġgacchatiti": 4256,
      "ĠTakashi": 4257,
      "ĠNose": 4258,
      "unctive": 4259,
      "igungs": 4260,
      "idders": 4261,
      "hoek": 4262,
      "Ġsurpasses": 4263,
      "ĠBi": 4264,
      "Ġjang": 4265,
      "abilecek": 4266,
      "ĠGAO": 4267,
      "ĠBulldogs": 4268,
      "ĠCau": 4269,
      "ĠJoni": 4270,
      "boe": 4271,
      "ĠYuk": 4272,
      "Ġcies": 4273,
      "sborough": 4274,
      "ĠHillsborough": 4275,
      "setBorder": 4276,
      "QUADS": 4277,
      "ĠDRN": 4278,
      "CBN": 4279,
      "Stern": 4280,
      "ĠBuffered": 4281,
      "Navigate": 4282,
      "Ġdraggable": 4283,
      "ichero": 4284,
      "aqs": 4285,
      "Ġnarcot": 4286,
      "ĠuseNavigate": 4287,
      "Real": 4288,
      "Ġanter": 4289,
      "Ġgant": 4290,
      "esture": 4291,
      "umd": 4292,
      "Ġacum": 4293,
      "rime": 4294,
      "zers": 4295,
      "ordinal": 4296,
      "Ġexter": 4297,
      "Ġpotenz": 4298,
      "acular": 4299,
      "obili": 4300,
      "Ġsubstr": 4301,
      "smithy": 4302,
      "nera": 4303,
      "umlah": 4304,
      "Ġvass": 4305,
      "illery": 4306,
      "fonos": 4307,
      "ĠGPA": 4308,
      "tau": 4309,
      "Ġkyun": 4310,
      "aville": 4311,
      "LineEdit": 4312,
      "ĠSaty": 4313,
      "Ġunites": 4314,
      "anju": 4315,
      "purecounter": 4316,
      "ĠInorg": 4317,
      "Ġarrows": 4318,
      "ivals": 4319,
      "Ġquinquina": 4320,
      "ĠConfeder": 4321,
      "ĠBhopal": 4322,
      "CodeAttribute": 4323,
      "Ġupdate": 4324,
      "styr": 4325,
      "ierzchn": 4326,
      "Ġglor": 4327,
      "bindo": 4328,
      "Ġrejuven": 4329,
      "ĠSBI": 4330,
      "ĠAires": 4331,
      "maker": 4332,
      "ĠOldborough": 4333,
      "unin": 4334,
      "ĠupdateConfirm": 4335,
      "Ġsliced": 4336,
      "lywood": 4337,
      "ĠScorsese": 4338,
      "JKL": 4339,
      "Ġunve": 4340,
      "ĠApiResponse": 4341,
      "itchie": 4342,
      "gbar": 4343,
      "BlockUsed": 4344,
      "Pclass": 4345,
      "ĠPoe": 4346,
      "STIT": 4347,
      "Ġsubstrates": 4348,
      "Ġgreenish": 4349,
      "hena": 4350,
      "Ġcontin": 4351,
      "ibir": 4352,
      "istrano": 4353,
      "embl": 4354,
      "tesy": 4355,
      "iii": 4356,
      "ĠCGI": 4357,
      "ĠBaek": 4358,
      "achar": 4359,
      "THON": 4360,
      "Ġmelamine": 4361,
      "Ġpov": 4362,
      "ĠISA": 4363,
      "Mac": 4364,
      "ĠAgust": 4365,
      "Damage": 4366,
      "Ġdovet": 4367,
      "createStatement": 4368,
      "sohn": 4369,
      "ĠValletta": 4370,
      "ĠPatch": 4371,
      "HideFlags": 4372,
      "ĠGTI": 4373,
      "sono": 4374,
      "Ġfractal": 4375,
      "pless": 4376,
      "preds": 4377,
      "icur": 4378,
      "rived": 4379,
      "ScriptObject": 4380,
      "Ġviewport": 4381,
      "save": 4382,
      "Scheme": 4383,
      "igroup": 4384,
      "NI": 4385,
      "ĠISNI": 4386,
      "<UNK>": 4387
    },
    "old_vocab": {
      "!": 0,
      "\"": 1,
      "#": 2,
      "$": 3,
      "%": 4,
      "&": 5,
      "'": 6,
      "(": 7,
      ")": 8,
      "*": 9,
      "+": 10,
      ",": 11,
      "-": 12,
      ".": 13,
      "/": 14,
      "0": 15,
      "1": 16,
      "2": 17,
      "3": 18,
      "4": 19,
      "5": 20,
      "6": 21,
      "7": 22,
      "8": 23,
      "9": 24,
      ":": 25,
      ";": 26,
      "<": 27,
      "=": 28,
      ">": 29,
      "?": 30,
      "@": 31,
      "A": 32,
      "B": 33,
      "C": 34,
      "D": 35,
      "E": 36,
      "F": 37,
      "G": 38,
      "H": 39,
      "I": 40,
      "J": 41,
      "K": 42,
      "L": 43,
      "M": 44,
      "N": 45,
      "O": 46,
      "P": 47,
      "Q": 48,
      "R": 49,
      "S": 50,
      "T": 51,
      "U": 52,
      "V": 53,
      "W": 54,
      "X": 55,
      "Y": 56,
      "Z": 57,
      "[": 58,
      "\\": 59,
      "]": 60,
      "^": 61,
      "_": 62,
      "`": 63,
      "a": 64,
      "b": 65,
      "c": 66,
      "d": 67,
      "e": 68,
      "f": 69,
      "g": 70,
      "h": 71,
      "i": 72,
      "j": 73,
      "k": 74,
      "l": 75,
      "m": 76,
      "n": 77,
      "o": 78,
      "p": 79,
      "q": 80,
      "r": 81,
      "s": 82,
      "t": 83,
      "u": 84,
      "v": 85,
      "w": 86,
      "x": 87,
      "y": 88,
      "z": 89,
      "{": 90,
      "|": 91,
      "}": 92,
      "~": 93,
      "¡": 94,
      "¢": 95,
      "£": 96,
      "¤": 97,
      "¥": 98,
      "¦": 99,
      "§": 100,
      "¨": 101,
      "©": 102,
      "ª": 103,
      "«": 104,
      "¬": 105,
      "®": 106,
      "¯": 107,
      "°": 108,
      "±": 109,
      "²": 110,
      "³": 111,
      "´": 112,
      "µ": 113,
      "¶": 114,
      "·": 115,
      "¸": 116,
      "¹": 117,
      "º": 118,
      "»": 119,
      "¼": 120,
      "½": 121,
      "¾": 122,
      "¿": 123,
      "À": 124,
      "Á": 125,
      "Â": 126,
      "Ã": 127,
      "Ä": 128,
      "Å": 129,
      "Æ": 130,
      "Ç": 131,
      "È": 132,
      "É": 133,
      "Ê": 134,
      "Ë": 135,
      "Ì": 136,
      "Í": 137,
      "Î": 138,
      "Ï": 139,
      "Ð": 140,
      "Ñ": 141,
      "Ò": 142,
      "Ó": 143,
      "Ô": 144,
      "Õ": 145,
      "Ö": 146,
      "×": 147,
      "Ø": 148,
      "Ù": 149,
      "Ú": 150,
      "Û": 151,
      "Ü": 152,
      "Ý": 153,
      "Þ": 154,
      "ß": 155,
      "à": 156,
      "á": 157,
      "â": 158,
      "ã": 159,
      "ä": 160,
      "å": 161,
      "æ": 162,
      "ç": 163,
      "è": 164,
      "é": 165,
      "ê": 166,
      "ë": 167,
      "ì": 168,
      "í": 169,
      "î": 170,
      "ï": 171,
      "ð": 172,
      "ñ": 173,
      "ò": 174,
      "ó": 175,
      "ô": 176,
      "õ": 177,
      "ö": 178,
      "÷": 179,
      "ø": 180,
      "ù": 181,
      "ú": 182,
      "û": 183,
      "ü": 184,
      "ý": 185,
      "þ": 186,
      "ÿ": 187,
      "Ā": 188,
      "ā": 189,
      "Ă": 190,
      "ă": 191,
      "Ą": 192,
      "ą": 193,
      "Ć": 194,
      "ć": 195,
      "Ĉ": 196,
      "ĉ": 197,
      "Ċ": 198,
      "ċ": 199,
      "Č": 200,
      "č": 201,
      "Ď": 202,
      "ď": 203,
      "Đ": 204,
      "đ": 205,
      "Ē": 206,
      "ē": 207,
      "Ĕ": 208,
      "ĕ": 209,
      "Ė": 210,
      "ė": 211,
      "Ę": 212,
      "ę": 213,
      "Ě": 214,
      "ě": 215,
      "Ĝ": 216,
      "ĝ": 217,
      "Ğ": 218,
      "ğ": 219,
      "Ġ": 220,
      "ġ": 221,
      "Ģ": 222,
      "ģ": 223,
      "Ĥ": 224,
      "ĥ": 225,
      "Ħ": 226,
      "ħ": 227,
      "Ĩ": 228,
      "ĩ": 229,
      "Ī": 230,
      "ī": 231,
      "Ĭ": 232,
      "ĭ": 233,
      "Į": 234,
      "į": 235,
      "İ": 236,
      "ı": 237,
      "Ĳ": 238,
      "ĳ": 239,
      "Ĵ": 240,
      "ĵ": 241,
      "Ķ": 242,
      "ķ": 243,
      "ĸ": 244,
      "Ĺ": 245,
      "ĺ": 246,
      "Ļ": 247,
      "ļ": 248,
      "Ľ": 249,
      "ľ": 250,
      "Ŀ": 251,
      "ŀ": 252,
      "Ł": 253,
      "ł": 254,
      "Ń": 255,
      "er": 256,
      "an": 257,
      "in": 258,
      "en": 259,
      "on": 260,
      "ar": 261,
      "at": 262,
      "es": 263,
      "al": 264,
      "or": 265,
      "et": 266,
      "it": 267,
      "st": 268,
      "le": 269,
      "ic": 270,
      "el": 271,
      "ed": 272,
      "ch": 273,
      "am": 274,
      "ro": 275,
      "is": 276,
      "re": 277,
      "ad": 278,
      "Ġs": 279,
      "Ġp": 280,
      "un": 281,
      "il": 282,
      "ĠS": 283,
      "as": 284,
      "ing": 285,
      "ut": 286,
      "ĠC": 287,
      "ent": 288,
      "ol": 289,
      "ur": 290,
      "ĠM": 291,
      "us": 292,
      "ĠB": 293,
      "ra": 294,
      "ion": 295,
      "Ġc": 296,
      "id": 297,
      "Ġd": 298,
      "ĠP": 299,
      "ul": 300,
      "im": 301,
      "Ġt": 302,
      "Ġm": 303,
      "om": 304,
      "ĠA": 305,
      "ac": 306,
      "ag": 307,
      "em": 308,
      "ab": 309,
      "ĠD": 310,
      "os": 311,
      "ot": 312,
      "um": 313,
      "ig": 314,
      "ct": 315,
      "od": 316,
      "Ġb": 317,
      "ri": 318,
      "ĠT": 319,
      "ĠG": 320,
      "ĠR": 321,
      "ĠH": 322,
      "ap": 323,
      "ie": 324,
      "ak": 325,
      "oc": 326,
      "ir": 327,
      "ĠN": 328,
      "est": 329,
      "ĠL": 330,
      "ay": 331,
      "ow": 332,
      "Ġf": 333,
      "ĠE": 334,
      "Ġg": 335,
      "ex": 336,
      "op": 337,
      "Ġv": 338,
      "Ġh": 339,
      "and": 340,
      "th": 341,
      "ia": 342,
      "ĠK": 343,
      "ce": 344,
      "qu": 345,
      "Ġn": 346,
      "iv": 347,
      "ĠF": 348,
      "ate": 349,
      "av": 350,
      "ers": 351,
      "ĠW": 352,
      "ang": 353,
      "ation": 354,
      "og": 355,
      "Ġl": 356,
      "ant": 357,
      "In": 358,
      "ik": 359,
      "ov": 360,
      "ah": 361,
      "ec": 362,
      "eg": 363,
      "Ġk": 364,
      "ist": 365,
      "end": 366,
      "ub": 367,
      "ud": 368,
      "ter": 369,
      "ff": 370,
      "ine": 371,
      "ont": 372,
      "St": 373,
      "ob": 374,
      "ib": 375,
      "Ġr": 376,
      "up": 377,
      "ip": 378,
      "ton": 379,
      "ess": 380,
      "ath": 381,
      "iz": 382,
      "ian": 383,
      "ey": 384,
      "ell": 385,
      "ug": 386,
      "ect": 387,
      "ĠV": 388,
      "ĠI": 389,
      "ind": 390,
      "ard": 391,
      "ly": 392,
      "ert": 393,
      "ast": 394,
      "ĠJ": 395,
      "pe": 396,
      "ord": 397,
      "ph": 398,
      "ok": 399,
      "get": 400,
      "ill": 401,
      "Ġw": 402,
      "pt": 403,
      "art": 404,
      "ue": 405,
      "Ġre": 406,
      "uc": 407,
      "ne": 408,
      "ht": 409,
      "yl": 410,
      "age": 411,
      "Ġin": 412,
      "ĠU": 413,
      "ĠO": 414,
      "if": 415,
      "eb": 416,
      "te": 417,
      "ass": 418,
      "io": 419,
      "se": 420,
      "au": 421,
      "ung": 422,
      "all": 423,
      "ev": 424,
      "und": 425,
      "ek": 426,
      "ef": 427,
      "ep": 428,
      "ox": 429,
      "able": 430,
      "ile": 431,
      "ens": 432,
      "uk": 433,
      "aw": 434,
      "Ġst": 435,
      "Ġj": 436,
      "ext": 437,
      "ata": 438,
      "erm": 439,
      "ack": 440,
      "he": 441,
      "ult": 442,
      "out": 443,
      "ĠCh": 444,
      "set": 445,
      "int": 446,
      "ity": 447,
      "az": 448,
      "ew": 449,
      "ial": 450,
      "pl": 451,
      "ach": 452,
      "our": 453,
      "ies": 454,
      "ym": 455,
      "rop": 456,
      "ran": 457,
      "ou": 458,
      "sk": 459,
      "aj": 460,
      "ort": 461,
      "Ġch": 462,
      "ick": 463,
      "ame": 464,
      "ock": 465,
      "Ġa": 466,
      "ry": 467,
      "ann": 468,
      "Ġun": 469,
      "ost": 470,
      "ai": 471,
      "cl": 472,
      "Ġcon": 473,
      "sh": 474,
      "son": 475,
      "ĠMc": 476,
      "att": 477,
      "ive": 478,
      "pr": 479,
      "ust": 480,
      "ject": 481,
      "ment": 482,
      "iew": 483,
      "her": 484,
      "iel": 485,
      "yn": 486,
      "ll": 487,
      "ous": 488,
      "per": 489,
      "ele": 490,
      "ya": 491,
      "ier": 492,
      "ode": 493,
      "ype": 494,
      "ain": 495,
      "add": 496,
      "unt": 497,
      "erv": 498,
      "are": 499,
      "put": 500,
      "to": 501,
      "na": 502,
      "ich": 503,
      "ij": 504,
      "ish": 505,
      "ER": 506,
      "ong": 507,
      "eng": 508,
      "ite": 509,
      "lo": 510,
      "ax": 511,
      "ign": 512,
      "ond": 513,
      "Cont": 514,
      "sp": 515,
      "ring": 516,
      "pp": 517,
      "ber": 518,
      "ane": 519,
      "ull": 520,
      "ati": 521,
      "ore": 522,
      "ice": 523,
      "Val": 524,
      "ez": 525,
      "Ar": 526,
      "ire": 527,
      "ure": 528,
      "Ch": 529,
      "Ob": 530,
      "rom": 531,
      "ary": 532,
      "ild": 533,
      "ide": 534,
      "omp": 535,
      "To": 536,
      "man": 537,
      "ron": 538,
      "ash": 539,
      "ated": 540,
      "ST": 541,
      "oh": 542,
      "ru": 543,
      "ft": 544,
      "res": 545,
      "ime": 546,
      "ink": 547,
      "ett": 548,
      "Ġz": 549,
      "sc": 550,
      "ĠSh": 551,
      "iss": 552,
      "ight": 553,
      "nd": 554,
      "ana": 555,
      "err": 556,
      "ield": 557,
      "Ġpro": 558,
      "ark": 559,
      "enc": 560,
      "Object": 561,
      "Type": 562,
      "ge": 563,
      "ith": 564,
      "Con": 565,
      "ern": 566,
      "ize": 567,
      "Ġsp": 568,
      "eth": 569,
      "ere": 570,
      "own": 571,
      "ID": 572,
      "les": 573,
      "eh": 574,
      "Par": 575,
      "iy": 576,
      "tr": 577,
      "Cl": 578,
      "Ġe": 579,
      "orm": 580,
      "itt": 581,
      "ins": 582,
      "ene": 583,
      "View": 584,
      "ray": 585,
      "OR": 586,
      "Value": 587,
      "erc": 588,
      "oll": 589,
      "ley": 590,
      "oy": 591,
      "ON": 592,
      "ham": 593,
      "Ġle": 594,
      "Ġpr": 595,
      "ors": 596,
      "ale": 597,
      "AR": 598,
      "Res": 599,
      "ons": 600,
      "ma": 601,
      "co": 602,
      "EN": 603,
      "ium": 604,
      "UR": 605,
      "rr": 606,
      "Ġim": 607,
      "List": 608,
      "ka": 609,
      "IC": 610,
      "oj": 611,
      "ace": 612,
      "ient": 613,
      "Ex": 614,
      "ho": 615,
      "ss": 616,
      "ical": 617,
      "row": 618,
      "ction": 619,
      "tt": 620,
      "ina": 621,
      "ĠY": 622,
      "IN": 623,
      "Ġth": 624,
      "Path": 625,
      "old": 626,
      "ver": 627,
      "we": 628,
      "AN": 629,
      "ĠAr": 630,
      "act": 631,
      "ence": 632,
      "Pro": 633,
      "olor": 634,
      "ys": 635,
      "que": 636,
      "rit": 637,
      "SC": 638,
      "utton": 639,
      "ase": 640,
      "enn": 641,
      "ato": 642,
      "no": 643,
      "arg": 644,
      "ler": 645,
      "ram": 646,
      "Err": 647,
      "ĠSt": 648,
      "cept": 649,
      "ead": 650,
      "ni": 651,
      "one": 652,
      "ĠZ": 653,
      "atch": 654,
      "Ġqu": 655,
      "Ġex": 656,
      "Ġab": 657,
      "ald": 658,
      "Ġsc": 659,
      "ck": 660,
      "ole": 661,
      "tem": 662,
      "CC": 663,
      "Id": 664,
      "ood": 665,
      "ush": 666,
      "omm": 667,
      "sch": 668,
      "LE": 669,
      "Ġpl": 670,
      "Name": 671,
      "ans": 672,
      "ĠQ": 673,
      "Error": 674,
      "ee": 675,
      "oz": 676,
      "rent": 677,
      "bo": 678,
      "ric": 679,
      "ser": 680,
      "ance": 681,
      "of": 682,
      "ix": 683,
      "erg": 684,
      "ail": 685,
      "Data": 686,
      "Im": 687,
      "ari": 688,
      "Ġdis": 689,
      "ank": 690,
      "AL": 691,
      "app": 692,
      "Ġad": 693,
      "arl": 694,
      "CT": 695,
      "Sc": 696,
      "yd": 697,
      "anc": 698,
      "ado": 699,
      "ini": 700,
      "AT": 701,
      "Key": 702,
      "Ġal": 703,
      "uf": 704,
      "amp": 705,
      "Ġsub": 706,
      "yt": 707,
      "Comp": 708,
      "rid": 709,
      "uff": 710,
      "ĠSch": 711,
      "led": 712,
      "Serv": 713,
      "ĠAl": 714,
      "Button": 715,
      "ement": 716,
      "emb": 717,
      "SE": 718,
      "ret": 719,
      "ani": 720,
      "ait": 721,
      "Text": 722,
      "sl": 723,
      "ĠIn": 724,
      "af": 725,
      "orn": 726,
      "rav": 727,
      "arr": 728,
      "gen": 729,
      "AM": 730,
      "ator": 731,
      "fo": 732,
      "Ġy": 733,
      "equ": 734,
      "hen": 735,
      "ais": 736,
      "land": 737,
      "amb": 738,
      "SP": 739,
      "ings": 740,
      "val": 741,
      "IT": 742,
      "Size": 743,
      "yp": 744,
      "ear": 745,
      "eter": 746,
      "Array": 747,
      "String": 748,
      "ada": 749,
      "ford": 750,
      "air": 751,
      "RE": 752,
      "inn": 753,
      "iti": 754,
      "Item": 755,
      "ien": 756,
      "ions": 757,
      "esh": 758,
      "Co": 759,
      "SA": 760,
      "ren": 761,
      "Param": 762,
      "By": 763,
      "Of": 764,
      "ugh": 765,
      "ade": 766,
      "ott": 767,
      "Ġget": 768,
      "con": 769,
      "Ġsh": 770,
      "RP": 771,
      "kan": 772,
      "eck": 773,
      "inc": 774,
      "ein": 775,
      "cc": 776,
      "uj": 777,
      "utt": 778,
      "BS": 779,
      "ict": 780,
      "era": 781,
      "ica": 782,
      "over": 783,
      "Context": 784,
      "CS": 785,
      "ĠBl": 786,
      "ng": 787,
      "uss": 788,
      "yc": 789,
      "eat": 790,
      "vent": 791,
      "Ġpar": 792,
      "nt": 793,
      "ps": 794,
      "ory": 795,
      "rib": 796,
      "unc": 797,
      "ara": 798,
      "umb": 799,
      "oth": 800,
      "ke": 801,
      "Int": 802,
      "ics": 803,
      "onent": 804,
      "uth": 805,
      "urrent": 806,
      "arm": 807,
      "urs": 808,
      "ql": 809,
      "ena": 810,
      "uch": 811,
      "ger": 812,
      "lement": 813,
      "Pl": 814,
      "yst": 815,
      "ego": 816,
      "Field": 817,
      "Ġan": 818,
      "Ġen": 819,
      "Image": 820,
      "iro": 821,
      "ora": 822,
      "isc": 823,
      "osit": 824,
      "File": 825,
      "AC": 826,
      "ute": 827,
      "PS": 828,
      "ira": 829,
      "App": 830,
      "reate": 831,
      "reen": 832,
      "ih": 833,
      "roup": 834,
      "ama": 835,
      "Ġac": 836,
      "ze": 837,
      "ĠGu": 838,
      "ager": 839,
      "use": 840,
      "ater": 841,
      "CP": 842,
      "va": 843,
      "ala": 844,
      "Ġdes": 845,
      "str": 846,
      "Mod": 847,
      "Ġsl": 848,
      "ve": 849,
      "uto": 850,
      "umber": 851,
      "fl": 852,
      "Ġar": 853,
      "off": 854,
      "Ġap": 855,
      "Get": 856,
      "che": 857,
      "DA": 858,
      "uy": 859,
      "Ġset": 860,
      "ism": 861,
      "den": 862,
      "atth": 863,
      "ery": 864,
      "ĠX": 865,
      "Ġrec": 866,
      "Time": 867,
      "als": 868,
      "me": 869,
      "equest": 870,
      "Man": 871,
      "kh": 872,
      "roll": 873,
      "ress": 874,
      "IA": 875,
      "ise": 876,
      "State": 877,
      "par": 878,
      "ament": 879,
      "Ġper": 880,
      "dex": 881,
      "IS": 882,
      "po": 883,
      "ner": 884,
      "ille": 885,
      "urn": 886,
      "PC": 887,
      "itz": 888,
      "arc": 889,
      "uz": 890,
      "ates": 891,
      "Ġro": 892,
      "ular": 893,
      "orr": 894,
      "ech": 895,
      "let": 896,
      "ius": 897,
      "rad": 898,
      "order": 899,
      "ave": 900,
      "alt": 901,
      "raw": 902,
      "anj": 903,
      "ha": 904,
      "Color": 905,
      "fe": 906,
      "Sh": 907,
      "ets": 908,
      "arb": 909,
      "orb": 910,
      "du": 911,
      "Code": 912,
      "IL": 913,
      "iff": 914,
      "oph": 915,
      "ref": 916,
      "rev": 917,
      "ose": 918,
      "Index": 919,
      "lock": 920,
      "uv": 921,
      "Char": 922,
      "ource": 923,
      "DP": 924,
      "Fl": 925,
      "ES": 926,
      "ili": 927,
      "UT": 928,
      "rist": 929,
      "Ġres": 930,
      "Ġis": 931,
      "uh": 932,
      "gl": 933,
      "bar": 934,
      "pi": 935,
      "ml": 936,
      "iter": 937,
      "Component": 938,
      "MS": 939,
      "ks": 940,
      "kt": 941,
      "ied": 942,
      "ians": 943,
      "ruct": 944,
      "ych": 945,
      "ayout": 946,
      "ree": 947,
      "IP": 948,
      "Request": 949,
      "uan": 950,
      "ld": 951,
      "Ġmen": 952,
      "yr": 953,
      "ĠTh": 954,
      "ington": 955,
      "rack": 956,
      "CH": 957,
      "ii": 958,
      "omb": 959,
      "och": 960,
      "elect": 961,
      "sub": 962,
      "Out": 963,
      "rag": 964,
      "eme": 965,
      "ux": 966,
      "Set": 967,
      "All": 968,
      "ĠAm": 969,
      "ete": 970,
      "SI": 971,
      "rim": 972,
      "Call": 973,
      "MA": 974,
      "cz": 975,
      "CA": 976,
      "fig": 977,
      "ano": 978,
      "ae": 979,
      "abb": 980,
      "ao": 981,
      "rol": 982,
      "form": 983,
      "sw": 984,
      "Ġcont": 985,
      "ely": 986,
      "En": 987,
      "Event": 988,
      "Ref": 989,
      "ĠSc": 990,
      "Group": 991,
      "TR": 992,
      "ays": 993,
      "rans": 994,
      "go": 995,
      "ake": 996,
      "za": 997,
      "asc": 998,
      "ET": 999,
      "erd": 1000,
      "oxy": 1001,
      "Ġjed": 1002,
      "Box": 1003,
      "Ġod": 1004,
      "Action": 1005,
      "oid": 1006,
      "back": 1007,
      "yle": 1008,
      "Ġam": 1009,
      "red": 1010,
      "ros": 1011,
      "ĠLe": 1012,
      "riv": 1013,
      "ese": 1014,
      "oa": 1015,
      "ots": 1016,
      "la": 1017,
      "ork": 1018,
      "oo": 1019,
      "line": 1020,
      "Ġret": 1021,
      "Ġund": 1022,
      "aff": 1023,
      "Result": 1024,
      "UN": 1025,
      "atur": 1026,
      "Sp": 1027,
      "rt": 1028,
      "ĠCon": 1029,
      "ered": 1030,
      "Ġind": 1031,
      "indow": 1032,
      "ception": 1033,
      "Prop": 1034,
      "endo": 1035,
      "Input": 1036,
      "Manager": 1037,
      "Ġcom": 1038,
      "ĠBar": 1039,
      "Up": 1040,
      "MP": 1041,
      "Ġob": 1042,
      "rec": 1043,
      "Exception": 1044,
      "Ġant": 1045,
      "Service": 1046,
      "men": 1047,
      "ling": 1048,
      "ĠAd": 1049,
      "ump": 1050,
      "Count": 1051,
      "AG": 1052,
      "ester": 1053,
      "shire": 1054,
      "ĠEd": 1055,
      "unter": 1056,
      "uild": 1057,
      "ej": 1058,
      "Ad": 1059,
      "aya": 1060,
      "anam": 1061,
      "ios": 1062,
      "rl": 1063,
      "ĠEm": 1064,
      "Class": 1065,
      "els": 1066,
      "Ġimp": 1067,
      "ten": 1068,
      "ocal": 1069,
      "PA": 1070,
      "mer": 1071,
      "eut": 1072,
      "ower": 1073,
      "ats": 1074,
      "Layout": 1075,
      "Table": 1076,
      "ask": 1077,
      "ener": 1078,
      "uit": 1079,
      "ĠRe": 1080,
      "ars": 1081,
      "bur": 1082,
      "ĠAn": 1083,
      "TS": 1084,
      "For": 1085,
      "ocation": 1086,
      "amil": 1087,
      "Ġem": 1088,
      "idd": 1089,
      "my": 1090,
      "ione": 1091,
      "oss": 1092,
      "iqu": 1093,
      "As": 1094,
      "uck": 1095,
      "port": 1096,
      "elle": 1097,
      "ized": 1098,
      "ucle": 1099,
      "ange": 1100,
      "ule": 1101,
      "nik": 1102,
      "SM": 1103,
      "ound": 1104,
      "Ġtr": 1105,
      "ogg": 1106,
      "atic": 1107,
      "ual": 1108,
      "ility": 1109,
      "raph": 1110,
      "org": 1111,
      "ract": 1112,
      "Element": 1113,
      "ouse": 1114,
      "ette": 1115,
      "ED": 1116,
      "last": 1117,
      "pro": 1118,
      "With": 1119,
      "las": 1120,
      "Info": 1121,
      "Config": 1122,
      "DR": 1123,
      "pon": 1124,
      "ayer": 1125,
      "User": 1126,
      "anel": 1127,
      "AD": 1128,
      "lad": 1129,
      "AP": 1130,
      "Api": 1131,
      "berg": 1132,
      "iej": 1133,
      "Ġco": 1134,
      "Ġov": 1135,
      "Ġel": 1136,
      "BC": 1137,
      "Ġph": 1138,
      "ui": 1139,
      "ĠEl": 1140,
      "edi": 1141,
      "idth": 1142,
      "ino": 1143,
      "SS": 1144,
      "be": 1145,
      "icht": 1146,
      "ĠBr": 1147,
      "eader": 1148,
      "reg": 1149,
      "oto": 1150,
      "olic": 1151,
      "hi": 1152,
      "Al": 1153,
      "ome": 1154,
      "IM": 1155,
      "bit": 1156,
      "br": 1157,
      "Is": 1158,
      "unk": 1159,
      "map": 1160,
      "load": 1161,
      "cent": 1162,
      "Ġfl": 1163,
      "inal": 1164,
      "ral": 1165,
      "aut": 1166,
      "Window": 1167,
      "web": 1168,
      "iet": 1169,
      "lect": 1170,
      "CO": 1171,
      "ough": 1172,
      "EC": 1173,
      "ura": 1174,
      "ating": 1175,
      "Ġinc": 1176,
      "Ġent": 1177,
      "Ġon": 1178,
      "Ġx": 1179,
      "Ġed": 1180,
      "Ġsk": 1181,
      "wood": 1182,
      "path": 1183,
      "any": 1184,
      "SRP": 1185,
      "tn": 1186,
      "ali": 1187,
      "Ġang": 1188,
      "ior": 1189,
      "cht": 1190,
      "ski": 1191,
      "abel": 1192,
      "new": 1193,
      "IV": 1194,
      "DK": 1195,
      "Model": 1196,
      "erk": 1197,
      "Ġop": 1198,
      "ĠSal": 1199,
      "arn": 1200,
      "Test": 1201,
      "da": 1202,
      "anti": 1203,
      "PM": 1204,
      "eep": 1205,
      "uid": 1206,
      "rv": 1207,
      "ional": 1208,
      "rab": 1209,
      "Ġgr": 1210,
      "arch": 1211,
      "ENT": 1212,
      "aan": 1213,
      "ider": 1214,
      "Ġmult": 1215,
      "field": 1216,
      "ript": 1217,
      "board": 1218,
      "Ġuse": 1219,
      "aur": 1220,
      "Ph": 1221,
      "Log": 1222,
      "ulf": 1223,
      "fer": 1224,
      "ection": 1225,
      "iment": 1226,
      "Params": 1227,
      "ts": 1228,
      "ima": 1229,
      "BA": 1230,
      "oad": 1231,
      "ega": 1232,
      "ris": 1233,
      "MC": 1234,
      "udd": 1235,
      "lic": 1236,
      "ĠSp": 1237,
      "GF": 1238,
      "igh": 1239,
      "Ġint": 1240,
      "item": 1241,
      "etail": 1242,
      "erty": 1243,
      "US": 1244,
      "oke": 1245,
      "UM": 1246,
      "cal": 1247,
      "Node": 1248,
      "ible": 1249,
      "Ġdi": 1250,
      "Ġcl": 1251,
      "key": 1252,
      "ĠWil": 1253,
      "Panel": 1254,
      "enu": 1255,
      "ations": 1256,
      "olog": 1257,
      "anth": 1258,
      "OA": 1259,
      "ody": 1260,
      "ync": 1261,
      "by": 1262,
      "Ġout": 1263,
      "acter": 1264,
      "Stat": 1265,
      "kow": 1266,
      "HT": 1267,
      "leg": 1268,
      "At": 1269,
      "Map": 1270,
      "PT": 1271,
      "MD": 1272,
      "akan": 1273,
      "Ġra": 1274,
      "vert": 1275,
      "Bar": 1276,
      "sed": 1277,
      "ores": 1278,
      "emp": 1279,
      "Col": 1280,
      "bra": 1281,
      "oken": 1282,
      "je": 1283,
      "Ġbl": 1284,
      "for": 1285,
      "ĠSw": 1286,
      "ĠCl": 1287,
      "adi": 1288,
      "ĠCo": 1289,
      "CM": 1290,
      "hat": 1291,
      "iem": 1292,
      "Number": 1293,
      "ched": 1294,
      "ita": 1295,
      "mo": 1296,
      "Ġau": 1297,
      "Un": 1298,
      "icul": 1299,
      "Ġol": 1300,
      "date": 1301,
      "Start": 1302,
      "eron": 1303,
      "zy": 1304,
      "aud": 1305,
      "ny": 1306,
      "ethod": 1307,
      "ĠMcC": 1308,
      "atri": 1309,
      "CI": 1310,
      "Ġconv": 1311,
      "Or": 1312,
      "aro": 1313,
      "iri": 1314,
      "Ġmax": 1315,
      "Ġpost": 1316,
      "ils": 1317,
      "Content": 1318,
      "TE": 1319,
      "lin": 1320,
      "aa": 1321,
      "Const": 1322,
      "ercent": 1323,
      "Em": 1324,
      "IB": 1325,
      "onic": 1326,
      "ĠBur": 1327,
      "ument": 1328,
      "ponse": 1329,
      "Width": 1330,
      "ĠBh": 1331,
      "omer": 1332,
      "Ġult": 1333,
      "zt": 1334,
      "rich": 1335,
      "alk": 1336,
      "net": 1337,
      "ook": 1338,
      "aus": 1339,
      "Arg": 1340,
      "ua": 1341,
      "CE": 1342,
      "Block": 1343,
      "Date": 1344,
      "SR": 1345,
      "ms": 1346,
      "eer": 1347,
      "ido": 1348,
      "amente": 1349,
      "Ġtrans": 1350,
      "ero": 1351,
      "ona": 1352,
      "On": 1353,
      "etri": 1354,
      "Line": 1355,
      "hr": 1356,
      "Header": 1357,
      "FA": 1358,
      "ender": 1359,
      "Ġas": 1360,
      "OM": 1361,
      "Star": 1362,
      "ommand": 1363,
      "het": 1364,
      "jsk": 1365,
      "Auto": 1366,
      "Ġinter": 1367,
      "lor": 1368,
      "ĠPal": 1369,
      "its": 1370,
      "ois": 1371,
      "AS": 1372,
      "IR": 1373,
      "win": 1374,
      "Ġvol": 1375,
      "Ġer": 1376,
      "Off": 1377,
      "ative": 1378,
      "read": 1379,
      "Server": 1380,
      "imp": 1381,
      "EL": 1382,
      "Ġpot": 1383,
      "DC": 1384,
      "ialog": 1385,
      "ethyl": 1386,
      "stra": 1387,
      "IF": 1388,
      "essage": 1389,
      "Mode": 1390,
      "Output": 1391,
      "js": 1392,
      "UI": 1393,
      "osh": 1394,
      "de": 1395,
      "db": 1396,
      "utter": 1397,
      "aster": 1398,
      "CL": 1399,
      "Ġsw": 1400,
      "urt": 1401,
      "orth": 1402,
      "xc": 1403,
      "rob": 1404,
      "An": 1405,
      "Menu": 1406,
      "itor": 1407,
      "less": 1408,
      "iles": 1409,
      "aks": 1410,
      "ipp": 1411,
      "Mut": 1412,
      "Ġdec": 1413,
      "acch": 1414,
      "Ġto": 1415,
      "LO": 1416,
      "li": 1417,
      "round": 1418,
      "Ġadd": 1419,
      "ouch": 1420,
      "thor": 1421,
      "erson": 1422,
      "aki": 1423,
      "DB": 1424,
      "Pop": 1425,
      "Ġep": 1426,
      "Ġber": 1427,
      "lex": 1428,
      "Ġtest": 1429,
      "ven": 1430,
      "pen": 1431,
      "lar": 1432,
      "Ġjedn": 1433,
      "uffer": 1434,
      "ocus": 1435,
      "Ġbh": 1436,
      "der": 1437,
      "ycl": 1438,
      "ition": 1439,
      "orph": 1440,
      "icz": 1441,
      "MB": 1442,
      "box": 1443,
      "asi": 1444,
      "esp": 1445,
      "Go": 1446,
      "illa": 1447,
      "Ġsal": 1448,
      "ency": 1449,
      "atan": 1450,
      "ols": 1451,
      "ength": 1452,
      "vi": 1453,
      "Ġdef": 1454,
      "raz": 1455,
      "TA": 1456,
      "PE": 1457,
      "ami": 1458,
      "Ġag": 1459,
      "roph": 1460,
      "zo": 1461,
      "PR": 1462,
      "Url": 1463,
      "arth": 1464,
      "ING": 1465,
      "min": 1466,
      "KA": 1467,
      "edia": 1468,
      "eight": 1469,
      "TC": 1470,
      "ious": 1471,
      "aire": 1472,
      "udent": 1473,
      "ola": 1474,
      "met": 1475,
      "ities": 1476,
      "com": 1477,
      "aul": 1478,
      "Conn": 1479,
      "Nav": 1480,
      "bl": 1481,
      "ĠWh": 1482,
      "econd": 1483,
      "amera": 1484,
      "ault": 1485,
      "Av": 1486,
      "cess": 1487,
      "ymb": 1488,
      "ĠQu": 1489,
      "input": 1490,
      "Dialog": 1491,
      "Ġsm": 1492,
      "Ġsch": 1493,
      "ĠPr": 1494,
      "ĠMah": 1495,
      "Control": 1496,
      "ĠAg": 1497,
      "plic": 1498,
      "SO": 1499,
      "eli": 1500,
      "rey": 1501,
      "ĠDor": 1502,
      "ML": 1503,
      "eld": 1504,
      "well": 1505,
      "rain": 1506,
      "rap": 1507,
      "ca": 1508,
      "Ġrem": 1509,
      "ĠMcG": 1510,
      "Ġoc": 1511,
      "Qu": 1512,
      "amm": 1513,
      "IG": 1514,
      "rum": 1515,
      "Ġpal": 1516,
      "oot": 1517,
      "find": 1518,
      "ebug": 1519,
      "Bit": 1520,
      "ĠCB": 1521,
      "Ġrep": 1522,
      "Ġcurrent": 1523,
      "wa": 1524,
      "ĠKn": 1525,
      "ically": 1526,
      "ias": 1527,
      "onn": 1528,
      "Ġmil": 1529,
      "Resource": 1530,
      "uro": 1531,
      "ope": 1532,
      "raft": 1533,
      "Ġpre": 1534,
      "Response": 1535,
      "Init": 1536,
      "lu": 1537,
      "alle": 1538,
      "nya": 1539,
      "Ġapp": 1540,
      "New": 1541,
      "oi": 1542,
      "ability": 1543,
      "awa": 1544,
      "Ġnew": 1545,
      "ĠEr": 1546,
      "ĠWood": 1547,
      "ove": 1548,
      "Ġdel": 1549,
      "ukan": 1550,
      "FBS": 1551,
      "Buffer": 1552,
      "andle": 1553,
      "anz": 1554,
      "user": 1555,
      "Def": 1556,
      "eral": 1557,
      "ropri": 1558,
      "FBSDK": 1559,
      "Inter": 1560,
      "atis": 1561,
      "ream": 1562,
      "itri": 1563,
      "arget": 1564,
      "uer": 1565,
      "ava": 1566,
      "Focus": 1567,
      "van": 1568,
      "Ġsup": 1569,
      "angan": 1570,
      "Var": 1571,
      "aka": 1572,
      "ji": 1573,
      "Oper": 1574,
      "stein": 1575,
      "ĠApp": 1576,
      "ateg": 1577,
      "vis": 1578,
      "ĠBx": 1579,
      "ift": 1580,
      "imm": 1581,
      "OP": 1582,
      "Change": 1583,
      "SD": 1584,
      "Ġup": 1585,
      "ras": 1586,
      "anh": 1587,
      "apt": 1588,
      "oun": 1589,
      "Select": 1590,
      "ante": 1591,
      "Ġcreate": 1592,
      "rz": 1593,
      "cp": 1594,
      "pring": 1595,
      "acy": 1596,
      "ĠWar": 1597,
      "ever": 1598,
      "Ġmeng": 1599,
      "ĠCor": 1600,
      "ĠPh": 1601,
      "ization": 1602,
      "Ġter": 1603,
      "not": 1604,
      "ific": 1605,
      "ĠBro": 1606,
      "ector": 1607,
      "Client": 1608,
      "akt": 1609,
      "iki": 1610,
      "ila": 1611,
      "ste": 1612,
      "Ġleg": 1613,
      "Rec": 1614,
      "Page": 1615,
      "Message": 1616,
      "from": 1617,
      "AF": 1618,
      "type": 1619,
      "Ġgl": 1620,
      "ĠMan": 1621,
      "DI": 1622,
      "akkh": 1623,
      "Ġo": 1624,
      "aga": 1625,
      "Property": 1626,
      "ĠQx": 1627,
      "data": 1628,
      "Down": 1629,
      "current": 1630,
      "nal": 1631,
      "send": 1632,
      "oul": 1633,
      "TP": 1634,
      "do": 1635,
      "Ġact": 1636,
      "erence": 1637,
      "ges": 1638,
      "Ġinf": 1639,
      "vol": 1640,
      "IO": 1641,
      "alf": 1642,
      "eger": 1643,
      "igg": 1644,
      "cont": 1645,
      "ben": 1646,
      "End": 1647,
      "ster": 1648,
      "ION": 1649,
      "anyl": 1650,
      "isT": 1651,
      "erman": 1652,
      "eda": 1653,
      "ean": 1654,
      "CB": 1655,
      "ula": 1656,
      "AY": 1657,
      "uct": 1658,
      "open": 1659,
      "oma": 1660,
      "Detail": 1661,
      "ander": 1662,
      "gar": 1663,
      "Sw": 1664,
      "stit": 1665,
      "ibus": 1666,
      "ĠBe": 1667,
      "Cell": 1668,
      "aft": 1669,
      "ĠAt": 1670,
      "atha": 1671,
      "Sub": 1672,
      "kin": 1673,
      "ypes": 1674,
      "ersion": 1675,
      "DE": 1676,
      "itch": 1677,
      "cad": 1678,
      "ertex": 1679,
      "andler": 1680,
      "elly": 1681,
      "itth": 1682,
      "ages": 1683,
      "And": 1684,
      "RG": 1685,
      "ko": 1686,
      "arks": 1687,
      "oles": 1688,
      "CD": 1689,
      "tot": 1690,
      "ignment": 1691,
      "Ġev": 1692,
      "rat": 1693,
      "ww": 1694,
      "EM": 1695,
      "ĠVill": 1696,
      "down": 1697,
      "Ġcor": 1698,
      "rin": 1699,
      "ney": 1700,
      "ged": 1701,
      "yan": 1702,
      "ced": 1703,
      "MR": 1704,
      "uel": 1705,
      "ants": 1706,
      "Ġir": 1707,
      "ĠMar": 1708,
      "Ġpor": 1709,
      "sm": 1710,
      "Location": 1711,
      "ĠEn": 1712,
      "inch": 1713,
      "imb": 1714,
      "Web": 1715,
      "start": 1716,
      "older": 1717,
      "Main": 1718,
      "ando": 1719,
      "ico": 1720,
      "Att": 1721,
      "inate": 1722,
      "Ġman": 1723,
      "Ġhem": 1724,
      "Ġpat": 1725,
      "imento": 1726,
      "oder": 1727,
      "odes": 1728,
      "asm": 1729,
      "Null": 1730,
      "Ġend": 1731,
      "PP": 1732,
      "Back": 1733,
      "ues": 1734,
      "ĠAb": 1735,
      "roc": 1736,
      "yte": 1737,
      "ken": 1738,
      "TT": 1739,
      "ttp": 1740,
      "Buf": 1741,
      "nam": 1742,
      "patch": 1743,
      "Link": 1744,
      "oint": 1745,
      "ĠRock": 1746,
      "Dis": 1747,
      "ices": 1748,
      "Spr": 1749,
      "ye": 1750,
      "Ġav": 1751,
      "acc": 1752,
      "Status": 1753,
      "ĠSm": 1754,
      "ova": 1755,
      "Form": 1756,
      "ved": 1757,
      "GC": 1758,
      "icks": 1759,
      "Json": 1760,
      "LU": 1761,
      "Card": 1762,
      "enz": 1763,
      "HP": 1764,
      "ja": 1765,
      "Ġexp": 1766,
      "ĠMcK": 1767,
      "Ġmon": 1768,
      "riff": 1769,
      "ĠMon": 1770,
      "Height": 1771,
      "auc": 1772,
      "uen": 1773,
      "rip": 1774,
      "yth": 1775,
      "fs": 1776,
      "Pref": 1777,
      "earch": 1778,
      "ĠRo": 1779,
      "MN": 1780,
      "Posit": 1781,
      "qual": 1782,
      "Debug": 1783,
      "Rect": 1784,
      "rac": 1785,
      "Ed": 1786,
      "umer": 1787,
      "ĠMcD": 1788,
      "var": 1789,
      "mm": 1790,
      "Ġpay": 1791,
      "ather": 1792,
      "irt": 1793,
      "Ġkn": 1794,
      "stance": 1795,
      "Ġrel": 1796,
      "oft": 1797,
      "Ġne": 1798,
      "Ġip": 1799,
      "ally": 1800,
      "Row": 1801,
      "ella": 1802,
      "ente": 1803,
      "sb": 1804,
      "rif": 1805,
      "mp": 1806,
      "iev": 1807,
      "Ġur": 1808,
      "aps": 1809,
      "name": 1810,
      "etry": 1811,
      "text": 1812,
      "Build": 1813,
      "ĠMad": 1814,
      "ahan": 1815,
      "Ġsol": 1816,
      "Ġut": 1817,
      "oin": 1818,
      "elt": 1819,
      "TL": 1820,
      "Exp": 1821,
      "play": 1822,
      "Ġadj": 1823,
      "Find": 1824,
      "ci": 1825,
      "Ġver": 1826,
      "eta": 1827,
      "omen": 1828,
      "Sync": 1829,
      "point": 1830,
      "ison": 1831,
      "ivity": 1832,
      "awn": 1833,
      "ĠCar": 1834,
      "pty": 1835,
      "adr": 1836,
      "yk": 1837,
      "pond": 1838,
      "lay": 1839,
      "igest": 1840,
      "HDR": 1841,
      "ĠVer": 1842,
      "Ġcons": 1843,
      "itter": 1844,
      "ination": 1845,
      "Open": 1846,
      "eni": 1847,
      "From": 1848,
      "usc": 1849,
      "ĠAng": 1850,
      "ĠRx": 1851,
      "unch": 1852,
      "urb": 1853,
      "aug": 1854,
      "lob": 1855,
      "ted": 1856,
      "inu": 1857,
      "han": 1858,
      "Length": 1859,
      "ĠNew": 1860,
      "eit": 1861,
      "ĠMont": 1862,
      "ader": 1863,
      "getB": 1864,
      "ushed": 1865,
      "Method": 1866,
      "utto": 1867,
      "odel": 1868,
      "UC": 1869,
      "RC": 1870,
      "print": 1871,
      "Dec": 1872,
      "anda": 1873,
      "file": 1874,
      "ape": 1875,
      "chen": 1876,
      "ĠFl": 1877,
      "lection": 1878,
      "agn": 1879,
      "Create": 1880,
      "init": 1881,
      "HA": 1882,
      "ctive": 1883,
      "Ġcur": 1884,
      "Ġes": 1885,
      "Query": 1886,
      "Cho": 1887,
      "idaz": 1888,
      "ĠRed": 1889,
      "Ġnot": 1890,
      "igned": 1891,
      "ville": 1892,
      "Num": 1893,
      "Auth": 1894,
      "ersh": 1895,
      "hou": 1896,
      "ustom": 1897,
      "Ġimm": 1898,
      "iya": 1899,
      "sel": 1900,
      "omot": 1901,
      "lem": 1902,
      "mat": 1903,
      "Student": 1904,
      "md": 1905,
      "Ġprz": 1906,
      "way": 1907,
      "ĠOr": 1908,
      "apter": 1909,
      "Update": 1910,
      "mann": 1911,
      "ĠPar": 1912,
      "ĠUn": 1913,
      "oard": 1914,
      "iver": 1915,
      "eto": 1916,
      "Ġemb": 1917,
      "Ġpart": 1918,
      "ei": 1919,
      "SX": 1920,
      "word": 1921,
      "gu": 1922,
      "raf": 1923,
      "ollow": 1924,
      "des": 1925,
      "xy": 1926,
      "riz": 1927,
      "UL": 1928,
      "room": 1929,
      "auf": 1930,
      "Per": 1931,
      "Ġover": 1932,
      "osa": 1933,
      "Ġoff": 1934,
      "GE": 1935,
      "mi": 1936,
      "LC": 1937,
      "del": 1938,
      "rea": 1939,
      "IST": 1940,
      "cop": 1941,
      "Game": 1942,
      "riter": 1943,
      "ines": 1944,
      "allow": 1945,
      "duct": 1946,
      "VC": 1947,
      "Ġfor": 1948,
      "ĠLor": 1949,
      "ful": 1950,
      "Label": 1951,
      "ĠMart": 1952,
      "roid": 1953,
      "ĠBel": 1954,
      "una": 1955,
      "olo": 1956,
      "Ġann": 1957,
      "eal": 1958,
      "Ġbil": 1959,
      "anch": 1960,
      "draw": 1961,
      "sa": 1962,
      "press": 1963,
      "Token": 1964,
      "ume": 1965,
      "irst": 1966,
      "Ġdem": 1967,
      "under": 1968,
      "ĠHar": 1969,
      "argin": 1970,
      "Asset": 1971,
      "Ġref": 1972,
      "ĠCol": 1973,
      "elles": 1974,
      "TH": 1975,
      "obj": 1976,
      "ellen": 1977,
      "vas": 1978,
      "ribute": 1979,
      "Not": 1980,
      "Sl": 1981,
      "Tool": 1982,
      "eks": 1983,
      "Ġneut": 1984,
      "vers": 1985,
      "DS": 1986,
      "atrix": 1987,
      "Style": 1988,
      "ĠSe": 1989,
      "Attribute": 1990,
      "hav": 1991,
      "counter": 1992,
      "Ġpol": 1993,
      "emia": 1994,
      "Ġspl": 1995,
      "ains": 1996,
      "ende": 1997,
      "unn": 1998,
      "gi": 1999,
      "ides": 2000,
      "color": 2001,
      "ba": 2002,
      "ĠFre": 2003,
      "embre": 2004,
      "Position": 2005,
      "ades": 2006,
      "Ġval": 2007,
      "ulfanyl": 2008,
      "Ġq": 2009,
      "space": 2010,
      "ared": 2011,
      "hel": 2012,
      "Builder": 2013,
      "sulfanyl": 2014,
      "Ġacc": 2015,
      "pie": 2016,
      "sal": 2017,
      "arat": 2018,
      "phen": 2019,
      "Full": 2020,
      "URN": 2021,
      "ense": 2022,
      "ĠEll": 2023,
      "ĠBlack": 2024,
      "len": 2025,
      "lov": 2026,
      "esthet": 2027,
      "Ġhum": 2028,
      "ives": 2029,
      "inst": 2030,
      "vel": 2031,
      "bu": 2032,
      "Cent": 2033,
      "Add": 2034,
      "esi": 2035,
      "perm": 2036,
      "Sprite": 2037,
      "Ġsn": 2038,
      "aat": 2039,
      "GR": 2040,
      "ijk": 2041,
      "onc": 2042,
      "api": 2043,
      "ourn": 2044,
      "ites": 2045,
      "Ġtri": 2046,
      "inding": 2047,
      "ungen": 2048,
      "ceed": 2049,
      "ote": 2050,
      "ents": 2051,
      "eton": 2052,
      "iego": 2053,
      "aires": 2054,
      "onne": 2055,
      "opp": 2056,
      "acute": 2057,
      "Ġfre": 2058,
      "irect": 2059,
      "Components": 2060,
      "ĠMor": 2061,
      "rone": 2062,
      "har": 2063,
      "angk": 2064,
      "Offset": 2065,
      "agen": 2066,
      "rog": 2067,
      "Ġtra": 2068,
      "itar": 2069,
      "enna": 2070,
      "cs": 2071,
      "Vertex": 2072,
      "view": 2073,
      "rie": 2074,
      "bb": 2075,
      "ĠWal": 2076,
      "war": 2077,
      "Now": 2078,
      "Ġcar": 2079,
      "bor": 2080,
      "link": 2081,
      "Th": 2082,
      "ugin": 2083,
      "OC": 2084,
      "prop": 2085,
      "sky": 2086,
      "sis": 2087,
      "aph": 2088,
      "ito": 2089,
      "EG": 2090,
      "test": 2091,
      "class": 2092,
      "Ġwh": 2093,
      "esto": 2094,
      "pton": 2095,
      "arsh": 2096,
      "eller": 2097,
      "itis": 2098,
      "ams": 2099,
      "SF": 2100,
      "Source": 2101,
      "Ġpres": 2102,
      "ucc": 2103,
      "iento": 2104,
      "eil": 2105,
      "iler": 2106,
      "ĠGal": 2107,
      "LP": 2108,
      "pos": 2109,
      "string": 2110,
      "isi": 2111,
      "ries": 2112,
      "ital": 2113,
      "sen": 2114,
      "oom": 2115,
      "ĠRaj": 2116,
      "ĠKe": 2117,
      "ĠMo": 2118,
      "ution": 2119,
      "Ġpret": 2120,
      "Port": 2121,
      "ohn": 2122,
      "ique": 2123,
      "Record": 2124,
      "uring": 2125,
      "Non": 2126,
      "rite": 2127,
      "CR": 2128,
      "ERN": 2129,
      "log": 2130,
      "hn": 2131,
      "Body": 2132,
      "Keys": 2133,
      "so": 2134,
      "Sett": 2135,
      "ĠRUT": 2136,
      "umn": 2137,
      "ranch": 2138,
      "Pos": 2139,
      "ĠUI": 2140,
      "ours": 2141,
      "ĠPol": 2142,
      "hab": 2143,
      "ĠHo": 2144,
      "Ġdist": 2145,
      "aker": 2146,
      "ilt": 2147,
      "Login": 2148,
      "akukan": 2149,
      "ideo": 2150,
      "emy": 2151,
      "El": 2152,
      "Video": 2153,
      "ueue": 2154,
      "inct": 2155,
      "Ġmy": 2156,
      "Marks": 2157,
      "review": 2158,
      "ymbol": 2159,
      "Ġpop": 2160,
      "lig": 2161,
      "eler": 2162,
      "ĠHe": 2163,
      "efont": 2164,
      "ĠGar": 2165,
      "eport": 2166,
      "elli": 2167,
      "Ġhab": 2168,
      "mond": 2169,
      "ocket": 2170,
      "Settings": 2171,
      "eft": 2172,
      "ĠEp": 2173,
      "ocalVar": 2174,
      "gg": 2175,
      "other": 2176,
      "TI": 2177,
      "Ġple": 2178,
      "bert": 2179,
      "page": 2180,
      "Sup": 2181,
      "yo": 2182,
      "atu": 2183,
      "etter": 2184,
      "ĠCav": 2185,
      "zn": 2186,
      "Script": 2187,
      "ahi": 2188,
      "annya": 2189,
      "Sal": 2190,
      "Did": 2191,
      "HL": 2192,
      "itle": 2193,
      "big": 2194,
      "ingen": 2195,
      "cher": 2196,
      "rel": 2197,
      "TO": 2198,
      "vo": 2199,
      "ĠCro": 2200,
      "uda": 2201,
      "Ġsur": 2202,
      "Screen": 2203,
      "Player": 2204,
      "Temp": 2205,
      "Ġmel": 2206,
      "ĠCont": 2207,
      "Rad": 2208,
      "FS": 2209,
      "ves": 2210,
      "Counter": 2211,
      "lich": 2212,
      "eston": 2213,
      "eva": 2214,
      "Types": 2215,
      "HS": 2216,
      "Show": 2217,
      "Ġvatt": 2218,
      "ĠIr": 2219,
      "Sql": 2220,
      "OU": 2221,
      "zin": 2222,
      "rvGroup": 2223,
      "ista": 2224,
      "MT": 2225,
      "Ġcyt": 2226,
      "ĠRh": 2227,
      "Queue": 2228,
      "Load": 2229,
      "ilde": 2230,
      "upt": 2231,
      "Ġaus": 2232,
      "count": 2233,
      "Para": 2234,
      "ĠHor": 2235,
      "right": 2236,
      "Ġcomp": 2237,
      "imi": 2238,
      "ude": 2239,
      "tils": 2240,
      "Items": 2241,
      "BE": 2242,
      "reens": 2243,
      "Dict": 2244,
      "ĠSom": 2245,
      "hd": 2246,
      "ashi": 2247,
      "Parameter": 2248,
      "lish": 2249,
      "Parser": 2250,
      "dl": 2251,
      "Ġstat": 2252,
      "ists": 2253,
      "yg": 2254,
      "RS": 2255,
      "ehyd": 2256,
      "illy": 2257,
      "nc": 2258,
      "ocument": 2259,
      "Compat": 2260,
      "yll": 2261,
      "htt": 2262,
      "vider": 2263,
      "Ġbr": 2264,
      "Ġconc": 2265,
      "ece": 2266,
      "omy": 2267,
      "Com": 2268,
      "Ġhot": 2269,
      "getC": 2270,
      "ystem": 2271,
      "aten": 2272,
      "osis": 2273,
      "rome": 2274,
      "gram": 2275,
      "iendo": 2276,
      "efore": 2277,
      "ones": 2278,
      "mouse": 2279,
      "ollis": 2280,
      "FT": 2281,
      "istic": 2282,
      "eed": 2283,
      "AB": 2284,
      "Ġins": 2285,
      "PL": 2286,
      "ki": 2287,
      "augh": 2288,
      "itte": 2289,
      "Ġtre": 2290,
      "atter": 2291,
      "Module": 2292,
      "ymph": 2293,
      "ĠGo": 2294,
      "Btn": 2295,
      "otrop": 2296,
      "ĠBerg": 2297,
      "ĠEst": 2298,
      "Ġele": 2299,
      "Bound": 2300,
      "FF": 2301,
      "create": 2302,
      "wick": 2303,
      "ika": 2304,
      "Wait": 2305,
      "Ġmin": 2306,
      "ĠPA": 2307,
      "Ġcontent": 2308,
      "URL": 2309,
      "irm": 2310,
      "ony": 2311,
      "ativ": 2312,
      "BL": 2313,
      "math": 2314,
      "aria": 2315,
      "une": 2316,
      "rine": 2317,
      "owan": 2318,
      "ĠPl": 2319,
      "aret": 2320,
      "Ġmast": 2321,
      "ici": 2322,
      "Plugin": 2323,
      "etta": 2324,
      "nej": 2325,
      "OL": 2326,
      "Ġpur": 2327,
      "imer": 2328,
      "icons": 2329,
      "BI": 2330,
      "ilit": 2331,
      "iley": 2332,
      "Ġmag": 2333,
      "ytes": 2334,
      "Ġenc": 2335,
      "iled": 2336,
      "hot": 2337,
      "AA": 2338,
      "hm": 2339,
      "ther": 2340,
      "GP": 2341,
      "ival": 2342,
      "ĠSte": 2343,
      "elet": 2344,
      "Ġconse": 2345,
      "obac": 2346,
      "aran": 2347,
      "Ġass": 2348,
      "SU": 2349,
      "ĠAy": 2350,
      "ache": 2351,
      "oen": 2352,
      "Struct": 2353,
      "allback": 2354,
      "andom": 2355,
      "ogen": 2356,
      "Ġcre": 2357,
      "Pk": 2358,
      "aint": 2359,
      "aler": 2360,
      "Operation": 2361,
      "Command": 2362,
      "Dev": 2363,
      "uml": 2364,
      "eek": 2365,
      "ĠAsh": 2366,
      "Ġtor": 2367,
      "zen": 2368,
      "bs": 2369,
      "Scroll": 2370,
      "atham": 2371,
      "uble": 2372,
      "iye": 2373,
      "bury": 2374,
      "Ġdham": 2375,
      "Ret": 2376,
      "Avg": 2377,
      "ited": 2378,
      "Sch": 2379,
      "ĠArch": 2380,
      "Ġpos": 2381,
      "Ġor": 2382,
      "imo": 2383,
      "osc": 2384,
      "Vis": 2385,
      "stock": 2386,
      "ayam": 2387,
      "Ġinv": 2388,
      "Font": 2389,
      "ample": 2390,
      "rou": 2391,
      "AE": 2392,
      "rug": 2393,
      "ether": 2394,
      "ĠPL": 2395,
      "eon": 2396,
      "Rout": 2397,
      "inf": 2398,
      "hal": 2399,
      "rown": 2400,
      "anja": 2401,
      "erto": 2402,
      "amo": 2403,
      "ulation": 2404,
      "Ġstr": 2405,
      "Ġpe": 2406,
      "mas": 2407,
      "roller": 2408,
      "tim": 2409,
      "opl": 2410,
      "Right": 2411,
      "ike": 2412,
      "tered": 2413,
      "Ġreg": 2414,
      "kit": 2415,
      "osph": 2416,
      "ristian": 2417,
      "rowser": 2418,
      "Ġvel": 2419,
      "ga": 2420,
      "ĠNag": 2421,
      "ogram": 2422,
      "ework": 2423,
      "Pack": 2424,
      "Top": 2425,
      "eco": 2426,
      "ogo": 2427,
      "ness": 2428,
      "olson": 2429,
      "vation": 2430,
      "ND": 2431,
      "Ptr": 2432,
      "ĠReg": 2433,
      "ĠRos": 2434,
      "outs": 2435,
      "Ġpers": 2436,
      "etch": 2437,
      "ono": 2438,
      "ados": 2439,
      "unsch": 2440,
      "GS": 2441,
      "asis": 2442,
      "CF": 2443,
      "Press": 2444,
      "face": 2445,
      "olicy": 2446,
      "nem": 2447,
      "Ġsil": 2448,
      "Task": 2449,
      "Ġduk": 2450,
      "lav": 2451,
      "oggle": 2452,
      "Ġmer": 2453,
      "ania": 2454,
      "ĠGir": 2455,
      "iol": 2456,
      "SXml": 2457,
      "Version": 2458,
      "ĠEM": 2459,
      "image": 2460,
      "assa": 2461,
      "umph": 2462,
      "czn": 2463,
      "oup": 2464,
      "Ġloc": 2465,
      "lj": 2466,
      "Search": 2467,
      "hes": 2468,
      "obb": 2469,
      "UID": 2470,
      "ĠMcInt": 2471,
      "Navig": 2472,
      "Http": 2473,
      "Equal": 2474,
      "Gl": 2475,
      "Ġsput": 2476,
      "Instance": 2477,
      "edit": 2478,
      "akes": 2479,
      "oji": 2480,
      "Character": 2481,
      "Ġinput": 2482,
      "Connection": 2483,
      "Unary": 2484,
      "olm": 2485,
      "illes": 2486,
      "lio": 2487,
      "Ġrect": 2488,
      "ilda": 2489,
      "Ġdo": 2490,
      "rame": 2491,
      "ĠDom": 2492,
      "atform": 2493,
      "angu": 2494,
      "asena": 2495,
      "ĠBer": 2496,
      "onucle": 2497,
      "Ġaf": 2498,
      "Props": 2499,
      "ĠEx": 2500,
      "aton": 2501,
      "Ġbul": 2502,
      "icker": 2503,
      "Ġext": 2504,
      "SON": 2505,
      "ĠMcL": 2506,
      "atas": 2507,
      "ART": 2508,
      "aron": 2509,
      "erred": 2510,
      "Ġing": 2511,
      "cre": 2512,
      "racket": 2513,
      "asal": 2514,
      "Pix": 2515,
      "uced": 2516,
      "getM": 2517,
      "Camera": 2518,
      "ology": 2519,
      "rew": 2520,
      "irl": 2521,
      "Ġparab": 2522,
      "Empty": 2523,
      "OW": 2524,
      "Ġsam": 2525,
      "ify": 2526,
      "screen": 2527,
      "Ġlle": 2528,
      "Mutability": 2529,
      "Ġsymbol": 2530,
      "head": 2531,
      "econds": 2532,
      "PD": 2533,
      "idden": 2534,
      "aliz": 2535,
      "idazole": 2536,
      "Ġmic": 2537,
      "Interface": 2538,
      "isTrack": 2539,
      "ador": 2540,
      "Ġgi": 2541,
      "ori": 2542,
      "ained": 2543,
      "alan": 2544,
      "rep": 2545,
      "arant": 2546,
      "cy": 2547,
      "ILL": 2548,
      "hy": 2549,
      "Ow": 2550,
      "apping": 2551,
      "ĠHay": 2552,
      "DL": 2553,
      "Fit": 2554,
      "ground": 2555,
      "Push": 2556,
      "azar": 2557,
      "Ġred": 2558,
      "rod": 2559,
      "ective": 2560,
      "Policy": 2561,
      "miss": 2562,
      "EP": 2563,
      "ury": 2564,
      "ikt": 2565,
      "Ġkar": 2566,
      "ĠLuc": 2567,
      "ials": 2568,
      "Target": 2569,
      "pm": 2570,
      "VCT": 2571,
      "Ġte": 2572,
      "ske": 2573,
      "lectic": 2574,
      "BP": 2575,
      "Ġfo": 2576,
      "Ġde": 2577,
      "ief": 2578,
      "ORT": 2579,
      "enden": 2580,
      "ĠCH": 2581,
      "osk": 2582,
      "nav": 2583,
      "FC": 2584,
      "raven": 2585,
      "Board": 2586,
      "eros": 2587,
      "Bl": 2588,
      "Callback": 2589,
      "bad": 2590,
      "RA": 2591,
      "oor": 2592,
      "Project": 2593,
      "iana": 2594,
      "vr": 2595,
      "Ġcol": 2596,
      "Handler": 2597,
      "rows": 2598,
      "ĠGi": 2599,
      "ister": 2600,
      "amily": 2601,
      "appe": 2602,
      "PO": 2603,
      "Device": 2604,
      "Sample": 2605,
      "ingham": 2606,
      "ĠSk": 2607,
      "race": 2608,
      "ytic": 2609,
      "inde": 2610,
      "ondo": 2611,
      "idin": 2612,
      "Ġpercent": 2613,
      "erno": 2614,
      "ardi": 2615,
      "char": 2616,
      "Ġviv": 2617,
      "Fact": 2618,
      "Flight": 2619,
      "arker": 2620,
      "eground": 2621,
      "esus": 2622,
      "ife": 2623,
      "Used": 2624,
      "Ġvutt": 2625,
      "ĠKx": 2626,
      "Ġmeg": 2627,
      "atiti": 2628,
      "ersch": 2629,
      "ĠBad": 2630,
      "code": 2631,
      "esse": 2632,
      "umann": 2633,
      "Ġbet": 2634,
      "Ġsu": 2635,
      "search": 2636,
      "oney": 2637,
      "ĠMax": 2638,
      "peat": 2639,
      "PI": 2640,
      "imple": 2641,
      "Ġmost": 2642,
      "ungs": 2643,
      "itone": 2644,
      "Ġferr": 2645,
      "Ġren": 2646,
      "Ġgel": 2647,
      "ilis": 2648,
      "wise": 2649,
      "ired": 2650,
      "pear": 2651,
      "inner": 2652,
      "Ġfamil": 2653,
      "ordan": 2654,
      "Ġdiss": 2655,
      "rift": 2656,
      "Ġknock": 2657,
      "rish": 2658,
      "Details": 2659,
      "ĠMaur": 2660,
      "ursor": 2661,
      "ushroom": 2662,
      "ergic": 2663,
      "ĠAll": 2664,
      "osi": 2665,
      "oon": 2666,
      "ĠGall": 2667,
      "eza": 2668,
      "Ġic": 2669,
      "outh": 2670,
      "Ġdata": 2671,
      "ĠBeat": 2672,
      "aze": 2673,
      "burg": 2674,
      "angle": 2675,
      "ahu": 2676,
      "aim": 2677,
      "anny": 2678,
      "DT": 2679,
      "zi": 2680,
      "ilm": 2681,
      "ĠRUTAR": 2682,
      "Save": 2683,
      "url": 2684,
      "ĠOb": 2685,
      "FR": 2686,
      "sid": 2687,
      "ahul": 2688,
      "ague": 2689,
      "rot": 2690,
      "ida": 2691,
      "Ġsubt": 2692,
      "urope": 2693,
      "roke": 2694,
      "lyn": 2695,
      "Ġphen": 2696,
      "tha": 2697,
      "ebra": 2698,
      "Bin": 2699,
      "eres": 2700,
      "stream": 2701,
      "OH": 2702,
      "Ġcle": 2703,
      "UD": 2704,
      "Ġbro": 2705,
      "ures": 2706,
      "ikan": 2707,
      "yatt": 2708,
      "stone": 2709,
      "Ext": 2710,
      "ĠBuk": 2711,
      "Provider": 2712,
      "Ġax": 2713,
      "Ġhead": 2714,
      "owell": 2715,
      "had": 2716,
      "ĠGh": 2717,
      "Wall": 2718,
      "ĠShe": 2719,
      "Adapter": 2720,
      "ĠBoy": 2721,
      "amine": 2722,
      "abbam": 2723,
      "Ġdign": 2724,
      "rust": 2725,
      "Args": 2726,
      "igo": 2727,
      "Ġposit": 2728,
      "amento": 2729,
      "ĠDal": 2730,
      "ĠAnd": 2731,
      "olver": 2732,
      "Des": 2733,
      "Ġmot": 2734,
      "ĠHumph": 2735,
      "tb": 2736,
      "mult": 2737,
      "Flag": 2738,
      "him": 2739,
      "odor": 2740,
      "rant": 2741,
      "ward": 2742,
      "uls": 2743,
      "NS": 2744,
      "Center": 2745,
      "iers": 2746,
      "arah": 2747,
      "Ġvert": 2748,
      "ĠCR": 2749,
      "sad": 2750,
      "ERC": 2751,
      "Ġhand": 2752,
      "Utils": 2753,
      "Ġprop": 2754,
      "Ġcr": 2755,
      "alam": 2756,
      "ffen": 2757,
      "EY": 2758,
      "raul": 2759,
      "Ġtot": 2760,
      "alar": 2761,
      "allel": 2762,
      "stant": 2763,
      "ational": 2764,
      "ĠMarg": 2765,
      "ranc": 2766,
      "urd": 2767,
      "aye": 2768,
      "umm": 2769,
      "VER": 2770,
      "ieg": 2771,
      "Ġmill": 2772,
      "ĠGr": 2773,
      "Controller": 2774,
      "Tab": 2775,
      "alm": 2776,
      "eno": 2777,
      "eless": 2778,
      "tol": 2779,
      "edd": 2780,
      "Ġabh": 2781,
      "ĠCorn": 2782,
      "Ġdil": 2783,
      "Str": 2784,
      "Ass": 2785,
      "ĠNorth": 2786,
      "ĠUt": 2787,
      "ello": 2788,
      "Ġkey": 2789,
      "Dto": 2790,
      "Ġexc": 2791,
      "por": 2792,
      "ĠNL": 2793,
      "uest": 2794,
      "Del": 2795,
      "Opt": 2796,
      "Ġten": 2797,
      "BT": 2798,
      "bre": 2799,
      "revi": 2800,
      "akespe": 2801,
      "wrap": 2802,
      "kar": 2803,
      "itrile": 2804,
      "Current": 2805,
      "Ġvucc": 2806,
      "aad": 2807,
      "ĠBa": 2808,
      "dk": 2809,
      "Ġat": 2810,
      "Ġkah": 2811,
      "Radius": 2812,
      "auer": 2813,
      "pop": 2814,
      "Ġmyc": 2815,
      "sche": 2816,
      "Ġprim": 2817,
      "ĠUIC": 2818,
      "inder": 2819,
      "Ġunder": 2820,
      "itting": 2821,
      "endez": 2822,
      "sy": 2823,
      "reet": 2824,
      "ryst": 2825,
      "fordshire": 2826,
      "VS": 2827,
      "anger": 2828,
      "trl": 2829,
      "esu": 2830,
      "idad": 2831,
      "ĠMull": 2832,
      "oster": 2833,
      "si": 2834,
      "ĠCan": 2835,
      "ily": 2836,
      "Beat": 2837,
      "ĠGreen": 2838,
      "Vector": 2839,
      "ches": 2840,
      "imation": 2841,
      "ommon": 2842,
      "sn": 2843,
      "iaz": 2844,
      "sec": 2845,
      "eder": 2846,
      "Ġven": 2847,
      "Ġsem": 2848,
      "house": 2849,
      "Dir": 2850,
      "Child": 2851,
      "aird": 2852,
      "Re": 2853,
      "atir": 2854,
      "Chang": 2855,
      "icate": 2856,
      "obil": 2857,
      "Popup": 2858,
      "andal": 2859,
      "eze": 2860,
      "struct": 2861,
      "ĠComp": 2862,
      "ĠTon": 2863,
      "Photo": 2864,
      "ĠStaff": 2865,
      "Stack": 2866,
      "ĠStr": 2867,
      "One": 2868,
      "Ġtub": 2869,
      "ences": 2870,
      "ging": 2871,
      "acht": 2872,
      "ĠWeb": 2873,
      "quier": 2874,
      "System": 2875,
      "nes": 2876,
      "drop": 2877,
      "fol": 2878,
      "ypt": 2879,
      "bum": 2880,
      "Byte": 2881,
      "alur": 2882,
      "ĠBarcl": 2883,
      "ĠSab": 2884,
      "ilib": 2885,
      "enie": 2886,
      "INT": 2887,
      "lia": 2888,
      "ĠAp": 2889,
      "ije": 2890,
      "Keyboard": 2891,
      "brevi": 2892,
      "Ġwarm": 2893,
      "ĠFerr": 2894,
      "Ġconf": 2895,
      "Ġest": 2896,
      "cor": 2897,
      "quam": 2898,
      "ayan": 2899,
      "ska": 2900,
      "ĠHer": 2901,
      "ulin": 2902,
      "Mov": 2903,
      "iros": 2904,
      "orum": 2905,
      "Route": 2906,
      "iyet": 2907,
      "has": 2908,
      "iller": 2909,
      "azi": 2910,
      "sql": 2911,
      "Ġet": 2912,
      "abs": 2913,
      "sman": 2914,
      "ME": 2915,
      "Aud": 2916,
      "Case": 2917,
      "eman": 2918,
      "ĠMain": 2919,
      "Ġbe": 2920,
      "uchi": 2921,
      "zym": 2922,
      "orrh": 2923,
      "ikum": 2924,
      "Ġfile": 2925,
      "jel": 2926,
      "ĠsubTest": 2927,
      "olds": 2928,
      "elf": 2929,
      "RAN": 2930,
      "ĠMa": 2931,
      "Ġrup": 2932,
      "ements": 2933,
      "Ġeg": 2934,
      "Percent": 2935,
      "lt": 2936,
      "QL": 2937,
      "uang": 2938,
      "Document": 2939,
      "Product": 2940,
      "ĠFair": 2941,
      "Ġatth": 2942,
      "ewer": 2943,
      "Ġodp": 2944,
      "Ġcin": 2945,
      "Ac": 2946,
      "Ġtem": 2947,
      "iner": 2948,
      "ators": 2949,
      "asp": 2950,
      "Ġmet": 2951,
      "Ġbo": 2952,
      "GA": 2953,
      "ĠHein": 2954,
      "ube": 2955,
      "ĠGer": 2956,
      "Ġmod": 2957,
      "ehen": 2958,
      "wen": 2959,
      "erre": 2960,
      "Ġaff": 2961,
      "kk": 2962,
      "arra": 2963,
      "ĠGro": 2964,
      "cd": 2965,
      "inh": 2966,
      "ĠLut": 2967,
      "aste": 2968,
      "aries": 2969,
      "ograph": 2970,
      "spl": 2971,
      "DF": 2972,
      "onda": 2973,
      "aris": 2974,
      "vach": 2975,
      "wt": 2976,
      "iper": 2977,
      "olt": 2978,
      "Pass": 2979,
      "ieht": 2980,
      "atin": 2981,
      "elo": 2982,
      "ĠCam": 2983,
      "aneu": 2984,
      "ramework": 2985,
      "ission": 2986,
      "ryl": 2987,
      "XY": 2988,
      "ĠAss": 2989,
      "We": 2990,
      "ĠRad": 2991,
      "rach": 2992,
      "ĠEng": 2993,
      "rik": 2994,
      "Navigator": 2995,
      "ĠHaw": 2996,
      "ruff": 2997,
      "webElement": 2998,
      "ermi": 2999,
      "Tree": 3000,
      "inden": 3001,
      "Ġdev": 3002,
      "unct": 3003,
      "stat": 3004,
      "Ġmit": 3005,
      "ofar": 3006,
      "iser": 3007,
      "arin": 3008,
      "ongo": 3009,
      "ĠSur": 3010,
      "igan": 3011,
      "yloxy": 3012,
      "col": 3013,
      "Area": 3014,
      "align": 3015,
      "lands": 3016,
      "sun": 3017,
      "ibb": 3018,
      "phal": 3019,
      "YPE": 3020,
      "romo": 3021,
      "iko": 3022,
      "Each": 3023,
      "Unit": 3024,
      "write": 3025,
      "Kind": 3026,
      "ĠMal": 3027,
      "Core": 3028,
      "If": 3029,
      "VP": 3030,
      "ĠUl": 3031,
      "adam": 3032,
      "Ab": 3033,
      "ĠPet": 3034,
      "ells": 3035,
      "ky": 3036,
      "feit": 3037,
      "Ġart": 3038,
      "def": 3039,
      "iph": 3040,
      "ool": 3041,
      "ĠBrit": 3042,
      "Cap": 3043,
      "Ġoct": 3044,
      "atts": 3045,
      "ela": 3046,
      "rex": 3047,
      "nown": 3048,
      "Ġand": 3049,
      "lis": 3050,
      "Ġid": 3051,
      "rypt": 3052,
      "olid": 3053,
      "hens": 3054,
      "ĠFA": 3055,
      "list": 3056,
      "Grid": 3057,
      "ucleaires": 3058,
      "UE": 3059,
      "umble": 3060,
      "LAG": 3061,
      "Ap": 3062,
      "agger": 3063,
      "etz": 3064,
      "ysz": 3065,
      "posit": 3066,
      "Preview": 3067,
      "greg": 3068,
      "Pane": 3069,
      "ĠSL": 3070,
      "owe": 3071,
      "ubs": 3072,
      "urk": 3073,
      "angs": 3074,
      "rote": 3075,
      "oku": 3076,
      "Ġauto": 3077,
      "ising": 3078,
      "Ġrealiz": 3079,
      "Drop": 3080,
      "Ġmar": 3081,
      "0x": 3082,
      "<0x": 3083,
      "Ġcond": 3084,
      "ĠWill": 3085,
      "etic": 3086,
      "RGB": 3087,
      "IK": 3088,
      "resh": 3089,
      "ĠGab": 3090,
      "iffer": 3091,
      "Ġther": 3092,
      "Rx": 3093,
      "RxDocument": 3094,
      "Ġatt": 3095,
      "rict": 3096,
      "comstock": 3097,
      "ĠSRP": 3098,
      "Asp": 3099,
      "icle": 3100,
      "ahl": 3101,
      "ekt": 3102,
      "Support": 3103,
      "chn": 3104,
      "agon": 3105,
      "Ġbre": 3106,
      "ĠYam": 3107,
      "kinson": 3108,
      "ĠMaj": 3109,
      "Ġnov": 3110,
      "phenyl": 3111,
      "Ġbeg": 3112,
      "ĠAug": 3113,
      "thorax": 3114,
      "igation": 3115,
      "Events": 3116,
      "rane": 3117,
      "ToProps": 3118,
      "iddle": 3119,
      "ĠBal": 3120,
      "anes": 3121,
      "ĠFitz": 3122,
      "erial": 3123,
      "illus": 3124,
      "Concept": 3125,
      "YY": 3126,
      "Ġtw": 3127,
      "Ġmand": 3128,
      "Graph": 3129,
      "ĠPad": 3130,
      "beat": 3131,
      "ATIV": 3132,
      "Perm": 3133,
      "ophor": 3134,
      "xx": 3135,
      "http": 3136,
      "rington": 3137,
      "follow": 3138,
      "ĠBern": 3139,
      "Ġrev": 3140,
      "agin": 3141,
      "uana": 3142,
      "Ġla": 3143,
      "illon": 3144,
      "Ġneg": 3145,
      "aved": 3146,
      "isms": 3147,
      "Ent": 3148,
      "Ġhalf": 3149,
      "cup": 3150,
      "Ġped": 3151,
      "expr": 3152,
      "Ġcele": 3153,
      "Ġgacch": 3154,
      "oe": 3155,
      "onom": 3156,
      "Ġfast": 3157,
      "Compl": 3158,
      "ermin": 3159,
      "ĠLiv": 3160,
      "hook": 3161,
      "Edit": 3162,
      "She": 3163,
      "Choice": 3164,
      "Ġju": 3165,
      "Root": 3166,
      "acet": 3167,
      "Ġport": 3168,
      "iot": 3169,
      "anche": 3170,
      "Trans": 3171,
      "ĠKais": 3172,
      "imiz": 3173,
      "Br": 3174,
      "GT": 3175,
      "XYZ": 3176,
      "Ġsob": 3177,
      "wan": 3178,
      "exec": 3179,
      "irth": 3180,
      "Matrix": 3181,
      "Dispatch": 3182,
      "ommod": 3183,
      "SL": 3184,
      "ently": 3185,
      "Shape": 3186,
      "cul": 3187,
      "ĠCyr": 3188,
      "iat": 3189,
      "arded": 3190,
      "etr": 3191,
      "onna": 3192,
      "yer": 3193,
      "ikut": 3194,
      "iert": 3195,
      "Ġbas": 3196,
      "idget": 3197,
      "ĠBog": 3198,
      "offset": 3199,
      "uge": 3200,
      "ympt": 3201,
      "Lua": 3202,
      "plot": 3203,
      "method": 3204,
      "egu": 3205,
      "corr": 3206,
      "BU": 3207,
      "Ġinst": 3208,
      "thol": 3209,
      "iary": 3210,
      "rek": 3211,
      "esz": 3212,
      "ctivity": 3213,
      "sie": 3214,
      "bib": 3215,
      "Ġtro": 3216,
      "II": 3217,
      "SH": 3218,
      "Ġwa": 3219,
      "ĠLak": 3220,
      "quare": 3221,
      "ried": 3222,
      "icles": 3223,
      "ĠPe": 3224,
      "anvas": 3225,
      "obe": 3226,
      "BR": 3227,
      "ateral": 3228,
      "ĠPro": 3229,
      "nego": 3230,
      "ĠEug": 3231,
      "adal": 3232,
      "Ġfe": 3233,
      "rig": 3234,
      "Base": 3235,
      "Column": 3236,
      "ydro": 3237,
      "unes": 3238,
      "sor": 3239,
      "erecht": 3240,
      "iran": 3241,
      "Ġall": 3242,
      "ĠDown": 3243,
      "apsed": 3244,
      "jal": 3245,
      "urity": 3246,
      "DM": 3247,
      "Factory": 3248,
      "Ġbase": 3249,
      "okat": 3250,
      "etto": 3251,
      "ĠDod": 3252,
      "Before": 3253,
      "IZ": 3254,
      "param": 3255,
      "Platform": 3256,
      "iber": 3257,
      "asus": 3258,
      "Ġdep": 3259,
      "ĠDh": 3260,
      "Ġyath": 3261,
      "iven": 3262,
      "ĠAugust": 3263,
      "itten": 3264,
      "Ġnaj": 3265,
      "itim": 3266,
      "Arch": 3267,
      "hatu": 3268,
      "imet": 3269,
      "yb": 3270,
      "anne": 3271,
      "then": 3272,
      "namefont": 3273,
      "Canvas": 3274,
      "udan": 3275,
      "mund": 3276,
      "evel": 3277,
      "opy": 3278,
      "mont": 3279,
      "ullam": 3280,
      "post": 3281,
      "rade": 3282,
      "CTOR": 3283,
      "Background": 3284,
      "Sort": 3285,
      "Ġphot": 3286,
      "Enc": 3287,
      "ĠOl": 3288,
      "Space": 3289,
      "ĠlocalVar": 3290,
      "ottom": 3291,
      "ĠViv": 3292,
      "ublic": 3293,
      "game": 3294,
      "ĠNP": 3295,
      "oja": 3296,
      "ARR": 3297,
      "Folder": 3298,
      "cest": 3299,
      "Texture": 3300,
      "dd": 3301,
      "organ": 3302,
      "ivo": 3303,
      "Level": 3304,
      "erme": 3305,
      "adis": 3306,
      "Ġdob": 3307,
      "Activity": 3308,
      "engu": 3309,
      "encent": 3310,
      "ASE": 3311,
      "ĠPel": 3312,
      "ungan": 3313,
      "arbox": 3314,
      "ELE": 3315,
      "ĠBo": 3316,
      "ipe": 3317,
      "ĠIN": 3318,
      "ĠKey": 3319,
      "ousse": 3320,
      "Scale": 3321,
      "ELEASE": 3322,
      "Ġitem": 3323,
      "rech": 3324,
      "eben": 3325,
      "SrvGroup": 3326,
      "rij": 3327,
      "Tmp": 3328,
      "ĠSpring": 3329,
      "Ġconsequ": 3330,
      "ential": 3331,
      "cel": 3332,
      "ple": 3333,
      "odh": 3334,
      "time": 3335,
      "ept": 3336,
      "Ġaliqu": 3337,
      "www": 3338,
      "wwwpond": 3339,
      "ento": 3340,
      "Ġlib": 3341,
      "Ġdrag": 3342,
      "andl": 3343,
      "ctx": 3344,
      "Post": 3345,
      "Ġmultic": 3346,
      "iam": 3347,
      "Match": 3348,
      "CPP": 3349,
      "ĠInput": 3350,
      "ĠKish": 3351,
      "AI": 3352,
      "Ġlab": 3353,
      "ĠPap": 3354,
      "antile": 3355,
      "urry": 3356,
      "erton": 3357,
      "ĠMH": 3358,
      "gd": 3359,
      "RAM": 3360,
      "loud": 3361,
      "uses": 3362,
      "ARG": 3363,
      "max": 3364,
      "cos": 3365,
      "ĠJac": 3366,
      "dis": 3367,
      "Package": 3368,
      "Idle": 3369,
      "vm": 3370,
      "IdleSync": 3371,
      "Pkg": 3372,
      "ParaPkg": 3373,
      "lus": 3374,
      "ĠBrid": 3375,
      "Ġrh": 3376,
      "dam": 3377,
      "uman": 3378,
      "aras": 3379,
      "Ġlu": 3380,
      "Ġgah": 3381,
      "nah": 3382,
      "ALL": 3383,
      "otlin": 3384,
      "icture": 3385,
      "Ġsac": 3386,
      "henium": 3387,
      "iom": 3388,
      "buf": 3389,
      "ĠHeid": 3390,
      "fu": 3391,
      "Ġtran": 3392,
      "awks": 3393,
      "Take": 3394,
      "ship": 3395,
      "ĠWat": 3396,
      "feat": 3397,
      "ENUM": 3398,
      "NewUrl": 3399,
      "formed": 3400,
      "Ġgahet": 3401,
      "Ġmicro": 3402,
      "ĠhalfCanvas": 3403,
      "amos": 3404,
      "Ġmem": 3405,
      "omes": 3406,
      "ĠAv": 3407,
      "ershire": 3408,
      "usp": 3409,
      "ĠVen": 3410,
      "arlene": 3411,
      "MethodBeat": 3412,
      "mit": 3413,
      "coprote": 3414,
      "Ġanis": 3415,
      "gn": 3416,
      "Raw": 3417,
      "Ġneutral": 3418,
      "Ġgol": 3419,
      "ĠPat": 3420,
      "Ġmorph": 3421,
      "ĠMerc": 3422,
      "aric": 3423,
      "enny": 3424,
      "ĠAst": 3425,
      "job": 3426,
      "enia": 3427,
      "osin": 3428,
      "apped": 3429,
      "Do": 3430,
      "sten": 3431,
      "ĠMod": 3432,
      "ober": 3433,
      "OCC": 3434,
      "Point": 3435,
      "aniy": 3436,
      "uo": 3437,
      "rar": 3438,
      "NN": 3439,
      "alg": 3440,
      "size": 3441,
      "fill": 3442,
      "Ġsett": 3443,
      "Ġinterview": 3444,
      "Ġsle": 3445,
      "enth": 3446,
      "ĠBang": 3447,
      "abbo": 3448,
      "ĠPfe": 3449,
      "FER": 3450,
      "ago": 3451,
      "tin": 3452,
      "Ġus": 3453,
      "otherm": 3454,
      "esting": 3455,
      "WMN": 3456,
      "sz": 3457,
      "atory": 3458,
      "hed": 3459,
      "orman": 3460,
      "Put": 3461,
      "alaikum": 3462,
      "ĠPear": 3463,
      "orrent": 3464,
      "ehyde": 3465,
      "ordon": 3466,
      "EE": 3467,
      "ĠCov": 3468,
      "VOA": 3469,
      "lr": 3470,
      "ilian": 3471,
      "lef": 3472,
      "ungk": 3473,
      "StructOf": 3474,
      "ĠPay": 3475,
      "ycle": 3476,
      "iente": 3477,
      "jug": 3478,
      "ĠMcM": 3479,
      "Archive": 3480,
      "curs": 3481,
      "Left": 3482,
      "stm": 3483,
      "keit": 3484,
      "ified": 3485,
      "egen": 3486,
      "inter": 3487,
      "Pressed": 3488,
      "piece": 3489,
      "bed": 3490,
      "ĠLD": 3491,
      "ilon": 3492,
      "erat": 3493,
      "Ġrepet": 3494,
      "band": 3495,
      "ued": 3496,
      "utte": 3497,
      "LAN": 3498,
      "ohl": 3499,
      "burn": 3500,
      "ĠHod": 3501,
      "command": 3502,
      "imura": 3503,
      "Ġher": 3504,
      "DBOutput": 3505,
      "Ġcal": 3506,
      "river": 3507,
      "akam": 3508,
      "Ġprec": 3509,
      "Mapping": 3510,
      "rizz": 3511,
      "arts": 3512,
      "ongs": 3513,
      "ategory": 3514,
      "dal": 3515,
      "ummy": 3516,
      "ĠInd": 3517,
      "ivers": 3518,
      "Values": 3519,
      "Ġu": 3520,
      "ĠMcKin": 3521,
      "Ġtop": 3522,
      "aty": 3523,
      "amom": 3524,
      "Max": 3525,
      "itu": 3526,
      "ifier": 3527,
      "arshal": 3528,
      "exual": 3529,
      "ugo": 3530,
      "oxic": 3531,
      "EO": 3532,
      "estruct": 3533,
      "ĠLour": 3534,
      "slide": 3535,
      "BitCount": 3536,
      "Ġodb": 3537,
      "mic": 3538,
      "ĠDomin": 3539,
      "uration": 3540,
      "atal": 3541,
      "Ġdisc": 3542,
      "estro": 3543,
      "Ġsadd": 3544,
      "Findings": 3545,
      "idu": 3546,
      "ying": 3547,
      "ateMutability": 3548,
      "ously": 3549,
      "eps": 3550,
      "ĠGod": 3551,
      "ardin": 3552,
      "Ġaut": 3553,
      "ByURL": 3554,
      "ĠSa": 3555,
      "Ġausten": 3556,
      "ĠMend": 3557,
      "amanam": 3558,
      "edRight": 3559,
      "Ġit": 3560,
      "ĠLev": 3561,
      "aking": 3562,
      "hang": 3563,
      "setF": 3564,
      "border": 3565,
      "Ok": 3566,
      "Ġprimary": 3567,
      "phrine": 3568,
      "Ġselect": 3569,
      "Ġiz": 3570,
      "dev": 3571,
      "zhou": 3572,
      "ĠSlov": 3573,
      "ĠAri": 3574,
      "ature": 3575,
      "Ġtuberc": 3576,
      "Bib": 3577,
      "uncul": 3578,
      "ected": 3579,
      "este": 3580,
      "ariant": 3581,
      "Ġnam": 3582,
      "ATE": 3583,
      "Ant": 3584,
      "iesz": 3585,
      "iga": 3586,
      "Listener": 3587,
      "assing": 3588,
      "ĠEnd": 3589,
      "methyl": 3590,
      "mak": 3591,
      "uent": 3592,
      "egan": 3593,
      "Nam": 3594,
      "uje": 3595,
      "ĠGust": 3596,
      "Ġflav": 3597,
      "aldehyde": 3598,
      "ĠBos": 3599,
      "Rew": 3600,
      "Ġkon": 3601,
      "rained": 3602,
      "abin": 3603,
      "iao": 3604,
      "Ġbit": 3605,
      "ĠNor": 3606,
      "elia": 3607,
      "hatt": 3608,
      "ĠServ": 3609,
      "aq": 3610,
      "Delete": 3611,
      "olan": 3612,
      "Ġbes": 3613,
      "spec": 3614,
      "UND": 3615,
      "hut": 3616,
      "Ġpinch": 3617,
      "atholic": 3618,
      "Mat": 3619,
      "iance": 3620,
      "Ġpri": 3621,
      "ĠSil": 3622,
      "findBy": 3623,
      "ĠSomers": 3624,
      "calright": 3625,
      "erken": 3626,
      "Preference": 3627,
      "dPar": 3628,
      "flow": 3629,
      "ibility": 3630,
      "oza": 3631,
      "BUR": 3632,
      "anas": 3633,
      "ĠGen": 3634,
      "ĠObject": 3635,
      "overe": 3636,
      "Ġhomot": 3637,
      "eff": 3638,
      "mooth": 3639,
      "alBlock": 3640,
      "uzz": 3641,
      "Guid": 3642,
      "Ġnek": 3643,
      "utan": 3644,
      "election": 3645,
      "cell": 3646,
      "resc": 3647,
      "Fields": 3648,
      "unci": 3649,
      "ĠNo": 3650,
      "getR": 3651,
      "Selection": 3652,
      "arik": 3653,
      "adow": 3654,
      "arkar": 3655,
      "aily": 3656,
      "STR": 3657,
      "inger": 3658,
      "Ġfont": 3659,
      "Ġdiff": 3660,
      "qt": 3661,
      "utta": 3662,
      "Ġdek": 3663,
      "empor": 3664,
      "kes": 3665,
      "ymp": 3666,
      "cation": 3667,
      "sem": 3668,
      "Visual": 3669,
      "rival": 3670,
      "ird": 3671,
      "Ġparl": 3672,
      "abc": 3673,
      "ITH": 3674,
      "ĠIP": 3675,
      "Ġunb": 3676,
      "ĠEhn": 3677,
      "ĠEhnerg": 3678,
      "rident": 3679,
      "ĠSyl": 3680,
      "esti": 3681,
      "oving": 3682,
      "ĠData": 3683,
      "eled": 3684,
      "ĠPack": 3685,
      "wyn": 3686,
      "yar": 3687,
      "ĠDer": 3688,
      "Ġexceed": 3689,
      "thal": 3690,
      "Ġgo": 3691,
      "ueva": 3692,
      "enda": 3693,
      "idal": 3694,
      "mn": 3695,
      "Pen": 3696,
      "nail": 3697,
      "nique": 3698,
      "Password": 3699,
      "ored": 3700,
      "ointer": 3701,
      "ĠRam": 3702,
      "hole": 3703,
      "LOT": 3704,
      "enberg": 3705,
      "Unique": 3706,
      "CV": 3707,
      "Picker": 3708,
      "ulu": 3709,
      "VR": 3710,
      "ensch": 3711,
      "FieldContext": 3712,
      "owied": 3713,
      "ollo": 3714,
      "issions": 3715,
      "Owner": 3716,
      "thel": 3717,
      "Okno": 3718,
      "ORN": 3719,
      "Ġthrom": 3720,
      "ĠDon": 3721,
      "ĠHan": 3722,
      "build": 3723,
      "Ġaug": 3724,
      "etty": 3725,
      "ylate": 3726,
      "Ġline": 3727,
      "eca": 3728,
      "ĠTim": 3729,
      "Ġcheck": 3730,
      "lg": 3731,
      "Ġnucle": 3732,
      "vey": 3733,
      "wd": 3734,
      "hl": 3735,
      "gh": 3736,
      "acher": 3737,
      "ibul": 3738,
      "ahon": 3739,
      "assel": 3740,
      "Ġprob": 3741,
      "ceptron": 3742,
      "noc": 3743,
      "ĠMcGu": 3744,
      "Ġps": 3745,
      "non": 3746,
      "orbid": 3747,
      "ĠNau": 3748,
      "ĠLob": 3749,
      "agy": 3750,
      "Ġtend": 3751,
      "Cycle": 3752,
      "Ġsoft": 3753,
      "Spec": 3754,
      "EF": 3755,
      "Ġanth": 3756,
      "Ġcap": 3757,
      "ondition": 3758,
      "Ġhandle": 3759,
      "akespeare": 3760,
      "oration": 3761,
      "dec": 3762,
      "ogn": 3763,
      "ĠBru": 3764,
      "chester": 3765,
      "atherm": 3766,
      "args": 3767,
      "json": 3768,
      "handle": 3769,
      "ĠGold": 3770,
      "ĠSn": 3771,
      "arca": 3772,
      "Ġstock": 3773,
      "jac": 3774,
      "HE": 3775,
      "bro": 3776,
      "ĠNe": 3777,
      "erea": 3778,
      "orod": 3779,
      "assert": 3780,
      "Ġguz": 3781,
      "uden": 3782,
      "Ġpron": 3783,
      "ĠdSample": 3784,
      "Selector": 3785,
      "acles": 3786,
      "BD": 3787,
      "next": 3788,
      "adas": 3789,
      "No": 3790,
      "Te": 3791,
      "valid": 3792,
      "asmim": 3793,
      "rivalTime": 3794,
      "Order": 3795,
      "Ġprof": 3796,
      "igen": 3797,
      "heel": 3798,
      "lid": 3799,
      "ĠKar": 3800,
      "plication": 3801,
      "Ġmal": 3802,
      "Display": 3803,
      "BinBuf": 3804,
      "ahin": 3805,
      "attha": 3806,
      "itre": 3807,
      "cpHeader": 3808,
      "slate": 3809,
      "Ġuser": 3810,
      "Ġaw": 3811,
      "ban": 3812,
      "eln": 3813,
      "eo": 3814,
      "Ġdigest": 3815,
      "ĠCom": 3816,
      "Condition": 3817,
      "thorace": 3818,
      "used": 3819,
      "uted": 3820,
      "ught": 3821,
      "ican": 3822,
      "icher": 3823,
      "ims": 3824,
      "agi": 3825,
      "aid": 3826,
      "action": 3827,
      "bin": 3828,
      "Ġstri": 3829,
      "MVC": 3830,
      "epo": 3831,
      "occo": 3832,
      "swire": 3833,
      "Ġsig": 3834,
      "aldo": 3835,
      "ĠDav": 3836,
      "ĠBag": 3837,
      "astic": 3838,
      "bi": 3839,
      "ĠDun": 3840,
      "ozz": 3841,
      "Ġist": 3842,
      "ĠImm": 3843,
      "xim": 3844,
      "haman": 3845,
      "ĠBis": 3846,
      "oda": 3847,
      "Penis": 3848,
      "ERS": 3849,
      "ĠSy": 3850,
      "anguage": 3851,
      "aux": 3852,
      "BURTS": 3853,
      "addington": 3854,
      "foreground": 3855,
      "marshal": 3856,
      "Ġung": 3857,
      "pre": 3858,
      "Ġpon": 3859,
      "tik": 3860,
      "Accept": 3861,
      "ecode": 3862,
      "Ġwav": 3863,
      "Ġform": 3864,
      "ustomer": 3865,
      "dom": 3866,
      "arp": 3867,
      "ĠRen": 3868,
      "tf": 3869,
      "uba": 3870,
      "Ġpartur": 3871,
      "Ġadh": 3872,
      "Proxy": 3873,
      "iquid": 3874,
      "erche": 3875,
      "MO": 3876,
      "eming": 3877,
      "info": 3878,
      "ewise": 3879,
      "ĠText": 3880,
      "ided": 3881,
      "enumer": 3882,
      "Ġtet": 3883,
      "oper": 3884,
      "adig": 3885,
      "eronica": 3886,
      "omon": 3887,
      "vid": 3888,
      "JSON": 3889,
      "VCTarget": 3890,
      "ieben": 3891,
      "inds": 3892,
      "irs": 3893,
      "izer": 3894,
      "furt": 3895,
      "lass": 3896,
      "Ġanesthet": 3897,
      "hib": 3898,
      "ĠReich": 3899,
      "afa": 3900,
      "rave": 3901,
      "bracket": 3902,
      "ku": 3903,
      "ĠPrit": 3904,
      "ulpt": 3905,
      "riend": 3906,
      "Ġsmear": 3907,
      "leps": 3908,
      "usses": 3909,
      "ares": 3910,
      "braith": 3911,
      "select": 3912,
      "vationMap": 3913,
      "eas": 3914,
      "Pr": 3915,
      "ĠMcGr": 3916,
      "alde": 3917,
      "inz": 3918,
      "olut": 3919,
      "lyPlugin": 3920,
      "Ġri": 3921,
      "wait": 3922,
      "model": 3923,
      "oso": 3924,
      "astian": 3925,
      "ĠInt": 3926,
      "Options": 3927,
      "ipal": 3928,
      "odnik": 3929,
      "span": 3930,
      "ĠAF": 3931,
      "oring": 3932,
      "pg": 3933,
      "Face": 3934,
      "Ġvolt": 3935,
      "recht": 3936,
      "epin": 3937,
      "ECT": 3938,
      "opic": 3939,
      "obec": 3940,
      "ritz": 3941,
      "ĠRoan": 3942,
      "Ġnum": 3943,
      "Theme": 3944,
      "thar": 3945,
      "Dep": 3946,
      "recl": 3947,
      "CU": 3948,
      "ables": 3949,
      "LL": 3950,
      "ĠPand": 3951,
      "illian": 3952,
      "Math": 3953,
      "Ġlymph": 3954,
      "ply": 3955,
      "inander": 3956,
      "cm": 3957,
      "mid": 3958,
      "reten": 3959,
      "Ġfauc": 3960,
      "FO": 3961,
      "itro": 3962,
      "Enum": 3963,
      "adani": 3964,
      "Ġug": 3965,
      "eiro": 3966,
      "utor": 3967,
      "idunt": 3968,
      "rm": 3969,
      "anis": 3970,
      "isting": 3971,
      "ICK": 3972,
      "scale": 3973,
      "yz": 3974,
      "ĠPic": 3975,
      "enko": 3976,
      "Bad": 3977,
      "ĠAT": 3978,
      "athy": 3979,
      "ĠHait": 3980,
      "ICAL": 3981,
      "Cle": 3982,
      "ĠRUTARE": 3983,
      "ĠSales": 3984,
      "Ins": 3985,
      "ingan": 3986,
      "Ġmenjal": 3987,
      "ige": 3988,
      "VID": 3989,
      "Long": 3990,
      "ĠBST": 3991,
      "ĠNST": 3992,
      "return": 3993,
      "Ġmont": 3994,
      "inia": 3995,
      "Ġphotoc": 3996,
      "Ġmart": 3997,
      "zej": 3998,
      "nest": 3999,
      "VIC": 4000,
      "Ġperj": 4001,
      "lyph": 4002,
      "ĠSey": 4003,
      "ocz": 4004,
      "Ġcard": 4005,
      "apkan": 4006,
      "Active": 4007,
      "Ġunt": 4008,
      "irc": 4009,
      "INE": 4010,
      "apar": 4011,
      "Ġdeg": 4012,
      "ecz": 4013,
      "Ġdiv": 4014,
      "Ġkahel": 4015,
      "ollision": 4016,
      "warl": 4017,
      "ened": 4018,
      "acer": 4019,
      "Collision": 4020,
      "OSS": 4021,
      "Construct": 4022,
      "mington": 4023,
      "weatherm": 4024,
      "ĠHerm": 4025,
      "KR": 4026,
      "GFS": 4027,
      "ĠVerd": 4028,
      "Ġback": 4029,
      "ĠWarwick": 4030,
      "ĠGerr": 4031,
      "ocyan": 4032,
      "DialogOpen": 4033,
      "Art": 4034,
      "Integer": 4035,
      "ety": 4036,
      "obacter": 4037,
      "append": 4038,
      "ments": 4039,
      "orld": 4040,
      "usive": 4041,
      "amer": 4042,
      "hin": 4043,
      "vonne": 4044,
      "Ġvedit": 4045,
      "ITT": 4046,
      "ojo": 4047,
      "ĠTol": 4048,
      "uts": 4049,
      "Ġrib": 4050,
      "olyb": 4051,
      "Ġview": 4052,
      "ycler": 4053,
      "ĠDev": 4054,
      "ĠCur": 4055,
      "ublicKey": 4056,
      "omn": 4057,
      "brado": 4058,
      "Mutex": 4059,
      "Ġsat": 4060,
      "Ġhe": 4061,
      "nung": 4062,
      "yne": 4063,
      "olytic": 4064,
      "Extens": 4065,
      "Days": 4066,
      "oding": 4067,
      "ĠNich": 4068,
      "Ġplead": 4069,
      "NonUser": 4070,
      "MBT": 4071,
      "aine": 4072,
      "ĠVillar": 4073,
      "idas": 4074,
      "Modal": 4075,
      "inas": 4076,
      "onuclear": 4077,
      "anal": 4078,
      "ounc": 4079,
      "CON": 4080,
      "azz": 4081,
      "ns": 4082,
      "ĠHert": 4083,
      "ourg": 4084,
      "ĠRet": 4085,
      "property": 4086,
      "here": 4087,
      "ovi": 4088,
      "UV": 4089,
      "Ġot": 4090,
      "Ġsag": 4091,
      "ynth": 4092,
      "Ġerg": 4093,
      "UVW": 4094,
      "ancy": 4095,
      "Ġvolupt": 4096,
      "ĠChron": 4097,
      "esso": 4098,
      "nalia": 4099,
      "ĠMich": 4100,
      "Ġng": 4101,
      "jee": 4102,
      "child": 4103,
      "atat": 4104,
      "ocalObject": 4105,
      "issense": 4106,
      "ORD": 4107,
      "wall": 4108,
      "Ġbland": 4109,
      "Ġpunct": 4110,
      "aina": 4111,
      "ĠNA": 4112,
      "owski": 4113,
      "oughton": 4114,
      "irectory": 4115,
      "itoneal": 4116,
      "ĠMiy": 4117,
      "aje": 4118,
      "jiwarl": 4119,
      "umberland": 4120,
      "bark": 4121,
      "token": 4122,
      "ĠgetDate": 4123,
      "uster": 4124,
      "Ġho": 4125,
      "erog": 4126,
      "Ġdess": 4127,
      "ĠCap": 4128,
      "ĠBhag": 4129,
      "anje": 4130,
      "Ġsb": 4131,
      "ĠMin": 4132,
      "obic": 4133,
      "toch": 4134,
      "Letter": 4135,
      "thur": 4136,
      "ĠCant": 4137,
      "akar": 4138,
      "ĠCal": 4139,
      "aught": 4140,
      "ParamNum": 4141,
      "ortal": 4142,
      "YAN": 4143,
      "double": 4144,
      "ĠDord": 4145,
      "eri": 4146,
      "Part": 4147,
      "Files": 4148,
      "enean": 4149,
      "ringe": 4150,
      "ĠFo": 4151,
      "urul": 4152,
      "gress": 4153,
      "Ġspray": 4154,
      "loria": 4155,
      "untamento": 4156,
      "ĠAs": 4157,
      "ĠMN": 4158,
      "ĠIng": 4159,
      "UniqueID": 4160,
      "Async": 4161,
      "Ġok": 4162,
      "unay": 4163,
      "arras": 4164,
      "multi": 4165,
      "pat": 4166,
      "Ġcul": 4167,
      "etti": 4168,
      "was": 4169,
      "ullie": 4170,
      "Ġpen": 4171,
      "ĠVillan": 4172,
      "ession": 4173,
      "Ġhor": 4174,
      "CharCode": 4175,
      "permal": 4176,
      "Store": 4177,
      "Ġfort": 4178,
      "ieter": 4179,
      "quest": 4180,
      "Ġadjourn": 4181,
      "Ġsph": 4182,
      "Ġchamp": 4183,
      "ĠChong": 4184,
      "Strip": 4185,
      "akath": 4186,
      "ĠSql": 4187,
      "hile": 4188,
      "Mesh": 4189,
      "alph": 4190,
      "Ġmut": 4191,
      "ancho": 4192,
      "ĠBelle": 4193,
      "ĠBellev": 4194,
      "asuk": 4195,
      "ĠGunn": 4196,
      "oauth": 4197,
      "Reader": 4198,
      "esc": 4199,
      "Keep": 4200,
      "Cube": 4201,
      "ymplectic": 4202,
      "CubeSize": 4203,
      "prot": 4204,
      "ycin": 4205,
      "reas": 4206,
      "Ġold": 4207,
      "Ġquin": 4208,
      "attoo": 4209,
      "gramModel": 4210,
      "ourier": 4211,
      "ubro": 4212,
      "dig": 4213,
      "pec": 4214,
      "ousel": 4215,
      "yak": 4216,
      "ĠBow": 4217,
      "vec": 4218,
      "ront": 4219,
      "kut": 4220,
      "ymi": 4221,
      "Media": 4222,
      "ĠGood": 4223,
      "ker": 4224,
      "Spawn": 4225,
      "ayashi": 4226,
      "etering": 4227,
      "Ġsv": 4228,
      "gou": 4229,
      "iw": 4230,
      "ories": 4231,
      "paths": 4232,
      "Xpaths": 4233,
      "adt": 4234,
      "Ġvad": 4235,
      "Ġplayer": 4236,
      "ieurs": 4237,
      "erce": 4238,
      "tree": 4239,
      "apur": 4240,
      "Ġwax": 4241,
      "full": 4242,
      "StarSXml": 4243,
      "qttr": 4244,
      "coni": 4245,
      "Servlet": 4246,
      "Ġak": 4247,
      "ĠNad": 4248,
      "Choose": 4249,
      "ĠKra": 4250,
      "ruz": 4251,
      "DBG": 4252,
      "ATION": 4253,
      "ĠBhagav": 4254,
      "pay": 4255,
      "aver": 4256,
      "enner": 4257,
      "jav": 4258,
      "OUG": 4259,
      "ismar": 4260,
      "aucer": 4261,
      "WT": 4262,
      "estown": 4263,
      "acanam": 4264,
      "adiene": 4265,
      "ostrum": 4266,
      "Move": 4267,
      "utable": 4268,
      "ĠAngel": 4269,
      "Has": 4270,
      "ssex": 4271,
      "aked": 4272,
      "inity": 4273,
      "wer": 4274,
      "ĠHil": 4275,
      "ifolds": 4276,
      "ĠSam": 4277,
      "Ġhal": 4278,
      "rout": 4279,
      "LM": 4280,
      "ĠSylv": 4281,
      "atz": 4282,
      "ĠChrist": 4283,
      "oten": 4284,
      "lc": 4285,
      "ĠHen": 4286,
      "ately": 4287,
      "ĠRCL": 4288,
      "ĠNav": 4289,
      "exus": 4290,
      "ĠGren": 4291,
      "Ġlo": 4292,
      "ĠSad": 4293,
      "encia": 4294,
      "ittam": 4295,
      "LogRow": 4296,
      "Ġproced": 4297,
      "abat": 4298,
      "izz": 4299,
      "aunch": 4300,
      "tri": 4301,
      "ĠEuc": 4302,
      "urst": 4303,
      "azy": 4304,
      "onyl": 4305,
      "Writer": 4306,
      "aise": 4307,
      "cha": 4308,
      "ĠRUD": 4309,
      "Ġprinc": 4310,
      "MainNav": 4311,
      "esch": 4312,
      "yles": 4313,
      "etric": 4314,
      "apet": 4315,
      "ĠEdmond": 4316,
      "ĠLo": 4317,
      "Fold": 4318,
      "ĠDur": 4319,
      "Ġlepton": 4320,
      "ĠHab": 4321,
      "ĠDeep": 4322,
      "ahang": 4323,
      "ranche": 4324,
      "Sec": 4325,
      "URNIZ": 4326,
      "Ġgew": 4327,
      "ady": 4328,
      "umbnail": 4329,
      "ogs": 4330,
      "yw": 4331,
      "andt": 4332,
      "ynch": 4333,
      "idean": 4334,
      "Ġequ": 4335,
      "instr": 4336,
      "ĠStafford": 4337,
      "instrList": 4338,
      "ropy": 4339,
      "ĠCons": 4340,
      "ripper": 4341,
      "MDA": 4342,
      "ithdraw": 4343,
      "ards": 4344,
      "ota": 4345,
      "sum": 4346,
      "illColor": 4347,
      "ĠJordan": 4348,
      "ĠPer": 4349,
      "Preferred": 4350,
      "ansing": 4351,
      "ĠGuil": 4352,
      "ApiPath": 4353,
      "CharArray": 4354,
      "Muc": 4355,
      "endale": 4356,
      "Inset": 4357,
      "Ġfur": 4358,
      "inho": 4359,
      "Ġparthen": 4360,
      "Ġcro": 4361,
      "ancell": 4362,
      "arrow": 4363,
      "iale": 4364,
      "tochrome": 4365,
      "seur": 4366,
      "olare": 4367,
      "herent": 4368,
      "Min": 4369,
      "skii": 4370,
      "eq": 4371,
      "rait": 4372,
      "Mar": 4373,
      "Ġpower": 4374,
      "ĠPop": 4375,
      "Sdk": 4376,
      "olves": 4377,
      "arantad": 4378,
      "irg": 4379,
      "QR": 4380,
      "ĠHick": 4381,
      "detail": 4382,
      "Ġfield": 4383,
      "abic": 4384,
      "innie": 4385,
      "ĠDar": 4386,
      "ppo": 4387,
      "GM": 4388,
      "zan": 4389,
      "emon": 4390,
      "isR": 4391,
      "ĠPrab": 4392,
      "asan": 4393,
      "Glare": 4394,
      "ĠMerr": 4395,
      "lens": 4396,
      "tres": 4397,
      "AU": 4398,
      "cer": 4399,
      "oslav": 4400,
      "Ald": 4401,
      "unted": 4402,
      "Arr": 4403,
      "Bibitem": 4404,
      "itable": 4405,
      "ĠPa": 4406,
      "nst": 4407,
      "Ġfra": 4408,
      "Ġuns": 4409,
      "egi": 4410,
      "sent": 4411,
      "Ġec": 4412,
      "OrderFlight": 4413,
      "ĠWor": 4414,
      "ĠNiet": 4415,
      "Ġuit": 4416,
      "Security": 4417,
      "ĠJoh": 4418,
      "ĠOut": 4419,
      "ridge": 4420,
      "addassa": 4421,
      "andan": 4422,
      "auff": 4423,
      "ĠTr": 4424,
      "illing": 4425,
      "GoObject": 4426,
      "Default": 4427,
      "Seconds": 4428,
      "Ġtok": 4429,
      "Foldout": 4430,
      "ichen": 4431,
      "ĠHel": 4432,
      "Encoder": 4433,
      "tain": 4434,
      "Ġvan": 4435,
      "Ġinfl": 4436,
      "ĠRey": 4437,
      "ĠFern": 4438,
      "Ġunw": 4439,
      "tti": 4440,
      "lytres": 4441,
      "emi": 4442,
      "ĠPey": 4443,
      "waard": 4444,
      "ariable": 4445,
      "ingu": 4446,
      "ignore": 4447,
      "ema": 4448,
      "Ġhy": 4449,
      "Ġfac": 4450,
      "ĠList": 4451,
      "oton": 4452,
      "ridLayout": 4453,
      "lik": 4454,
      "Ġbed": 4455,
      "ĠDel": 4456,
      "ĠBeck": 4457,
      "Ġcall": 4458,
      "rvats": 4459,
      "icular": 4460,
      "show": 4461,
      "ĠLaksh": 4462,
      "convol": 4463,
      "onian": 4464,
      "ĠCarl": 4465,
      "iales": 4466,
      "AutoScale": 4467,
      "sprech": 4468,
      "Ġchem": 4469,
      "ipher": 4470,
      "ĠCorb": 4471,
      "ocs": 4472,
      "into": 4473,
      "ardo": 4474,
      "awar": 4475,
      "ĠMidd": 4476,
      "ived": 4477,
      "ĠAcc": 4478,
      "ĠPDP": 4479,
      "ĠActive": 4480,
      "iping": 4481,
      "atches": 4482,
      "nab": 4483,
      "houette": 4484,
      "ĠGog": 4485,
      "ĠUly": 4486,
      "ĠAS": 4487,
      "xin": 4488,
      "ĠMats": 4489,
      "entz": 4490,
      "ends": 4491,
      "Custom": 4492,
      "VA": 4493,
      "Fil": 4494,
      "phalodes": 4495,
      "ĠEle": 4496,
      "Grad": 4497,
      "ĠKier": 4498,
      "ranian": 4499,
      "olg": 4500,
      "riendo": 4501,
      "ufen": 4502,
      "ĠLorentz": 4503,
      "ifer": 4504,
      "asey": 4505,
      "Danh": 4506,
      "aused": 4507,
      "ips": 4508,
      "DanhMuc": 4509,
      "ismarck": 4510,
      "Ġrun": 4511,
      "zet": 4512,
      "uri": 4513,
      "Ġwyk": 4514,
      "DO": 4515,
      "PTV": 4516,
      "estin": 4517,
      "Ġalle": 4518,
      "titor": 4519,
      "ucid": 4520,
      "Ġforb": 4521,
      "nash": 4522,
      "Ġyoj": 4523,
      "mac": 4524,
      "rogen": 4525,
      "Ġlegal": 4526,
      "Ġtart": 4527,
      "ĠCCS": 4528,
      "urp": 4529,
      "Animation": 4530,
      "Ġiccad": 4531,
      "vrd": 4532,
      "unov": 4533,
      "constra": 4534,
      "dn": 4535,
      "uncan": 4536,
      "constraint": 4537,
      "Ġdesp": 4538,
      "atthav": 4539,
      "rystall": 4540,
      "Ġdisorder": 4541,
      "hold": 4542,
      "irra": 4543,
      "iggins": 4544,
      "Antae": 4545,
      "First": 4546,
      "Ġdred": 4547,
      "Ary": 4548,
      "iliated": 4549,
      "tone": 4550,
      "arking": 4551,
      "rial": 4552,
      "irtual": 4553,
      "smith": 4554,
      "isia": 4555,
      "Ġlist": 4556,
      "uatu": 4557,
      "ĠPlast": 4558,
      "ĠTul": 4559,
      "eland": 4560,
      "isa": 4561,
      "btn": 4562,
      "process": 4563,
      "artz": 4564,
      "heed": 4565,
      "Lint": 4566,
      "getString": 4567,
      "Exists": 4568,
      "Clr": 4569,
      "Ġpok": 4570,
      "Ġof": 4571,
      "ĠEver": 4572,
      "kov": 4573,
      "ĠMag": 4574,
      "rer": 4575,
      "dy": 4576,
      "QAry": 4577,
      "ĠVan": 4578,
      "ĠConstant": 4579,
      "ocr": 4580,
      "StateToProps": 4581,
      "ucker": 4582,
      "ylic": 4583,
      "onal": 4584,
      "Ġey": 4585,
      "leton": 4586,
      "toL": 4587,
      "index": 4588,
      "engk": 4589,
      "amin": 4590,
      "Title": 4591,
      "oter": 4592,
      "ikkh": 4593,
      "Ġcustom": 4594,
      "ĠDra": 4595,
      "ĠId": 4596,
      "ĠMed": 4597,
      "Ġton": 4598,
      "arma": 4599,
      "ounce": 4600,
      "NO": 4601,
      "ĠLomb": 4602,
      "ĠWolver": 4603,
      "ĠMcF": 4604,
      "asser": 4605,
      "Ġsab": 4606,
      "Ġmaneu": 4607,
      "Plus": 4608,
      "Ġchew": 4609,
      "Ġunim": 4610,
      "Ġhotsp": 4611,
      "DER": 4612,
      "XR": 4613,
      "ember": 4614,
      "erview": 4615,
      "ENC": 4616,
      "empl": 4617,
      "Ġdib": 4618,
      "urch": 4619,
      "ipped": 4620,
      "igence": 4621,
      "rung": 4622,
      "ipboard": 4623,
      "ĠSar": 4624,
      "ractor": 4625,
      "enian": 4626,
      "avor": 4627,
      "awatts": 4628,
      "ĠGra": 4629,
      "ĠShel": 4630,
      "orage": 4631,
      "ĠWest": 4632,
      "Ġdisappe": 4633,
      "ioc": 4634,
      "ished": 4635,
      "ielding": 4636,
      "otherap": 4637,
      "Ġrut": 4638,
      "acak": 4639,
      "ayette": 4640,
      "Ġbif": 4641,
      "abled": 4642,
      "ĠAlb": 4643,
      "Ver": 4644,
      "itya": 4645,
      "iu": 4646,
      "DKEY": 4647,
      "onese": 4648,
      "ExpNow": 4649,
      "Ġswe": 4650,
      "anos": 4651,
      "rough": 4652,
      "beit": 4653,
      "urkish": 4654,
      "agher": 4655,
      "chym": 4656,
      "ynucleaires": 4657,
      "usen": 4658,
      "emes": 4659,
      "Bsky": 4660,
      "lysis": 4661,
      "ĠBrook": 4662,
      "aal": 4663,
      "xt": 4664,
      "arkan": 4665,
      "ĠVol": 4666,
      "ires": 4667,
      "Ġbhikkh": 4668,
      "Ġemanc": 4669,
      "Cart": 4670,
      "arif": 4671,
      "ashing": 4672,
      "asta": 4673,
      "ailles": 4674,
      "illet": 4675,
      "wm": 4676,
      "rony": 4677,
      "TING": 4678,
      "Ġbu": 4679,
      "lobulin": 4680,
      "ryn": 4681,
      "Ġtab": 4682,
      "serv": 4683,
      "NAM": 4684,
      "PlusEvents": 4685,
      "Criter": 4686,
      "Ġtant": 4687,
      "ĠWord": 4688,
      "Ġullam": 4689,
      "ophen": 4690,
      "Ġauth": 4691,
      "lier": 4692,
      "Ġzoom": 4693,
      "inos": 4694,
      "ĠMil": 4695,
      "getMain": 4696,
      "IUN": 4697,
      "Ġbel": 4698,
      "ords": 4699,
      "rick": 4700,
      "graph": 4701,
      "inca": 4702,
      "ĠKeat": 4703,
      "ydraul": 4704,
      "Acc": 4705,
      "ĠPry": 4706,
      "uku": 4707,
      "ĠCly": 4708,
      "popup": 4709,
      "vc": 4710,
      "PEG": 4711,
      "issy": 4712,
      "jati": 4713,
      "Net": 4714,
      "ause": 4715,
      "ruc": 4716,
      "BUGFS": 4717,
      "atedBy": 4718,
      "gax": 4719,
      "MSFont": 4720,
      "Ġbook": 4721,
      "rank": 4722,
      "Ġme": 4723,
      "Alignment": 4724,
      "asa": 4725,
      "arius": 4726,
      "ĠUS": 4727,
      "roir": 4728,
      "ĠMann": 4729,
      "Ġmj": 4730,
      "onti": 4731,
      "Ġpabb": 4732,
      "ambra": 4733,
      "eneg": 4734,
      "Handle": 4735,
      "ĠFig": 4736,
      "Ġrepe": 4737,
      "ould": 4738,
      "ĠBrom": 4739,
      "ĠBrent": 4740,
      "IsNull": 4741,
      "acion": 4742,
      "Ġhorr": 4743,
      "olit": 4744,
      "ukannya": 4745,
      "ande": 4746,
      "akukannya": 4747,
      "ennes": 4748,
      "erta": 4749,
      "anca": 4750,
      "IGHT": 4751,
      "WI": 4752,
      "width": 4753,
      "left": 4754,
      "mar": 4755,
      "ycop": 4756,
      "otheli": 4757,
      "romed": 4758,
      "lep": 4759,
      "Tag": 4760,
      "ĠUSA": 4761,
      "Ġrad": 4762,
      "Ġtag": 4763,
      "eback": 4764,
      "ĠSI": 4765,
      "Ziel": 4766,
      "Ġzir": 4767,
      "gest": 4768,
      "ktCap": 4769,
      "idata": 4770,
      "Java": 4771,
      "Middle": 4772,
      "Ġplur": 4773,
      "zem": 4774,
      "Ġkeh": 4775,
      "ikidata": 4776,
      "trash": 4777,
      "amble": 4778,
      "ullo": 4779,
      "ĠSmack": 4780,
      "ĠMcCle": 4781,
      "Cache": 4782,
      "Na": 4783,
      "Ġbron": 4784,
      "mett": 4785,
      "ĠSH": 4786,
      "Ġindem": 4787,
      "Ġbronch": 4788,
      "Ġbip": 4789,
      "Ġtrit": 4790,
      "emat": 4791,
      "itian": 4792,
      "vors": 4793,
      "udy": 4794,
      "scroll": 4795,
      "getSt": 4796,
      "peng": 4797,
      "ensa": 4798,
      "Rest": 4799,
      "ĠGewer": 4800,
      "ĠAdri": 4801,
      "heim": 4802,
      "chiev": 4803,
      "gio": 4804,
      "ĠGret": 4805,
      "asper": 4806,
      "Ġprincipal": 4807,
      "gdock": 4808,
      "Statement": 4809,
      "NumConst": 4810,
      "KY": 4811,
      "ĠBere": 4812,
      "ĠUml": 4813,
      "anim": 4814,
      "Ġmo": 4815,
      "ihad": 4816,
      "acul": 4817,
      "FP": 4818,
      "Track": 4819,
      "zia": 4820,
      "ikk": 4821,
      "iejsc": 4822,
      "TM": 4823,
      "ĠCheck": 4824,
      "Ġyl": 4825,
      "location": 4826,
      "anya": 4827,
      "Reference": 4828,
      "olean": 4829,
      "ĠThess": 4830,
      "ekar": 4831,
      "enched": 4832,
      "Ġgri": 4833,
      "ĠService": 4834,
      "ĠTob": 4835,
      "abr": 4836,
      "Ġoverd": 4837,
      "ILLI": 4838,
      "Cleared": 4839,
      "ĠObit": 4840,
      "ClearedBy": 4841,
      "arod": 4842,
      "olocation": 4843,
      "Obj": 4844,
      "ĠCG": 4845,
      "achen": 4846,
      "xis": 4847,
      "Need": 4848,
      "setKeep": 4849,
      "undle": 4850,
      "EOUS": 4851,
      "acon": 4852,
      "ighton": 4853,
      "ĠChin": 4854,
      "Movie": 4855,
      "ĠTij": 4856,
      "acao": 4857,
      "ĠRev": 4858,
      "zat": 4859,
      "Ġhas": 4860,
      "COc": 4861,
      "ictureBox": 4862,
      "abri": 4863,
      "ramp": 4864,
      "Ġprecinct": 4865,
      "Ġdesc": 4866,
      "azon": 4867,
      "orough": 4868,
      "UTH": 4869,
      "wyd": 4870,
      "edTest": 4871,
      "Category": 4872,
      "elijk": 4873,
      "DropDown": 4874,
      "Ġnag": 4875,
      "renzia": 4876,
      "Read": 4877,
      "neider": 4878,
      "otrex": 4879,
      "socket": 4880,
      "uffy": 4881,
      "SFER": 4882,
      "ĠTN": 4883,
      "aio": 4884,
      "onka": 4885,
      "itud": 4886,
      "ĠBrug": 4887,
      "witz": 4888,
      "itin": 4889,
      "Ġinform": 4890,
      "Mont": 4891,
      "ĠVers": 4892,
      "margin": 4893,
      "ĠShah": 4894,
      "ouri": 4895,
      "angzhou": 4896,
      "Launch": 4897,
      "Ġpav": 4898,
      "TakeVideo": 4899,
      "ĠGreens": 4900,
      "Stream": 4901,
      "yped": 4902,
      "part": 4903,
      "ertools": 4904,
      "athed": 4905,
      "low": 4906,
      "borough": 4907,
      "OUR": 4908,
      "Prz": 4909,
      "Dom": 4910,
      "Ġpadam": 4911,
      "instag": 4912,
      "arrer": 4913,
      "Ġindemn": 4914,
      "ACTOR": 4915,
      "IH": 4916,
      "nder": 4917,
      "iram": 4918,
      "mous": 4919,
      "Scaler": 4920,
      "Ġvisc": 4921,
      "elon": 4922,
      "vind": 4923,
      "arted": 4924,
      "poetry": 4925,
      "ĠHaz": 4926,
      "Missense": 4927,
      "Check": 4928,
      "ieder": 4929,
      "ĠISP": 4930,
      "Ġmez": 4931,
      "ĠTRAN": 4932,
      "esehen": 4933,
      "Ġsim": 4934,
      "Ġrandom": 4935,
      "button": 4936,
      "Ġpel": 4937,
      "ilig": 4938,
      "Ġrecept": 4939,
      "Ġbez": 4940,
      "ĠBon": 4941,
      "entry": 4942,
      "hir": 4943,
      "Ġsequest": 4944,
      "schl": 4945,
      "ĠSN": 4946,
      "Ġincub": 4947,
      "rast": 4948,
      "onitrile": 4949,
      "isor": 4950,
      "Ġalter": 4951,
      "esthetics": 4952,
      "arlton": 4953,
      "ĠFal": 4954,
      "ĠFull": 4955,
      "utup": 4956,
      "ĠMSC": 4957,
      "script": 4958,
      "Ġdefault": 4959,
      "Fullscreen": 4960,
      "JECT": 4961,
      "annie": 4962,
      "ĠGiul": 4963,
      "Entry": 4964,
      "CCCC": 4965,
      "icon": 4966,
      "Audio": 4967,
      "ĠGuild": 4968,
      "ysis": 4969,
      "gue": 4970,
      "ĠBenn": 4971,
      "ĠAk": 4972,
      "icio": 4973,
      "iyesi": 4974,
      "Kill": 4975,
      "addKill": 4976,
      "Ġdik": 4977,
      "HTree": 4978,
      "IndexOf": 4979,
      "aruh": 4980,
      "fter": 4981,
      "Ġsev": 4982,
      "lal": 4983,
      "upu": 4984,
      "ĠCO": 4985,
      "Bottom": 4986,
      "rya": 4987,
      "Ġgrant": 4988,
      "Constants": 4989,
      "ython": 4990,
      "inite": 4991,
      "Ġml": 4992,
      "iels": 4993,
      "Ġbifur": 4994,
      "attu": 4995,
      "Ġenj": 4996,
      "itattu": 4997,
      "ĠWalth": 4998,
      "peg": 4999,
      "STM": 5000,
      "StarObject": 5001,
      "Ġsuper": 5002,
      "inuous": 5003,
      "itas": 5004,
      "ĠMey": 5005,
      "UIA": 5006,
      "olls": 5007,
      "InCM": 5008,
      "rass": 5009,
      "ients": 5010,
      "ĠEt": 5011,
      "ĠBarang": 5012,
      "unken": 5013,
      "Ġtherm": 5014,
      "ĠString": 5015,
      "asu": 5016,
      "ieron": 5017,
      "ĠDi": 5018,
      "Return": 5019,
      "Ġtransf": 5020,
      "Ġeyel": 5021,
      "AspNet": 5022,
      "LOR": 5023,
      "iffe": 5024,
      "orie": 5025,
      "ObjectID": 5026,
      "ascular": 5027,
      "agg": 5028,
      "unton": 5029,
      "existing": 5030,
      "fx": 5031,
      "Ġrecomb": 5032,
      "ĠMedia": 5033,
      "ĠBurg": 5034,
      "Ġvij": 5035,
      "Ġpengu": 5036,
      "estroy": 5037,
      "Ġovip": 5038,
      "aia": 5039,
      "ended": 5040,
      "Ġtep": 5041,
      "ainer": 5042,
      "onnie": 5043,
      "Ġtool": 5044,
      "ably": 5045,
      "Ġcongen": 5046,
      "obacz": 5047,
      "Ġnozz": 5048,
      "aper": 5049,
      "ĠTah": 5050,
      "ĠBernad": 5051,
      "sia": 5052,
      "ersen": 5053,
      "Alert": 5054,
      "zok": 5055,
      "Ġadjud": 5056,
      "astan": 5057,
      "NewUrlParser": 5058,
      "bai": 5059,
      "Hash": 5060,
      "genstein": 5061,
      "PTMR": 5062,
      "DidLoad": 5063,
      "can": 5064,
      "De": 5065,
      "ĠJama": 5066,
      "utsch": 5067,
      "udi": 5068,
      "Ġoffset": 5069,
      "ocity": 5070,
      "atakan": 5071,
      "agles": 5072,
      "Op": 5073,
      "Leg": 5074,
      "camera": 5075,
      "Ġfind": 5076,
      "NA": 5077,
      "Ġkap": 5078,
      "ĠBey": 5079,
      "ZielPanel": 5080,
      "ĠSher": 5081,
      "ĠPo": 5082,
      "Ġmasc": 5083,
      "olph": 5084,
      "ĠWel": 5085,
      "ĠRw": 5086,
      "Ġig": 5087,
      "ibals": 5088,
      "radio": 5089,
      "rlen": 5090,
      "Ġpern": 5091,
      "ĠKeen": 5092,
      "ĠDIC": 5093,
      "ural": 5094,
      "Ġhed": 5095,
      "uity": 5096,
      "uffered": 5097,
      "omyc": 5098,
      "Ġtes": 5099,
      "itted": 5100,
      "ĠCoch": 5101,
      "yllium": 5102,
      "otia": 5103,
      "elius": 5104,
      "oking": 5105,
      "OnInit": 5106,
      "Bundle": 5107,
      "ALT": 5108,
      "centaje": 5109,
      "Ġbhav": 5110,
      "oblast": 5111,
      "ellular": 5112,
      "ikian": 5113,
      "aliana": 5114,
      "ĠHu": 5115,
      "ĠMuk": 5116,
      "mey": 5117,
      "ĠPatt": 5118,
      "IAN": 5119,
      "ĠMos": 5120,
      "Ġgreen": 5121,
      "LOTRE": 5122,
      "Ġpotenc": 5123,
[...]
