{
  "version": "1.0",
  "truncation": null,
  "padding": null,
  "added_tokens": [
    {
      "id": 1082,
      "content": "<UNK>",
      "single_word": false,
      "lstrip": false,
      "rstrip": false,
      "normalized": true,
      "special": true
    },
    {
      "id": 1083,
      "content": "<｜end▁of▁sentence｜>",
      "single_word": false,
      "lstrip": false,
      "rstrip": false,
      "normalized": true,
      "special": true
    },
    {
      "id": 1084,
      "content": "<｜pad｜>",
      "single_word": false,
      "lstrip": false,
      "rstrip": false,
      "normalized": true,
      "special": true
    },
    {
      "id": 1085,
      "content": "<｜begin▁of▁sentence｜>",
      "single_word": false,
      "lstrip": false,
      "rstrip": false,
      "normalized": true,
      "special": true
    }
  ],
  "normalizer": {
    "type": "Sequence",
    "normalizers": []
  },
  "pre_tokenizer": {
    "type": "Sequence",
    "pretokenizers": [
      {
        "type": "Split",
        "pattern": {
          "Regex": "[\\r\\n]"
        },
        "behavior": "Isolated",
        "invert": false
      },
      {
        "type": "Split",
        "pattern": {
          "Regex": "\\s?[A-Za-zµÀ-ÖØ-öø-ƺƼ-ƿǄ-ʓʕ-ʯͰ-ͳͶͷͻ-ͽͿΆΈ-ΊΌΎ-ΡΣ-ϵϷ-ҁҊ-ԯԱ-ՖႠ-ჅᎠ-Ᏽᏸ-ᏽᲐ-ᲺᲽ-Ჿᴀ-ᴫᵫ-ᵷᵹ-ᶚḀ-ἕἘ-Ἕἠ-ὅὈ-Ὅὐ-ὗὙὛὝὟ-ώᾀ-ᾴᾶ-ᾼιῂ-ῄῆ-ῌῐ-ΐῖ-Ίῠ-Ῥῲ-ῴῶ-ῼℂℇℊ-ℓℕℙ-ℝℤΩℨK-ℭℯ-ℴℹℼ-ℿⅅ-ⅉⅎↃↄⰀ-ⱻⱾ-ⳤⳫ-ⳮⳲⳳꙀ-ꙭꚀ-ꚛꜢ-ꝯꝱ-ꞇꞋ-ꞎꭰ-ꮿﬀ-ﬆﬓ-ﬗＡ-Ｚａ-ｚ𐐀-𐑏𐒰-𐓓𐓘-𐓻𐲀-𐲲𐳀-𐳲𑢠-𑣟𞤀-𞥃]+"
        },
        "behavior": "Isolated",
        "invert": false
      },
      {
        "type": "Split",
        "pattern": {
          "Regex": "\\s?[!-/:-~！-／：-～‘-‟　-。]+"
        },
        "behavior": "Isolated",
        "invert": false
      },
      {
        "type": "Split",
        "pattern": {
          "Regex": "\\s+$"
        },
        "behavior": "Isolated",
        "invert": false
      },
      {
        "type": "Split",
        "pattern": {
          "Regex": "[一-龥ࠀ-一가-퟿]+"
        },
        "behavior": "Isolated",
        "invert": false
      },
      {
        "type": "Digits",
        "individual_digits": true
      },
      {
        "type": "ByteLevel",
        "add_prefix_space": false,
        "trim_offsets": true,
        "use_regex": false
      }
    ]
  },
  "post_processor": {
    "type": "ByteLevel",
    "add_prefix_space": true,
    "trim_offsets": false,
    "use_regex": true
  },
  "decoder": {
    "type": "ByteLevel",
    "add_prefix_space": true,
    "trim_offsets": true,
    "use_regex": true
  },
  "model": {
    "type": "BPE",
    "dropout": null,
    "unk_token": "<UNK>",
    "continuing_subword_prefix": null,
    "end_of_word_suffix": null,
    "fuse_unk": false,
    "byte_fallback": false,
    "ignore_merges": false,
    "bMax_frequency": true,
    "max_frequency": 63649887,
    "vocab": {
      "DP": 0,
      "Fl": 1,
      "ES": 2,
      "ili": 3,
      "UT": 4,
      "rist": 5,
      "Ġres": 6,
      "Ġis": 7,
      "uh": 8,
      "gl": 9,
      "bar": 10,
      "pi": 11,
      "ml": 12,
      "iter": 13,
      "Component": 14,
      "MS": 15,
      "ks": 16,
      "kt": 17,
      "ied": 18,
      "ians": 19,
      "ruct": 20,
      "ych": 21,
      "ayout": 22,
      "ree": 23,
      "IP": 24,
      "Request": 25,
      "uan": 26,
      "ld": 27,
      "Ġmen": 28,
      "yr": 29,
      "ĠTh": 30,
      "ington": 31,
      "rack": 32,
      "CH": 33,
      "ii": 34,
      "omb": 35,
      "och": 36,
      "elect": 37,
      "sub": 38,
      "Out": 39,
      "rag": 40,
      "eme": 41,
      "ux": 42,
      "Set": 43,
      "All": 44,
      "ĠAm": 45,
      "ete": 46,
      "SI": 47,
      "rim": 48,
      "Call": 49,
      "MA": 50,
      "cz": 51,
      "CA": 52,
      "fig": 53,
      "ano": 54,
      "ae": 55,
      "abb": 56,
      "ao": 57,
      "rol": 58,
      "form": 59,
      "sw": 60,
      "Ġcont": 61,
      "ely": 62,
      "En": 63,
      "Event": 64,
      "Ref": 65,
      "ĠSc": 66,
      "Group": 67,
      "TR": 68,
      "ays": 69,
      "rans": 70,
      "go": 71,
      "ake": 72,
      "za": 73,
      "asc": 74,
      "ET": 75,
      "erd": 76,
      "oxy": 77,
      "Ġjed": 78,
      "Box": 79,
      "Ġod": 80,
      "Action": 81,
      "oid": 82,
      "back": 83,
      "yle": 84,
      "Ġam": 85,
      "red": 86,
      "ros": 87,
      "ĠLe": 88,
      "riv": 89,
      "ese": 90,
      "oa": 91,
      "ots": 92,
      "la": 93,
      "ork": 94,
      "oo": 95,
      "line": 96,
      "Ġret": 97,
      "Ġund": 98,
      "aff": 99,
      "Result": 100,
      "UN": 101,
      "atur": 102,
      "Sp": 103,
      "rt": 104,
      "ĠCon": 105,
      "ered": 106,
      "Ġind": 107,
      "indow": 108,
      "ception": 109,
      "Prop": 110,
      "endo": 111,
      "Input": 112,
      "Manager": 113,
      "Ġcom": 114,
      "ĠBar": 115,
      "Up": 116,
      "MP": 117,
      "Ġob": 118,
      "rec": 119,
      "Exception": 120,
      "Ġant": 121,
      "Service": 122,
      "men": 123,
      "ling": 124,
      "ĠAd": 125,
      "ump": 126,
      "Count": 127,
      "AG": 128,
      "ester": 129,
      "shire": 130,
      "ĠEd": 131,
      "unter": 132,
      "uild": 133,
      "ej": 134,
      "Ad": 135,
      "aya": 136,
      "anam": 137,
      "ios": 138,
      "rl": 139,
      "ĠEm": 140,
      "Class": 141,
      "els": 142,
      "Ġimp": 143,
      "ten": 144,
      "ocal": 145,
      "PA": 146,
      "mer": 147,
      "eut": 148,
      "ower": 149,
      "ats": 150,
      "Layout": 151,
      "Table": 152,
      "ask": 153,
      "ener": 154,
      "uit": 155,
      "ĠRe": 156,
      "ars": 157,
      "bur": 158,
      "ĠAn": 159,
      "TS": 160,
      "For": 161,
      "ocation": 162,
      "amil": 163,
      "Ġem": 164,
      "idd": 165,
      "my": 166,
      "ione": 167,
      "oss": 168,
      "iqu": 169,
      "As": 170,
      "uck": 171,
      "port": 172,
      "elle": 173,
      "ized": 174,
      "ucle": 175,
      "ange": 176,
      "ule": 177,
      "nik": 178,
      "SM": 179,
      "ound": 180,
      "Ġtr": 181,
      "ogg": 182,
      "atic": 183,
      "ual": 184,
      "ility": 185,
      "raph": 186,
      "org": 187,
      "ract": 188,
      "Element": 189,
      "ouse": 190,
      "ette": 191,
      "ED": 192,
      "last": 193,
      "pro": 194,
      "With": 195,
      "las": 196,
      "Info": 197,
      "Config": 198,
      "DR": 199,
      "pon": 200,
      "ayer": 201,
      "User": 202,
      "anel": 203,
      "AD": 204,
      "lad": 205,
      "AP": 206,
      "Api": 207,
      "berg": 208,
      "iej": 209,
      "Ġco": 210,
      "Ġov": 211,
      "Ġel": 212,
      "BC": 213,
      "Ġph": 214,
      "ui": 215,
      "ĠEl": 216,
      "edi": 217,
      "idth": 218,
      "ino": 219,
      "SS": 220,
      "be": 221,
      "icht": 222,
      "ĠBr": 223,
      "eader": 224,
      "reg": 225,
      "oto": 226,
      "olic": 227,
      "hi": 228,
      "Al": 229,
      "ome": 230,
      "IM": 231,
      "bit": 232,
      "br": 233,
      "Is": 234,
      "unk": 235,
      "map": 236,
      "load": 237,
      "cent": 238,
      "Ġfl": 239,
      "inal": 240,
      "ral": 241,
      "aut": 242,
      "Window": 243,
      "web": 244,
      "iet": 245,
      "lect": 246,
      "CO": 247,
      "ough": 248,
      "EC": 249,
      "ura": 250,
      "ating": 251,
      "Ġinc": 252,
      "Ġent": 253,
      "Ġon": 254,
      "Ġx": 255,
      "Ġed": 256,
      "Ġsk": 257,
      "wood": 258,
      "path": 259,
      "any": 260,
      "SRP": 261,
      "tn": 262,
      "ali": 263,
      "Ġang": 264,
      "ior": 265,
      "cht": 266,
      "ski": 267,
      "abel": 268,
      "new": 269,
      "IV": 270,
      "DK": 271,
      "Model": 272,
      "erk": 273,
      "Ġop": 274,
      "ĠSal": 275,
      "arn": 276,
      "Test": 277,
      "da": 278,
      "anti": 279,
      "PM": 280,
      "eep": 281,
      "uid": 282,
      "rv": 283,
      "ional": 284,
      "rab": 285,
      "Ġgr": 286,
      "arch": 287,
      "ENT": 288,
      "aan": 289,
      "ider": 290,
      "Ġmult": 291,
      "field": 292,
      "ript": 293,
      "board": 294,
      "Ġuse": 295,
      "aur": 296,
      "Ph": 297,
      "Log": 298,
      "ulf": 299,
      "fer": 300,
      "ection": 301,
      "iment": 302,
      "Params": 303,
      "ts": 304,
      "ima": 305,
      "BA": 306,
      "oad": 307,
      "ega": 308,
      "ris": 309,
      "MC": 310,
      "udd": 311,
      "lic": 312,
      "ĠSp": 313,
      "GF": 314,
      "igh": 315,
      "Ġint": 316,
      "item": 317,
      "etail": 318,
      "erty": 319,
      "US": 320,
      "oke": 321,
      "UM": 322,
      "cal": 323,
      "Node": 324,
      "ible": 325,
      "Ġdi": 326,
      "Ġcl": 327,
      "key": 328,
      "ĠWil": 329,
      "Panel": 330,
      "enu": 331,
      "ations": 332,
      "olog": 333,
      "anth": 334,
      "OA": 335,
      "ody": 336,
      "ync": 337,
      "by": 338,
      "Ġout": 339,
      "acter": 340,
      "Stat": 341,
      "kow": 342,
      "HT": 343,
      "leg": 344,
      "At": 345,
      "Map": 346,
      "PT": 347,
      "MD": 348,
      "akan": 349,
      "Ġra": 350,
      "vert": 351,
      "Bar": 352,
      "sed": 353,
      "ores": 354,
      "emp": 355,
      "Col": 356,
      "bra": 357,
      "oken": 358,
      "je": 359,
      "Ġbl": 360,
      "for": 361,
      "ĠSw": 362,
      "ĠCl": 363,
      "adi": 364,
      "ĠCo": 365,
      "CM": 366,
      "hat": 367,
      "iem": 368,
      "Number": 369,
      "ched": 370,
      "ita": 371,
      "mo": 372,
      "Ġau": 373,
      "Un": 374,
      "icul": 375,
      "Ġol": 376,
      "date": 377,
      "Start": 378,
      "eron": 379,
      "zy": 380,
      "aud": 381,
      "ny": 382,
      "ethod": 383,
      "ĠMcC": 384,
      "atri": 385,
      "CI": 386,
      "Ġconv": 387,
      "Or": 388,
      "aro": 389,
      "iri": 390,
      "Ġmax": 391,
      "Ġpost": 392,
      "ils": 393,
      "Content": 394,
      "TE": 395,
      "lin": 396,
      "aa": 397,
      "Const": 398,
      "ercent": 399,
      "Em": 400,
      "IB": 401,
      "onic": 402,
      "ĠBur": 403,
      "ument": 404,
      "ponse": 405,
      "Width": 406,
      "ĠBh": 407,
      "omer": 408,
      "Ġult": 409,
      "zt": 410,
      "rich": 411,
      "alk": 412,
      "net": 413,
      "ook": 414,
      "aus": 415,
      "Arg": 416,
      "ua": 417,
      "CE": 418,
      "Block": 419,
      "Date": 420,
      "SR": 421,
      "ms": 422,
      "eer": 423,
      "ido": 424,
      "amente": 425,
      "Ġtrans": 426,
      "ero": 427,
      "ona": 428,
      "On": 429,
      "etri": 430,
      "Line": 431,
      "hr": 432,
      "Header": 433,
      "FA": 434,
      "ender": 435,
      "Ġas": 436,
      "OM": 437,
      "Star": 438,
      "ommand": 439,
      "het": 440,
      "jsk": 441,
      "Auto": 442,
      "Ġinter": 443,
      "lor": 444,
      "ĠPal": 445,
      "its": 446,
      "ois": 447,
      "AS": 448,
      "IR": 449,
      "win": 450,
      "Ġvol": 451,
      "Ġer": 452,
      "Off": 453,
      "ative": 454,
      "read": 455,
      "Server": 456,
      "imp": 457,
      "EL": 458,
      "Ġpot": 459,
      "DC": 460,
      "ialog": 461,
      "ethyl": 462,
      "stra": 463,
      "IF": 464,
      "essage": 465,
      "Mode": 466,
      "Output": 467,
      "js": 468,
      "UI": 469,
      "osh": 470,
      "de": 471,
      "db": 472,
      "utter": 473,
      "aster": 474,
      "CL": 475,
      "Ġsw": 476,
      "urt": 477,
      "orth": 478,
      "xc": 479,
      "rob": 480,
      "An": 481,
      "Menu": 482,
      "itor": 483,
      "less": 484,
      "iles": 485,
      "aks": 486,
      "ipp": 487,
      "Mut": 488,
      "Ġdec": 489,
      "acch": 490,
      "Ġto": 491,
      "LO": 492,
      "li": 493,
      "round": 494,
      "Ġadd": 495,
      "ouch": 496,
      "thor": 497,
      "erson": 498,
      "aki": 499,
      "DB": 500,
      "Pop": 501,
      "Ġep": 502,
      "Ġber": 503,
      "lex": 504,
      "Ġtest": 505,
      "ven": 506,
      "pen": 507,
      "lar": 508,
      "Ġjedn": 509,
      "uffer": 510,
      "ocus": 511,
      "Ġbh": 512,
      "der": 513,
      "ycl": 514,
      "ition": 515,
      "orph": 516,
      "icz": 517,
      "MB": 518,
      "box": 519,
      "asi": 520,
      "esp": 521,
      "Go": 522,
      "illa": 523,
      "Ġsal": 524,
      "ency": 525,
      "atan": 526,
      "ols": 527,
      "ength": 528,
      "vi": 529,
      "Ġdef": 530,
      "raz": 531,
      "TA": 532,
      "PE": 533,
      "ami": 534,
      "Ġag": 535,
      "roph": 536,
      "zo": 537,
      "PR": 538,
      "Url": 539,
      "arth": 540,
      "ING": 541,
      "min": 542,
      "KA": 543,
      "edia": 544,
      "eight": 545,
      "TC": 546,
      "ious": 547,
      "aire": 548,
      "udent": 549,
      "ola": 550,
      "met": 551,
      "ities": 552,
      "com": 553,
      "aul": 554,
      "Conn": 555,
      "Nav": 556,
      "bl": 557,
      "ĠWh": 558,
      "econd": 559,
      "amera": 560,
      "ault": 561,
      "Av": 562,
      "cess": 563,
      "ymb": 564,
      "ĠQu": 565,
      "input": 566,
      "Dialog": 567,
      "Ġsm": 568,
      "Ġsch": 569,
      "ĠPr": 570,
      "ĠMah": 571,
      "Control": 572,
      "ĠAg": 573,
      "plic": 574,
      "SO": 575,
      "eli": 576,
      "rey": 577,
      "ĠDor": 578,
      "ML": 579,
      "eld": 580,
      "well": 581,
      "rain": 582,
      "rap": 583,
      "ca": 584,
      "Ġrem": 585,
      "ĠMcG": 586,
      "Ġoc": 587,
      "Qu": 588,
      "amm": 589,
      "IG": 590,
      "rum": 591,
      "Ġpal": 592,
      "oot": 593,
      "find": 594,
      "ebug": 595,
      "Bit": 596,
      "ĠCB": 597,
      "Ġrep": 598,
      "Ġcurrent": 599,
      "wa": 600,
      "ĠKn": 601,
      "ically": 602,
      "ias": 603,
      "onn": 604,
      "Ġmil": 605,
      "Resource": 606,
      "uro": 607,
      "ope": 608,
      "raft": 609,
      "Ġpre": 610,
      "Response": 611,
      "Init": 612,
      "lu": 613,
      "alle": 614,
      "nya": 615,
      "Ġapp": 616,
      "New": 617,
      "oi": 618,
      "ability": 619,
      "awa": 620,
      "Ġnew": 621,
      "ĠEr": 622,
      "ĠWood": 623,
      "ove": 624,
      "Ġdel": 625,
      "ukan": 626,
      "FBS": 627,
      "Buffer": 628,
      "andle": 629,
      "anz": 630,
      "user": 631,
      "Def": 632,
      "eral": 633,
      "ropri": 634,
      "FBSDK": 635,
      "Inter": 636,
      "atis": 637,
      "ream": 638,
      "itri": 639,
      "arget": 640,
      "uer": 641,
      "ava": 642,
      "Focus": 643,
      "van": 644,
      "Ġsup": 645,
      "angan": 646,
      "Var": 647,
      "aka": 648,
      "ji": 649,
      "Oper": 650,
      "stein": 651,
      "ĠApp": 652,
      "ateg": 653,
      "vis": 654,
      "ĠBx": 655,
      "ift": 656,
      "imm": 657,
      "OP": 658,
      "Change": 659,
      "SD": 660,
      "Ġup": 661,
      "ras": 662,
      "anh": 663,
      "apt": 664,
      "oun": 665,
      "Select": 666,
      "ante": 667,
      "Ġcreate": 668,
      "rz": 669,
      "cp": 670,
      "pring": 671,
      "acy": 672,
      "ĠWar": 673,
      "ever": 674,
      "Ġmeng": 675,
      "ĠCor": 676,
      "ĠPh": 677,
      "ization": 678,
      "Ġter": 679,
      "not": 680,
      "ific": 681,
      "ĠBro": 682,
      "ector": 683,
      "Client": 684,
      "akt": 685,
      "iki": 686,
      "ila": 687,
      "ste": 688,
      "Ġleg": 689,
      "Rec": 690,
      "Page": 691,
      "Message": 692,
      "from": 693,
      "AF": 694,
      "type": 695,
      "Ġgl": 696,
      "ĠMan": 697,
      "DI": 698,
      "akkh": 699,
      "Ġo": 700,
      "aga": 701,
      "Property": 702,
      "ĠQx": 703,
      "data": 704,
      "Down": 705,
      "current": 706,
      "nal": 707,
      "send": 708,
      "oul": 709,
      "TP": 710,
      "do": 711,
      "Ġact": 712,
      "erence": 713,
      "ges": 714,
      "Ġinf": 715,
      "vol": 716,
      "IO": 717,
      "alf": 718,
      "eger": 719,
      "igg": 720,
      "cont": 721,
      "ben": 722,
      "End": 723,
      "ster": 724,
      "ION": 725,
      "anyl": 726,
      "isT": 727,
      "erman": 728,
      "eda": 729,
      "ean": 730,
      "CB": 731,
      "ula": 732,
      "AY": 733,
      "uct": 734,
      "open": 735,
      "oma": 736,
      "Detail": 737,
      "ander": 738,
      "gar": 739,
      "Sw": 740,
      "stit": 741,
      "ibus": 742,
      "ĠBe": 743,
      "Cell": 744,
      "aft": 745,
      "ĠAt": 746,
      "atha": 747,
      "Sub": 748,
      "kin": 749,
      "ypes": 750,
      "ersion": 751,
      "DE": 752,
      "itch": 753,
      "cad": 754,
      "ertex": 755,
      "andler": 756,
      "elly": 757,
      "itth": 758,
      "ages": 759,
      "And": 760,
      "RG": 761,
      "ko": 762,
      "arks": 763,
      "oles": 764,
      "CD": 765,
      "tot": 766,
      "ignment": 767,
      "Ġev": 768,
      "rat": 769,
      "ww": 770,
      "EM": 771,
      "ĠVill": 772,
      "down": 773,
      "Ġcor": 774,
      "rin": 775,
      "ney": 776,
      "ged": 777,
      "yan": 778,
      "ced": 779,
      "MR": 780,
      "uel": 781,
      "ants": 782,
      "Ġir": 783,
      "ĠMar": 784,
      "Ġpor": 785,
      "sm": 786,
      "Location": 787,
      "ĠEn": 788,
      "inch": 789,
      "imb": 790,
      "Web": 791,
      "start": 792,
      "older": 793,
      "Main": 794,
      "ando": 795,
      "ico": 796,
      "Att": 797,
      "inate": 798,
      "Ġman": 799,
      "Ġhem": 800,
      "Ġpat": 801,
      "imento": 802,
      "oder": 803,
      "odes": 804,
      "asm": 805,
      "Null": 806,
      "Ġend": 807,
      "PP": 808,
      "Back": 809,
      "ues": 810,
      "ĠAb": 811,
      "roc": 812,
      "yte": 813,
      "ken": 814,
      "TT": 815,
      "ttp": 816,
      "Buf": 817,
      "nam": 818,
      "patch": 819,
      "Link": 820,
      "oint": 821,
      "ĠRock": 822,
      "Dis": 823,
      "ices": 824,
      "Spr": 825,
      "ye": 826,
      "Ġav": 827,
      "acc": 828,
      "Status": 829,
      "ĠSm": 830,
      "ova": 831,
      "Form": 832,
      "ved": 833,
      "GC": 834,
      "icks": 835,
      "Json": 836,
      "LU": 837,
      "Card": 838,
      "enz": 839,
      "HP": 840,
      "ja": 841,
      "Ġexp": 842,
      "ĠMcK": 843,
      "Ġmon": 844,
      "riff": 845,
      "ĠMon": 846,
      "Height": 847,
      "auc": 848,
      "uen": 849,
      "rip": 850,
      "yth": 851,
      "fs": 852,
      "Pref": 853,
      "earch": 854,
      "ĠRo": 855,
      "MN": 856,
      "Posit": 857,
      "qual": 858,
      "Debug": 859,
      "Rect": 860,
      "rac": 861,
      "Ed": 862,
      "umer": 863,
      "ĠMcD": 864,
      "var": 865,
      "mm": 866,
      "Ġpay": 867,
      "ather": 868,
      "irt": 869,
      "Ġkn": 870,
      "stance": 871,
      "Ġrel": 872,
      "oft": 873,
      "Ġne": 874,
      "Ġip": 875,
      "ally": 876,
      "Row": 877,
      "ella": 878,
      "ente": 879,
      "sb": 880,
      "rif": 881,
      "mp": 882,
      "iev": 883,
      "Ġur": 884,
      "aps": 885,
      "name": 886,
      "etry": 887,
      "text": 888,
      "Build": 889,
      "ĠMad": 890,
      "ahan": 891,
      "Ġsol": 892,
      "Ġut": 893,
      "oin": 894,
      "elt": 895,
      "TL": 896,
      "Exp": 897,
      "play": 898,
      "Ġadj": 899,
      "Find": 900,
      "ci": 901,
      "Ġver": 902,
      "eta": 903,
      "omen": 904,
      "Sync": 905,
      "point": 906,
      "ison": 907,
      "ivity": 908,
      "awn": 909,
      "ĠCar": 910,
      "pty": 911,
      "adr": 912,
      "yk": 913,
      "pond": 914,
      "lay": 915,
      "igest": 916,
      "HDR": 917,
      "ĠVer": 918,
      "Ġcons": 919,
      "itter": 920,
      "ination": 921,
      "Open": 922,
      "eni": 923,
      "From": 924,
      "usc": 925,
      "ĠAng": 926,
      "ĠRx": 927,
      "unch": 928,
      "urb": 929,
      "aug": 930,
      "lob": 931,
      "ted": 932,
      "inu": 933,
      "han": 934,
      "Length": 935,
      "ĠNew": 936,
      "eit": 937,
      "ĠMont": 938,
      "ader": 939,
      "getB": 940,
      "ushed": 941,
      "Method": 942,
      "utto": 943,
      "odel": 944,
      "UC": 945,
      "RC": 946,
      "print": 947,
      "Dec": 948,
      "anda": 949,
      "file": 950,
      "ape": 951,
      "chen": 952,
      "ĠFl": 953,
      "lection": 954,
      "agn": 955,
      "Create": 956,
      "init": 957,
      "HA": 958,
      "ctive": 959,
      "Ġcur": 960,
      "Ġes": 961,
      "Query": 962,
      "Cho": 963,
      "idaz": 964,
      "ĠRed": 965,
      "Ġnot": 966,
      "igned": 967,
      "ville": 968,
      "Num": 969,
      "Auth": 970,
      "ersh": 971,
      "hou": 972,
      "ustom": 973,
      "Ġimm": 974,
      "iya": 975,
      "sel": 976,
      "omot": 977,
      "lem": 978,
      "mat": 979,
      "Student": 980,
      "md": 981,
      "Ġprz": 982,
      "way": 983,
      "ĠOr": 984,
      "apter": 985,
      "Update": 986,
      "mann": 987,
      "ĠPar": 988,
      "ĠUn": 989,
      "oard": 990,
      "iver": 991,
      "eto": 992,
      "Ġemb": 993,
      "Ġpart": 994,
      "ei": 995,
      "SX": 996,
      "word": 997,
      "gu": 998,
      "raf": 999,
      "ollow": 1000,
      "des": 1001,
      "xy": 1002,
      "riz": 1003,
      "UL": 1004,
      "room": 1005,
      "auf": 1006,
      "Per": 1007,
      "Ġover": 1008,
      "osa": 1009,
      "Ġoff": 1010,
      "GE": 1011,
      "mi": 1012,
      "LC": 1013,
      "del": 1014,
      "rea": 1015,
      "IST": 1016,
      "cop": 1017,
      "Game": 1018,
      "riter": 1019,
      "ines": 1020,
      "allow": 1021,
      "duct": 1022,
      "VC": 1023,
      "Ġfor": 1024,
      "ĠLor": 1025,
      "ful": 1026,
      "Label": 1027,
      "ĠMart": 1028,
      "roid": 1029,
      "ĠBel": 1030,
      "una": 1031,
      "olo": 1032,
      "Ġann": 1033,
      "eal": 1034,
      "Ġbil": 1035,
      "anch": 1036,
      "draw": 1037,
      "sa": 1038,
      "press": 1039,
      "Token": 1040,
      "ume": 1041,
      "irst": 1042,
      "Ġdem": 1043,
      "under": 1044,
      "ĠHar": 1045,
      "argin": 1046,
      "Asset": 1047,
      "Ġref": 1048,
      "ĠCol": 1049,
      "elles": 1050,
      "TH": 1051,
      "obj": 1052,
      "ellen": 1053,
      "vas": 1054,
      "ribute": 1055,
      "Not": 1056,
      "Sl": 1057,
      "Tool": 1058,
      "eks": 1059,
      "Ġneut": 1060,
      "vers": 1061,
      "DS": 1062,
      "atrix": 1063,
      "Style": 1064,
      "ĠSe": 1065,
      "Attribute": 1066,
      "hav": 1067,
      "counter": 1068,
      "Ġpol": 1069,
      "emia": 1070,
      "Ġspl": 1071,
      "ains": 1072,
      "ende": 1073,
      "unn": 1074,
      "gi": 1075,
      "ides": 1076,
      "color": 1077,
      "ba": 1078,
      "ĠFre": 1079,
      "embre": 1080,
      "Position": 1081,
      "<UNK>": 1082
    },
    "old_vocab": {
      "!": 0,
      "\"": 1,
      "#": 2,
      "$": 3,
      "%": 4,
      "&": 5,
      "'": 6,
      "(": 7,
      ")": 8,
      "*": 9,
      "+": 10,
      ",": 11,
      "-": 12,
      ".": 13,
      "/": 14,
      "0": 15,
      "1": 16,
      "2": 17,
      "3": 18,
      "4": 19,
      "5": 20,
      "6": 21,
      "7": 22,
      "8": 23,
      "9": 24,
      ":": 25,
      ";": 26,
      "<": 27,
      "=": 28,
      ">": 29,
      "?": 30,
      "@": 31,
      "A": 32,
      "B": 33,
      "C": 34,
      "D": 35,
      "E": 36,
      "F": 37,
      "G": 38,
      "H": 39,
      "I": 40,
      "J": 41,
      "K": 42,
      "L": 43,
      "M": 44,
      "N": 45,
      "O": 46,
      "P": 47,
      "Q": 48,
      "R": 49,
      "S": 50,
      "T": 51,
      "U": 52,
      "V": 53,
      "W": 54,
      "X": 55,
      "Y": 56,
      "Z": 57,
      "[": 58,
      "\\": 59,
      "]": 60,
      "^": 61,
      "_": 62,
      "`": 63,
      "a": 64,
      "b": 65,
      "c": 66,
      "d": 67,
      "e": 68,
      "f": 69,
      "g": 70,
      "h": 71,
      "i": 72,
      "j": 73,
      "k": 74,
      "l": 75,
      "m": 76,
      "n": 77,
      "o": 78,
      "p": 79,
      "q": 80,
      "r": 81,
      "s": 82,
      "t": 83,
      "u": 84,
      "v": 85,
      "w": 86,
      "x": 87,
      "y": 88,
      "z": 89,
      "{": 90,
      "|": 91,
      "}": 92,
      "~": 93,
      "¡": 94,
      "¢": 95,
      "£": 96,
      "¤": 97,
      "¥": 98,
      "¦": 99,
      "§": 100,
      "¨": 101,
      "©": 102,
      "ª": 103,
      "«": 104,
      "¬": 105,
      "®": 106,
      "¯": 107,
      "°": 108,
      "±": 109,
      "²": 110,
      "³": 111,
      "´": 112,
      "µ": 113,
      "¶": 114,
      "·": 115,
      "¸": 116,
      "¹": 117,
      "º": 118,
      "»": 119,
      "¼": 120,
      "½": 121,
      "¾": 122,
      "¿": 123,
      "À": 124,
      "Á": 125,
      "Â": 126,
      "Ã": 127,
      "Ä": 128,
      "Å": 129,
      "Æ": 130,
      "Ç": 131,
      "È": 132,
      "É": 133,
      "Ê": 134,
      "Ë": 135,
      "Ì": 136,
      "Í": 137,
      "Î": 138,
      "Ï": 139,
      "Ð": 140,
      "Ñ": 141,
      "Ò": 142,
      "Ó": 143,
      "Ô": 144,
      "Õ": 145,
      "Ö": 146,
      "×": 147,
      "Ø": 148,
      "Ù": 149,
      "Ú": 150,
      "Û": 151,
      "Ü": 152,
      "Ý": 153,
      "Þ": 154,
      "ß": 155,
      "à": 156,
      "á": 157,
      "â": 158,
      "ã": 159,
      "ä": 160,
      "å": 161,
      "æ": 162,
      "ç": 163,
      "è": 164,
      "é": 165,
      "ê": 166,
      "ë": 167,
      "ì": 168,
      "í": 169,
      "î": 170,
      "ï": 171,
      "ð": 172,
      "ñ": 173,
      "ò": 174,
      "ó": 175,
      "ô": 176,
      "õ": 177,
      "ö": 178,
      "÷": 179,
      "ø": 180,
      "ù": 181,
      "ú": 182,
      "û": 183,
      "ü": 184,
      "ý": 185,
      "þ": 186,
      "ÿ": 187,
      "Ā": 188,
      "ā": 189,
      "Ă": 190,
      "ă": 191,
      "Ą": 192,
      "ą": 193,
      "Ć": 194,
      "ć": 195,
      "Ĉ": 196,
      "ĉ": 197,
      "Ċ": 198,
      "ċ": 199,
      "Č": 200,
      "č": 201,
      "Ď": 202,
      "ď": 203,
      "Đ": 204,
      "đ": 205,
      "Ē": 206,
      "ē": 207,
      "Ĕ": 208,
      "ĕ": 209,
      "Ė": 210,
      "ė": 211,
      "Ę": 212,
      "ę": 213,
      "Ě": 214,
      "ě": 215,
      "Ĝ": 216,
      "ĝ": 217,
      "Ğ": 218,
      "ğ": 219,
      "Ġ": 220,
      "ġ": 221,
      "Ģ": 222,
      "ģ": 223,
      "Ĥ": 224,
      "ĥ": 225,
      "Ħ": 226,
      "ħ": 227,
      "Ĩ": 228,
      "ĩ": 229,
      "Ī": 230,
      "ī": 231,
      "Ĭ": 232,
      "ĭ": 233,
      "Į": 234,
      "į": 235,
      "İ": 236,
      "ı": 237,
      "Ĳ": 238,
      "ĳ": 239,
      "Ĵ": 240,
      "ĵ": 241,
      "Ķ": 242,
      "ķ": 243,
      "ĸ": 244,
      "Ĺ": 245,
      "ĺ": 246,
      "Ļ": 247,
      "ļ": 248,
      "Ľ": 249,
      "ľ": 250,
      "Ŀ": 251,
      "ŀ": 252,
      "Ł": 253,
      "ł": 254,
      "Ń": 255,
      "er": 256,
      "an": 257,
      "in": 258,
      "en": 259,
      "on": 260,
      "ar": 261,
      "at": 262,
      "es": 263,
      "al": 264,
      "or": 265,
      "et": 266,
      "it": 267,
      "st": 268,
      "le": 269,
      "ic": 270,
      "el": 271,
      "ed": 272,
      "ch": 273,
      "am": 274,
      "ro": 275,
      "is": 276,
      "re": 277,
      "ad": 278,
      "Ġs": 279,
      "Ġp": 280,
      "un": 281,
      "il": 282,
      "ĠS": 283,
      "as": 284,
      "ing": 285,
      "ut": 286,
      "ĠC": 287,
      "ent": 288,
      "ol": 289,
      "ur": 290,
      "ĠM": 291,
      "us": 292,
      "ĠB": 293,
      "ra": 294,
      "ion": 295,
      "Ġc": 296,
      "id": 297,
      "Ġd": 298,
      "ĠP": 299,
      "ul": 300,
      "im": 301,
      "Ġt": 302,
      "Ġm": 303,
      "om": 304,
      "ĠA": 305,
      "ac": 306,
      "ag": 307,
      "em": 308,
      "ab": 309,
      "ĠD": 310,
      "os": 311,
      "ot": 312,
      "um": 313,
      "ig": 314,
      "ct": 315,
      "od": 316,
      "Ġb": 317,
      "ri": 318,
      "ĠT": 319,
      "ĠG": 320,
      "ĠR": 321,
      "ĠH": 322,
      "ap": 323,
      "ie": 324,
      "ak": 325,
      "oc": 326,
      "ir": 327,
      "ĠN": 328,
      "est": 329,
      "ĠL": 330,
      "ay": 331,
      "ow": 332,
      "Ġf": 333,
      "ĠE": 334,
      "Ġg": 335,
      "ex": 336,
      "op": 337,
      "Ġv": 338,
      "Ġh": 339,
      "and": 340,
      "th": 341,
      "ia": 342,
      "ĠK": 343,
      "ce": 344,
      "qu": 345,
      "Ġn": 346,
      "iv": 347,
      "ĠF": 348,
      "ate": 349,
      "av": 350,
      "ers": 351,
      "ĠW": 352,
      "ang": 353,
      "ation": 354,
      "og": 355,
      "Ġl": 356,
      "ant": 357,
      "In": 358,
      "ik": 359,
      "ov": 360,
      "ah": 361,
      "ec": 362,
      "eg": 363,
      "Ġk": 364,
      "ist": 365,
      "end": 366,
      "ub": 367,
      "ud": 368,
      "ter": 369,
      "ff": 370,
      "ine": 371,
      "ont": 372,
      "St": 373,
      "ob": 374,
      "ib": 375,
      "Ġr": 376,
      "up": 377,
      "ip": 378,
      "ton": 379,
      "ess": 380,
      "ath": 381,
      "iz": 382,
      "ian": 383,
      "ey": 384,
      "ell": 385,
      "ug": 386,
      "ect": 387,
      "ĠV": 388,
      "ĠI": 389,
      "ind": 390,
      "ard": 391,
      "ly": 392,
      "ert": 393,
      "ast": 394,
      "ĠJ": 395,
      "pe": 396,
      "ord": 397,
      "ph": 398,
      "ok": 399,
      "get": 400,
      "ill": 401,
      "Ġw": 402,
      "pt": 403,
      "art": 404,
      "ue": 405,
      "Ġre": 406,
      "uc": 407,
      "ne": 408,
      "ht": 409,
      "yl": 410,
      "age": 411,
      "Ġin": 412,
      "ĠU": 413,
      "ĠO": 414,
      "if": 415,
      "eb": 416,
      "te": 417,
      "ass": 418,
      "io": 419,
      "se": 420,
      "au": 421,
      "ung": 422,
      "all": 423,
      "ev": 424,
      "und": 425,
      "ek": 426,
      "ef": 427,
      "ep": 428,
      "ox": 429,
      "able": 430,
      "ile": 431,
      "ens": 432,
      "uk": 433,
      "aw": 434,
      "Ġst": 435,
      "Ġj": 436,
      "ext": 437,
      "ata": 438,
      "erm": 439,
      "ack": 440,
      "he": 441,
      "ult": 442,
      "out": 443,
      "ĠCh": 444,
      "set": 445,
      "int": 446,
      "ity": 447,
      "az": 448,
      "ew": 449,
      "ial": 450,
      "pl": 451,
      "ach": 452,
      "our": 453,
      "ies": 454,
      "ym": 455,
      "rop": 456,
      "ran": 457,
      "ou": 458,
      "sk": 459,
      "aj": 460,
      "ort": 461,
      "Ġch": 462,
      "ick": 463,
      "ame": 464,
      "ock": 465,
      "Ġa": 466,
      "ry": 467,
      "ann": 468,
      "Ġun": 469,
      "ost": 470,
      "ai": 471,
      "cl": 472,
      "Ġcon": 473,
      "sh": 474,
      "son": 475,
      "ĠMc": 476,
      "att": 477,
      "ive": 478,
      "pr": 479,
      "ust": 480,
      "ject": 481,
      "ment": 482,
      "iew": 483,
      "her": 484,
      "iel": 485,
      "yn": 486,
      "ll": 487,
      "ous": 488,
      "per": 489,
      "ele": 490,
      "ya": 491,
      "ier": 492,
      "ode": 493,
      "ype": 494,
      "ain": 495,
      "add": 496,
      "unt": 497,
      "erv": 498,
      "are": 499,
      "put": 500,
      "to": 501,
      "na": 502,
      "ich": 503,
      "ij": 504,
      "ish": 505,
      "ER": 506,
      "ong": 507,
      "eng": 508,
      "ite": 509,
      "lo": 510,
      "ax": 511,
      "ign": 512,
      "ond": 513,
      "Cont": 514,
      "sp": 515,
      "ring": 516,
      "pp": 517,
      "ber": 518,
      "ane": 519,
      "ull": 520,
      "ati": 521,
      "ore": 522,
      "ice": 523,
      "Val": 524,
      "ez": 525,
      "Ar": 526,
      "ire": 527,
      "ure": 528,
      "Ch": 529,
      "Ob": 530,
      "rom": 531,
      "ary": 532,
      "ild": 533,
      "ide": 534,
      "omp": 535,
      "To": 536,
      "man": 537,
      "ron": 538,
      "ash": 539,
      "ated": 540,
      "ST": 541,
      "oh": 542,
      "ru": 543,
      "ft": 544,
      "res": 545,
      "ime": 546,
      "ink": 547,
      "ett": 548,
      "Ġz": 549,
      "sc": 550,
      "ĠSh": 551,
      "iss": 552,
      "ight": 553,
      "nd": 554,
      "ana": 555,
      "err": 556,
      "ield": 557,
      "Ġpro": 558,
      "ark": 559,
      "enc": 560,
      "Object": 561,
      "Type": 562,
      "ge": 563,
      "ith": 564,
      "Con": 565,
      "ern": 566,
      "ize": 567,
      "Ġsp": 568,
      "eth": 569,
      "ere": 570,
      "own": 571,
      "ID": 572,
      "les": 573,
      "eh": 574,
      "Par": 575,
      "iy": 576,
      "tr": 577,
      "Cl": 578,
      "Ġe": 579,
      "orm": 580,
      "itt": 581,
      "ins": 582,
      "ene": 583,
      "View": 584,
      "ray": 585,
      "OR": 586,
      "Value": 587,
      "erc": 588,
      "oll": 589,
      "ley": 590,
      "oy": 591,
      "ON": 592,
      "ham": 593,
      "Ġle": 594,
      "Ġpr": 595,
      "ors": 596,
      "ale": 597,
      "AR": 598,
      "Res": 599,
      "ons": 600,
      "ma": 601,
      "co": 602,
      "EN": 603,
      "ium": 604,
      "UR": 605,
      "rr": 606,
      "Ġim": 607,
      "List": 608,
      "ka": 609,
      "IC": 610,
      "oj": 611,
      "ace": 612,
      "ient": 613,
      "Ex": 614,
      "ho": 615,
      "ss": 616,
      "ical": 617,
      "row": 618,
      "ction": 619,
      "tt": 620,
      "ina": 621,
      "ĠY": 622,
      "IN": 623,
      "Ġth": 624,
      "Path": 625,
      "old": 626,
      "ver": 627,
      "we": 628,
      "AN": 629,
      "ĠAr": 630,
      "act": 631,
      "ence": 632,
      "Pro": 633,
      "olor": 634,
      "ys": 635,
      "que": 636,
      "rit": 637,
      "SC": 638,
      "utton": 639,
      "ase": 640,
      "enn": 641,
      "ato": 642,
      "no": 643,
      "arg": 644,
      "ler": 645,
      "ram": 646,
      "Err": 647,
      "ĠSt": 648,
      "cept": 649,
      "ead": 650,
      "ni": 651,
      "one": 652,
      "ĠZ": 653,
      "atch": 654,
      "Ġqu": 655,
      "Ġex": 656,
      "Ġab": 657,
      "ald": 658,
      "Ġsc": 659,
      "ck": 660,
      "ole": 661,
      "tem": 662,
      "CC": 663,
      "Id": 664,
      "ood": 665,
      "ush": 666,
      "omm": 667,
      "sch": 668,
      "LE": 669,
      "Ġpl": 670,
      "Name": 671,
      "ans": 672,
      "ĠQ": 673,
      "Error": 674,
      "ee": 675,
      "oz": 676,
      "rent": 677,
      "bo": 678,
      "ric": 679,
      "ser": 680,
      "ance": 681,
      "of": 682,
      "ix": 683,
      "erg": 684,
      "ail": 685,
      "Data": 686,
      "Im": 687,
      "ari": 688,
      "Ġdis": 689,
      "ank": 690,
      "AL": 691,
      "app": 692,
      "Ġad": 693,
      "arl": 694,
      "CT": 695,
      "Sc": 696,
      "yd": 697,
      "anc": 698,
      "ado": 699,
      "ini": 700,
      "AT": 701,
      "Key": 702,
      "Ġal": 703,
      "uf": 704,
      "amp": 705,
      "Ġsub": 706,
      "yt": 707,
      "Comp": 708,
      "rid": 709,
      "uff": 710,
      "ĠSch": 711,
      "led": 712,
      "Serv": 713,
      "ĠAl": 714,
      "Button": 715,
      "ement": 716,
      "emb": 717,
      "SE": 718,
      "ret": 719,
      "ani": 720,
      "ait": 721,
      "Text": 722,
      "sl": 723,
      "ĠIn": 724,
      "af": 725,
      "orn": 726,
      "rav": 727,
      "arr": 728,
      "gen": 729,
      "AM": 730,
      "ator": 731,
      "fo": 732,
      "Ġy": 733,
      "equ": 734,
      "hen": 735,
      "ais": 736,
      "land": 737,
      "amb": 738,
      "SP": 739,
      "ings": 740,
      "val": 741,
      "IT": 742,
      "Size": 743,
      "yp": 744,
      "ear": 745,
      "eter": 746,
      "Array": 747,
      "String": 748,
      "ada": 749,
      "ford": 750,
      "air": 751,
      "RE": 752,
      "inn": 753,
      "iti": 754,
      "Item": 755,
      "ien": 756,
      "ions": 757,
      "esh": 758,
      "Co": 759,
      "SA": 760,
      "ren": 761,
      "Param": 762,
      "By": 763,
      "Of": 764,
      "ugh": 765,
      "ade": 766,
      "ott": 767,
      "Ġget": 768,
      "con": 769,
      "Ġsh": 770,
      "RP": 771,
      "kan": 772,
      "eck": 773,
      "inc": 774,
      "ein": 775,
      "cc": 776,
      "uj": 777,
      "utt": 778,
      "BS": 779,
      "ict": 780,
      "era": 781,
      "ica": 782,
      "over": 783,
      "Context": 784,
      "CS": 785,
      "ĠBl": 786,
      "ng": 787,
      "uss": 788,
      "yc": 789,
      "eat": 790,
      "vent": 791,
      "Ġpar": 792,
      "nt": 793,
      "ps": 794,
      "ory": 795,
      "rib": 796,
      "unc": 797,
      "ara": 798,
      "umb": 799,
      "oth": 800,
      "ke": 801,
      "Int": 802,
      "ics": 803,
      "onent": 804,
      "uth": 805,
      "urrent": 806,
      "arm": 807,
      "urs": 808,
      "ql": 809,
      "ena": 810,
      "uch": 811,
      "ger": 812,
      "lement": 813,
      "Pl": 814,
      "yst": 815,
      "ego": 816,
      "Field": 817,
      "Ġan": 818,
      "Ġen": 819,
      "Image": 820,
      "iro": 821,
      "ora": 822,
      "isc": 823,
      "osit": 824,
      "File": 825,
      "AC": 826,
      "ute": 827,
      "PS": 828,
      "ira": 829,
      "App": 830,
      "reate": 831,
      "reen": 832,
      "ih": 833,
      "roup": 834,
      "ama": 835,
      "Ġac": 836,
      "ze": 837,
      "ĠGu": 838,
      "ager": 839,
      "use": 840,
      "ater": 841,
      "CP": 842,
      "va": 843,
      "ala": 844,
      "Ġdes": 845,
      "str": 846,
      "Mod": 847,
      "Ġsl": 848,
      "ve": 849,
      "uto": 850,
      "umber": 851,
      "fl": 852,
      "Ġar": 853,
      "off": 854,
      "Ġap": 855,
      "Get": 856,
      "che": 857,
      "DA": 858,
      "uy": 859,
      "Ġset": 860,
      "ism": 861,
      "den": 862,
      "atth": 863,
      "ery": 864,
      "ĠX": 865,
      "Ġrec": 866,
      "Time": 867,
      "als": 868,
      "me": 869,
      "equest": 870,
      "Man": 871,
      "kh": 872,
      "roll": 873,
      "ress": 874,
      "IA": 875,
      "ise": 876,
      "State": 877,
      "par": 878,
      "ament": 879,
      "Ġper": 880,
      "dex": 881,
      "IS": 882,
      "po": 883,
      "ner": 884,
      "ille": 885,
      "urn": 886,
      "PC": 887,
      "itz": 888,
      "arc": 889,
      "uz": 890,
      "ates": 891,
      "Ġro": 892,
      "ular": 893,
      "orr": 894,
      "ech": 895,
      "let": 896,
      "ius": 897,
      "rad": 898,
      "order": 899,
      "ave": 900,
      "alt": 901,
      "raw": 902,
      "anj": 903,
      "ha": 904,
      "Color": 905,
      "fe": 906,
      "Sh": 907,
      "ets": 908,
      "arb": 909,
      "orb": 910,
      "du": 911,
      "Code": 912,
      "IL": 913,
      "iff": 914,
      "oph": 915,
      "ref": 916,
      "rev": 917,
      "ose": 918,
      "Index": 919,
      "lock": 920,
      "uv": 921,
      "Char": 922,
      "ource": 923,
      "DP": 924,
      "Fl": 925,
      "ES": 926,
      "ili": 927,
      "UT": 928,
      "rist": 929,
      "Ġres": 930,
      "Ġis": 931,
      "uh": 932,
      "gl": 933,
      "bar": 934,
      "pi": 935,
      "ml": 936,
      "iter": 937,
      "Component": 938,
      "MS": 939,
      "ks": 940,
      "kt": 941,
      "ied": 942,
      "ians": 943,
      "ruct": 944,
      "ych": 945,
      "ayout": 946,
      "ree": 947,
      "IP": 948,
      "Request": 949,
      "uan": 950,
      "ld": 951,
      "Ġmen": 952,
      "yr": 953,
      "ĠTh": 954,
      "ington": 955,
      "rack": 956,
      "CH": 957,
      "ii": 958,
      "omb": 959,
      "och": 960,
      "elect": 961,
      "sub": 962,
      "Out": 963,
      "rag": 964,
      "eme": 965,
      "ux": 966,
      "Set": 967,
      "All": 968,
      "ĠAm": 969,
      "ete": 970,
      "SI": 971,
      "rim": 972,
      "Call": 973,
      "MA": 974,
      "cz": 975,
      "CA": 976,
      "fig": 977,
      "ano": 978,
      "ae": 979,
      "abb": 980,
      "ao": 981,
      "rol": 982,
      "form": 983,
      "sw": 984,
      "Ġcont": 985,
      "ely": 986,
      "En": 987,
      "Event": 988,
      "Ref": 989,
      "ĠSc": 990,
      "Group": 991,
      "TR": 992,
      "ays": 993,
      "rans": 994,
      "go": 995,
      "ake": 996,
      "za": 997,
      "asc": 998,
      "ET": 999,
      "erd": 1000,
      "oxy": 1001,
      "Ġjed": 1002,
      "Box": 1003,
      "Ġod": 1004,
      "Action": 1005,
      "oid": 1006,
      "back": 1007,
      "yle": 1008,
      "Ġam": 1009,
      "red": 1010,
      "ros": 1011,
      "ĠLe": 1012,
      "riv": 1013,
      "ese": 1014,
      "oa": 1015,
      "ots": 1016,
      "la": 1017,
      "ork": 1018,
      "oo": 1019,
      "line": 1020,
      "Ġret": 1021,
      "Ġund": 1022,
      "aff": 1023,
      "Result": 1024,
      "UN": 1025,
      "atur": 1026,
      "Sp": 1027,
      "rt": 1028,
      "ĠCon": 1029,
      "ered": 1030,
      "Ġind": 1031,
      "indow": 1032,
      "ception": 1033,
      "Prop": 1034,
      "endo": 1035,
      "Input": 1036,
      "Manager": 1037,
      "Ġcom": 1038,
      "ĠBar": 1039,
      "Up": 1040,
      "MP": 1041,
      "Ġob": 1042,
      "rec": 1043,
      "Exception": 1044,
      "Ġant": 1045,
      "Service": 1046,
      "men": 1047,
      "ling": 1048,
      "ĠAd": 1049,
      "ump": 1050,
      "Count": 1051,
      "AG": 1052,
      "ester": 1053,
      "shire": 1054,
      "ĠEd": 1055,
      "unter": 1056,
      "uild": 1057,
      "ej": 1058,
      "Ad": 1059,
      "aya": 1060,
      "anam": 1061,
      "ios": 1062,
      "rl": 1063,
      "ĠEm": 1064,
      "Class": 1065,
      "els": 1066,
      "Ġimp": 1067,
      "ten": 1068,
      "ocal": 1069,
      "PA": 1070,
      "mer": 1071,
      "eut": 1072,
      "ower": 1073,
      "ats": 1074,
      "Layout": 1075,
      "Table": 1076,
      "ask": 1077,
      "ener": 1078,
      "uit": 1079,
      "ĠRe": 1080,
      "ars": 1081,
      "bur": 1082,
      "ĠAn": 1083,
      "TS": 1084,
      "For": 1085,
      "ocation": 1086,
      "amil": 1087,
      "Ġem": 1088,
      "idd": 1089,
      "my": 1090,
      "ione": 1091,
      "oss": 1092,
      "iqu": 1093,
      "As": 1094,
      "uck": 1095,
      "port": 1096,
      "elle": 1097,
      "ized": 1098,
      "ucle": 1099,
      "ange": 1100,
      "ule": 1101,
      "nik": 1102,
      "SM": 1103,
      "ound": 1104,
      "Ġtr": 1105,
      "ogg": 1106,
      "atic": 1107,
      "ual": 1108,
      "ility": 1109,
      "raph": 1110,
      "org": 1111,
      "ract": 1112,
      "Element": 1113,
      "ouse": 1114,
      "ette": 1115,
      "ED": 1116,
      "last": 1117,
      "pro": 1118,
      "With": 1119,
      "las": 1120,
      "Info": 1121,
      "Config": 1122,
      "DR": 1123,
      "pon": 1124,
      "ayer": 1125,
      "User": 1126,
      "anel": 1127,
      "AD": 1128,
      "lad": 1129,
      "AP": 1130,
      "Api": 1131,
      "berg": 1132,
      "iej": 1133,
      "Ġco": 1134,
      "Ġov": 1135,
      "Ġel": 1136,
      "BC": 1137,
      "Ġph": 1138,
      "ui": 1139,
      "ĠEl": 1140,
      "edi": 1141,
      "idth": 1142,
      "ino": 1143,
      "SS": 1144,
      "be": 1145,
      "icht": 1146,
      "ĠBr": 1147,
      "eader": 1148,
      "reg": 1149,
      "oto": 1150,
      "olic": 1151,
      "hi": 1152,
      "Al": 1153,
      "ome": 1154,
      "IM": 1155,
      "bit": 1156,
      "br": 1157,
      "Is": 1158,
      "unk": 1159,
      "map": 1160,
      "load": 1161,
      "cent": 1162,
      "Ġfl": 1163,
      "inal": 1164,
      "ral": 1165,
      "aut": 1166,
      "Window": 1167,
      "web": 1168,
      "iet": 1169,
      "lect": 1170,
      "CO": 1171,
      "ough": 1172,
      "EC": 1173,
      "ura": 1174,
      "ating": 1175,
      "Ġinc": 1176,
      "Ġent": 1177,
      "Ġon": 1178,
      "Ġx": 1179,
      "Ġed": 1180,
      "Ġsk": 1181,
      "wood": 1182,
      "path": 1183,
      "any": 1184,
      "SRP": 1185,
      "tn": 1186,
      "ali": 1187,
      "Ġang": 1188,
      "ior": 1189,
      "cht": 1190,
      "ski": 1191,
      "abel": 1192,
      "new": 1193,
      "IV": 1194,
      "DK": 1195,
      "Model": 1196,
      "erk": 1197,
      "Ġop": 1198,
      "ĠSal": 1199,
      "arn": 1200,
      "Test": 1201,
      "da": 1202,
      "anti": 1203,
      "PM": 1204,
      "eep": 1205,
      "uid": 1206,
      "rv": 1207,
      "ional": 1208,
      "rab": 1209,
      "Ġgr": 1210,
      "arch": 1211,
      "ENT": 1212,
      "aan": 1213,
      "ider": 1214,
      "Ġmult": 1215,
      "field": 1216,
      "ript": 1217,
      "board": 1218,
      "Ġuse": 1219,
      "aur": 1220,
      "Ph": 1221,
      "Log": 1222,
      "ulf": 1223,
      "fer": 1224,
      "ection": 1225,
      "iment": 1226,
      "Params": 1227,
      "ts": 1228,
      "ima": 1229,
      "BA": 1230,
      "oad": 1231,
      "ega": 1232,
      "ris": 1233,
      "MC": 1234,
      "udd": 1235,
      "lic": 1236,
      "ĠSp": 1237,
      "GF": 1238,
      "igh": 1239,
      "Ġint": 1240,
      "item": 1241,
      "etail": 1242,
      "erty": 1243,
      "US": 1244,
      "oke": 1245,
      "UM": 1246,
      "cal": 1247,
      "Node": 1248,
      "ible": 1249,
      "Ġdi": 1250,
      "Ġcl": 1251,
      "key": 1252,
      "ĠWil": 1253,
      "Panel": 1254,
      "enu": 1255,
      "ations": 1256,
      "olog": 1257,
      "anth": 1258,
      "OA": 1259,
      "ody": 1260,
      "ync": 1261,
      "by": 1262,
      "Ġout": 1263,
      "acter": 1264,
      "Stat": 1265,
      "kow": 1266,
      "HT": 1267,
      "leg": 1268,
      "At": 1269,
      "Map": 1270,
      "PT": 1271,
      "MD": 1272,
      "akan": 1273,
      "Ġra": 1274,
      "vert": 1275,
      "Bar": 1276,
      "sed": 1277,
      "ores": 1278,
      "emp": 1279,
      "Col": 1280,
      "bra": 1281,
      "oken": 1282,
      "je": 1283,
      "Ġbl": 1284,
      "for": 1285,
      "ĠSw": 1286,
      "ĠCl": 1287,
      "adi": 1288,
      "ĠCo": 1289,
      "CM": 1290,
      "hat": 1291,
      "iem": 1292,
      "Number": 1293,
      "ched": 1294,
      "ita": 1295,
      "mo": 1296,
      "Ġau": 1297,
      "Un": 1298,
      "icul": 1299,
      "Ġol": 1300,
      "date": 1301,
      "Start": 1302,
      "eron": 1303,
      "zy": 1304,
      "aud": 1305,
      "ny": 1306,
      "ethod": 1307,
      "ĠMcC": 1308,
      "atri": 1309,
      "CI": 1310,
      "Ġconv": 1311,
      "Or": 1312,
      "aro": 1313,
      "iri": 1314,
      "Ġmax": 1315,
      "Ġpost": 1316,
      "ils": 1317,
      "Content": 1318,
      "TE": 1319,
      "lin": 1320,
      "aa": 1321,
      "Const": 1322,
      "ercent": 1323,
      "Em": 1324,
      "IB": 1325,
      "onic": 1326,
      "ĠBur": 1327,
      "ument": 1328,
      "ponse": 1329,
      "Width": 1330,
      "ĠBh": 1331,
      "omer": 1332,
      "Ġult": 1333,
      "zt": 1334,
      "rich": 1335,
      "alk": 1336,
      "net": 1337,
      "ook": 1338,
      "aus": 1339,
      "Arg": 1340,
      "ua": 1341,
      "CE": 1342,
      "Block": 1343,
      "Date": 1344,
      "SR": 1345,
      "ms": 1346,
      "eer": 1347,
      "ido": 1348,
      "amente": 1349,
      "Ġtrans": 1350,
      "ero": 1351,
      "ona": 1352,
      "On": 1353,
      "etri": 1354,
      "Line": 1355,
      "hr": 1356,
      "Header": 1357,
      "FA": 1358,
      "ender": 1359,
      "Ġas": 1360,
      "OM": 1361,
      "Star": 1362,
      "ommand": 1363,
      "het": 1364,
      "jsk": 1365,
      "Auto": 1366,
      "Ġinter": 1367,
      "lor": 1368,
      "ĠPal": 1369,
      "its": 1370,
      "ois": 1371,
      "AS": 1372,
      "IR": 1373,
      "win": 1374,
      "Ġvol": 1375,
      "Ġer": 1376,
      "Off": 1377,
      "ative": 1378,
      "read": 1379,
      "Server": 1380,
      "imp": 1381,
      "EL": 1382,
      "Ġpot": 1383,
      "DC": 1384,
      "ialog": 1385,
      "ethyl": 1386,
      "stra": 1387,
      "IF": 1388,
      "essage": 1389,
      "Mode": 1390,
      "Output": 1391,
      "js": 1392,
      "UI": 1393,
      "osh": 1394,
      "de": 1395,
      "db": 1396,
      "utter": 1397,
      "aster": 1398,
      "CL": 1399,
      "Ġsw": 1400,
      "urt": 1401,
      "orth": 1402,
      "xc": 1403,
      "rob": 1404,
      "An": 1405,
      "Menu": 1406,
      "itor": 1407,
      "less": 1408,
      "iles": 1409,
      "aks": 1410,
      "ipp": 1411,
      "Mut": 1412,
      "Ġdec": 1413,
      "acch": 1414,
      "Ġto": 1415,
      "LO": 1416,
      "li": 1417,
      "round": 1418,
      "Ġadd": 1419,
      "ouch": 1420,
      "thor": 1421,
      "erson": 1422,
      "aki": 1423,
      "DB": 1424,
      "Pop": 1425,
      "Ġep": 1426,
      "Ġber": 1427,
      "lex": 1428,
      "Ġtest": 1429,
      "ven": 1430,
      "pen": 1431,
      "lar": 1432,
      "Ġjedn": 1433,
      "uffer": 1434,
      "ocus": 1435,
      "Ġbh": 1436,
      "der": 1437,
      "ycl": 1438,
      "ition": 1439,
      "orph": 1440,
      "icz": 1441,
      "MB": 1442,
      "box": 1443,
      "asi": 1444,
      "esp": 1445,
      "Go": 1446,
      "illa": 1447,
      "Ġsal": 1448,
      "ency": 1449,
      "atan": 1450,
      "ols": 1451,
      "ength": 1452,
      "vi": 1453,
      "Ġdef": 1454,
      "raz": 1455,
      "TA": 1456,
      "PE": 1457,
      "ami": 1458,
      "Ġag": 1459,
      "roph": 1460,
      "zo": 1461,
      "PR": 1462,
      "Url": 1463,
      "arth": 1464,
      "ING": 1465,
      "min": 1466,
      "KA": 1467,
      "edia": 1468,
      "eight": 1469,
      "TC": 1470,
      "ious": 1471,
      "aire": 1472,
      "udent": 1473,
      "ola": 1474,
      "met": 1475,
      "ities": 1476,
      "com": 1477,
      "aul": 1478,
      "Conn": 1479,
      "Nav": 1480,
      "bl": 1481,
      "ĠWh": 1482,
      "econd": 1483,
      "amera": 1484,
      "ault": 1485,
      "Av": 1486,
      "cess": 1487,
      "ymb": 1488,
      "ĠQu": 1489,
      "input": 1490,
      "Dialog": 1491,
      "Ġsm": 1492,
      "Ġsch": 1493,
      "ĠPr": 1494,
      "ĠMah": 1495,
      "Control": 1496,
      "ĠAg": 1497,
      "plic": 1498,
      "SO": 1499,
      "eli": 1500,
      "rey": 1501,
      "ĠDor": 1502,
      "ML": 1503,
      "eld": 1504,
      "well": 1505,
      "rain": 1506,
      "rap": 1507,
      "ca": 1508,
      "Ġrem": 1509,
      "ĠMcG": 1510,
      "Ġoc": 1511,
      "Qu": 1512,
      "amm": 1513,
      "IG": 1514,
      "rum": 1515,
      "Ġpal": 1516,
      "oot": 1517,
      "find": 1518,
      "ebug": 1519,
      "Bit": 1520,
      "ĠCB": 1521,
      "Ġrep": 1522,
      "Ġcurrent": 1523,
      "wa": 1524,
      "ĠKn": 1525,
      "ically": 1526,
      "ias": 1527,
      "onn": 1528,
      "Ġmil": 1529,
      "Resource": 1530,
      "uro": 1531,
      "ope": 1532,
      "raft": 1533,
      "Ġpre": 1534,
      "Response": 1535,
      "Init": 1536,
      "lu": 1537,
      "alle": 1538,
      "nya": 1539,
      "Ġapp": 1540,
      "New": 1541,
      "oi": 1542,
      "ability": 1543,
      "awa": 1544,
      "Ġnew": 1545,
      "ĠEr": 1546,
      "ĠWood": 1547,
      "ove": 1548,
      "Ġdel": 1549,
      "ukan": 1550,
      "FBS": 1551,
      "Buffer": 1552,
      "andle": 1553,
      "anz": 1554,
      "user": 1555,
      "Def": 1556,
      "eral": 1557,
      "ropri": 1558,
      "FBSDK": 1559,
      "Inter": 1560,
      "atis": 1561,
      "ream": 1562,
      "itri": 1563,
      "arget": 1564,
      "uer": 1565,
      "ava": 1566,
      "Focus": 1567,
      "van": 1568,
      "Ġsup": 1569,
      "angan": 1570,
      "Var": 1571,
      "aka": 1572,
      "ji": 1573,
      "Oper": 1574,
      "stein": 1575,
      "ĠApp": 1576,
      "ateg": 1577,
      "vis": 1578,
      "ĠBx": 1579,
      "ift": 1580,
      "imm": 1581,
      "OP": 1582,
      "Change": 1583,
      "SD": 1584,
      "Ġup": 1585,
      "ras": 1586,
      "anh": 1587,
      "apt": 1588,
      "oun": 1589,
      "Select": 1590,
      "ante": 1591,
      "Ġcreate": 1592,
      "rz": 1593,
      "cp": 1594,
      "pring": 1595,
      "acy": 1596,
      "ĠWar": 1597,
      "ever": 1598,
      "Ġmeng": 1599,
      "ĠCor": 1600,
      "ĠPh": 1601,
      "ization": 1602,
      "Ġter": 1603,
      "not": 1604,
      "ific": 1605,
      "ĠBro": 1606,
      "ector": 1607,
      "Client": 1608,
      "akt": 1609,
      "iki": 1610,
      "ila": 1611,
      "ste": 1612,
      "Ġleg": 1613,
      "Rec": 1614,
      "Page": 1615,
      "Message": 1616,
      "from": 1617,
      "AF": 1618,
      "type": 1619,
      "Ġgl": 1620,
      "ĠMan": 1621,
      "DI": 1622,
      "akkh": 1623,
      "Ġo": 1624,
      "aga": 1625,
      "Property": 1626,
      "ĠQx": 1627,
      "data": 1628,
      "Down": 1629,
      "current": 1630,
      "nal": 1631,
      "send": 1632,
      "oul": 1633,
      "TP": 1634,
      "do": 1635,
      "Ġact": 1636,
      "erence": 1637,
      "ges": 1638,
      "Ġinf": 1639,
      "vol": 1640,
      "IO": 1641,
      "alf": 1642,
      "eger": 1643,
      "igg": 1644,
      "cont": 1645,
      "ben": 1646,
      "End": 1647,
      "ster": 1648,
      "ION": 1649,
      "anyl": 1650,
      "isT": 1651,
      "erman": 1652,
      "eda": 1653,
      "ean": 1654,
      "CB": 1655,
      "ula": 1656,
      "AY": 1657,
      "uct": 1658,
      "open": 1659,
      "oma": 1660,
      "Detail": 1661,
      "ander": 1662,
      "gar": 1663,
      "Sw": 1664,
      "stit": 1665,
      "ibus": 1666,
      "ĠBe": 1667,
      "Cell": 1668,
      "aft": 1669,
      "ĠAt": 1670,
      "atha": 1671,
      "Sub": 1672,
      "kin": 1673,
      "ypes": 1674,
      "ersion": 1675,
      "DE": 1676,
      "itch": 1677,
      "cad": 1678,
      "ertex": 1679,
      "andler": 1680,
      "elly": 1681,
      "itth": 1682,
      "ages": 1683,
      "And": 1684,
      "RG": 1685,
      "ko": 1686,
      "arks": 1687,
      "oles": 1688,
      "CD": 1689,
      "tot": 1690,
      "ignment": 1691,
      "Ġev": 1692,
      "rat": 1693,
      "ww": 1694,
      "EM": 1695,
      "ĠVill": 1696,
      "down": 1697,
      "Ġcor": 1698,
      "rin": 1699,
      "ney": 1700,
      "ged": 1701,
      "yan": 1702,
      "ced": 1703,
      "MR": 1704,
      "uel": 1705,
      "ants": 1706,
      "Ġir": 1707,
      "ĠMar": 1708,
      "Ġpor": 1709,
      "sm": 1710,
      "Location": 1711,
      "ĠEn": 1712,
      "inch": 1713,
      "imb": 1714,
      "Web": 1715,
      "start": 1716,
      "older": 1717,
      "Main": 1718,
      "ando": 1719,
      "ico": 1720,
      "Att": 1721,
      "inate": 1722,
      "Ġman": 1723,
      "Ġhem": 1724,
      "Ġpat": 1725,
      "imento": 1726,
      "oder": 1727,
      "odes": 1728,
      "asm": 1729,
      "Null": 1730,
      "Ġend": 1731,
      "PP": 1732,
      "Back": 1733,
      "ues": 1734,
      "ĠAb": 1735,
      "roc": 1736,
      "yte": 1737,
      "ken": 1738,
      "TT": 1739,
      "ttp": 1740,
      "Buf": 1741,
      "nam": 1742,
      "patch": 1743,
      "Link": 1744,
      "oint": 1745,
      "ĠRock": 1746,
      "Dis": 1747,
      "ices": 1748,
      "Spr": 1749,
      "ye": 1750,
      "Ġav": 1751,
      "acc": 1752,
      "Status": 1753,
      "ĠSm": 1754,
      "ova": 1755,
      "Form": 1756,
      "ved": 1757,
      "GC": 1758,
      "icks": 1759,
      "Json": 1760,
      "LU": 1761,
      "Card": 1762,
      "enz": 1763,
      "HP": 1764,
      "ja": 1765,
      "Ġexp": 1766,
      "ĠMcK": 1767,
      "Ġmon": 1768,
      "riff": 1769,
      "ĠMon": 1770,
      "Height": 1771,
      "auc": 1772,
      "uen": 1773,
      "rip": 1774,
      "yth": 1775,
      "fs": 1776,
      "Pref": 1777,
      "earch": 1778,
      "ĠRo": 1779,
      "MN": 1780,
      "Posit": 1781,
      "qual": 1782,
      "Debug": 1783,
      "Rect": 1784,
      "rac": 1785,
      "Ed": 1786,
      "umer": 1787,
      "ĠMcD": 1788,
      "var": 1789,
      "mm": 1790,
      "Ġpay": 1791,
      "ather": 1792,
      "irt": 1793,
      "Ġkn": 1794,
      "stance": 1795,
      "Ġrel": 1796,
      "oft": 1797,
      "Ġne": 1798,
      "Ġip": 1799,
      "ally": 1800,
      "Row": 1801,
      "ella": 1802,
      "ente": 1803,
      "sb": 1804,
      "rif": 1805,
      "mp": 1806,
      "iev": 1807,
      "Ġur": 1808,
      "aps": 1809,
      "name": 1810,
      "etry": 1811,
      "text": 1812,
      "Build": 1813,
      "ĠMad": 1814,
      "ahan": 1815,
      "Ġsol": 1816,
      "Ġut": 1817,
      "oin": 1818,
      "elt": 1819,
      "TL": 1820,
      "Exp": 1821,
      "play": 1822,
      "Ġadj": 1823,
      "Find": 1824,
      "ci": 1825,
      "Ġver": 1826,
      "eta": 1827,
      "omen": 1828,
      "Sync": 1829,
      "point": 1830,
      "ison": 1831,
      "ivity": 1832,
      "awn": 1833,
      "ĠCar": 1834,
      "pty": 1835,
      "adr": 1836,
      "yk": 1837,
      "pond": 1838,
      "lay": 1839,
      "igest": 1840,
      "HDR": 1841,
      "ĠVer": 1842,
      "Ġcons": 1843,
      "itter": 1844,
      "ination": 1845,
      "Open": 1846,
      "eni": 1847,
      "From": 1848,
      "usc": 1849,
      "ĠAng": 1850,
      "ĠRx": 1851,
      "unch": 1852,
      "urb": 1853,
      "aug": 1854,
      "lob": 1855,
      "ted": 1856,
      "inu": 1857,
      "han": 1858,
      "Length": 1859,
      "ĠNew": 1860,
      "eit": 1861,
      "ĠMont": 1862,
      "ader": 1863,
      "getB": 1864,
      "ushed": 1865,
      "Method": 1866,
      "utto": 1867,
      "odel": 1868,
      "UC": 1869,
      "RC": 1870,
      "print": 1871,
      "Dec": 1872,
      "anda": 1873,
      "file": 1874,
      "ape": 1875,
      "chen": 1876,
      "ĠFl": 1877,
      "lection": 1878,
      "agn": 1879,
      "Create": 1880,
      "init": 1881,
      "HA": 1882,
      "ctive": 1883,
      "Ġcur": 1884,
      "Ġes": 1885,
      "Query": 1886,
      "Cho": 1887,
      "idaz": 1888,
      "ĠRed": 1889,
      "Ġnot": 1890,
      "igned": 1891,
      "ville": 1892,
      "Num": 1893,
      "Auth": 1894,
      "ersh": 1895,
      "hou": 1896,
      "ustom": 1897,
      "Ġimm": 1898,
      "iya": 1899,
      "sel": 1900,
      "omot": 1901,
      "lem": 1902,
      "mat": 1903,
      "Student": 1904,
      "md": 1905,
      "Ġprz": 1906,
      "way": 1907,
      "ĠOr": 1908,
      "apter": 1909,
      "Update": 1910,
      "mann": 1911,
      "ĠPar": 1912,
      "ĠUn": 1913,
      "oard": 1914,
      "iver": 1915,
      "eto": 1916,
      "Ġemb": 1917,
      "Ġpart": 1918,
      "ei": 1919,
      "SX": 1920,
      "word": 1921,
      "gu": 1922,
      "raf": 1923,
      "ollow": 1924,
      "des": 1925,
      "xy": 1926,
      "riz": 1927,
      "UL": 1928,
      "room": 1929,
      "auf": 1930,
      "Per": 1931,
      "Ġover": 1932,
      "osa": 1933,
      "Ġoff": 1934,
      "GE": 1935,
      "mi": 1936,
      "LC": 1937,
      "del": 1938,
      "rea": 1939,
      "IST": 1940,
      "cop": 1941,
      "Game": 1942,
      "riter": 1943,
      "ines": 1944,
      "allow": 1945,
      "duct": 1946,
      "VC": 1947,
      "Ġfor": 1948,
      "ĠLor": 1949,
      "ful": 1950,
      "Label": 1951,
      "ĠMart": 1952,
      "roid": 1953,
      "ĠBel": 1954,
      "una": 1955,
      "olo": 1956,
      "Ġann": 1957,
      "eal": 1958,
      "Ġbil": 1959,
      "anch": 1960,
      "draw": 1961,
      "sa": 1962,
      "press": 1963,
      "Token": 1964,
      "ume": 1965,
      "irst": 1966,
      "Ġdem": 1967,
      "under": 1968,
      "ĠHar": 1969,
      "argin": 1970,
      "Asset": 1971,
      "Ġref": 1972,
      "ĠCol": 1973,
      "elles": 1974,
      "TH": 1975,
      "obj": 1976,
      "ellen": 1977,
      "vas": 1978,
      "ribute": 1979,
      "Not": 1980,
      "Sl": 1981,
      "Tool": 1982,
      "eks": 1983,
      "Ġneut": 1984,
      "vers": 1985,
      "DS": 1986,
      "atrix": 1987,
      "Style": 1988,
      "ĠSe": 1989,
      "Attribute": 1990,
      "hav": 1991,
      "counter": 1992,
      "Ġpol": 1993,
      "emia": 1994,
      "Ġspl": 1995,
      "ains": 1996,
      "ende": 1997,
      "unn": 1998,
      "gi": 1999,
      "ides": 2000,
      "color": 2001,
      "ba": 2002,
      "ĠFre": 2003,
      "embre": 2004,
      "Position": 2005,
      "<UNK>": 2006
    },
    "merges": [
      "e r",
      "a n",
      "i n",
      "e n",
      "o n",
      "a r",
      "a t",
      "e s",
      "a l",
      "o r",
      "e t",
      "i t",
      "s t",
      "l e",
      "i c",
      "e l",
      "e d",
      "c h",
      "a m",
      "r o",
      "i s",
      "r e",
      "a d",
      "Ġ s",
      "Ġ p",
      "u n",
      "i l",
      "Ġ S",
      "a s",
      "in g",
      "u t",
      "Ġ C",
      "en t",
      "o l",
      "u r",
      "Ġ M",
      "u s",
      "Ġ B",
      "r a",
      "i on",
      "Ġ c",
      "i d",
      "Ġ d",
      "Ġ P",
      "u l",
      "i m",
      "Ġ t",
      "Ġ m",
      "o m",
      "Ġ A",
      "a c",
      "a g",
      "e m",
      "a b",
      "Ġ D",
      "o s",
      "o t",
      "u m",
      "i g",
      "c t",
      "o d",
      "Ġ b",
      "r i",
      "Ġ T",
      "Ġ G",
      "Ġ R",
      "Ġ H",
      "a p",
      "i e",
      "a k",
      "o c",
      "i r",
      "Ġ N",
      "es t",
      "Ġ L",
      "a y",
      "o w",
      "Ġ f",
      "Ġ E",
      "Ġ g",
      "e x",
      "o p",
      "Ġ v",
      "Ġ h",
      "an d",
      "t h",
      "i a",
      "Ġ K",
      "c e",
      "q u",
      "Ġ n",
      "i v",
      "Ġ F",
      "at e",
      "a v",
      "er s",
      "Ġ W",
      "an g",
      "at ion",
      "o g",
      "Ġ l",
      "an t",
      "I n",
      "i k",
      "o v",
      "a h",
      "e c",
      "e g",
      "Ġ k",
      "i st",
      "en d",
      "u b",
      "u d",
      "t er",
      "f f",
      "in e",
      "on t",
      "S t",
      "o b",
      "i b",
      "Ġ r",
      "u p",
      "i p",
      "t on",
      "es s",
      "at h",
      "i z",
      "i an",
      "e y",
      "el l",
      "u g",
      "e ct",
      "Ġ V",
      "Ġ I",
      "in d",
      "ar d",
      "l y",
      "er t",
      "a st",
      "Ġ J",
      "p e",
      "or d",
      "p h",
      "o k",
      "g et",
      "il l",
      "Ġ w",
      "p t",
      "ar t",
      "u e",
      "Ġ re",
      "u c",
      "n e",
      "h t",
      "y l",
      "ag e",
      "Ġ in",
      "Ġ U",
      "Ġ O",
      "i f",
      "e b",
      "t e",
      "as s",
      "i o",
      "s e",
      "a u",
      "un g",
      "al l",
      "e v",
      "un d",
      "e k",
      "e f",
      "e p",
      "o x",
      "ab le",
      "i le",
      "en s",
      "u k",
      "a w",
      "Ġ st",
      "Ġ j",
      "ex t",
      "at a",
      "er m",
      "ac k",
      "h e",
      "ul t",
      "o ut",
      "ĠC h",
      "s et",
      "in t",
      "it y",
      "a z",
      "e w",
      "i al",
      "p l",
      "a ch",
      "o ur",
      "i es",
      "y m",
      "ro p",
      "r an",
      "o u",
      "s k",
      "a j",
      "or t",
      "Ġ ch",
      "ic k",
      "am e",
      "oc k",
      "Ġ a",
      "r y",
      "an n",
      "Ġ un",
      "o st",
      "a i",
      "c l",
      "Ġc on",
      "s h",
      "s on",
      "ĠM c",
      "at t",
      "iv e",
      "p r",
      "u st",
      "j ect",
      "m ent",
      "ie w",
      "h er",
      "i el",
      "y n",
      "l l",
      "o us",
      "p er",
      "e le",
      "y a",
      "i er",
      "od e",
      "y pe",
      "a in",
      "ad d",
      "un t",
      "er v",
      "ar e",
      "p ut",
      "t o",
      "n a",
      "ic h",
      "i j",
      "is h",
      "E R",
      "on g",
      "en g",
      "it e",
      "l o",
      "a x",
      "ig n",
      "on d",
      "C ont",
      "s p",
      "r ing",
      "p p",
      "b er",
      "an e",
      "ul l",
      "at i",
      "or e",
      "ic e",
      "V al",
      "e z",
      "A r",
      "i re",
      "u re",
      "C h",
      "O b",
      "ro m",
      "ar y",
      "il d",
      "id e",
      "om p",
      "T o",
      "m an",
      "r on",
      "as h",
      "at ed",
      "S T",
      "o h",
      "r u",
      "f t",
      "r es",
      "im e",
      "in k",
      "et t",
      "Ġ z",
      "s c",
      "ĠS h",
      "is s",
      "ig ht",
      "n d",
      "an a",
      "er r",
      "iel d",
      "Ġp ro",
      "ar k",
      "en c",
      "Ob ject",
      "T ype",
      "g e",
      "it h",
      "C on",
      "er n",
      "iz e",
      "Ġs p",
      "et h",
      "er e",
      "ow n",
      "I D",
      "l es",
      "e h",
      "P ar",
      "i y",
      "t r",
      "C l",
      "Ġ e",
      "or m",
      "it t",
      "in s",
      "en e",
      "V iew",
      "ra y",
      "O R",
      "Val ue",
      "er c",
      "ol l",
      "le y",
      "o y",
      "O N",
      "h am",
      "Ġ le",
      "Ġp r",
      "or s",
      "al e",
      "A R",
      "R es",
      "on s",
      "m a",
      "c o",
      "E N",
      "i um",
      "U R",
      "r r",
      "Ġ im",
      "L ist",
      "k a",
      "I C",
      "o j",
      "ac e",
      "i ent",
      "E x",
      "h o",
      "s s",
      "ic al",
      "ro w",
      "ct ion",
      "t t",
      "in a",
      "Ġ Y",
      "I N",
      "Ġt h",
      "P ath",
      "ol d",
      "v er",
      "w e",
      "A N",
      "ĠA r",
      "ac t",
      "en ce",
      "P ro",
      "ol or",
      "y s",
      "qu e",
      "r it",
      "S C",
      "ut ton",
      "as e",
      "en n",
      "at o",
      "n o",
      "ar g",
      "l er",
      "r am",
      "E rr",
      "ĠS t",
      "ce pt",
      "e ad",
      "n i",
      "on e",
      "Ġ Z",
      "at ch",
      "Ġ qu",
      "Ġ ex",
      "Ġ ab",
      "al d",
      "Ġs c",
      "c k",
      "o le",
      "t em",
      "C C",
      "I d",
      "o od",
      "us h",
      "om m",
      "s ch",
      "L E",
      "Ġp l",
      "N ame",
      "an s",
      "Ġ Q",
      "Err or",
      "e e",
      "o z",
      "r ent",
      "b o",
      "r ic",
      "s er",
      "an ce",
      "o f",
      "i x",
      "er g",
      "a il",
      "D ata",
      "I m",
      "ar i",
      "Ġd is",
      "an k",
      "A L",
      "ap p",
      "Ġ ad",
      "ar l",
      "C T",
      "S c",
      "y d",
      "an c",
      "ad o",
      "in i",
      "A T",
      "K ey",
      "Ġ al",
      "u f",
      "am p",
      "Ġs ub",
      "y t",
      "C omp",
      "r id",
      "u ff",
      "ĠS ch",
      "le d",
      "S erv",
      "ĠA l",
      "B utton",
      "em ent",
      "em b",
      "S E",
      "r et",
      "an i",
      "a it",
      "T ext",
      "s l",
      "Ġ In",
      "a f",
      "or n",
      "ra v",
      "ar r",
      "g en",
      "A M",
      "at or",
      "f o",
      "Ġ y",
      "e qu",
      "h en",
      "a is",
      "l and",
      "am b",
      "S P",
      "ing s",
      "v al",
      "I T",
      "S ize",
      "y p",
      "e ar",
      "et er",
      "Ar ray",
      "St ring",
      "ad a",
      "f ord",
      "a ir",
      "R E",
      "in n",
      "it i",
      "I tem",
      "i en",
      "ion s",
      "es h",
      "C o",
      "S A",
      "r en",
      "Par am",
      "B y",
      "O f",
      "ug h",
      "ad e",
      "ot t",
      "Ġg et",
      "c on",
      "Ġs h",
      "R P",
      "k an",
      "ec k",
      "in c",
      "e in",
      "c c",
      "u j",
      "ut t",
      "B S",
      "ic t",
      "er a",
      "ic a",
      "ov er",
      "Cont ext",
      "C S",
      "ĠB l",
      "n g",
      "us s",
      "y c",
      "e at",
      "v ent",
      "Ġp ar",
      "n t",
      "p s",
      "or y",
      "ri b",
      "un c",
      "ar a",
      "um b",
      "ot h",
      "k e",
      "In t",
      "ic s",
      "on ent",
      "ut h",
      "ur rent",
      "ar m",
      "ur s",
      "q l",
      "en a",
      "u ch",
      "g er",
      "le ment",
      "P l",
      "y st",
      "eg o",
      "F ield",
      "Ġ an",
      "Ġ en",
      "Im age",
      "i ro",
      "or a",
      "is c",
      "os it",
      "F ile",
      "A C",
      "ut e",
      "P S",
      "i ra",
      "A pp",
      "re ate",
      "re en",
      "i h",
      "ro up",
      "am a",
      "Ġ ac",
      "z e",
      "ĠG u",
      "ag er",
      "us e",
      "at er",
      "C P",
      "v a",
      "al a",
      "Ġd es",
      "st r",
      "M od",
      "Ġs l",
      "v e",
      "ut o",
      "um ber",
      "f l",
      "Ġ ar",
      "o ff",
      "Ġ ap",
      "G et",
      "ch e",
      "D A",
      "u y",
      "Ġs et",
      "is m",
      "d en",
      "at th",
      "er y",
      "Ġ X",
      "Ġre c",
      "T ime",
      "al s",
      "m e",
      "equ est",
      "M an",
      "k h",
      "ro ll",
      "r ess",
      "I A",
      "is e",
      "St ate",
      "p ar",
      "am ent",
      "Ġp er",
      "d ex",
      "I S",
      "p o",
      "n er",
      "il le",
      "ur n",
      "P C",
      "it z",
      "ar c",
      "u z",
      "at es",
      "Ġ ro",
      "ul ar",
      "or r",
      "e ch",
      "l et",
      "i us",
      "r ad",
      "ord er",
      "av e",
      "al t",
      "ra w",
      "an j",
      "h a",
      "C olor",
      "f e",
      "S h",
      "et s",
      "ar b",
      "or b",
      "d u",
      "C ode",
      "I L",
      "i ff",
      "op h",
      "re f",
      "re v",
      "os e",
      "In dex",
      "l ock",
      "u v",
      "Ch ar",
      "our ce",
      "D P",
      "F l",
      "E S",
      "il i",
      "U T",
      "ri st",
      "Ġr es",
      "Ġ is",
      "u h",
      "g l",
      "b ar",
      "p i",
      "m l",
      "it er",
      "Comp onent",
      "M S",
      "k s",
      "k t",
      "i ed",
      "ian s",
      "ru ct",
      "y ch",
      "ay out",
      "re e",
      "I P",
      "R equest",
      "u an",
      "l d",
      "Ġm en",
      "y r",
      "ĠT h",
      "ing ton",
      "ra ck",
      "C H",
      "i i",
      "om b",
      "o ch",
      "ele ct",
      "s ub",
      "O ut",
      "ra g",
      "em e",
      "u x",
      "S et",
      "A ll",
      "ĠA m",
      "et e",
      "S I",
      "r im",
      "C all",
      "M A",
      "c z",
      "C A",
      "f ig",
      "an o",
      "a e",
      "ab b",
      "a o",
      "ro l",
      "f orm",
      "s w",
      "Ġc ont",
      "el y",
      "E n",
      "E vent",
      "R ef",
      "ĠS c",
      "G roup",
      "T R",
      "ay s",
      "ran s",
      "g o",
      "ak e",
      "z a",
      "as c",
      "E T",
      "er d",
      "ox y",
      "Ġj ed",
      "B ox",
      "Ġ od",
      "A ction",
      "o id",
      "b ack",
      "y le",
      "Ġ am",
      "r ed",
      "ro s",
      "ĠL e",
      "ri v",
      "es e",
      "o a",
      "ot s",
      "l a",
      "or k",
      "o o",
      "l ine",
      "Ġr et",
      "Ġ und",
      "a ff",
      "Res ult",
      "U N",
      "at ur",
      "S p",
      "r t",
      "ĠC on",
      "er ed",
      "Ġ ind",
      "ind ow",
      "cept ion",
      "P rop",
      "end o",
      "In put",
      "Man ager",
      "Ġc om",
      "ĠB ar",
      "U p",
      "M P",
      "Ġ ob",
      "re c",
      "Ex ception",
      "Ġ ant",
      "Serv ice",
      "m en",
      "l ing",
      "ĠA d",
      "um p",
      "Co unt",
      "A G",
      "est er",
      "sh ire",
      "ĠE d",
      "un ter",
      "u ild",
      "e j",
      "A d",
      "ay a",
      "an am",
      "i os",
      "r l",
      "ĠE m",
      "Cl ass",
      "el s",
      "Ġim p",
      "t en",
      "oc al",
      "P A",
      "m er",
      "e ut",
      "ow er",
      "at s",
      "L ayout",
      "T able",
      "as k",
      "en er",
      "u it",
      "ĠR e",
      "ar s",
      "b ur",
      "ĠA n",
      "T S",
      "F or",
      "oc ation",
      "am il",
      "Ġ em",
      "id d",
      "m y",
      "ion e",
      "os s",
      "i qu",
      "A s",
      "uc k",
      "p ort",
      "el le",
      "iz ed",
      "uc le",
      "ang e",
      "u le",
      "n ik",
      "S M",
      "o und",
      "Ġt r",
      "og g",
      "at ic",
      "u al",
      "il ity",
      "ra ph",
      "or g",
      "ra ct",
      "E lement",
      "ous e",
      "et te",
      "E D",
      "l ast",
      "p ro",
      "W ith",
      "l as",
      "In fo",
      "Con fig",
      "D R",
      "p on",
      "ay er",
      "U ser",
      "an el",
      "A D",
      "l ad",
      "A P",
      "A pi",
      "ber g",
      "ie j",
      "Ġc o",
      "Ġ ov",
      "Ġ el",
      "B C",
      "Ġp h",
      "u i",
      "ĠE l",
      "ed i",
      "id th",
      "in o",
      "S S",
      "b e",
      "ic ht",
      "ĠB r",
      "ead er",
      "re g",
      "ot o",
      "ol ic",
      "h i",
      "A l",
      "om e",
      "I M",
      "b it",
      "b r",
      "I s",
      "un k",
      "m ap",
      "lo ad",
      "c ent",
      "Ġf l",
      "in al",
      "r al",
      "a ut",
      "W indow",
      "w eb",
      "i et",
      "le ct",
      "C O",
      "o ugh",
      "E C",
      "ur a",
      "at ing",
      "Ġin c",
      "Ġ ent",
      "Ġ on",
      "Ġ x",
      "Ġ ed",
      "Ġs k",
      "w ood",
      "p ath",
      "an y",
      "S RP",
      "t n",
      "al i",
      "Ġ ang",
      "i or",
      "ch t",
      "sk i",
      "ab el",
      "ne w",
      "I V",
      "D K",
      "Mod el",
      "er k",
      "Ġ op",
      "ĠS al",
      "ar n",
      "T est",
      "d a",
      "ant i",
      "P M",
      "e ep",
      "u id",
      "r v",
      "ion al",
      "ra b",
      "Ġg r",
      "ar ch",
      "EN T",
      "a an",
      "id er",
      "Ġm ult",
      "f ield",
      "ri pt",
      "bo ard",
      "Ġ use",
      "a ur",
      "P h",
      "L og",
      "ul f",
      "f er",
      "ect ion",
      "im ent",
      "Param s",
      "t s",
      "im a",
      "B A",
      "o ad",
      "eg a",
      "r is",
      "M C",
      "ud d",
      "l ic",
      "ĠS p",
      "G F",
      "ig h",
      "Ġin t",
      "it em",
      "et ail",
      "ert y",
      "U S",
      "ok e",
      "U M",
      "c al",
      "N ode",
      "ib le",
      "Ġd i",
      "Ġc l",
      "k ey",
      "ĠW il",
      "P anel",
      "en u",
      "ation s",
      "ol og",
      "an th",
      "O A",
      "od y",
      "yn c",
      "b y",
      "Ġ out",
      "ac ter",
      "St at",
      "k ow",
      "H T",
      "le g",
      "A t",
      "M ap",
      "P T",
      "M D",
      "ak an",
      "Ġ ra",
      "v ert",
      "B ar",
      "s ed",
      "or es",
      "em p",
      "C ol",
      "b ra",
      "ok en",
      "j e",
      "Ġb l",
      "f or",
      "ĠS w",
      "ĠC l",
      "ad i",
      "ĠC o",
      "C M",
      "h at",
      "i em",
      "N umber",
      "ch ed",
      "it a",
      "m o",
      "Ġ au",
      "U n",
      "ic ul",
      "Ġ ol",
      "d ate",
      "St art",
      "er on",
      "z y",
      "a ud",
      "n y",
      "eth od",
      "ĠMc C",
      "at ri",
      "C I",
      "Ġcon v",
      "O r",
      "ar o",
      "i ri",
      "Ġm ax",
      "Ġp ost",
      "il s",
      "Cont ent",
      "T E",
      "l in",
      "a a",
      "Con st",
      "erc ent",
      "E m",
      "I B",
      "on ic",
      "ĠB ur",
      "um ent",
      "pon se",
      "W idth",
      "ĠB h",
      "om er",
      "Ġ ult",
      "z t",
      "r ich",
      "al k",
      "n et",
      "o ok",
      "a us",
      "Ar g",
      "u a",
      "C E",
      "B lock",
      "D ate",
      "S R",
      "m s",
      "e er",
      "id o",
      "ament e",
      "Ġt rans",
      "er o",
      "on a",
      "O n",
      "et ri",
      "L ine",
      "h r",
      "H eader",
      "F A",
      "end er",
      "Ġ as",
      "O M",
      "St ar",
      "omm and",
      "h et",
      "j sk",
      "A uto",
      "Ġin ter",
      "l or",
      "ĠP al",
      "it s",
      "o is",
      "A S",
      "I R",
      "w in",
      "Ġv ol",
      "Ġ er",
      "O ff",
      "at ive",
      "re ad",
      "Serv er",
      "im p",
      "E L",
      "Ġp ot",
      "D C",
      "ial og",
      "eth yl",
      "st ra",
      "I F",
      "ess age",
      "M ode",
      "Out put",
      "j s",
      "U I",
      "os h",
      "d e",
      "d b",
      "ut ter",
      "ast er",
      "C L",
      "Ġs w",
      "ur t",
      "or th",
      "x c",
      "ro b",
      "A n",
      "M enu",
      "it or",
      "l ess",
      "il es",
      "ak s",
      "ip p",
      "M ut",
      "Ġd ec",
      "ac ch",
      "Ġt o",
      "L O",
      "l i",
      "ro und",
      "Ġ add",
      "ou ch",
      "th or",
      "ers on",
      "ak i",
      "D B",
      "P op",
      "Ġ ep",
      "Ġb er",
      "le x",
      "Ġt est",
      "v en",
      "p en",
      "l ar",
      "Ġjed n",
      "uff er",
      "oc us",
      "Ġb h",
      "d er",
      "y cl",
      "it ion",
      "or ph",
      "ic z",
      "M B",
      "b ox",
      "as i",
      "es p",
      "G o",
      "ill a",
      "Ġs al",
      "enc y",
      "at an",
      "ol s",
      "eng th",
      "v i",
      "Ġd ef",
      "ra z",
      "T A",
      "P E",
      "am i",
      "Ġ ag",
      "ro ph",
      "z o",
      "P R",
      "U rl",
      "ar th",
      "IN G",
      "m in",
      "K A",
      "ed ia",
      "e ight",
      "T C",
      "io us",
      "ai re",
      "ud ent",
      "ol a",
      "m et",
      "it ies",
      "c om",
      "a ul",
      "Con n",
      "N av",
      "b l",
      "ĠW h",
      "ec ond",
      "am era",
      "a ult",
      "A v",
      "c ess",
      "ym b",
      "ĠQ u",
      "in put",
      "D ialog",
      "Ġs m",
      "Ġs ch",
      "ĠP r",
      "ĠM ah",
      "Cont rol",
      "ĠA g",
      "pl ic",
      "S O",
      "el i",
      "re y",
      "ĠD or",
      "M L",
      "el d",
      "w ell",
      "ra in",
      "ra p",
      "c a",
      "Ġre m",
      "ĠMc G",
      "Ġ oc",
      "Q u",
      "am m",
      "I G",
      "r um",
      "Ġp al",
      "o ot",
      "f ind",
      "eb ug",
      "B it",
      "ĠC B",
      "Ġre p",
      "Ġc urrent",
      "w a",
      "ĠK n",
      "ical ly",
      "i as",
      "on n",
      "Ġm il",
      "Res ource",
      "u ro",
      "op e",
      "ra ft",
      "Ġp re",
      "Res ponse",
      "In it",
      "l u",
      "al le",
      "n ya",
      "Ġ app",
      "N ew",
      "o i",
      "ab ility",
      "aw a",
      "Ġn ew",
      "ĠE r",
      "ĠW ood",
      "ov e",
      "Ġd el",
      "uk an",
      "F BS",
      "B uffer",
      "and le",
      "an z",
      "us er",
      "D ef",
      "er al",
      "rop ri",
      "FBS DK",
      "In ter",
      "at is",
      "re am",
      "it ri",
      "ar get",
      "u er",
      "av a",
      "F ocus",
      "v an",
      "Ġs up",
      "ang an",
      "V ar",
      "ak a",
      "j i",
      "O per",
      "st ein",
      "ĠA pp",
      "ate g",
      "v is",
      "ĠB x",
      "if t",
      "im m",
      "O P",
      "Ch ange",
      "S D",
      "Ġ up",
      "r as",
      "an h",
      "ap t",
      "o un",
      "S elect",
      "ant e",
      "Ġc reate",
      "r z",
      "c p",
      "pr ing",
      "ac y",
      "ĠW ar",
      "ev er",
      "Ġm eng",
      "ĠC or",
      "ĠP h",
      "iz ation",
      "Ġt er",
      "n ot",
      "if ic",
      "ĠB ro",
      "ect or",
      "Cl ient",
      "ak t",
      "ik i",
      "il a",
      "st e",
      "Ġle g",
      "R ec",
      "P age",
      "M essage",
      "f rom",
      "A F",
      "t ype",
      "Ġg l",
      "ĠM an",
      "D I",
      "ak kh",
      "Ġ o",
      "ag a",
      "Prop erty",
      "ĠQ x",
      "d ata",
      "D own",
      "c urrent",
      "n al",
      "s end",
      "o ul",
      "T P",
      "d o",
      "Ġ act",
      "er ence",
      "g es",
      "Ġin f",
      "v ol",
      "I O",
      "al f",
      "eg er",
      "ig g",
      "c ont",
      "b en",
      "E nd",
      "st er",
      "I ON",
      "an yl",
      "is T",
      "erm an",
      "ed a",
      "e an",
      "C B",
      "ul a",
      "A Y",
      "u ct",
      "op en",
      "om a",
      "D etail",
      "and er",
      "g ar",
      "S w",
      "st it",
      "ib us",
      "ĠB e",
      "C ell",
      "a ft",
      "ĠA t",
      "ath a",
      "S ub",
      "k in",
      "yp es",
      "ers ion",
      "D E",
      "it ch",
      "c ad",
      "ert ex",
      "and ler",
      "ell y",
      "it th",
      "ag es",
      "A nd",
      "R G",
      "k o",
      "ark s",
      "ol es",
      "C D",
      "t ot",
      "ign ment",
      "Ġ ev",
      "r at",
      "w w",
      "E M",
      "ĠV ill",
      "d own",
      "Ġc or",
      "r in",
      "n ey",
      "g ed",
      "y an",
      "c ed",
      "M R",
      "u el",
      "ant s",
      "Ġ ir",
      "ĠM ar",
      "Ġp or",
      "s m",
      "L ocation",
      "ĠE n",
      "in ch",
      "im b",
      "W eb",
      "st art",
      "old er",
      "M ain",
      "and o",
      "ic o",
      "A tt",
      "in ate",
      "Ġm an",
      "Ġh em",
      "Ġp at",
      "iment o",
      "od er",
      "od es",
      "as m",
      "N ull",
      "Ġ end",
      "P P",
      "B ack",
      "u es",
      "ĠA b",
      "ro c",
      "y te",
      "k en",
      "T T",
      "tt p",
      "B uf",
      "n am",
      "p atch",
      "L ink",
      "o int",
      "ĠR ock",
      "D is",
      "ic es",
      "S pr",
      "y e",
      "Ġ av",
      "ac c",
      "Stat us",
      "ĠS m",
      "ov a",
      "F orm",
      "v ed",
      "G C",
      "ick s",
      "J son",
      "L U",
      "C ard",
      "en z",
      "H P",
      "j a",
      "Ġex p",
      "ĠMc K",
      "Ġm on",
      "ri ff",
      "ĠM on",
      "H eight",
      "a uc",
      "u en",
      "ri p",
      "y th",
      "f s",
      "P ref",
      "ear ch",
      "ĠR o",
      "M N",
      "P osit",
      "qu al",
      "D ebug",
      "R ect",
      "ra c",
      "E d",
      "um er",
      "ĠMc D",
      "v ar",
      "m m",
      "Ġp ay",
      "ath er",
      "ir t",
      "Ġk n",
      "st ance",
      "Ġr el",
      "o ft",
      "Ġn e",
      "Ġ ip",
      "al ly",
      "R ow",
      "ell a",
      "ent e",
      "s b",
      "ri f",
      "m p",
      "ie v",
      "Ġ ur",
      "ap s",
      "n ame",
      "et ry",
      "t ext",
      "B uild",
      "ĠM ad",
      "ah an",
      "Ġs ol",
      "Ġ ut",
      "o in",
      "el t",
      "T L",
      "Ex p",
      "pl ay",
      "Ġad j",
      "F ind",
      "c i",
      "Ġv er",
      "et a",
      "om en",
      "S ync",
      "po int",
      "is on",
      "iv ity",
      "aw n",
      "ĠC ar",
      "pt y",
      "ad r",
      "y k",
      "p ond",
      "l ay",
      "ig est",
      "H DR",
      "ĠV er",
      "Ġcon s",
      "it ter",
      "in ation",
      "O pen",
      "en i",
      "F rom",
      "us c",
      "ĠA ng",
      "ĠR x",
      "un ch",
      "ur b",
      "a ug",
      "l ob",
      "t ed",
      "in u",
      "h an",
      "L ength",
      "ĠN ew",
      "e it",
      "ĠM ont",
      "ad er",
      "get B",
      "ush ed",
      "M ethod",
      "ut to",
      "od el",
      "U C",
      "R C",
      "pr int",
      "D ec",
      "and a",
      "f ile",
      "ap e",
      "ch en",
      "ĠF l",
      "le ction",
      "ag n",
      "C reate",
      "in it",
      "H A",
      "ct ive",
      "Ġc ur",
      "Ġ es",
      "Qu ery",
      "Ch o",
      "id az",
      "ĠR ed",
      "Ġn ot",
      "ign ed",
      "v ille",
      "N um",
      "A uth",
      "ers h",
      "h ou",
      "ust om",
      "Ġim m",
      "i ya",
      "s el",
      "om ot",
      "le m",
      "m at",
      "St udent",
      "m d",
      "Ġpr z",
      "w ay",
      "ĠO r",
      "ap ter",
      "Up date",
      "m ann",
      "ĠP ar",
      "ĠU n",
      "o ard",
      "iv er",
      "et o",
      "Ġ emb",
      "Ġp art",
      "e i",
      "S X",
      "w ord",
      "g u",
      "ra f",
      "oll ow",
      "d es",
      "x y",
      "ri z",
      "U L",
      "ro om",
      "au f",
      "P er",
      "Ġ over",
      "os a",
      "Ġ off",
      "G E",
      "m i",
      "L C",
      "d el",
      "re a",
      "I ST",
      "c op",
      "G ame",
      "rit er",
      "in es",
      "all ow",
      "du ct",
      "V C",
      "Ġf or",
      "ĠL or",
      "f ul",
      "L abel",
      "ĠM art",
      "ro id",
      "ĠB el",
      "un a",
      "ol o",
      "Ġ ann",
      "e al",
      "Ġb il",
      "an ch",
      "d raw",
      "s a",
      "pr ess",
      "T oken",
      "um e",
      "ir st",
      "Ġd em",
      "und er",
      "ĠH ar",
      "arg in",
      "As set",
      "Ġre f",
      "ĠC ol",
      "ell es",
      "T H",
      "ob j",
      "ell en",
      "v as",
      "rib ute",
      "N ot",
      "S l",
      "To ol",
      "ek s",
      "Ġn eut",
      "v ers",
      "D S",
      "atri x",
      "St yle",
      "ĠS e",
      "Att ribute",
      "h av",
      "co unter",
      "Ġp ol",
      "em ia",
      "Ġs pl",
      "ain s",
      "end e",
      "un n",
      "g i",
      "id es",
      "c olor",
      "b a",
      "ĠF re",
      "emb re",
      "Posit ion"
    ],
    "counts": "[[32,4717],[40,2],[64,41163],[72,14],[257,39316],[260,5919],[262,48158],[267,28341],[276,43829],[284,4942],[292,6859],[305,1605],[340,265],[377,2193],[389,2],[415,1],[439,27984],[441,2],[443,4],[453,3389],[456,205],[466,1358],[481,2227],[484,4],[485,47732],[498,21301],[500,3],[501,48627],[508,11],[512,4],[520,5303],[531,1500],[533,3224],[535,93],[536,1],[539,1],[547,42226],[548,60],[556,4],[557,638],[559,47237],[561,4],[564,97],[569,3],[580,2],[581,140],[585,4],[587,2],[588,31],[589,5],[592,3],[618,190],[625,8],[626,21],[628,1],[629,8371],[634,24292],[637,3],[639,35893],[641,3],[643,12187],[644,201],[647,2],[649,1390],[650,45722],[654,23982],[658,3],[666,5],[667,9705],[674,7],[677,3],[682,278],[684,5],[685,13546],[690,27600],[694,3],[701,70],[702,394],[709,4],[710,11392],[713,2],[715,2076],[721,857],[726,12768],[727,14139],[742,4],[743,13],[745,3],[746,5],[747,3],[748,2],[750,32264],[751,1159],[753,48],[754,3],[755,574],[758,38815],[762,4],[763,3],[764,1050],[765,479],[767,4],[773,37419],[778,11742],[780,3],[784,38],[788,16229],[790,2],[791,40],[796,23524],[799,271],[800,39788],[804,7995],[805,8538],[806,2],[807,138],[811,31],[815,14795],[816,20189],[817,3449],[818,612],[820,4],[821,87],[822,2],[823,8180],[824,29],[825,14],[829,1423],[831,5],[832,32910],[834,94],[839,18],[841,2],[850,2],[851,4],[863,27897],[869,26363],[873,2],[874,12785],[877,3],[879,93],[881,19820],[882,2],[885,1050],[886,4],[888,3],[894,5952],[895,618],[897,1],[899,9],[900,2],[902,4],[903,2],[905,89],[909,327],[910,33028],[912,93],[914,7546],[915,3],[919,8],[920,5],[923,4],[929,1163],[931,1],[937,4],[938,185],[943,32005],[944,174],[945,33964],[946,405],[947,37],[949,64],[950,5],[955,44996],[956,1],[959,3],[960,2],[961,3],[963,94],[964,3],[965,2],[970,3816],[972,3060],[973,3],[977,2],[980,96],[982,2],[988,4],[991,3],[994,64],[996,9],[998,29],[1000,57],[1001,1],[1002,2],[1003,3],[1005,3],[1006,24746],[1007,14397],[1008,40955],[1013,30448],[1016,3],[1018,2],[1024,3],[1026,10599],[1032,19553],[1033,3],[1035,1],[1036,36],[1037,10],[1040,1],[1044,927],[1046,4],[1050,5],[1051,4],[1053,891],[1054,19259],[1056,43],[1057,2],[1060,20682],[1061,32619],[1065,455],[1069,199],[1073,3515],[1075,2381],[1077,1811],[1078,4],[1079,2],[1083,111],[1085,1],[1086,4],[1087,3643],[1089,7255],[1090,2405],[1092,242],[1093,31705],[1094,1],[1095,3012],[1096,464],[1097,838],[1099,17419],[1100,4],[1101,1065],[1102,32644],[1104,217],[1106,48053],[1110,10],[1112,3],[1113,3],[1114,101],[1115,6],[1117,1179],[1119,1],[1121,16488],[1122,49],[1124,15],[1125,3],[1126,4],[1127,3],[1129,28078],[1131,1796],[1132,1],[1133,47481],[1141,3],[1142,6415],[1145,882],[1146,3386],[1150,3],[1151,96],[1156,6592],[1158,1],[1159,4347],[1160,3],[1161,5],[1162,5108],[1164,34079],[1167,839],[1168,3],[1169,407],[1170,6],[1172,454],[1178,13],[1182,2],[1183,15],[1184,1531],[1185,42161],[1189,19],[1191,3683],[1192,2],[1196,14],[1197,4],[1200,837],[1201,4],[1205,27102],[1206,558],[1209,41197],[1211,3],[1214,3],[1216,3116],[1217,1138],[1218,4],[1220,10434],[1223,14],[1226,3],[1227,3],[1231,33567],[1232,32433],[1233,4],[1235,6],[1239,10],[1241,526],[1242,98],[1243,312],[1244,1],[1245,9],[1248,32],[1252,352],[1253,2],[1254,3],[1255,3],[1257,4],[1258,1],[1260,2],[1261,3415],[1262,3],[1263,576],[1264,22129],[1266,36647],[1269,1],[1270,3],[1273,3],[1275,1],[1282,5525],[1285,1],[1291,1558],[1292,1348],[1293,103],[1299,2365],[1301,3],[1302,3],[1303,3],[1305,2],[1307,3825],[1308,1],[1309,8660],[1313,40714],[1314,4],[1315,2],[1318,17],[1326,1],[1328,278],[1329,4],[1330,269],[1332,2],[1335,2],[1336,1],[1337,23],[1338,16],[1340,64],[1343,6],[1344,2],[1347,3],[1352,29167],[1353,1],[1354,38258],[1357,202],[1359,27],[1360,1],[1364,11815],[1365,37815],[1370,2],[1371,415],[1372,1],[1374,2],[1379,2],[1380,89],[1385,5],[1386,1],[1388,2],[1389,159],[1390,3],[1391,25],[1394,1],[1397,75],[1398,269],[1401,15764],[1402,3],[1404,3],[1405,1],[1406,1371],[1407,2],[1409,2],[1410,4],[1411,18],[1412,11],[1414,4376],[1415,4],[1418,1580],[1420,2],[1421,585],[1422,3],[1423,1],[1425,185],[1428,443],[1429,4],[1433,16514],[1434,2],[1435,6],[1438,10312],[1440,90],[1441,42859],[1443,160],[1444,3],[1447,4],[1449,2],[1450,34728],[1451,4],[1452,338],[1455,12],[1458,888],[1460,11030],[1463,26],[1464,1064],[1468,4],[1469,207],[1473,3780],[1474,1],[1478,9554],[1479,4],[1480,6],[1484,5505],[1485,528],[1487,4],[1488,34832],[1490,37],[1491,4],[1495,3],[1496,4],[1498,635],[1499,1],[1501,1],[1505,1283],[1506,4],[1507,3],[1510,60],[1513,2],[1515,5],[1517,3673],[1518,2],[1519,115],[1520,2034],[1523,1],[1528,2],[1530,2],[1531,1],[1533,3],[1535,11],[1536,8],[1538,1475],[1543,2],[1544,203],[1547,2],[1550,15988],[1551,2742],[1552,72],[1554,10],[1555,4],[1557,41617],[1558,15720],[1559,43192],[1561,2],[1562,3853],[1563,6339],[1564,4],[1565,4],[1567,2],[1568,11235],[1570,434],[1572,48360],[1574,1],[1575,2],[1577,17189],[1580,11334],[1583,6],[1585,831],[1587,28287],[1588,237],[1589,15607],[1590,1],[1592,1],[1595,8],[1596,55],[1598,37],[1599,1],[1604,4],[1605,475],[1607,193],[1608,67],[1609,332],[1610,131],[1611,31186],[1615,103],[1616,20],[1617,167],[1623,3],[1625,47020],[1626,4],[1629,45],[1630,1],[1632,6],[1633,5],[1635,5],[1642,1015],[1643,9191],[1644,24],[1650,47052],[1652,33625],[1653,3],[1654,45047],[1656,3],[1658,8610],[1659,4],[1660,2],[1661,8],[1662,5453],[1665,1230],[1666,835],[1667,9],[1668,4],[1669,108],[1670,1],[1671,41974],[1673,2113],[1674,3],[1675,4188],[1677,46073],[1678,1],[1681,9919],[1682,4762],[1684,1],[1687,38271],[1688,1],[1690,146],[1691,11205],[1696,23],[1697,61],[1699,2447],[1700,40683],[1702,49406],[1705,2],[1711,372],[1713,80],[1714,2832],[1715,3],[1716,1],[1717,115],[1718,1],[1722,41576],[1724,47],[1726,21],[1727,408],[1728,4],[1729,3],[1730,2],[1733,4],[1736,1],[1737,38456],[1740,42],[1741,3],[1742,3],[1743,13065],[1744,3],[1745,3275],[1746,2],[1748,4],[1753,1010],[1755,4335],[1759,32],[1760,3],[1762,3],[1763,855],[1767,1],[1769,15861],[1771,187],[1772,1006],[1773,4],[1774,4],[1775,38900],[1777,3],[1778,46],[1782,2],[1783,1700],[1784,11],[1785,2],[1787,1691],[1788,48019],[1791,13],[1792,1],[1793,8826],[1795,1],[1797,11],[1801,232],[1802,12],[1805,3],[1807,38928],[1809,124],[1811,2],[1813,2],[1814,40592],[1815,43094],[1818,642],[1819,11],[1822,3],[1823,2],[1824,4],[1827,3],[1828,11],[1829,3],[1830,5],[1831,2],[1832,10],[1833,14022],[1835,18778],[1836,37322],[1838,6147],[1839,23147],[1840,36286],[1841,18135],[1844,3],[1845,1937],[1846,34],[1847,43071],[1848,45],[1849,906],[1852,357],[1853,3],[1854,1],[1855,127],[1857,2],[1859,1113],[1862,2],[1863,3],[1865,4],[1866,1906],[1867,38118],[1868,160],[1871,6],[1873,5],[1874,4],[1875,2],[1878,36742],[1879,26563],[1880,1],[1881,3],[1886,10],[1890,2],[1891,9],[1892,1],[1893,4],[1894,3],[1896,9],[1897,4],[1899,49032],[1901,6210],[1902,2356],[1904,29],[1906,4],[1907,3],[1909,109],[1910,4],[1911,4],[1915,11452],[1916,2],[1921,3],[1923,11203],[1924,17653],[1927,14047],[1929,506],[1930,348],[1933,11019],[1941,85],[1942,4],[1943,3],[1945,312],[1946,28],[1948,1],[1951,3],[1952,4],[1953,440],[1955,8006],[1956,1356],[1958,41712],[1960,2],[1961,3],[1963,3],[1964,5],[1965,4],[1966,1607],[1970,244],[1971,4],[1974,2166],[1976,5],[1977,298],[1978,326],[1979,155],[1980,1],[1982,3],[1983,9531],[1984,30719],[1985,650],[1987,40442],[1988,4],[1990,5],[1991,1],[1994,28232],[1995,3],[1996,1252],[1997,6134],[1998,6095],[2000,2],[2001,8],[2004,5586],[2005,4]]"
  }
}