{
  "version": "1.0",
  "truncation": null,
  "padding": null,
  "added_tokens": [
    {
      "id": 2735,
      "content": "<UNK>",
      "single_word": false,
      "lstrip": false,
      "rstrip": false,
      "normalized": true,
      "special": true
    },
    {
      "id": 2736,
      "content": "<｜end▁of▁sentence｜>",
      "single_word": false,
      "lstrip": false,
      "rstrip": false,
      "normalized": true,
      "special": true
    },
    {
      "id": 2737,
      "content": "<｜pad｜>",
      "single_word": false,
      "lstrip": false,
      "rstrip": false,
      "normalized": true,
      "special": true
    },
    {
      "id": 2738,
      "content": "<｜begin▁of▁sentence｜>",
      "single_word": false,
      "lstrip": false,
      "rstrip": false,
      "normalized": true,
      "special": true
    }
  ],
  "normalizer": {
    "type": "Sequence",
    "normalizers": []
  },
  "pre_tokenizer": {
    "type": "Sequence",
    "pretokenizers": [
      {
        "type": "Split",
        "pattern": {
          "Regex": "[\\r\\n]"
        },
        "behavior": "Isolated",
        "invert": false
      },
      {
        "type": "Split",
        "pattern": {
          "Regex": "\\s?[A-Za-zµÀ-ÖØ-öø-ƺƼ-ƿǄ-ʓʕ-ʯͰ-ͳͶͷͻ-ͽͿΆΈ-ΊΌΎ-ΡΣ-ϵϷ-ҁҊ-ԯԱ-ՖႠ-ჅᎠ-Ᏽᏸ-ᏽᲐ-ᲺᲽ-Ჿᴀ-ᴫᵫ-ᵷᵹ-ᶚḀ-ἕἘ-Ἕἠ-ὅὈ-Ὅὐ-ὗὙὛὝὟ-ώᾀ-ᾴᾶ-ᾼιῂ-ῄῆ-ῌῐ-ΐῖ-Ίῠ-Ῥῲ-ῴῶ-ῼℂℇℊ-ℓℕℙ-ℝℤΩℨK-ℭℯ-ℴℹℼ-ℿⅅ-ⅉⅎↃↄⰀ-ⱻⱾ-ⳤⳫ-ⳮⳲⳳꙀ-ꙭꚀ-ꚛꜢ-ꝯꝱ-ꞇꞋ-ꞎꭰ-ꮿﬀ-ﬆﬓ-ﬗＡ-Ｚａ-ｚ𐐀-𐑏𐒰-𐓓𐓘-𐓻𐲀-𐲲𐳀-𐳲𑢠-𑣟𞤀-𞥃]+"
        },
        "behavior": "Isolated",
        "invert": false
      },
      {
        "type": "Split",
        "pattern": {
          "Regex": "\\s?[!-/:-~！-／：-～‘-‟　-。]+"
        },
        "behavior": "Isolated",
        "invert": false
      },
      {
        "type": "Split",
        "pattern": {
          "Regex": "\\s+$"
        },
        "behavior": "Isolated",
        "invert": false
      },
      {
        "type": "Split",
        "pattern": {
          "Regex": "[一-龥ࠀ-一가-퟿]+"
        },
        "behavior": "Isolated",
        "invert": false
      },
      {
        "type": "Digits",
        "individual_digits": true
      },
      {
        "type": "ByteLevel",
        "add_prefix_space": false,
        "trim_offsets": true,
        "use_regex": false
      }
    ]
  },
  "post_processor": {
    "type": "ByteLevel",
    "add_prefix_space": true,
    "trim_offsets": false,
    "use_regex": true
  },
  "decoder": {
    "type": "ByteLevel",
    "add_prefix_space": true,
    "trim_offsets": true,
    "use_regex": true
  },
  "model": {
    "type": "BPE",
    "dropout": null,
    "unk_token": "<UNK>",
    "continuing_subword_prefix": null,
    "end_of_word_suffix": null,
    "fuse_unk": false,
    "byte_fallback": false,
    "ignore_merges": false,
    "bMax_frequency": true,
    "max_frequency": 63649887,
    "vocab": {
      "ĠJuel": 0,
      "ĠGres": 1,
      "StillWater": 2,
      "ĠBergman": 3,
      "Ġsplashing": 4,
      "ilation": 5,
      "rivastava": 6,
      "ĠJank": 7,
      "usiness": 8,
      "Ġblat": 9,
      "ĠDe": 10,
      "PBC": 11,
      "ĠPSO": 12,
      "wej": 13,
      "Elo": 14,
      "uven": 15,
      "niest": 16,
      "IMQTTR": 17,
      "Permissions": 18,
      "Ġsuitors": 19,
      "asana": 20,
      "IamPermissions": 21,
      "Dij": 22,
      "ĠUp": 23,
      "Dijstra": 24,
      "ewith": 25,
      "Ġhibiscus": 26,
      "oarece": 27,
      "ĠDMR": 28,
      "ĠFit": 29,
      "beatCounter": 30,
      "ĠECA": 31,
      "Ġinext": 32,
      "hiya": 33,
      "aniya": 34,
      "ArrayBox": 35,
      "ĠDCA": 36,
      "clickView": 37,
      "Ġuntrained": 38,
      "igning": 39,
      "Plist": 40,
      "clen": 41,
      "ĠFitbit": 42,
      "ĠDHS": 43,
      "handleAdd": 44,
      "ovit": 45,
      "Ġexcit": 46,
      "mij": 47,
      "EnumType": 48,
      "ĠLaj": 49,
      "Ġtreten": 50,
      "ajj": 51,
      "ittees": 52,
      "ewski": 53,
      "orgh": 54,
      "newL": 55,
      "ĠallowNull": 56,
      "ĠModena": 57,
      "Ġjab": 58,
      "jResponse": 59,
      "uidade": 60,
      "ĠChao": 61,
      "isks": 62,
      "Ġfileobj": 63,
      "ĠRemington": 64,
      "ifl": 65,
      "Ġthanh": 66,
      "ouwd": 67,
      "zas": 68,
      "eful": 69,
      "ĠVanuatu": 70,
      "Ġrtn": 71,
      "ĠTMS": 72,
      "Ġoverridden": 73,
      "Ġinfiltr": 74,
      "Ġcondem": 75,
      "ĠOutback": 76,
      "ĠKelly": 77,
      "ĠKnoll": 78,
      "oucher": 79,
      "getTo": 80,
      "ĠDee": 81,
      "ository": 82,
      "ouching": 83,
      "cro": 84,
      "azem": 85,
      "zil": 86,
      "ĠSST": 87,
      "CurrentByte": 88,
      "Ġdukkham": 89,
      "parsed": 90,
      "Ġlobortis": 91,
      "ocou": 92,
      "getDouble": 93,
      "uslar": 94,
      "ĠRand": 95,
      "hesh": 96,
      "CSE": 97,
      "Ġpabc": 98,
      "Ġvun": 99,
      "ĠAL": 100,
      "WithFieldContext": 101,
      "heroku": 102,
      "iiv": 103,
      "NP": 104,
      "ĠHawking": 105,
      "cpuCycle": 106,
      "ĠSoa": 107,
      "Ġcasilla": 108,
      "rimidin": 109,
      "ĠIrwin": 110,
      "naya": 111,
      "parsedBlock": 112,
      "Ġves": 113,
      "addView": 114,
      "sstream": 115,
      "ĠBeatles": 116,
      "STARG": 117,
      "cpy": 118,
      "STARGO": 119,
      "ĠSUS": 120,
      "Ġcoinc": 121,
      "ĠSUSY": 122,
      "Ġbhikkhave": 123,
      "jeta": 124,
      "Ġchant": 125,
      "BASE": 126,
      "ocode": 127,
      "dbp": 128,
      "estre": 129,
      "ĠColton": 130,
      "ibil": 131,
      "Ġdhamme": 132,
      "ails": 133,
      "Ġmotion": 134,
      "thag": 135,
      "EMA": 136,
      "geocode": 137,
      "icates": 138,
      "ifai": 139,
      "genCode": 140,
      "indagi": 141,
      "ovatel": 142,
      "ObjectTemp": 143,
      "jsonwebtoken": 144,
      "enig": 145,
      "ĠCarousel": 146,
      "Available": 147,
      "mAvailable": 148,
      "leen": 149,
      "Ġsubord": 150,
      "arey": 151,
      "qst": 152,
      "ĠLansing": 153,
      "ĠKassel": 154,
      "ARGET": 155,
      "TARGET": 156,
      "Ġsacar": 157,
      "urations": 158,
      "TARGETTING": 159,
      "adium": 160,
      "Ġdessus": 161,
      "nelly": 162,
      "ĠPerugia": 163,
      "Ġpayload": 164,
      "ĠUpdate": 165,
      "enumValues": 166,
      "ĠUpdateWindow": 167,
      "sda": 168,
      "jak": 169,
      "ĠDover": 170,
      "jne": 171,
      "estries": 172,
      "ĠWilt": 173,
      "ĠuseDispatch": 174,
      "ligi": 175,
      "ustum": 176,
      "Ġdhammo": 177,
      "InitStruct": 178,
      "evals": 179,
      "timevals": 180,
      "IEL": 181,
      "reflection": 182,
      "SelectionSet": 183,
      "iforn": 184,
      "enedi": 185,
      "enediamine": 186,
      "Ġsy": 187,
      "ĠnohVP": 188,
      "Ġadduced": 189,
      "byshire": 190,
      "ĠSMP": 191,
      "assanam": 192,
      "ĠOMS": 193,
      "ĠBlueprintName": 194,
      "zim": 195,
      "ĠnCharString": 196,
      "Ġharshly": 197,
      "Ġdesapar": 198,
      "jid": 199,
      "ĠLees": 200,
      "hati": 201,
      "enet": 202,
      "ĠRoshan": 203,
      "Mad": 204,
      "uttab": 205,
      "rese": 206,
      "setV": 207,
      "cPix": 208,
      "xcsche": 209,
      "DCs": 210,
      "hest": 211,
      "ĠTDP": 212,
      "coef": 213,
      "eba": 214,
      "strtolower": 215,
      "Ġattham": 216,
      "Rule": 217,
      "Ġexpropri": 218,
      "ĠNora": 219,
      "anone": 220,
      "clip": 221,
      "ĠDorado": 222,
      "algam": 223,
      "akkhanam": 224,
      "ĠBhos": 225,
      "ttle": 226,
      "Ġtiller": 227,
      "oned": 228,
      "ĠCMP": 229,
      "igne": 230,
      "rosoft": 231,
      "plyr": 232,
      "ĠMcMahon": 233,
      "hma": 234,
      "icrosoft": 235,
      "riage": 236,
      "entlich": 237,
      "ĠLowe": 238,
      "pload": 239,
      "ercus": 240,
      "ForRule": 241,
      "lest": 242,
      "Ġhydraul": 243,
      "edRightShape": 244,
      "Ġpuriso": 245,
      "askan": 246,
      "ĠdataGridView": 247,
      "jat": 248,
      "Ġmairie": 249,
      "leo": 250,
      "IDENTAL": 251,
      "Ġblanditiis": 252,
      "feo": 253,
      "Ġcontrad": 254,
      "Ġvuttam": 255,
      "kjav": 256,
      "Ġcontradict": 257,
      "ĠReykjav": 258,
      "Ġwcout": 259,
      "Ġtathapi": 260,
      "Rahul": 261,
      "hernalia": 262,
      "Ġkand": 263,
      "ĠCatholic": 264,
      "ĠWee": 265,
      "player": 266,
      "ĠRxd": 267,
      "naz": 268,
      "ĠLOCC": 269,
      "ĠLOCCTR": 270,
      "ozione": 271,
      "MathMarks": 272,
      "utionContext": 273,
      "ĠSqlParameter": 274,
      "eling": 275,
      "ĠGunnar": 276,
      "ĠmView": 277,
      "ĠmarginBottom": 278,
      "wunsch": 279,
      "Walk": 280,
      "Ġia": 281,
      "akala": 282,
      "Ġiaa": 283,
      "setWalk": 284,
      "Ġsql": 285,
      "onato": 286,
      "LuaToJavaResult": 287,
      "Ġenclave": 288,
      "ĠsqlType": 289,
      "waitForIdleSync": 290,
      "ĠBaw": 291,
      "ugars": 292,
      "Ġaryl": 293,
      "ĠWoody": 294,
      "kka": 295,
      "FindingsResponse": 296,
      "Ġinfring": 297,
      "ĠautoWatch": 298,
      "Ġkammam": 299,
      "cssMode": 300,
      "ĠCougars": 301,
      "espie": 302,
      "ĠGillespie": 303,
      "akka": 304,
      "Children": 305,
      "yteArray": 306,
      "otov": 307,
      "ScrollBar": 308,
      "dyl": 309,
      "tDBOutput": 310,
      "prise": 311,
      "ĠSHF": 312,
      "once": 313,
      "protractor": 314,
      "erging": 315,
      "ĠpowerAll": 316,
      "coproteins": 317,
      "ĠHCV": 318,
      "ĠHPC": 319,
      "ĠPSL": 320,
      "astery": 321,
      "Ġinduk": 322,
      "overeign": 323,
      "TON": 324,
      "Ġsovereign": 325,
      "ĠRong": 326,
      "ĠSot": 327,
      "ardy": 328,
      "hog": 329,
      "ĠCIC": 330,
      "itts": 331,
      "asamb": 332,
      "Ġdaim": 333,
      "ĠECS": 334,
      "risto": 335,
      "ĠGranger": 336,
      "orial": 337,
      "ĠWiltshire": 338,
      "ammen": 339,
      "annies": 340,
      "ĠSSP": 341,
      "Ġsun": 342,
      "onate": 343,
      "OTTOM": 344,
      "Ġlete": 345,
      "ĠMarr": 346,
      "ĠHavre": 347,
      "fungen": 348,
      "esson": 349,
      "Ġaugue": 350,
      "baka": 351,
      "erler": 352,
      "ĠYesu": 353,
      "Ġdisfr": 354,
      "Ġmartyr": 355,
      "meg": 356,
      "olato": 357,
      "ldef": 358,
      "Ġplanche": 359,
      "chers": 360,
      "RI": 361,
      "Ġipc": 362,
      "Ġgud": 363,
      "ĠQxb": 364,
      "Tod": 365,
      "ĠRib": 366,
      "jsdel": 367,
      "Fermi": 368,
      "Ġmodal": 369,
      "ĠPanthers": 370,
      "racuse": 371,
      "ĠSyracuse": 372,
      "ĠWPS": 373,
      "ĠBlanchard": 374,
      "Ġcittam": 375,
      "EventArgs": 376,
      "ĠKUM": 377,
      "RoundRect": 378,
      "ĠDBC": 379,
      "venv": 380,
      "Ġchromed": 381,
      "ĠloadChildren": 382,
      "Ġsens": 383,
      "prend": 384,
      "ĠPHA": 385,
      "ĠVolga": 386,
      "carbox": 387,
      "ĠTSC": 388,
      "Ġdilaksanakan": 389,
      "actos": 390,
      "rete": 391,
      "orni": 392,
      "AndView": 393,
      "verson": 394,
      "ĠMac": 395,
      "Ġdaimyo": 396,
      "osp": 397,
      "ĠInvis": 398,
      "Ġrelish": 399,
      "ueill": 400,
      "anic": 401,
      "ĠTrudy": 402,
      "reni": 403,
      "ĠPatri": 404,
      "psilon": 405,
      "baseHP": 406,
      "1>": 407,
      "oS": 408,
      "ĠMcGrath": 409,
      "anw": 410,
      "ĠRajesh": 411,
      "ĠMFP": 412,
      "vore": 413,
      "ĠBari": 414,
      "avorite": 415,
      "Ġremedi": 416,
      "body": 417,
      "Ġgod": 418,
      "atedAt": 419,
      "Projects": 420,
      "ĠlocalObject": 421,
      "ĠSuff": 422,
      "teis": 423,
      "vrdr": 424,
      "ĠFreitas": 425,
      "Ġditth": 426,
      "Ġgu": 427,
      "ĠEhnergii": 428,
      "ettivo": 429,
      "ennis": 430,
      "ĠMNIST": 431,
      "ĠECC": 432,
      "zaXR": 433,
      "opaedia": 434,
      "ĠQxe": 435,
      "egrave": 436,
      "ynd": 437,
      "choco": 438,
      "lah": 439,
      "nahi": 440,
      "hme": 441,
      "ionante": 442,
      "adir": 443,
      "aku": 444,
      "ĠWillard": 445,
      "ĠLuton": 446,
      "yendo": 447,
      "Ġmis": 448,
      "ĠJoo": 449,
      "Ġnajleps": 450,
      "phttps": 451,
      "httphttps": 452,
      "ĠCr": 453,
      "ampl": 454,
      "ĠCajun": 455,
      "special": 456,
      "ĠGabe": 457,
      "slides": 458,
      "Ġlem": 459,
      "ĠPy": 460,
      "Weather": 461,
      "ĠRadcliffe": 462,
      "ĠDoris": 463,
      "ĠPyQt": 464,
      "rze": 465,
      "ĠBOU": 466,
      "Expr": 467,
      "ĠcurrentCol": 468,
      "slidesPer": 469,
      "hammad": 470,
      "ĠMPA": 471,
      "iniert": 472,
      "ĠtoolPath": 473,
      "inko": 474,
      "Ġkomp": 475,
      "tsy": 476,
      "ĠNot": 477,
      "Ġcelebrado": 478,
      "yata": 479,
      "ĠnotValid": 480,
      "ĠBumble": 481,
      "akat": 482,
      "igay": 483,
      "nBitCount": 484,
      "Tax": 485,
      "FirstFit": 486,
      "ĠBraves": 487,
      "oundButton": 488,
      "arze": 489,
      "ierce": 490,
      "ĠHwang": 491,
      "Ġsuk": 492,
      "Ġsubtilis": 493,
      "ĠIranian": 494,
      "Ġfranche": 495,
      "marginX": 496,
      "endir": 497,
      "ntl": 498,
      "anath": 499,
      "ampton": 500,
      "Ġuk": 501,
      "Ġferrugine": 502,
      "ĠInvisalign": 503,
      "Ġprothorace": 504,
      "Ġflavonoid": 505,
      "nameSort": 506,
      "ĠCompton": 507,
      "Ġabhis": 508,
      "anley": 509,
      "Stanley": 510,
      "ĠPoisson": 511,
      "addin": 512,
      "gelt": 513,
      "NotFound": 514,
      "areti": 515,
      "ĠintArray": 516,
      "retch": 517,
      "ramer": 518,
      "inez": 519,
      "ILIO": 520,
      "Schema": 521,
      "Ġantico": 522,
      "ĠGhana": 523,
      "ĠGhanaians": 524,
      "anor": 525,
      "ĠCumber": 526,
      "Linked": 527,
      "ILY": 528,
      "ĠPrep": 529,
      "hender": 530,
      "BtnUp": 531,
      "LinkedList": 532,
      "ĠPrepaid": 533,
      "leep": 534,
      "ĠCFA": 535,
      "ersi": 536,
      "Ġmica": 537,
      "yor": 538,
      "ankan": 539,
      "Sleep": 540,
      "SleepHours": 541,
      "elocity": 542,
      "Defer": 543,
      "ĠMLM": 544,
      "uristic": 545,
      "ĠPPM": 546,
      "erns": 547,
      "setVelocity": 548,
      "ativa": 549,
      "jobSize": 550,
      "Links": 551,
      "ASI": 552,
      "navigationLinks": 553,
      "ĠSBS": 554,
      "ĠADP": 555,
      "charge": 556,
      "ĠBSC": 557,
      "getAs": 558,
      "iously": 559,
      "IVEN": 560,
      "ĠCamero": 561,
      "Ġgrunt": 562,
      "henderit": 563,
      "ĠKuna": 564,
      "Ġamyg": 565,
      "kina": 566,
      "omba": 567,
      "ocale": 568,
      "ĠKobe": 569,
      "ĠGruber": 570,
      "reif": 571,
      "betriebnahme": 572,
      "adik": 573,
      "ĠReboot": 574,
      "Ġadip": 575,
      "uti": 576,
      "Ġchantier": 577,
      "Ġtritium": 578,
      "iteracy": 579,
      "Ġhasard": 580,
      "inking": 581,
      "illan": 582,
      "bridge": 583,
      "Ġterj": 584,
      "sqlUpdate": 585,
      "IES": 586,
      "hev": 587,
      "ĠWoodbridge": 588,
      "achel": 589,
      "CLionProjects": 590,
      "okatokat": 591,
      "ĠMcCr": 592,
      "wego": 593,
      "nextLinkedList": 594,
      "ĠTonawanda": 595,
      "ContactBundle": 596,
      "Ġwomen": 597,
      "Ġbark": 598,
      "ĠNews": 599,
      "ĠwomenProduct": 600,
      "arlos": 601,
      "wia": 602,
      "ĠPCP": 603,
      "qvar": 604,
      "aktan": 605,
      "qvarna": 606,
      "Ġwynika": 607,
      "Ġpostulates": 608,
      "ĠGIT": 609,
      "effector": 610,
      "earer": 611,
      "atively": 612,
      "After": 613,
      "ileSize": 614,
      "AfterTax": 615,
      "erte": 616,
      "Ġcarlos": 617,
      "Ġfib": 618,
      "Ġantimony": 619,
      "Ġicon": 620,
      "ĠSuffolk": 621,
      "urant": 622,
      "anwhile": 623,
      "ĠDerbyshire": 624,
      "xton": 625,
      "ĠGallagher": 626,
      "cox": 627,
      "ĠCarg": 628,
      "ĠEMPC": 629,
      "ĠWilcox": 630,
      "sta": 631,
      "ĠMCP": 632,
      "Ġhonti": 633,
      "lepiej": 634,
      "zai": 635,
      "ĠSrinagar": 636,
      "Ġnij": 637,
      "ĠNewsom": 638,
      "iquant": 639,
      "ĠGoSRP": 640,
      "Ġkaut": 641,
      "eys": 642,
      "Ġaliquam": 643,
      "Ġexud": 644,
      "Ġunem": 645,
      "addElement": 646,
      "chik": 647,
      "Ġrhenium": 648,
      "Ġwenden": 649,
      "Sing": 650,
      "yna": 651,
      "ongen": 652,
      "Ġluglio": 653,
      "ofy": 654,
      "ĠBoch": 655,
      "ĠBurkina": 656,
      "Pol": 657,
      "etown": 658,
      "Ġylabel": 659,
      "ĠShy": 660,
      "mdp": 661,
      "REIBUNG": 662,
      "ĠGly": 663,
      "Ġucz": 664,
      "ĠHenri": 665,
      "weig": 666,
      "ĠSMD": 667,
      "InBuffer": 668,
      "ĠMarse": 669,
      "ĠMarseille": 670,
      "life": 671,
      "mand": 672,
      "Slide": 673,
      "zou": 674,
      "Ġmeth": 675,
      "ĠRoanoke": 676,
      "agma": 677,
      "vout": 678,
      "NORE": 679,
      "ĠDAI": 680,
      "annen": 681,
      "Ġsec": 682,
      "mano": 683,
      "ocator": 684,
      "Ġperitoneal": 685,
      "allowSlide": 686,
      "Ġunderw": 687,
      "iewicz": 688,
      "subtype": 689,
      "anele": 690,
      "inku": 691,
      "ĠOBE": 692,
      "Ġaph": 693,
      "ttf": 694,
      "dataPro": 695,
      "ĠTrident": 696,
      "Ġanticoag": 697,
      "ĠWilkinson": 698,
      "imal": 699,
      "ĠRocco": 700,
      "oked": 701,
      "Draw": 702,
      "adet": 703,
      "ĠPak": 704,
      "Madonna": 705,
      "ĠZor": 706,
      "assaytype": 707,
      "ĠKush": 708,
      "ĠDCS": 709,
      "ĠZanzibar": 710,
      "BESCH": 711,
      "BESCHREIBUNG": 712,
      "SRPC": 713,
      "ilung": 714,
      "ĠOyo": 715,
      "atient": 716,
      "laus": 717,
      "ĠWordPress": 718,
      "ĠDCs": 719,
      "arcode": 720,
      "ĠNSC": 721,
      "Ġphotocatal": 722,
      "ĠSabine": 723,
      "toggle": 724,
      "ĠRangers": 725,
      "ĠNLG": 726,
      "urier": 727,
      "ĠTerence": 728,
      "town": 729,
      "awt": 730,
      "Ġsbag": 731,
      "Ġeig": 732,
      "bica": 733,
      "agnet": 734,
      "Ġcuration": 735,
      "ĠTuc": 736,
      "ĠReim": 737,
      "bsp": 738,
      "ĠTAM": 739,
      "itling": 740,
      "lexity": 741,
      "urang": 742,
      "ĠgoTo": 743,
      "urat": 744,
      "udsman": 745,
      "Ġsap": 746,
      "edy": 747,
      "eko": 748,
      "roben": 749,
      "ĠClipboard": 750,
      "Ġtrim": 751,
      "Ġaccusantium": 752,
      "Ġzirconia": 753,
      "ĠLaus": 754,
      "Ġsamano": 755,
      "ilem": 756,
      "argo": 757,
      "iffany": 758,
      "glyph": 759,
      "ConfigureArg": 760,
      "tcpHeader": 761,
      "idable": 762,
      "ĠTeng": 763,
      "wender": 764,
      "ĠTai": 765,
      "Ġcontends": 766,
      "ĠSpringObjectID": 767,
      "Moz": 768,
      "lassical": 769,
      "ĠZimbabwe": 770,
      "ĠZimbabwean": 771,
      "Duplicate": 772,
      "Barcode": 773,
      "pex": 774,
      "opu": 775,
      "slideDuplicate": 776,
      "ĠmodalCard": 777,
      "ĠLucille": 778,
      "ricing": 779,
      "ĠParry": 780,
      "guan": 781,
      "Ġlocis": 782,
      "oko": 783,
      "uncu": 784,
      "ĠUFO": 785,
      "Ġsalic": 786,
      "Ġveditabbo": 787,
      "ibat": 788,
      "heira": 789,
      "enium": 790,
      "ysa": 791,
      "zis": 792,
      "Ġactive": 793,
      "Diff": 794,
      "ĠhalfCanvasWidth": 795,
      "ĠSeychelles": 796,
      "ĠpictureBox": 797,
      "ainty": 798,
      "ĠBCS": 799,
      "Ġparal": 800,
      "Gly": 801,
      "ĠPreston": 802,
      "ionicons": 803,
      "ĠCard": 804,
      "Ġdignit": 805,
      "InfoPlist": 806,
      "rico": 807,
      "icill": 808,
      "ridor": 809,
      "ĠFord": 810,
      "ĠFordham": 811,
      "orphic": 812,
      "reiber": 813,
      "ContextMenu": 814,
      "ĠPEC": 815,
      "ĠCDM": 816,
      "andlung": 817,
      "ToServer": 818,
      "Ġelkaar": 819,
      "ĠHandlung": 820,
      "ĠBarlow": 821,
      "ĠCargill": 822,
      "ainted": 823,
      "Ġsaw": 824,
      "thern": 825,
      "ĠGaw": 826,
      "ĠDTC": 827,
      "awiki": 828,
      "ĠCatawiki": 829,
      "Ġkil": 830,
      "Ġoutperformed": 831,
      "Ġbilateral": 832,
      "country": 833,
      "ConfigFiles": 834,
      "ĠEnrico": 835,
      "ĠGwyn": 836,
      "ĠRahim": 837,
      "ĠcontentService": 838,
      "ĠAshton": 839,
      "nju": 840,
      "Imidazole": 841,
      "PostBody": 842,
      "ĠMoraes": 843,
      "ĠDund": 844,
      "Ġanastom": 845,
      "oxing": 846,
      "ĠAthena": 847,
      "ĠKirst": 848,
      "ĠAtkinson": 849,
      "ĠKirsten": 850,
      "ULTS": 851,
      "Ġpous": 852,
      "ĠRavenna": 853,
      "tty": 854,
      "enti": 855,
      "dek": 856,
      "ĠSeahawks": 857,
      "ĠBod": 858,
      "rocyte": 859,
      "atost": 860,
      "ĠDiput": 861,
      "Ġscour": 862,
      "countrygeocode": 863,
      "pth": 864,
      "ccn": 865,
      "ĠNorthampton": 866,
      "ĠVerne": 867,
      "kwargs": 868,
      "Ġsuperc": 869,
      "Ġsass": 870,
      "arem": 871,
      "Ġmanuss": 872,
      "ĠEBR": 873,
      "ccion": 874,
      "Primary": 875,
      "Ġzindagi": 876,
      "getCharAt": 877,
      "ĠCMO": 878,
      "ĠAud": 879,
      "coefdouble": 880,
      "ĠUbuy": 881,
      "ĠChy": 882,
      "ĠcreateFile": 883,
      "ĠbookArray": 884,
      "ĠSSA": 885,
      "ĠSpear": 886,
      "lusconi": 887,
      "ĠBodrum": 888,
      "erior": 889,
      "oba": 890,
      "ĠThanh": 891,
      "ĠPML": 892,
      "Ġbhavanti": 893,
      "anku": 894,
      "Ġhit": 895,
      "AutorTextBox": 896,
      "Ġeru": 897,
      "andering": 898,
      "Ġuric": 899,
      "ĠCPC": 900,
      "ĠLMB": 901,
      "ĠFroben": 902,
      "ĠFrobenius": 903,
      "ANIA": 904,
      "Ġbrood": 905,
      "Ġford": 906,
      "VRDR": 907,
      "ĠKAM": 908,
      "gboost": 909,
      "ĠASA": 910,
      "untu": 911,
      "May": 912,
      "Ġscourge": 913,
      "Maybe": 914,
      "ĠInputMaybe": 915,
      "Ġfordul": 916,
      "ĠNON": 917,
      "Ġhair": 918,
      "ĠEGF": 919,
      "egas": 920,
      "Ġbaddies": 921,
      "exp": 922,
      "vori": 923,
      "Ġfreehold": 924,
      "Ġduen": 925,
      "Ġgolpes": 926,
      "Ġhist": 927,
      "tected": 928,
      "iosamente": 929,
      "ropa": 930,
      "executionContext": 931,
      "auan": 932,
      "uere": 933,
      "inya": 934,
      "Ġretails": 935,
      "ĠMCF": 936,
      "ĠAditya": 937,
      "Designer": 938,
      "ĠBalmer": 939,
      "zant": 940,
      "otrexate": 941,
      "arei": 942,
      "Ġnan": 943,
      "Ġmdl": 944,
      "ĠWro": 945,
      "Ġneka": 946,
      "AgentError": 947,
      "ĠVernon": 948,
      "Ġbuild": 949,
      "ĠNavar": 950,
      "Ġdekh": 951,
      "ruzione": 952,
      "ĠRonan": 953,
      "zPosition": 954,
      "prus": 955,
      "ĠBelmont": 956,
      "Ġigaz": 957,
      "Ġmul": 958,
      "Protected": 959,
      "oupe": 960,
      "ProtectedRoute": 961,
      "ĠGibb": 962,
      "Ġtrue": 963,
      "Ġaxios": 964,
      "ĠtrueMap": 965,
      "REACTOR": 966,
      "PanelVisual": 967,
      "Ġpatern": 968,
      "ĠBMP": 969,
      "StudentNo": 970,
      "ĠKiv": 971,
      "Ġhepinize": 972,
      "ĠresultContent": 973,
      "vir": 974,
      "Aligned": 975,
      "Ġsaam": 976,
      "AlignedText": 977,
      "ĠPCA": 978,
      "ikte": 979,
      "Ġvattabbam": 980,
      "audio": 981,
      "embro": 982,
      "lue": 983,
      "getBlue": 984,
      "ĠPelicans": 985,
      "ĠGaul": 986,
      "ĠHolm": 987,
      "iast": 988,
      "sort": 989,
      "ĠMulligan": 990,
      "Ġbulk": 991,
      "Ġbulkhead": 992,
      "ĠCanary": 993,
      "Veronica": 994,
      "Ġpaus": 995,
      "audioType": 996,
      "ĠAnambra": 997,
      "kiy": 998,
      "zani": 999,
      "gutter": 1000,
      "izoen": 1001,
      "rodite": 1002,
      "araan": 1003,
      "Hitpoint": 1004,
      "CString": 1005,
      "ĠHarald": 1006,
      "icure": 1007,
      "ĠVPT": 1008,
      "faq": 1009,
      "buttonLevel": 1010,
      "hyd": 1011,
      "Ġenunci": 1012,
      "Ġangr": 1013,
      "ĠParrish": 1014,
      "Patient": 1015,
      "Rating": 1016,
      "Ther": 1017,
      "methodict": 1018,
      "RatingDiff": 1019,
      "aru": 1020,
      "ĠvVertex": 1021,
      "ĠGrover": 1022,
      "kau": 1023,
      "owego": 1024,
      "anna": 1025,
      "icode": 1026,
      "Ġkahelaro": 1027,
      "WebService": 1028,
      "Ġcrebre": 1029,
      "ĠSadd": 1030,
      "sker": 1031,
      "Ġtubercle": 1032,
      "innt": 1033,
      "ĠallError": 1034,
      "Therates": 1035,
      "besie": 1036,
      "arci": 1037,
      "ĠMuth": 1038,
      "Ġvutto": 1039,
      "Ġaata": 1040,
      "ĠRolf": 1041,
      "Ġscl": 1042,
      "mapStateToProps": 1043,
      "orc": 1044,
      "urten": 1045,
      "ĠHeinz": 1046,
      "ĠSund": 1047,
      "GetComponents": 1048,
      "ĠSkye": 1049,
      "baden": 1050,
      "YTE": 1051,
      "elh": 1052,
      "ĠJin": 1053,
      "esser": 1054,
      "PatientR": 1055,
      "LoginID": 1056,
      "anay": 1057,
      "ĠMongol": 1058,
      "createdBy": 1059,
      "constraintTop": 1060,
      "ĠLourdes": 1061,
      "Ġskimage": 1062,
      "ĠlLoginID": 1063,
      "ĠSC": 1064,
      "ĠHomeScreen": 1065,
      "toMatch": 1066,
      "LIS": 1067,
      "ĠGrim": 1068,
      "antlr": 1069,
      "angkan": 1070,
      "ixes": 1071,
      "Desp": 1072,
      "ĠPompe": 1073,
      "atx": 1074,
      "Despatx": 1075,
      "Ġsputtered": 1076,
      "Ġcakkh": 1077,
      "DanhMucSP": 1078,
      "ĠFanny": 1079,
      "ĠfdPar": 1080,
      "ptives": 1081,
      "etian": 1082,
      "Ġunpre": 1083,
      "arel": 1084,
      "userDetails": 1085,
      "Ġinit": 1086,
      "ĠSaar": 1087,
      "mdb": 1088,
      "angleright": 1089,
      "Ġsunburn": 1090,
      "koj": 1091,
      "ĠFielding": 1092,
      "route": 1093,
      "idopsis": 1094,
      "racing": 1095,
      "SpawnEntry": 1096,
      "ĠTjiwarl": 1097,
      "Gr": 1098,
      "ĠKristian": 1099,
      "Pixmap": 1100,
      "acio": 1101,
      "ĠHowell": 1102,
      "onder": 1103,
      "Ġliya": 1104,
      "loadImage": 1105,
      "ĠWeber": 1106,
      "udal": 1107,
      "ymce": 1108,
      "Ġrangka": 1109,
      "UnaryOperation": 1110,
      "usstsein": 1111,
      "Ġjednom": 1112,
      "Fors": 1113,
      "IVERY": 1114,
      "ĠTore": 1115,
      "ĠShakespeare": 1116,
      "ohen": 1117,
      "ĠBluff": 1118,
      "ĠINKA": 1119,
      "ĠDMBT": 1120,
      "erdo": 1121,
      "Ġso": 1122,
      "ĠPPS": 1123,
      "Ġvanadium": 1124,
      "iorari": 1125,
      "UIActions": 1126,
      "sace": 1127,
      "ĠAlsace": 1128,
      "ujah": 1129,
      "fect": 1130,
      "ĠjLabel": 1131,
      "Ġnostrum": 1132,
      "ĠTMA": 1133,
      "recated": 1134,
      "AuthConfig": 1135,
      "allelujah": 1136,
      "ĠOsbourne": 1137,
      "ĠTiffany": 1138,
      "Ġabhiv": 1139,
      "Ġshack": 1140,
      "ĠLoy": 1141,
      "ĠTLC": 1142,
      "offel": 1143,
      "Aldrich": 1144,
      "Ġnanop": 1145,
      "rowset": 1146,
      "hotra": 1147,
      "utting": 1148,
      "ĠhMut": 1149,
      "buk": 1150,
      "bewerken": 1151,
      "jado": 1152,
      "imiento": 1153,
      "cestershire": 1154,
      "ĠWorcestershire": 1155,
      "ĠFreeman": 1156,
      "foregroundView": 1157,
      "Ġpatham": 1158,
      "ĠAssange": 1159,
      "pport": 1160,
      "Insets": 1161,
      "vv": 1162,
      "Ġabutting": 1163,
      "Ġtallow": 1164,
      "avg": 1165,
      "Connell": 1166,
      "Ġjednego": 1167,
      "ĠZhen": 1168,
      "colorPrimary": 1169,
      "uvwxyz": 1170,
      "Job": 1171,
      "vvvert": 1172,
      "Ġrechnen": 1173,
      "ĠDyed": 1174,
      "ĠEmile": 1175,
      "Audit": 1176,
      "AuditEvent": 1177,
      "Ġlingers": 1178,
      "Ġnbsp": 1179,
      "ĠSDI": 1180,
      "oisin": 1181,
      "Hotkey": 1182,
      "ĠcreateNative": 1183,
      "Ġlegjob": 1184,
      "ĠDMF": 1185,
      "ĠPAC": 1186,
      "zut": 1187,
      "Ġvul": 1188,
      "ScreenBinding": 1189,
      "nsk": 1190,
      "setFillColor": 1191,
      "accam": 1192,
      "Ġcertiorari": 1193,
      "slategray": 1194,
      "ricao": 1195,
      "JScripts": 1196,
      "sez": 1197,
      "allbacks": 1198,
      "ĠPPP": 1199,
      "quez": 1200,
      "fur": 1201,
      "ĠBret": 1202,
      "ressing": 1203,
      "ĠonRouteChange": 1204,
      "avgsalary": 1205,
      "ĠCoelho": 1206,
      "worth": 1207,
      "ĠDominica": 1208,
      "oser": 1209,
      "wpilibj": 1210,
      "quis": 1211,
      "Ġtincidunt": 1212,
      "zetac": 1213,
      "ĠPere": 1214,
      "ogun": 1215,
      "nten": 1216,
      "bauer": 1217,
      "ressa": 1218,
      "Ġshackles": 1219,
      "ĠEno": 1220,
      "ĠACP": 1221,
      "Ġnasc": 1222,
      "bufs": 1223,
      "ecal": 1224,
      "PropertyParam": 1225,
      "ĠCBP": 1226,
      "OutSize": 1227,
      "OE": 1228,
      "ĠNCA": 1229,
      "tai": 1230,
      "ichting": 1231,
      "DHL": 1232,
      "oscow": 1233,
      "Ġmarb": 1234,
      "avir": 1235,
      "umiem": 1236,
      "ĠMaki": 1237,
      "psies": 1238,
      "local": 1239,
      "walle": 1240,
      "yai": 1241,
      "ĠVillanueva": 1242,
      "scaron": 1243,
      "ĠButte": 1244,
      "oppable": 1245,
      "ariski": 1246,
      "ware": 1247,
      "Ġutas": 1248,
      "ĠPSU": 1249,
      "ibhav": 1250,
      "Free": 1251,
      "eged": 1252,
      "Ġunr": 1253,
      "lockSeconds": 1254,
      "Ġbrushed": 1255,
      "Ġnerada": 1256,
      "AppBsky": 1257,
      "SubType": 1258,
      "ENCES": 1259,
      "MDg": 1260,
      "ĠAEC": 1261,
      "FERENCES": 1262,
      "lensFlare": 1263,
      "Ġperg": 1264,
      "serr": 1265,
      "Ġperjud": 1266,
      "ĠHeg": 1267,
      "ĠWILLI": 1268,
      "ĠWILLIAMS": 1269,
      "iotsit": 1270,
      "ĠDSC": 1271,
      "Ġcycl": 1272,
      "inac": 1273,
      "ayi": 1274,
      "ĠSSC": 1275,
      "Ġmort": 1276,
      "seekg": 1277,
      "imes": 1278,
      "FAULT": 1279,
      "ĠAyr": 1280,
      "ĠAppException": 1281,
      "ĠFeld": 1282,
      "Ġpalmit": 1283,
      "ĠOx": 1284,
      "ĠPattaya": 1285,
      "ĠEuclidean": 1286,
      "anta": 1287,
      "NBR": 1288,
      "hai": 1289,
      "ĠDuffy": 1290,
      "FocusValue": 1291,
      "ĠSND": 1292,
      "hrm": 1293,
      "ĠArchivlink": 1294,
      "ĠHeinrich": 1295,
      "ĠColchester": 1296,
      "ĠOka": 1297,
      "ĠKins": 1298,
      "ĠNSS": 1299,
      "ogui": 1300,
      "irikan": 1301,
      "omyosin": 1302,
      "Ġdron": 1303,
      "ĠReza": 1304,
      "VHTree": 1305,
      "ĠBVHTree": 1306,
      "ĠActiveX": 1307,
      "oggles": 1308,
      "weed": 1309,
      "ĠDPP": 1310,
      "faul": 1311,
      "Ġwors": 1312,
      "faulse": 1313,
      "shund": 1314,
      "ĠSchumann": 1315,
      "aruhi": 1316,
      "chyma": 1317,
      "ĠRag": 1318,
      "Ġiconbinicons": 1319,
      "gitian": 1320,
      "Ġabgest": 1321,
      "Pere": 1322,
      "xSpeed": 1323,
      "ynomial": 1324,
      "Complexity": 1325,
      "ially": 1326,
      "childComplexity": 1327,
      "ĠRiz": 1328,
      "autogui": 1329,
      "Ġeas": 1330,
      "qParams": 1331,
      "ĠPut": 1332,
      "helial": 1333,
      "ĠGoldstein": 1334,
      "etha": 1335,
      "ĠInteger": 1336,
      "ĠIntegerValue": 1337,
      "Ġimidazol": 1338,
      "Ġevit": 1339,
      "arens": 1340,
      "fas": 1341,
      "otion": 1342,
      "ĠAlvar": 1343,
      "ijiet": 1344,
      "Ġconvinces": 1345,
      "skins": 1346,
      "JK": 1347,
      "ĠNewtown": 1348,
      "eholder": 1349,
      "ĠKeegan": 1350,
      "abor": 1351,
      "Ġmouthful": 1352,
      "ĠNade": 1353,
      "attutto": 1354,
      "immt": 1355,
      "ĠdragState": 1356,
      "oren": 1357,
      "ĠEdna": 1358,
      "Ġarteri": 1359,
      "ĠSTP": 1360,
      "PutMapping": 1361,
      "ĠSwindon": 1362,
      "odym": 1363,
      "unum": 1364,
      "beh": 1365,
      "ĠUCS": 1366,
      "Ġedo": 1367,
      "Ġjednu": 1368,
      "ĠsymbolTable": 1369,
      "toLocale": 1370,
      "ĠMonza": 1371,
      "fine": 1372,
      "oughby": 1373,
      "msen": 1374,
      "hia": 1375,
      "Ġmelakukan": 1376,
      "ĠRedskins": 1377,
      "cod": 1378,
      "ĠWIP": 1379,
      "ĠBCR": 1380,
      "ĠPav": 1381,
      "pend": 1382,
      "ForResult": 1383,
      "ĠDorothe": 1384,
      "equations": 1385,
      "xcschemes": 1386,
      "subequations": 1387,
      "queeze": 1388,
      "ĠKeyEvent": 1389,
      "ermak": 1390,
      "jc": 1391,
      "newNode": 1392,
      "ĠHoughton": 1393,
      "overy": 1394,
      "Ġnucleons": 1395,
      "ĠOldham": 1396,
      "vcx": 1397,
      "ĠPearce": 1398,
      "validator": 1399,
      "ĠGridLayout": 1400,
      "revalidator": 1401,
      "Spot": 1402,
      "Ġlink": 1403,
      "ĠHT": 1404,
      "ArtStudent": 1405,
      "asos": 1406,
      "omiast": 1407,
      "alit": 1408,
      "Ġjedna": 1409,
      "ScrollView": 1410,
      "aceted": 1411,
      "Application": 1412,
      "ĠlinkCell": 1413,
      "ĠPFC": 1414,
      "ĠDoh": 1415,
      "initpos": 1416,
      "abstraction": 1417,
      "ĠGoh": 1418,
      "KeyboardView": 1419,
      "ĠChang": 1420,
      "roni": 1421,
      "olata": 1422,
      "Ġdoh": 1423,
      "possible": 1424,
      "possibleTypes": 1425,
      "anmar": 1426,
      "teen": 1427,
      "Ġneod": 1428,
      "ĠSteel": 1429,
      "Rais": 1430,
      "ĠZariski": 1431,
      "attering": 1432,
      "reiro": 1433,
      "ellikle": 1434,
      "ĠSain": 1435,
      "Ġdoloribus": 1436,
      "mod": 1437,
      "Ġtuberculous": 1438,
      "ĠDHT": 1439,
      "ĠPickett": 1440,
      "Ġdukkh": 1441,
      "ĠDevon": 1442,
      "ĠLek": 1443,
      "ĠNunes": 1444,
      "ĠAmherst": 1445,
      "feitura": 1446,
      "ĠAtal": 1447,
      "Ġperm": 1448,
      "omerang": 1449,
      "yers": 1450,
      "optot": 1451,
      "ĠHTML": 1452,
      "optotic": 1453,
      "ĠHTMLSc": 1454,
      "Ġretinol": 1455,
      "ssymb": 1456,
      "Ġtendered": 1457,
      "tolyl": 1458,
      "ĠDarius": 1459,
      "UMP": 1460,
      "ĠSteelers": 1461,
      "ĠcreateWindow": 1462,
      "illum": 1463,
      "nai": 1464,
      "UserManager": 1465,
      "aceholder": 1466,
      "iang": 1467,
      "ĠCory": 1468,
      "elemetry": 1469,
      "onuclease": 1470,
      "Ġdvar": 1471,
      "Ġrelie": 1472,
      "slf": 1473,
      "sigs": 1474,
      "eonium": 1475,
      "Ġthump": 1476,
      "Ġsubject": 1477,
      "Ġberyllium": 1478,
      "ĠSog": 1479,
      "ĠKeating": 1480,
      "missive": 1481,
      "ĠOxfordshire": 1482,
      "Ġsech": 1483,
      "Ġfil": 1484,
      "ĠMerrill": 1485,
      "ylvania": 1486,
      "Gen": 1487,
      "Ġprze": 1488,
      "rania": 1489,
      "elom": 1490,
      "Ġcav": 1491,
      "apopt": 1492,
      "agoza": 1493,
      "TAIN": 1494,
      "Ġanesthetic": 1495,
      "gtr": 1496,
      "ĠConnelly": 1497,
      "RIST": 1498,
      "acryl": 1499,
      "ugno": 1500,
      "Ġgiugno": 1501,
      "ĠStella": 1502,
      "deload": 1503,
      "IMI": 1504,
      "ĠShams": 1505,
      "raine": 1506,
      "Ġmust": 1507,
      "ultats": 1508,
      "inputFields": 1509,
      "kun": 1510,
      "Ġhran": 1511,
      "rophy": 1512,
      "wana": 1513,
      "ufth": 1514,
      "ĠSCS": 1515,
      "ĠWilber": 1516,
      "Print": 1517,
      "ĠDelft": 1518,
      "angelo": 1519,
      "ĠSLS": 1520,
      "ĠPSR": 1521,
      "Gs": 1522,
      "ĠLDGs": 1523,
      "ulan": 1524,
      "ĠUrea": 1525,
      "thym": 1526,
      "TextImage": 1527,
      "umine": 1528,
      "Ġimmisc": 1529,
      "Ġproxim": 1530,
      "otoxic": 1531,
      "akre": 1532,
      "cessToken": 1533,
      "ĠLorraine": 1534,
      "ianSpace": 1535,
      "dang": 1536,
      "petto": 1537,
      "ĠNSR": 1538,
      "Ġkapcs": 1539,
      "adeon": 1540,
      "ĠShelton": 1541,
      "IUNI": 1542,
      "ĠREGIUNI": 1543,
      "ĠGerardo": 1544,
      "ĠTri": 1545,
      "upe": 1546,
      "alty": 1547,
      "galactos": 1548,
      "IFORNIA": 1549,
      "ĠBarb": 1550,
      "Er": 1551,
      "asil": 1552,
      "ĠFang": 1553,
      "Own": 1554,
      "DIC": 1555,
      "Ernest": 1556,
      "ĠKatha": 1557,
      "Ġspree": 1558,
      "Ġikut": 1559,
      "ateau": 1560,
      "ĠShab": 1561,
      "Ġcytos": 1562,
      "ĠHST": 1563,
      "ĠDaley": 1564,
      "wok": 1565,
      "ĠZusammen": 1566,
      "Ġstockno": 1567,
      "ĠMeek": 1568,
      "ulsion": 1569,
      "Ġapoptotic": 1570,
      "Ġcursor": 1571,
      "izont": 1572,
      "Ġcust": 1573,
      "ĠBCA": 1574,
      "Ġirure": 1575,
      "ejb": 1576,
      "irik": 1577,
      "assignment": 1578,
      "ĠBruins": 1579,
      "ĠArchers": 1580,
      "perclip": 1581,
      "FindingsRequest": 1582,
      "usian": 1583,
      "ourt": 1584,
      "ĠTat": 1585,
      "ĠHSC": 1586,
      "payable": 1587,
      "ĠBoc": 1588,
      "ĠBIP": 1589,
      "Ġdown": 1590,
      "Fhir": 1591,
      "emm": 1592,
      "ĠGewerks": 1593,
      "heiros": 1594,
      "Ġfyr": 1595,
      "ĠTrieste": 1596,
      "IMQTTRVM": 1597,
      "Ġguzt": 1598,
      "Ġcer": 1599,
      "nonpayable": 1600,
      "zir": 1601,
      "catch": 1602,
      "PafHandle": 1603,
      "ĠFeldman": 1604,
      "ĠShee": 1605,
      "Ġtrycatch": 1606,
      "ĠMorgan": 1607,
      "ĠMSI": 1608,
      "ĠuseParams": 1609,
      "OwnProperty": 1610,
      "ĠPhyllis": 1611,
      "LI": 1612,
      "ĠWarwickshire": 1613,
      "ĠALF": 1614,
      "Ġse": 1615,
      "ĠCSP": 1616,
      "Compliance": 1617,
      "ocre": 1618,
      "ops": 1619,
      "Ġkapcsol": 1620,
      "ĠRendez": 1621,
      "Disc": 1622,
      "Ġkres": 1623,
      "oros": 1624,
      "Ġchampion": 1625,
      "assignmentItems": 1626,
      "ĠWyatt": 1627,
      "Ġgacchati": 1628,
      "Ġnas": 1629,
      "ĠProbation": 1630,
      "ĠHorus": 1631,
      "sekut": 1632,
      "iesis": 1633,
      "ĠNBS": 1634,
      "ĠICP": 1635,
      "uers": 1636,
      "ĠMet": 1637,
      "ĠPPR": 1638,
      "istler": 1639,
      "Ġdesconoc": 1640,
      "trone": 1641,
      "ĠPBA": 1642,
      "Ġsys": 1643,
      "Ġsyslog": 1644,
      "Ġstroke": 1645,
      "uttam": 1646,
      "ivanja": 1647,
      "ĠMajor": 1648,
      "Ġquest": 1649,
      "ĠMajorana": 1650,
      "irrahim": 1651,
      "Ġchh": 1652,
      "Ġoutlying": 1653,
      "ĠMoya": 1654,
      "Ġexponent": 1655,
      "viene": 1656,
      "RawO": 1657,
      "Prothorax": 1658,
      "ĠNPS": 1659,
      "uiDesigner": 1660,
      "Ġhet": 1661,
      "StructOfObject": 1662,
      "DepartTime": 1663,
      "ĠPauli": 1664,
      "ĠaDAO": 1665,
      "ĠSSM": 1666,
      "vora": 1667,
      "Ġraven": 1668,
      "andalone": 1669,
      "Moles": 1670,
      "ahrung": 1671,
      "Ġlorf": 1672,
      "apace": 1673,
      "ĠRCLCPP": 1674,
      "Ġhemic": 1675,
      "urik": 1676,
      "ĠNolan": 1677,
      "quete": 1678,
      "getBlueTeam": 1679,
      "ĠPort": 1680,
      "ARRAY": 1681,
      "Composite": 1682,
      "Ġrotacao": 1683,
      "Ġneutr": 1684,
      "ĠMMR": 1685,
      "ahat": 1686,
      "otic": 1687,
      "ifaiFace": 1688,
      "edo": 1689,
      "endim": 1690,
      "StartPosition": 1691,
      "Ġpetri": 1692,
      "odeon": 1693,
      "ĠBosn": 1694,
      "ĠTart": 1695,
      "ateinit": 1696,
      "Ġlateinit": 1697,
      "angg": 1698,
      "PathResource": 1699,
      "Ġotr": 1700,
      "ĠPeyton": 1701,
      "olian": 1702,
      "adhi": 1703,
      "Ġterecht": 1704,
      "Seg": 1705,
      "instagram": 1706,
      "ofinstagram": 1707,
      "fdPar": 1708,
      "pard": 1709,
      "ĠCHRIST": 1710,
      "ĠCHRISTIAN": 1711,
      "Aux": 1712,
      "ĠConvent": 1713,
      "abhi": 1714,
      "Ġthym": 1715,
      "Ġcapillaries": 1716,
      "tAux": 1717,
      "alq": 1718,
      "cadia": 1719,
      "ypedef": 1720,
      "modelVersion": 1721,
      "TPASDW": 1722,
      "ĠMagdal": 1723,
      "ĠMarguerite": 1724,
      "unate": 1725,
      "Ġwobec": 1726,
      "serial": 1727,
      "ĠSomerset": 1728,
      "ĠDarrell": 1729,
      "omatic": 1730,
      "ĠMcDowell": 1731,
      "tingen": 1732,
      "ĠGUI": 1733,
      "empt": 1734,
      "ĠGUIContent": 1735,
      "Ġcyl": 1736,
      "earing": 1737,
      "ĠTMP": 1738,
      "Ġtene": 1739,
      "ĠCheckException": 1740,
      "adee": 1741,
      "ternal": 1742,
      "Ġhton": 1743,
      "Ġvesz": 1744,
      "ĠxWidth": 1745,
      "ĠHarg": 1746,
      "ĠTope": 1747,
      "vaar": 1748,
      "Ġgest": 1749,
      "Ġmenyer": 1750,
      "stringValue": 1751,
      "echn": 1752,
      "ilin": 1753,
      "Stub": 1754,
      "ĠGordon": 1755,
      "ĠSMC": 1756,
      "ĠBolson": 1757,
      "PRINT": 1758,
      "ĠBolsonaro": 1759,
      "AMES": 1760,
      "share": 1761,
      "DBGPRINT": 1762,
      "shareButton": 1763,
      "BufOffset": 1764,
      "ĠIrene": 1765,
      "TRAN": 1766,
      "Ġsabbam": 1767,
      "Rep": 1768,
      "isComposite": 1769,
      "ĠBraunsch": 1770,
      "Ġnying": 1771,
      "bot": 1772,
      "ĠGuadalupe": 1773,
      "Probit": 1774,
      "Ġpoj": 1775,
      "opedia": 1776,
      "Ġliht": 1777,
      "DetailUIJob": 1778,
      "ĠBhagavato": 1779,
      "Appearance": 1780,
      "Ġpca": 1781,
      "smallest": 1782,
      "smallestBlock": 1783,
      "oglio": 1784,
      "ules": 1785,
      "PickerDialog": 1786,
      "ĠKork": 1787,
      "Ġpayloads": 1788,
      "ĠSalisbury": 1789,
      "haps": 1790,
      "lion": 1791,
      "zelf": 1792,
      "Ġpadamala": 1793,
      "footage": 1794,
      "ĠYara": 1795,
      "comstockfootage": 1796,
      "ocot": 1797,
      "ĠGreta": 1798,
      "Ġilm": 1799,
      "awai": 1800,
      "Ġscale": 1801,
      "ĠBraunschweig": 1802,
      "angun": 1803,
      "arzy": 1804,
      "Ġpalma": 1805,
      "ĠscaleOf": 1806,
      "ĠAnil": 1807,
      "Ġresist": 1808,
      "etet": 1809,
      "ueur": 1810,
      "esome": 1811,
      "ĠSFR": 1812,
      "ATO": 1813,
      "NATO": 1814,
      "agai": 1815,
      "ĠLouisa": 1816,
      "ĠgetAll": 1817,
      "ucristo": 1818,
      "Ġtrach": 1819,
      "Ġnumber": 1820,
      "henko": 1821,
      "ĠTas": 1822,
      "Ġvile": 1823,
      "LLOW": 1824,
      "estis": 1825,
      "ACK": 1826,
      "ĠNorwood": 1827,
      "ĠCBSE": 1828,
      "ernos": 1829,
      "ĠWak": 1830,
      "TRANSFER": 1831,
      "ĠCongo": 1832,
      "ĠWies": 1833,
      "amaks": 1834,
      "ĠGomes": 1835,
      "ĠIrv": 1836,
      "emente": 1837,
      "Ġmenjalani": 1838,
      "ĠPAF": 1839,
      "jub": 1840,
      "zni": 1841,
      "Ġnast": 1842,
      "litz": 1843,
      "Ġpass": 1844,
      "ameth": 1845,
      "ĠJno": 1846,
      "leich": 1847,
      "ĠTouchUtils": 1848,
      "atul": 1849,
      "iin": 1850,
      "ĠVersace": 1851,
      "ĠBower": 1852,
      "eom": 1853,
      "ĠGiron": 1854,
      "Ġcolumn": 1855,
      "starc": 1856,
      "ĠVPS": 1857,
      "ĠFHW": 1858,
      "ĠFHWA": 1859,
      "PopupMenu": 1860,
      "ETE": 1861,
      "percent": 1862,
      "ifa": 1863,
      "Ġmultip": 1864,
      "ĠHCC": 1865,
      "akili": 1866,
      "ĠArtin": 1867,
      "ĠDick": 1868,
      "Ġinad": 1869,
      "Ġimassa": 1870,
      "WMat": 1871,
      "Ġpejabat": 1872,
      "ToExp": 1873,
      "gegen": 1874,
      "hatan": 1875,
      "Ġbracing": 1876,
      "oval": 1877,
      "ĠLeandro": 1878,
      "IServerGame": 1879,
      "calrightcounter": 1880,
      "ecl": 1881,
      "ĠMPC": 1882,
      "Ġhug": 1883,
      "ovou": 1884,
      "Ġgradio": 1885,
      "ĠSchalt": 1886,
      "ishan": 1887,
      "ERVER": 1888,
      "hasFocusArea": 1889,
      "ennies": 1890,
      "animity": 1891,
      "MeV": 1892,
      "ĠPritchard": 1893,
      "Ġsilage": 1894,
      "bruk": 1895,
      "elite": 1896,
      "acem": 1897,
      "Ġsuced": 1898,
      "Ġmathrm": 1899,
      "ĠWater": 1900,
      "urbed": 1901,
      "AndWait": 1902,
      "dte": 1903,
      "ĠProny": 1904,
      "jgl": 1905,
      "wne": 1906,
      "DebuggerNonUser": 1907,
      "lies": 1908,
      "Ġentgegen": 1909,
      "obre": 1910,
      "nard": 1911,
      "Ġspit": 1912,
      "abl": 1913,
      "ĠBukit": 1914,
      "Ġbasin": 1915,
      "ĠRegina": 1916,
      "ablanca": 1917,
      "Ġhuynh": 1918,
      "di": 1919,
      "ĠGA": 1920,
      "Ġlaat": 1921,
      "ufer": 1922,
      "aui": 1923,
      "eric": 1924,
      "ĠFrances": 1925,
      "sekten": 1926,
      "ĠFrancesca": 1927,
      "Ġadal": 1928,
      "ĠUmesh": 1929,
      "Ġruthenium": 1930,
      "Ġdesaparecido": 1931,
      "atii": 1932,
      "Ġdisusun": 1933,
      "Ġaliqua": 1934,
      "ussen": 1935,
      "Ġsalah": 1936,
      "ĠproductMoles": 1937,
      "entrant": 1938,
      "arum": 1939,
      "away": 1940,
      "ĠrectMode": 1941,
      "illation": 1942,
      "ĠTahiti": 1943,
      "ĠBridgeport": 1944,
      "opo": 1945,
      "strument": 1946,
      "rable": 1947,
      "ĠRARRAY": 1948,
      "arkMode": 1949,
      "ovll": 1950,
      "AudioAsset": 1951,
      "Ġoccup": 1952,
      "ĠTPS": 1953,
      "ĠFSC": 1954,
      "Bet": 1955,
      "sunline": 1956,
      "agland": 1957,
      "Ġadhipp": 1958,
      "ĠJordanian": 1959,
      "ĠMaurer": 1960,
      "Ġhalde": 1961,
      "skraft": 1962,
      "IUM": 1963,
      "dik": 1964,
      "abag": 1965,
      "ĠTanjung": 1966,
      "VD": 1967,
      "ĠJamestown": 1968,
      "evin": 1969,
      "beitung": 1970,
      "cInfo": 1971,
      "MeshVD": 1972,
      "temp": 1973,
      "ĠMogo": 1974,
      "imine": 1975,
      "uste": 1976,
      "tble": 1977,
      "avni": 1978,
      "Gos": 1979,
      "okeh": 1980,
      "ĠRCB": 1981,
      "nius": 1982,
      "Ġlaatste": 1983,
      "Ġvijj": 1984,
      "want": 1985,
      "iduals": 1986,
      "ĠCoker": 1987,
      "Ġcheer": 1988,
      "Ġohmic": 1989,
      "uns": 1990,
      "jesus": 1991,
      "residuals": 1992,
      "oby": 1993,
      "ĠDap": 1994,
      "amous": 1995,
      "izieren": 1996,
      "ĠCPI": 1997,
      "ĠVeron": 1998,
      "ĠnumberWith": 1999,
      "wantErr": 2000,
      "AW": 2001,
      "fen": 2002,
      "ĠCp": 2003,
      "Ġrenfer": 2004,
      "Ġquies": 2005,
      "ĠCpG": 2006,
      "google": 2007,
      "googleapis": 2008,
      "ĠSoy": 2009,
      "Cre": 2010,
      "valt": 2011,
      "ĠSoyuz": 2012,
      "ĠKant": 2013,
      "ilden": 2014,
      "ĠJSC": 2015,
      "Discovery": 2016,
      "ĠBeauf": 2017,
      "ĠBeaufort": 2018,
      "PageComponent": 2019,
      "Ġprostagland": 2020,
      "ĠSRAM": 2021,
      "ĠHat": 2022,
      "evi": 2023,
      "fillna": 2024,
      "glades": 2025,
      "Ġpoke": 2026,
      "ellem": 2027,
      "ĠMDP": 2028,
      "eneva": 2029,
      "algar": 2030,
      "eltat": 2031,
      "PopMatrix": 2032,
      "Ġyoke": 2033,
      "ocks": 2034,
      "AssetDiscovery": 2035,
      "asaddassa": 2036,
      "ĠStet": 2037,
      "ĠOrt": 2038,
      "DD": 2039,
      "ĠMCS": 2040,
      "ĠJie": 2041,
      "Ġsaz": 2042,
      "ĠMEC": 2043,
      "GLE": 2044,
      "ivation": 2045,
      "rotic": 2046,
      "Ġpolypes": 2047,
      "ydon": 2048,
      "ĠKog": 2049,
      "Ġthaliana": 2050,
      "Schedule": 2051,
      "ycji": 2052,
      "ionary": 2053,
      "henyl": 2054,
      "Ġgacche": 2055,
      "ĠkeySchedule": 2056,
      "ĠDAP": 2057,
      "ĠJose": 2058,
      "ĠMimi": 2059,
      "Recorder": 2060,
      "ĠdataType": 2061,
      "wah": 2062,
      "arrivalTime": 2063,
      "ĠMiddles": 2064,
      "Ġpud": 2065,
      "phor": 2066,
      "ĠMiddlesex": 2067,
      "EventRecorder": 2068,
      "fels": 2069,
      "ApiException": 2070,
      "yzed": 2071,
      "Ġbottl": 2072,
      "Ġbottlene": 2073,
      "ĠMaloney": 2074,
      "disc": 2075,
      "Ġfide": 2076,
      "bir": 2077,
      "KeyState": 2078,
      "IAL": 2079,
      "Ġdee": 2080,
      "erged": 2081,
      "URE": 2082,
      "ĠElla": 2083,
      "ĠEverglades": 2084,
      "entlichen": 2085,
      "arashtra": 2086,
      "reuses": 2087,
      "SourceRequest": 2088,
      "ifred": 2089,
      "ĠHorton": 2090,
      "Ġgroup": 2091,
      "ĠKl": 2092,
      "Ġthang": 2093,
      "ARSE": 2094,
      "ĠLevine": 2095,
      "tools": 2096,
      "Ġdisappears": 2097,
      "ĠKeenan": 2098,
      "erbury": 2099,
      "ĠCanterbury": 2100,
      "Ġultima": 2101,
      "Ġtasmim": 2102,
      "gie": 2103,
      "Ġndi": 2104,
      "ĠLoeb": 2105,
      "ungal": 2106,
      "inputArr": 2107,
      "Ġtattha": 2108,
      "ĠCGSize": 2109,
      "ĠSVC": 2110,
      "irman": 2111,
      "jf": 2112,
      "sth": 2113,
      "Ġpinching": 2114,
      "ĠCoates": 2115,
      "HDROff": 2116,
      "ĠPinn": 2117,
      "Ġpeduncul": 2118,
      "ĠPesh": 2119,
      "Ġchime": 2120,
      "ĠWatt": 2121,
      "ĠDinesh": 2122,
      "Ġconvin": 2123,
      "ĠFayette": 2124,
      "ĠAjay": 2125,
      "ĠRee": 2126,
      "ĠQuis": 2127,
      "ĠFar": 2128,
      "ĠUAS": 2129,
      "webElementGuid": 2130,
      "znych": 2131,
      "header": 2132,
      "ĠTrist": 2133,
      "ĠTristan": 2134,
      "bind": 2135,
      "tempCard": 2136,
      "ĠRep": 2137,
      "Ġcun": 2138,
      "ĠTether": 2139,
      "API": 2140,
      "Ġsof": 2141,
      "otle": 2142,
      "ĠEthel": 2143,
      "Ġpartial": 2144,
      "ids": 2145,
      "ĠpartialX": 2146,
      "Ġslapped": 2147,
      "detailID": 2148,
      "ĠprevState": 2149,
      "ĠPalm": 2150,
      "ORIA": 2151,
      "chny": 2152,
      "Ġssize": 2153,
      "Ġweb": 2154,
      "acidad": 2155,
      "hock": 2156,
      "ĠWhistler": 2157,
      "ĠPayPay": 2158,
      "udet": 2159,
      "Ġslew": 2160,
      "retrato": 2161,
      "Ġtrove": 2162,
      "Ġhotspot": 2163,
      "ĠWinston": 2164,
      "USTER": 2165,
      "owej": 2166,
      "inals": 2167,
      "ppings": 2168,
      "ocrates": 2169,
      "ARK": 2170,
      "yled": 2171,
      "getSimple": 2172,
      "Ġattano": 2173,
      "ĠWemb": 2174,
      "ĠWembley": 2175,
      "isDebug": 2176,
      "getSimpleName": 2177,
      "ApiService": 2178,
      "uyang": 2179,
      "CLUSTER": 2180,
      "atak": 2181,
      "ĠSID": 2182,
      "Ġribbed": 2183,
      "orderDisplay": 2184,
      "miR": 2185,
      "gham": 2186,
      "Bew": 2187,
      "Santis": 2188,
      "ĠDeSantis": 2189,
      "icado": 2190,
      "Controls": 2191,
      "unts": 2192,
      "Ġkorral": 2193,
      "ĠOrtega": 2194,
      "ilfe": 2195,
      "ashita": 2196,
      "qi": 2197,
      "ariah": 2198,
      "Ġlesqu": 2199,
      "Ġcardamom": 2200,
      "ĠMauritius": 2201,
      "rawd": 2202,
      "QueueMutex": 2203,
      "Ġettha": 2204,
      "Ġhetuk": 2205,
      "yscale": 2206,
      "ĠDye": 2207,
      "ivist": 2208,
      "ĠQuadrup": 2209,
      "ileen": 2210,
      "intai": 2211,
      "oflu": 2212,
      "Ġnanny": 2213,
      "Ġvasena": 2214,
      "toggleClass": 2215,
      "angkah": 2216,
      "ĠBaghdad": 2217,
      "asure": 2218,
      "ĠRST": 2219,
      "Ġvro": 2220,
      "ĠEagles": 2221,
      "ipper": 2222,
      "Ġrecto": 2223,
      "cap": 2224,
      "ĠBrentford": 2225,
      "Ġsaa": 2226,
      "Ġsilhouette": 2227,
      "ToSort": 2228,
      "ĠsetPenis": 2229,
      "ĠTaft": 2230,
      "idis": 2231,
      "ClrBit": 2232,
      "duration": 2233,
      "Ġcount": 2234,
      "erso": 2235,
      "uptools": 2236,
      "poons": 2237,
      "hadap": 2238,
      "Framework": 2239,
      "TaskPojo": 2240,
      "ĠDDS": 2241,
      "ĠBeg": 2242,
      "ATCH": 2243,
      "fate": 2244,
      "fera": 2245,
      "quiao": 2246,
      "Counters": 2247,
      "Ġeinst": 2248,
      "zna": 2249,
      "Ġcollis": 2250,
      "affa": 2251,
      "enee": 2252,
      "Ġll": 2253,
      "inoza": 2254,
      "PMG": 2255,
      "ĠKPMG": 2256,
      "SessionFactory": 2257,
      "Ġrealizaron": 2258,
      "ĠPrand": 2259,
      "enumerate": 2260,
      "tv": 2261,
      "tvrt": 2262,
      "ĠNSTX": 2263,
      "rpt": 2264,
      "odyne": 2265,
      "ĠPackard": 2266,
      "odial": 2267,
      "ĠBlaine": 2268,
      "ĠVenez": 2269,
      "hiba": 2270,
      "Ġkriv": 2271,
      "urow": 2272,
      "IGI": 2273,
      "ArrivalTime": 2274,
      "renia": 2275,
      "ĠKott": 2276,
      "thisTrack": 2277,
      "WaitGroup": 2278,
      "hurst": 2279,
      "onha": 2280,
      "countery": 2281,
      "itiveness": 2282,
      "NewLabel": 2283,
      "ayside": 2284,
      "Ġpyrid": 2285,
      "volv": 2286,
      "Ġvlad": 2287,
      "UIS": 2288,
      "ĠNode": 2289,
      "kowej": 2290,
      "Ġsuur": 2291,
      "Ġxpath": 2292,
      "ompat": 2293,
      "amant": 2294,
      "ĠBein": 2295,
      "idan": 2296,
      "ĠParth": 2297,
      "niego": 2298,
      "Ġwirkt": 2299,
      "KEY": 2300,
      "ĠGow": 2301,
      "zawa": 2302,
      "nikom": 2303,
      "Ġbis": 2304,
      "ĠhandleError": 2305,
      "urium": 2306,
      "ocompat": 2307,
      "ces": 2308,
      "ermo": 2309,
      "Ġobscur": 2310,
      "ulty": 2311,
      "owneri": 2312,
      "ving": 2313,
      "Coord": 2314,
      "ĠKrz": 2315,
      "ĠKrzysz": 2316,
      "alis": 2317,
      "ĠEAC": 2318,
      "ĠBertha": 2319,
      "ĠWin": 2320,
      "wadi": 2321,
      "ytt": 2322,
      "iferation": 2323,
      "ĠWinifred": 2324,
      "alth": 2325,
      "bingham": 2326,
      "binghamton": 2327,
      "ĠMcIntosh": 2328,
      "elevationMap": 2329,
      "Ġimput": 2330,
      "roved": 2331,
      "ibald": 2332,
      "ScrollPane": 2333,
      "MiddleCenter": 2334,
      "bant": 2335,
      "ĠMat": 2336,
      "ĠBxd": 2337,
      "ĠDMC": 2338,
      "ĠAsw": 2339,
      "Ġkaroti": 2340,
      "agic": 2341,
      "Ġhitbox": 2342,
      "pared": 2343,
      "amma": 2344,
      "TempVal": 2345,
      "ĠDore": 2346,
      "die": 2347,
      "sWith": 2348,
      "adic": 2349,
      "Ġgrinding": 2350,
      "ĠgradioApp": 2351,
      "ĠRockland": 2352,
      "aturen": 2353,
      "Ġshattering": 2354,
      "Ġerr": 2355,
      "angular": 2356,
      "Ġnatth": 2357,
      "Ġnatthi": 2358,
      "Ġpharet": 2359,
      "Ġpharetra": 2360,
      "ĠTuring": 2361,
      "oldown": 2362,
      "Ġmord": 2363,
      "itriangular": 2364,
      "Ġlakukan": 2365,
      "orian": 2366,
      "Ġpiac": 2367,
      "ĠGareth": 2368,
      "coherent": 2369,
      "Ġimasmim": 2370,
      "eball": 2371,
      "ĠCer": 2372,
      "jones": 2373,
      "atos": 2374,
      "Ġsand": 2375,
      "Ġhiki": 2376,
      "ĠGott": 2377,
      "Ġdigests": 2378,
      "irmer": 2379,
      "ĠGottfried": 2380,
      "Ġmayam": 2381,
      "egd": 2382,
      "Ġstriated": 2383,
      "ĠPackers": 2384,
      "ĠUIS": 2385,
      "ĠLUMP": 2386,
      "oxide": 2387,
      "steacher": 2388,
      "ilg": 2389,
      "ĠFederico": 2390,
      "erkel": 2391,
      "resultSet": 2392,
      "aib": 2393,
      "electors": 2394,
      "ĠuseNewUrlParser": 2395,
      "UISelectors": 2396,
      "oszt": 2397,
      "Ġreto": 2398,
      "ĠPugh": 2399,
      "UCKY": 2400,
      "tains": 2401,
      "ixel": 2402,
      "infi": 2403,
      "Ġainfi": 2404,
      "ĠIGP": 2405,
      "agal": 2406,
      "aitan": 2407,
      "ermodel": 2408,
      "Ġcat": 2409,
      "ĠHazrat": 2410,
      "Ġyattha": 2411,
      "Ġvattati": 2412,
      "Ġangla": 2413,
      "ĠcStart": 2414,
      "Ġexcitatory": 2415,
      "xssf": 2416,
      "nais": 2417,
      "pengaruhi": 2418,
      "inne": 2419,
      "guo": 2420,
      "Ġsearch": 2421,
      "zyg": 2422,
      "prd": 2423,
      "ĠPapad": 2424,
      "ĠLichtenfels": 2425,
      "Ġclock": 2426,
      "ĠEmilia": 2427,
      "ĠChalm": 2428,
      "ĠChalmers": 2429,
      "Ġsawing": 2430,
      "ĠRUTAREL": 2431,
      "ĠSalman": 2432,
      "ĠBMC": 2433,
      "ĠValer": 2434,
      "Ġrufo": 2435,
      "ĠValeria": 2436,
      "Catholic": 2437,
      "ĠWiesbaden": 2438,
      "niejs": 2439,
      "usermodel": 2440,
      "ĠcursorPos": 2441,
      "student": 2442,
      "Extra": 2443,
      "nad": 2444,
      "ĠBhan": 2445,
      "webElementXpaths": 2446,
      "Ġjednym": 2447,
      "Ġedn": 2448,
      "munder": 2449,
      "Ġbho": 2450,
      "ĠAyat": 2451,
      "onResume": 2452,
      "ewell": 2453,
      "GetAll": 2454,
      "ĠPublicKey": 2455,
      "ansen": 2456,
      "specified": 2457,
      "ĠgetSchema": 2458,
      "specifiedByURL": 2459,
      "SBP": 2460,
      "ĠKach": 2461,
      "vertical": 2462,
      "ĠGriffith": 2463,
      "imos": 2464,
      "ĠConstance": 2465,
      "Ġgang": 2466,
      "aliya": 2467,
      "ĠLah": 2468,
      "rophenyl": 2469,
      "chets": 2470,
      "ahir": 2471,
      "pics": 2472,
      "ĠBarangay": 2473,
      "wallepics": 2474,
      "unca": 2475,
      "waarden": 2476,
      "Tr": 2477,
      "bn": 2478,
      "ĠErnst": 2479,
      "reck": 2480,
      "Ġsaddhim": 2481,
      "Ġwatt": 2482,
      "ĠKabir": 2483,
      "ĠIrving": 2484,
      "OnOff": 2485,
      "bangan": 2486,
      "ĠPSC": 2487,
      "Ġrow": 2488,
      "ĠreqParams": 2489,
      "umbria": 2490,
      "orzyst": 2491,
      "Ġpretext": 2492,
      "wich": 2493,
      "Ġultricies": 2494,
      "Datas": 2495,
      "Ġsaffron": 2496,
      "ĠGuilford": 2497,
      "aginaw": 2498,
      "PCR": 2499,
      "ĠqPCR": 2500,
      "Ġpresence": 2501,
      "ĠpresenceData": 2502,
      "ĠER": 2503,
      "ĠHawthorne": 2504,
      "durationType": 2505,
      "ĠUpton": 2506,
      "ĠBadRequest": 2507,
      "VSLU": 2508,
      "Ġvoc": 2509,
      "otential": 2510,
      "iknya": 2511,
      "startsWith": 2512,
      "ĠMatilda": 2513,
      "Outlet": 2514,
      "ĠCAF": 2515,
      "Ġcamphor": 2516,
      "olores": 2517,
      "vasena": 2518,
      "Ġalkal": 2519,
      "Ġoutsole": 2520,
      "ĠVal": 2521,
      "ĠBlackpool": 2522,
      "ĠDolores": 2523,
      "Ġauthor": 2524,
      "ETTE": 2525,
      "Ġwy": 2526,
      "ĠSarg": 2527,
      "ĠAngelina": 2528,
      "Ġvoor": 2529,
      "ynton": 2530,
      "ĠBoynton": 2531,
      "ĠModInt": 2532,
      "acelet": 2533,
      "jec": 2534,
      "Ġfro": 2535,
      "ĠMontague": 2536,
      "Ġsequester": 2537,
      "StatusCommand": 2538,
      "oce": 2539,
      "ĠUN": 2540,
      "ĠSchiller": 2541,
      "dtype": 2542,
      "Ġeut": 2543,
      "Look": 2544,
      "WGM": 2545,
      "ĠUWGM": 2546,
      "xl": 2547,
      "unet": 2548,
      "ĠGraeme": 2549,
      "ĠVuttab": 2550,
      "ReLU": 2551,
      "ANEOUS": 2552,
      "ĠQxd": 2553,
      "Ġinformally": 2554,
      "ĠFont": 2555,
      "Ġpuj": 2556,
      "AutoScaleMode": 2557,
      "ului": 2558,
      "Ġvuccati": 2559,
      "oxyphenyl": 2560,
      "ferences": 2561,
      "xf": 2562,
      "ĠWalt": 2563,
      "ĠBruges": 2564,
      "Ġtiros": 2565,
      "ĠYel": 2566,
      "Ġreliefs": 2567,
      "Iter": 2568,
      "ĠSarkar": 2569,
      "ĠSovere": 2570,
      "encement": 2571,
      "earance": 2572,
      "ĠKaitlyn": 2573,
      "multiSelectList": 2574,
      "SPORT": 2575,
      "ĠGrimm": 2576,
      "Bonnie": 2577,
      "ĠMIP": 2578,
      "Ġungroup": 2579,
      "otta": 2580,
      "subtree": 2581,
      "ĠMonteiro": 2582,
      "ogenetic": 2583,
      "wes": 2584,
      "arine": 2585,
      "Ġtrident": 2586,
      "Performed": 2587,
      "ĠElmer": 2588,
      "Side": 2589,
      "arikat": 2590,
      "Ġlint": 2591,
      "Ġantennis": 2592,
      "ĠChristians": 2593,
      "ĠDBI": 2594,
      "ikat": 2595,
      "orderby": 2596,
      "ĠJacinto": 2597,
      "LetterIndex": 2598,
      "Ġriti": 2599,
      "CUIT": 2600,
      "studentRecord": 2601,
      "Ġjav": 2602,
      "Ġmanipul": 2603,
      "ugio": 2604,
      "ĠScient": 2605,
      "chaft": 2606,
      "uhan": 2607,
      "LookAnd": 2608,
      "Selected": 2609,
      "ucible": 2610,
      "ĠTPM": 2611,
      "Ġsolenoid": 2612,
      "Ġbead": 2613,
      "ĠPeter": 2614,
      "ĠPeterborough": 2615,
      "ĠNTP": 2616,
      "resTmp": 2617,
      "ConnectionType": 2618,
      "ĠMMS": 2619,
      "ĠNMC": 2620,
      "iune": 2621,
      "uvad": 2622,
      "quel": 2623,
      "LED": 2624,
      "Ġnucleation": 2625,
      "lobin": 2626,
      "hne": 2627,
      "Ġgodzin": 2628,
      "ĠLal": 2629,
      "ĠEsther": 2630,
      "ĠSSR": 2631,
      "kyt": 2632,
      "otropin": 2633,
      "xb": 2634,
      "Ġquart": 2635,
      "Approved": 2636,
      "enroll": 2637,
      "Ġaltercation": 2638,
      "Ġcamb": 2639,
      "Heinz": 2640,
      "sadpoetry": 2641,
      "irls": 2642,
      "ĠBadger": 2643,
      "epat": 2644,
      "ĠHiram": 2645,
      "TRR": 2646,
      "ĠRao": 2647,
      "Ġoverc": 2648,
      "niejsze": 2649,
      "oLocation": 2650,
      "ListName": 2651,
      "wo": 2652,
      "ĠWeil": 2653,
      "jaer": 2654,
      "Ġlibsql": 2655,
      "Instrument": 2656,
      "ĠAmber": 2657,
      "afen": 2658,
      "ĠCumbria": 2659,
      "boro": 2660,
      "DSA": 2661,
      "ĠRancho": 2662,
      "ĠfindPlayer": 2663,
      "UAGE": 2664,
      "ĠKie": 2665,
      "okine": 2666,
      "netje": 2667,
      "agasc": 2668,
      "agascar": 2669,
      "ndes": 2670,
      "ĠEMA": 2671,
      "herita": 2672,
      "storage": 2673,
      "aviti": 2674,
      "storageModule": 2675,
      "ĠImran": 2676,
      "rive": 2677,
      "ĠstrListName": 2678,
      "InstrumentedTest": 2679,
      "Ġheadway": 2680,
      "Ġdenom": 2681,
      "ĠGloria": 2682,
      "irim": 2683,
      "BlockFit": 2684,
      "ĠKaufman": 2685,
      "xas": 2686,
      "fieldText": 2687,
      "ĠMargherita": 2688,
      "shiro": 2689,
      "ĠFAQ": 2690,
      "noopener": 2691,
      "ĠGLC": 2692,
      "cini": 2693,
      "Boundary": 2694,
      "Ġgee": 2695,
      "Ġherr": 2696,
      "dish": 2697,
      "ErrorBoundary": 2698,
      "ActionsCallback": 2699,
      "ĠAlina": 2700,
      "dbc": 2701,
      "Ġxxl": 2702,
      "ĠCPE": 2703,
      "getitem": 2704,
      "Ġbist": 2705,
      "Enemy": 2706,
      "addEnemy": 2707,
      "Ġhedge": 2708,
      "LeftSide": 2709,
      "Ġbitter": 2710,
      "LON": 2711,
      "acuse": 2712,
      "esa": 2713,
      "itm": 2714,
      "ĠCFS": 2715,
      "Ġgros": 2716,
      "ekin": 2717,
      "framework": 2718,
      "Ġtup": 2719,
      "ĠnewApproved": 2720,
      "Ġgrosseur": 2721,
      "atio": 2722,
      "Ġuda": 2723,
      "Ġbistouri": 2724,
      "ĠChas": 2725,
      "adisu": 2726,
      "ildir": 2727,
      "ĠDerry": 2728,
      "Ġleto": 2729,
      "ayama": 2730,
      "FURNIZOR": 2731,
      "pit": 2732,
      "ĠMST": 2733,
      "ĠMarne": 2734,
      "<UNK>": 2735
    },
    "old_vocab": {
      "!": 0,
      "\"": 1,
      "#": 2,
      "$": 3,
      "%": 4,
      "&": 5,
      "'": 6,
      "(": 7,
      ")": 8,
      "*": 9,
      "+": 10,
      ",": 11,
      "-": 12,
      ".": 13,
      "/": 14,
      "0": 15,
      "1": 16,
      "2": 17,
      "3": 18,
      "4": 19,
      "5": 20,
      "6": 21,
      "7": 22,
      "8": 23,
      "9": 24,
      ":": 25,
      ";": 26,
      "<": 27,
      "=": 28,
      ">": 29,
      "?": 30,
      "@": 31,
      "A": 32,
      "B": 33,
      "C": 34,
      "D": 35,
      "E": 36,
      "F": 37,
      "G": 38,
      "H": 39,
      "I": 40,
      "J": 41,
      "K": 42,
      "L": 43,
      "M": 44,
      "N": 45,
      "O": 46,
      "P": 47,
      "Q": 48,
      "R": 49,
      "S": 50,
      "T": 51,
      "U": 52,
      "V": 53,
      "W": 54,
      "X": 55,
      "Y": 56,
      "Z": 57,
      "[": 58,
      "\\": 59,
      "]": 60,
      "^": 61,
      "_": 62,
      "`": 63,
      "a": 64,
      "b": 65,
      "c": 66,
      "d": 67,
      "e": 68,
      "f": 69,
      "g": 70,
      "h": 71,
      "i": 72,
      "j": 73,
      "k": 74,
      "l": 75,
      "m": 76,
      "n": 77,
      "o": 78,
      "p": 79,
      "q": 80,
      "r": 81,
      "s": 82,
      "t": 83,
      "u": 84,
      "v": 85,
      "w": 86,
      "x": 87,
      "y": 88,
      "z": 89,
      "{": 90,
      "|": 91,
      "}": 92,
      "~": 93,
      "¡": 94,
      "¢": 95,
      "£": 96,
      "¤": 97,
      "¥": 98,
      "¦": 99,
      "§": 100,
      "¨": 101,
      "©": 102,
      "ª": 103,
      "«": 104,
      "¬": 105,
      "®": 106,
      "¯": 107,
      "°": 108,
      "±": 109,
      "²": 110,
      "³": 111,
      "´": 112,
      "µ": 113,
      "¶": 114,
      "·": 115,
      "¸": 116,
      "¹": 117,
      "º": 118,
      "»": 119,
      "¼": 120,
      "½": 121,
      "¾": 122,
      "¿": 123,
      "À": 124,
      "Á": 125,
      "Â": 126,
      "Ã": 127,
      "Ä": 128,
      "Å": 129,
      "Æ": 130,
      "Ç": 131,
      "È": 132,
      "É": 133,
      "Ê": 134,
      "Ë": 135,
      "Ì": 136,
      "Í": 137,
      "Î": 138,
      "Ï": 139,
      "Ð": 140,
      "Ñ": 141,
      "Ò": 142,
      "Ó": 143,
      "Ô": 144,
      "Õ": 145,
      "Ö": 146,
      "×": 147,
      "Ø": 148,
      "Ù": 149,
      "Ú": 150,
      "Û": 151,
      "Ü": 152,
      "Ý": 153,
      "Þ": 154,
      "ß": 155,
      "à": 156,
      "á": 157,
      "â": 158,
      "ã": 159,
      "ä": 160,
      "å": 161,
      "æ": 162,
      "ç": 163,
      "è": 164,
      "é": 165,
      "ê": 166,
      "ë": 167,
      "ì": 168,
      "í": 169,
      "î": 170,
      "ï": 171,
      "ð": 172,
      "ñ": 173,
      "ò": 174,
      "ó": 175,
      "ô": 176,
      "õ": 177,
      "ö": 178,
      "÷": 179,
      "ø": 180,
      "ù": 181,
      "ú": 182,
      "û": 183,
      "ü": 184,
      "ý": 185,
      "þ": 186,
      "ÿ": 187,
      "Ā": 188,
      "ā": 189,
      "Ă": 190,
      "ă": 191,
      "Ą": 192,
      "ą": 193,
      "Ć": 194,
      "ć": 195,
      "Ĉ": 196,
      "ĉ": 197,
      "Ċ": 198,
      "ċ": 199,
      "Č": 200,
      "č": 201,
      "Ď": 202,
      "ď": 203,
      "Đ": 204,
      "đ": 205,
      "Ē": 206,
      "ē": 207,
      "Ĕ": 208,
      "ĕ": 209,
      "Ė": 210,
      "ė": 211,
      "Ę": 212,
      "ę": 213,
      "Ě": 214,
      "ě": 215,
      "Ĝ": 216,
      "ĝ": 217,
      "Ğ": 218,
      "ğ": 219,
      "Ġ": 220,
      "ġ": 221,
      "Ģ": 222,
      "ģ": 223,
      "Ĥ": 224,
      "ĥ": 225,
      "Ħ": 226,
      "ħ": 227,
      "Ĩ": 228,
      "ĩ": 229,
      "Ī": 230,
      "ī": 231,
      "Ĭ": 232,
      "ĭ": 233,
      "Į": 234,
      "į": 235,
      "İ": 236,
      "ı": 237,
      "Ĳ": 238,
      "ĳ": 239,
      "Ĵ": 240,
      "ĵ": 241,
      "Ķ": 242,
      "ķ": 243,
      "ĸ": 244,
      "Ĺ": 245,
      "ĺ": 246,
      "Ļ": 247,
      "ļ": 248,
      "Ľ": 249,
      "ľ": 250,
      "Ŀ": 251,
      "ŀ": 252,
      "Ł": 253,
      "ł": 254,
      "Ń": 255,
      "er": 256,
      "an": 257,
      "in": 258,
      "en": 259,
      "on": 260,
      "ar": 261,
      "at": 262,
      "es": 263,
      "al": 264,
      "or": 265,
      "et": 266,
      "it": 267,
      "st": 268,
      "le": 269,
      "ic": 270,
      "el": 271,
      "ed": 272,
      "ch": 273,
      "am": 274,
      "ro": 275,
      "is": 276,
      "re": 277,
      "ad": 278,
      "Ġs": 279,
      "Ġp": 280,
      "un": 281,
      "il": 282,
      "ĠS": 283,
      "as": 284,
      "ing": 285,
      "ut": 286,
      "ĠC": 287,
      "ent": 288,
      "ol": 289,
      "ur": 290,
      "ĠM": 291,
      "us": 292,
      "ĠB": 293,
      "ra": 294,
      "ion": 295,
      "Ġc": 296,
      "id": 297,
      "Ġd": 298,
      "ĠP": 299,
      "ul": 300,
      "im": 301,
      "Ġt": 302,
      "Ġm": 303,
      "om": 304,
      "ĠA": 305,
      "ac": 306,
      "ag": 307,
      "em": 308,
      "ab": 309,
      "ĠD": 310,
      "os": 311,
      "ot": 312,
      "um": 313,
      "ig": 314,
      "ct": 315,
      "od": 316,
      "Ġb": 317,
      "ri": 318,
      "ĠT": 319,
      "ĠG": 320,
      "ĠR": 321,
      "ĠH": 322,
      "ap": 323,
      "ie": 324,
      "ak": 325,
      "oc": 326,
      "ir": 327,
      "ĠN": 328,
      "est": 329,
      "ĠL": 330,
      "ay": 331,
      "ow": 332,
      "Ġf": 333,
      "ĠE": 334,
      "Ġg": 335,
      "ex": 336,
      "op": 337,
      "Ġv": 338,
      "Ġh": 339,
      "and": 340,
      "th": 341,
      "ia": 342,
      "ĠK": 343,
      "ce": 344,
      "qu": 345,
      "Ġn": 346,
      "iv": 347,
      "ĠF": 348,
      "ate": 349,
      "av": 350,
      "ers": 351,
      "ĠW": 352,
      "ang": 353,
      "ation": 354,
      "og": 355,
      "Ġl": 356,
      "ant": 357,
      "In": 358,
      "ik": 359,
      "ov": 360,
      "ah": 361,
      "ec": 362,
      "eg": 363,
      "Ġk": 364,
      "ist": 365,
      "end": 366,
      "ub": 367,
      "ud": 368,
      "ter": 369,
      "ff": 370,
      "ine": 371,
      "ont": 372,
      "St": 373,
      "ob": 374,
      "ib": 375,
      "Ġr": 376,
      "up": 377,
      "ip": 378,
      "ton": 379,
      "ess": 380,
      "ath": 381,
      "iz": 382,
      "ian": 383,
      "ey": 384,
      "ell": 385,
      "ug": 386,
      "ect": 387,
      "ĠV": 388,
      "ĠI": 389,
      "ind": 390,
      "ard": 391,
      "ly": 392,
      "ert": 393,
      "ast": 394,
      "ĠJ": 395,
      "pe": 396,
      "ord": 397,
      "ph": 398,
      "ok": 399,
      "get": 400,
      "ill": 401,
      "Ġw": 402,
      "pt": 403,
      "art": 404,
      "ue": 405,
      "Ġre": 406,
      "uc": 407,
      "ne": 408,
      "ht": 409,
      "yl": 410,
      "age": 411,
      "Ġin": 412,
      "ĠU": 413,
      "ĠO": 414,
      "if": 415,
      "eb": 416,
      "te": 417,
      "ass": 418,
      "io": 419,
      "se": 420,
      "au": 421,
      "ung": 422,
      "all": 423,
      "ev": 424,
      "und": 425,
      "ek": 426,
      "ef": 427,
      "ep": 428,
      "ox": 429,
      "able": 430,
      "ile": 431,
      "ens": 432,
      "uk": 433,
      "aw": 434,
      "Ġst": 435,
      "Ġj": 436,
      "ext": 437,
      "ata": 438,
      "erm": 439,
      "ack": 440,
      "he": 441,
      "ult": 442,
      "out": 443,
      "ĠCh": 444,
      "set": 445,
      "int": 446,
      "ity": 447,
      "az": 448,
      "ew": 449,
      "ial": 450,
      "pl": 451,
      "ach": 452,
      "our": 453,
      "ies": 454,
      "ym": 455,
      "rop": 456,
      "ran": 457,
      "ou": 458,
      "sk": 459,
      "aj": 460,
      "ort": 461,
      "Ġch": 462,
      "ick": 463,
      "ame": 464,
      "ock": 465,
      "Ġa": 466,
      "ry": 467,
      "ann": 468,
      "Ġun": 469,
      "ost": 470,
      "ai": 471,
      "cl": 472,
      "Ġcon": 473,
      "sh": 474,
      "son": 475,
      "ĠMc": 476,
      "att": 477,
      "ive": 478,
      "pr": 479,
      "ust": 480,
      "ject": 481,
      "ment": 482,
      "iew": 483,
      "her": 484,
      "iel": 485,
      "yn": 486,
      "ll": 487,
      "ous": 488,
      "per": 489,
      "ele": 490,
      "ya": 491,
      "ier": 492,
      "ode": 493,
      "ype": 494,
      "ain": 495,
      "add": 496,
      "unt": 497,
      "erv": 498,
      "are": 499,
      "put": 500,
      "to": 501,
      "na": 502,
      "ich": 503,
      "ij": 504,
      "ish": 505,
      "ER": 506,
      "ong": 507,
      "eng": 508,
      "ite": 509,
      "lo": 510,
      "ax": 511,
      "ign": 512,
      "ond": 513,
      "Cont": 514,
      "sp": 515,
      "ring": 516,
      "pp": 517,
      "ber": 518,
      "ane": 519,
      "ull": 520,
      "ati": 521,
      "ore": 522,
      "ice": 523,
      "Val": 524,
      "ez": 525,
      "Ar": 526,
      "ire": 527,
      "ure": 528,
      "Ch": 529,
      "Ob": 530,
      "rom": 531,
      "ary": 532,
      "ild": 533,
      "ide": 534,
      "omp": 535,
      "To": 536,
      "man": 537,
      "ron": 538,
      "ash": 539,
      "ated": 540,
      "ST": 541,
      "oh": 542,
      "ru": 543,
      "ft": 544,
      "res": 545,
      "ime": 546,
      "ink": 547,
      "ett": 548,
      "Ġz": 549,
      "sc": 550,
      "ĠSh": 551,
      "iss": 552,
      "ight": 553,
      "nd": 554,
      "ana": 555,
      "err": 556,
      "ield": 557,
      "Ġpro": 558,
      "ark": 559,
      "enc": 560,
      "Object": 561,
      "Type": 562,
      "ge": 563,
      "ith": 564,
      "Con": 565,
      "ern": 566,
      "ize": 567,
      "Ġsp": 568,
      "eth": 569,
      "ere": 570,
      "own": 571,
      "ID": 572,
      "les": 573,
      "eh": 574,
      "Par": 575,
      "iy": 576,
      "tr": 577,
      "Cl": 578,
      "Ġe": 579,
      "orm": 580,
      "itt": 581,
      "ins": 582,
      "ene": 583,
      "View": 584,
      "ray": 585,
      "OR": 586,
      "Value": 587,
      "erc": 588,
      "oll": 589,
      "ley": 590,
      "oy": 591,
      "ON": 592,
      "ham": 593,
      "Ġle": 594,
      "Ġpr": 595,
      "ors": 596,
      "ale": 597,
      "AR": 598,
      "Res": 599,
      "ons": 600,
      "ma": 601,
      "co": 602,
      "EN": 603,
      "ium": 604,
      "UR": 605,
      "rr": 606,
      "Ġim": 607,
      "List": 608,
      "ka": 609,
      "IC": 610,
      "oj": 611,
      "ace": 612,
      "ient": 613,
      "Ex": 614,
      "ho": 615,
      "ss": 616,
      "ical": 617,
      "row": 618,
      "ction": 619,
      "tt": 620,
      "ina": 621,
      "ĠY": 622,
      "IN": 623,
      "Ġth": 624,
      "Path": 625,
      "old": 626,
      "ver": 627,
      "we": 628,
      "AN": 629,
      "ĠAr": 630,
      "act": 631,
      "ence": 632,
      "Pro": 633,
      "olor": 634,
      "ys": 635,
      "que": 636,
      "rit": 637,
      "SC": 638,
      "utton": 639,
      "ase": 640,
      "enn": 641,
      "ato": 642,
      "no": 643,
      "arg": 644,
      "ler": 645,
      "ram": 646,
      "Err": 647,
      "ĠSt": 648,
      "cept": 649,
      "ead": 650,
      "ni": 651,
      "one": 652,
      "ĠZ": 653,
      "atch": 654,
      "Ġqu": 655,
      "Ġex": 656,
      "Ġab": 657,
      "ald": 658,
      "Ġsc": 659,
      "ck": 660,
      "ole": 661,
      "tem": 662,
      "CC": 663,
      "Id": 664,
      "ood": 665,
      "ush": 666,
      "omm": 667,
      "sch": 668,
      "LE": 669,
      "Ġpl": 670,
      "Name": 671,
      "ans": 672,
      "ĠQ": 673,
      "Error": 674,
      "ee": 675,
      "oz": 676,
      "rent": 677,
      "bo": 678,
      "ric": 679,
      "ser": 680,
      "ance": 681,
      "of": 682,
      "ix": 683,
      "erg": 684,
      "ail": 685,
      "Data": 686,
      "Im": 687,
      "ari": 688,
      "Ġdis": 689,
      "ank": 690,
      "AL": 691,
      "app": 692,
      "Ġad": 693,
      "arl": 694,
      "CT": 695,
      "Sc": 696,
      "yd": 697,
      "anc": 698,
      "ado": 699,
      "ini": 700,
      "AT": 701,
      "Key": 702,
      "Ġal": 703,
      "uf": 704,
      "amp": 705,
      "Ġsub": 706,
      "yt": 707,
      "Comp": 708,
      "rid": 709,
      "uff": 710,
      "ĠSch": 711,
      "led": 712,
      "Serv": 713,
      "ĠAl": 714,
      "Button": 715,
      "ement": 716,
      "emb": 717,
      "SE": 718,
      "ret": 719,
      "ani": 720,
      "ait": 721,
      "Text": 722,
      "sl": 723,
      "ĠIn": 724,
      "af": 725,
      "orn": 726,
      "rav": 727,
      "arr": 728,
      "gen": 729,
      "AM": 730,
      "ator": 731,
      "fo": 732,
      "Ġy": 733,
      "equ": 734,
      "hen": 735,
      "ais": 736,
      "land": 737,
      "amb": 738,
      "SP": 739,
      "ings": 740,
      "val": 741,
      "IT": 742,
      "Size": 743,
      "yp": 744,
      "ear": 745,
      "eter": 746,
      "Array": 747,
      "String": 748,
      "ada": 749,
      "ford": 750,
      "air": 751,
      "RE": 752,
      "inn": 753,
      "iti": 754,
      "Item": 755,
      "ien": 756,
      "ions": 757,
      "esh": 758,
      "Co": 759,
      "SA": 760,
      "ren": 761,
      "Param": 762,
      "By": 763,
      "Of": 764,
      "ugh": 765,
      "ade": 766,
      "ott": 767,
      "Ġget": 768,
      "con": 769,
      "Ġsh": 770,
      "RP": 771,
      "kan": 772,
      "eck": 773,
      "inc": 774,
      "ein": 775,
      "cc": 776,
      "uj": 777,
      "utt": 778,
      "BS": 779,
      "ict": 780,
      "era": 781,
      "ica": 782,
      "over": 783,
      "Context": 784,
      "CS": 785,
      "ĠBl": 786,
      "ng": 787,
      "uss": 788,
      "yc": 789,
      "eat": 790,
      "vent": 791,
      "Ġpar": 792,
      "nt": 793,
      "ps": 794,
      "ory": 795,
      "rib": 796,
      "unc": 797,
      "ara": 798,
      "umb": 799,
      "oth": 800,
      "ke": 801,
      "Int": 802,
      "ics": 803,
      "onent": 804,
      "uth": 805,
      "urrent": 806,
      "arm": 807,
      "urs": 808,
      "ql": 809,
      "ena": 810,
      "uch": 811,
      "ger": 812,
      "lement": 813,
      "Pl": 814,
      "yst": 815,
      "ego": 816,
      "Field": 817,
      "Ġan": 818,
      "Ġen": 819,
      "Image": 820,
      "iro": 821,
      "ora": 822,
      "isc": 823,
      "osit": 824,
      "File": 825,
      "AC": 826,
      "ute": 827,
      "PS": 828,
      "ira": 829,
      "App": 830,
      "reate": 831,
      "reen": 832,
      "ih": 833,
      "roup": 834,
      "ama": 835,
      "Ġac": 836,
      "ze": 837,
      "ĠGu": 838,
      "ager": 839,
      "use": 840,
      "ater": 841,
      "CP": 842,
      "va": 843,
      "ala": 844,
      "Ġdes": 845,
      "str": 846,
      "Mod": 847,
      "Ġsl": 848,
      "ve": 849,
      "uto": 850,
      "umber": 851,
      "fl": 852,
      "Ġar": 853,
      "off": 854,
      "Ġap": 855,
      "Get": 856,
      "che": 857,
      "DA": 858,
      "uy": 859,
      "Ġset": 860,
      "ism": 861,
      "den": 862,
      "atth": 863,
      "ery": 864,
      "ĠX": 865,
      "Ġrec": 866,
      "Time": 867,
      "als": 868,
      "me": 869,
      "equest": 870,
      "Man": 871,
      "kh": 872,
      "roll": 873,
      "ress": 874,
      "IA": 875,
      "ise": 876,
      "State": 877,
      "par": 878,
      "ament": 879,
      "Ġper": 880,
      "dex": 881,
      "IS": 882,
      "po": 883,
      "ner": 884,
      "ille": 885,
      "urn": 886,
      "PC": 887,
      "itz": 888,
      "arc": 889,
      "uz": 890,
      "ates": 891,
      "Ġro": 892,
      "ular": 893,
      "orr": 894,
      "ech": 895,
      "let": 896,
      "ius": 897,
      "rad": 898,
      "order": 899,
      "ave": 900,
      "alt": 901,
      "raw": 902,
      "anj": 903,
      "ha": 904,
      "Color": 905,
      "fe": 906,
      "Sh": 907,
      "ets": 908,
      "arb": 909,
      "orb": 910,
      "du": 911,
      "Code": 912,
      "IL": 913,
      "iff": 914,
      "oph": 915,
      "ref": 916,
      "rev": 917,
      "ose": 918,
      "Index": 919,
      "lock": 920,
      "uv": 921,
      "Char": 922,
      "ource": 923,
      "DP": 924,
      "Fl": 925,
      "ES": 926,
      "ili": 927,
      "UT": 928,
      "rist": 929,
      "Ġres": 930,
      "Ġis": 931,
      "uh": 932,
      "gl": 933,
      "bar": 934,
      "pi": 935,
      "ml": 936,
      "iter": 937,
      "Component": 938,
      "MS": 939,
      "ks": 940,
      "kt": 941,
      "ied": 942,
      "ians": 943,
      "ruct": 944,
      "ych": 945,
      "ayout": 946,
      "ree": 947,
      "IP": 948,
      "Request": 949,
      "uan": 950,
      "ld": 951,
      "Ġmen": 952,
      "yr": 953,
      "ĠTh": 954,
      "ington": 955,
      "rack": 956,
      "CH": 957,
      "ii": 958,
      "omb": 959,
      "och": 960,
      "elect": 961,
      "sub": 962,
      "Out": 963,
      "rag": 964,
      "eme": 965,
      "ux": 966,
      "Set": 967,
      "All": 968,
      "ĠAm": 969,
      "ete": 970,
      "SI": 971,
      "rim": 972,
      "Call": 973,
      "MA": 974,
      "cz": 975,
      "CA": 976,
      "fig": 977,
      "ano": 978,
      "ae": 979,
      "abb": 980,
      "ao": 981,
      "rol": 982,
      "form": 983,
      "sw": 984,
      "Ġcont": 985,
      "ely": 986,
      "En": 987,
      "Event": 988,
      "Ref": 989,
      "ĠSc": 990,
      "Group": 991,
      "TR": 992,
      "ays": 993,
      "rans": 994,
      "go": 995,
      "ake": 996,
      "za": 997,
      "asc": 998,
      "ET": 999,
      "erd": 1000,
      "oxy": 1001,
      "Ġjed": 1002,
      "Box": 1003,
      "Ġod": 1004,
      "Action": 1005,
      "oid": 1006,
      "back": 1007,
      "yle": 1008,
      "Ġam": 1009,
      "red": 1010,
      "ros": 1011,
      "ĠLe": 1012,
      "riv": 1013,
      "ese": 1014,
      "oa": 1015,
      "ots": 1016,
      "la": 1017,
      "ork": 1018,
      "oo": 1019,
      "line": 1020,
      "Ġret": 1021,
      "Ġund": 1022,
      "aff": 1023,
      "Result": 1024,
      "UN": 1025,
      "atur": 1026,
      "Sp": 1027,
      "rt": 1028,
      "ĠCon": 1029,
      "ered": 1030,
      "Ġind": 1031,
      "indow": 1032,
      "ception": 1033,
      "Prop": 1034,
      "endo": 1035,
      "Input": 1036,
      "Manager": 1037,
      "Ġcom": 1038,
      "ĠBar": 1039,
      "Up": 1040,
      "MP": 1041,
      "Ġob": 1042,
      "rec": 1043,
      "Exception": 1044,
      "Ġant": 1045,
      "Service": 1046,
      "men": 1047,
      "ling": 1048,
      "ĠAd": 1049,
      "ump": 1050,
      "Count": 1051,
      "AG": 1052,
      "ester": 1053,
      "shire": 1054,
      "ĠEd": 1055,
      "unter": 1056,
      "uild": 1057,
      "ej": 1058,
      "Ad": 1059,
      "aya": 1060,
      "anam": 1061,
      "ios": 1062,
      "rl": 1063,
      "ĠEm": 1064,
      "Class": 1065,
      "els": 1066,
      "Ġimp": 1067,
      "ten": 1068,
      "ocal": 1069,
      "PA": 1070,
      "mer": 1071,
      "eut": 1072,
      "ower": 1073,
      "ats": 1074,
      "Layout": 1075,
      "Table": 1076,
      "ask": 1077,
      "ener": 1078,
      "uit": 1079,
      "ĠRe": 1080,
      "ars": 1081,
      "bur": 1082,
      "ĠAn": 1083,
      "TS": 1084,
      "For": 1085,
      "ocation": 1086,
      "amil": 1087,
      "Ġem": 1088,
      "idd": 1089,
      "my": 1090,
      "ione": 1091,
      "oss": 1092,
      "iqu": 1093,
      "As": 1094,
      "uck": 1095,
      "port": 1096,
      "elle": 1097,
      "ized": 1098,
      "ucle": 1099,
      "ange": 1100,
      "ule": 1101,
      "nik": 1102,
      "SM": 1103,
      "ound": 1104,
      "Ġtr": 1105,
      "ogg": 1106,
      "atic": 1107,
      "ual": 1108,
      "ility": 1109,
      "raph": 1110,
      "org": 1111,
      "ract": 1112,
      "Element": 1113,
      "ouse": 1114,
      "ette": 1115,
      "ED": 1116,
      "last": 1117,
      "pro": 1118,
      "With": 1119,
      "las": 1120,
      "Info": 1121,
      "Config": 1122,
      "DR": 1123,
      "pon": 1124,
      "ayer": 1125,
      "User": 1126,
      "anel": 1127,
      "AD": 1128,
      "lad": 1129,
      "AP": 1130,
      "Api": 1131,
      "berg": 1132,
      "iej": 1133,
      "Ġco": 1134,
      "Ġov": 1135,
      "Ġel": 1136,
      "BC": 1137,
      "Ġph": 1138,
      "ui": 1139,
      "ĠEl": 1140,
      "edi": 1141,
      "idth": 1142,
      "ino": 1143,
      "SS": 1144,
      "be": 1145,
      "icht": 1146,
      "ĠBr": 1147,
      "eader": 1148,
      "reg": 1149,
      "oto": 1150,
      "olic": 1151,
      "hi": 1152,
      "Al": 1153,
      "ome": 1154,
      "IM": 1155,
      "bit": 1156,
      "br": 1157,
      "Is": 1158,
      "unk": 1159,
      "map": 1160,
      "load": 1161,
      "cent": 1162,
      "Ġfl": 1163,
      "inal": 1164,
      "ral": 1165,
      "aut": 1166,
      "Window": 1167,
      "web": 1168,
      "iet": 1169,
      "lect": 1170,
      "CO": 1171,
      "ough": 1172,
      "EC": 1173,
      "ura": 1174,
      "ating": 1175,
      "Ġinc": 1176,
      "Ġent": 1177,
      "Ġon": 1178,
      "Ġx": 1179,
      "Ġed": 1180,
      "Ġsk": 1181,
      "wood": 1182,
      "path": 1183,
      "any": 1184,
      "SRP": 1185,
      "tn": 1186,
      "ali": 1187,
      "Ġang": 1188,
      "ior": 1189,
      "cht": 1190,
      "ski": 1191,
      "abel": 1192,
      "new": 1193,
      "IV": 1194,
      "DK": 1195,
      "Model": 1196,
      "erk": 1197,
      "Ġop": 1198,
      "ĠSal": 1199,
      "arn": 1200,
      "Test": 1201,
      "da": 1202,
      "anti": 1203,
      "PM": 1204,
      "eep": 1205,
      "uid": 1206,
      "rv": 1207,
      "ional": 1208,
      "rab": 1209,
      "Ġgr": 1210,
      "arch": 1211,
      "ENT": 1212,
      "aan": 1213,
      "ider": 1214,
      "Ġmult": 1215,
      "field": 1216,
      "ript": 1217,
      "board": 1218,
      "Ġuse": 1219,
      "aur": 1220,
      "Ph": 1221,
      "Log": 1222,
      "ulf": 1223,
      "fer": 1224,
      "ection": 1225,
      "iment": 1226,
      "Params": 1227,
      "ts": 1228,
      "ima": 1229,
      "BA": 1230,
      "oad": 1231,
      "ega": 1232,
      "ris": 1233,
      "MC": 1234,
      "udd": 1235,
      "lic": 1236,
      "ĠSp": 1237,
      "GF": 1238,
      "igh": 1239,
      "Ġint": 1240,
      "item": 1241,
      "etail": 1242,
      "erty": 1243,
      "US": 1244,
      "oke": 1245,
      "UM": 1246,
      "cal": 1247,
      "Node": 1248,
      "ible": 1249,
      "Ġdi": 1250,
      "Ġcl": 1251,
      "key": 1252,
      "ĠWil": 1253,
      "Panel": 1254,
      "enu": 1255,
      "ations": 1256,
      "olog": 1257,
      "anth": 1258,
      "OA": 1259,
      "ody": 1260,
      "ync": 1261,
      "by": 1262,
      "Ġout": 1263,
      "acter": 1264,
      "Stat": 1265,
      "kow": 1266,
      "HT": 1267,
      "leg": 1268,
      "At": 1269,
      "Map": 1270,
      "PT": 1271,
      "MD": 1272,
      "akan": 1273,
      "Ġra": 1274,
      "vert": 1275,
      "Bar": 1276,
      "sed": 1277,
      "ores": 1278,
      "emp": 1279,
      "Col": 1280,
      "bra": 1281,
      "oken": 1282,
      "je": 1283,
      "Ġbl": 1284,
      "for": 1285,
      "ĠSw": 1286,
      "ĠCl": 1287,
      "adi": 1288,
      "ĠCo": 1289,
      "CM": 1290,
      "hat": 1291,
      "iem": 1292,
      "Number": 1293,
      "ched": 1294,
      "ita": 1295,
      "mo": 1296,
      "Ġau": 1297,
      "Un": 1298,
      "icul": 1299,
      "Ġol": 1300,
      "date": 1301,
      "Start": 1302,
      "eron": 1303,
      "zy": 1304,
      "aud": 1305,
      "ny": 1306,
      "ethod": 1307,
      "ĠMcC": 1308,
      "atri": 1309,
      "CI": 1310,
      "Ġconv": 1311,
      "Or": 1312,
      "aro": 1313,
      "iri": 1314,
      "Ġmax": 1315,
      "Ġpost": 1316,
      "ils": 1317,
      "Content": 1318,
      "TE": 1319,
      "lin": 1320,
      "aa": 1321,
      "Const": 1322,
      "ercent": 1323,
      "Em": 1324,
      "IB": 1325,
      "onic": 1326,
      "ĠBur": 1327,
      "ument": 1328,
      "ponse": 1329,
      "Width": 1330,
      "ĠBh": 1331,
      "omer": 1332,
      "Ġult": 1333,
      "zt": 1334,
      "rich": 1335,
      "alk": 1336,
      "net": 1337,
      "ook": 1338,
      "aus": 1339,
      "Arg": 1340,
      "ua": 1341,
      "CE": 1342,
      "Block": 1343,
      "Date": 1344,
      "SR": 1345,
      "ms": 1346,
      "eer": 1347,
      "ido": 1348,
      "amente": 1349,
      "Ġtrans": 1350,
      "ero": 1351,
      "ona": 1352,
      "On": 1353,
      "etri": 1354,
      "Line": 1355,
      "hr": 1356,
      "Header": 1357,
      "FA": 1358,
      "ender": 1359,
      "Ġas": 1360,
      "OM": 1361,
      "Star": 1362,
      "ommand": 1363,
      "het": 1364,
      "jsk": 1365,
      "Auto": 1366,
      "Ġinter": 1367,
      "lor": 1368,
      "ĠPal": 1369,
      "its": 1370,
      "ois": 1371,
      "AS": 1372,
      "IR": 1373,
      "win": 1374,
      "Ġvol": 1375,
      "Ġer": 1376,
      "Off": 1377,
      "ative": 1378,
      "read": 1379,
      "Server": 1380,
      "imp": 1381,
      "EL": 1382,
      "Ġpot": 1383,
      "DC": 1384,
      "ialog": 1385,
      "ethyl": 1386,
      "stra": 1387,
      "IF": 1388,
      "essage": 1389,
      "Mode": 1390,
      "Output": 1391,
      "js": 1392,
      "UI": 1393,
      "osh": 1394,
      "de": 1395,
      "db": 1396,
      "utter": 1397,
      "aster": 1398,
      "CL": 1399,
      "Ġsw": 1400,
      "urt": 1401,
      "orth": 1402,
      "xc": 1403,
      "rob": 1404,
      "An": 1405,
      "Menu": 1406,
      "itor": 1407,
      "less": 1408,
      "iles": 1409,
      "aks": 1410,
      "ipp": 1411,
      "Mut": 1412,
      "Ġdec": 1413,
      "acch": 1414,
      "Ġto": 1415,
      "LO": 1416,
      "li": 1417,
      "round": 1418,
      "Ġadd": 1419,
      "ouch": 1420,
      "thor": 1421,
      "erson": 1422,
      "aki": 1423,
      "DB": 1424,
      "Pop": 1425,
      "Ġep": 1426,
      "Ġber": 1427,
      "lex": 1428,
      "Ġtest": 1429,
      "ven": 1430,
      "pen": 1431,
      "lar": 1432,
      "Ġjedn": 1433,
      "uffer": 1434,
      "ocus": 1435,
      "Ġbh": 1436,
      "der": 1437,
      "ycl": 1438,
      "ition": 1439,
      "orph": 1440,
      "icz": 1441,
      "MB": 1442,
      "box": 1443,
      "asi": 1444,
      "esp": 1445,
      "Go": 1446,
      "illa": 1447,
      "Ġsal": 1448,
      "ency": 1449,
      "atan": 1450,
      "ols": 1451,
      "ength": 1452,
      "vi": 1453,
      "Ġdef": 1454,
      "raz": 1455,
      "TA": 1456,
      "PE": 1457,
      "ami": 1458,
      "Ġag": 1459,
      "roph": 1460,
      "zo": 1461,
      "PR": 1462,
      "Url": 1463,
      "arth": 1464,
      "ING": 1465,
      "min": 1466,
      "KA": 1467,
      "edia": 1468,
      "eight": 1469,
      "TC": 1470,
      "ious": 1471,
      "aire": 1472,
      "udent": 1473,
      "ola": 1474,
      "met": 1475,
      "ities": 1476,
      "com": 1477,
      "aul": 1478,
      "Conn": 1479,
      "Nav": 1480,
      "bl": 1481,
      "ĠWh": 1482,
      "econd": 1483,
      "amera": 1484,
      "ault": 1485,
      "Av": 1486,
      "cess": 1487,
      "ymb": 1488,
      "ĠQu": 1489,
      "input": 1490,
      "Dialog": 1491,
      "Ġsm": 1492,
      "Ġsch": 1493,
      "ĠPr": 1494,
      "ĠMah": 1495,
      "Control": 1496,
      "ĠAg": 1497,
      "plic": 1498,
      "SO": 1499,
      "eli": 1500,
      "rey": 1501,
      "ĠDor": 1502,
      "ML": 1503,
      "eld": 1504,
      "well": 1505,
      "rain": 1506,
      "rap": 1507,
      "ca": 1508,
      "Ġrem": 1509,
      "ĠMcG": 1510,
      "Ġoc": 1511,
      "Qu": 1512,
      "amm": 1513,
      "IG": 1514,
      "rum": 1515,
      "Ġpal": 1516,
      "oot": 1517,
      "find": 1518,
      "ebug": 1519,
      "Bit": 1520,
      "ĠCB": 1521,
      "Ġrep": 1522,
      "Ġcurrent": 1523,
      "wa": 1524,
      "ĠKn": 1525,
      "ically": 1526,
      "ias": 1527,
      "onn": 1528,
      "Ġmil": 1529,
      "Resource": 1530,
      "uro": 1531,
      "ope": 1532,
      "raft": 1533,
      "Ġpre": 1534,
      "Response": 1535,
      "Init": 1536,
      "lu": 1537,
      "alle": 1538,
      "nya": 1539,
      "Ġapp": 1540,
      "New": 1541,
      "oi": 1542,
      "ability": 1543,
      "awa": 1544,
      "Ġnew": 1545,
      "ĠEr": 1546,
      "ĠWood": 1547,
      "ove": 1548,
      "Ġdel": 1549,
      "ukan": 1550,
      "FBS": 1551,
      "Buffer": 1552,
      "andle": 1553,
      "anz": 1554,
      "user": 1555,
      "Def": 1556,
      "eral": 1557,
      "ropri": 1558,
      "FBSDK": 1559,
      "Inter": 1560,
      "atis": 1561,
      "ream": 1562,
      "itri": 1563,
      "arget": 1564,
      "uer": 1565,
      "ava": 1566,
      "Focus": 1567,
      "van": 1568,
      "Ġsup": 1569,
      "angan": 1570,
      "Var": 1571,
      "aka": 1572,
      "ji": 1573,
      "Oper": 1574,
      "stein": 1575,
      "ĠApp": 1576,
      "ateg": 1577,
      "vis": 1578,
      "ĠBx": 1579,
      "ift": 1580,
      "imm": 1581,
      "OP": 1582,
      "Change": 1583,
      "SD": 1584,
      "Ġup": 1585,
      "ras": 1586,
      "anh": 1587,
      "apt": 1588,
      "oun": 1589,
      "Select": 1590,
      "ante": 1591,
      "Ġcreate": 1592,
      "rz": 1593,
      "cp": 1594,
      "pring": 1595,
      "acy": 1596,
      "ĠWar": 1597,
      "ever": 1598,
      "Ġmeng": 1599,
      "ĠCor": 1600,
      "ĠPh": 1601,
      "ization": 1602,
      "Ġter": 1603,
      "not": 1604,
      "ific": 1605,
      "ĠBro": 1606,
      "ector": 1607,
      "Client": 1608,
      "akt": 1609,
      "iki": 1610,
      "ila": 1611,
      "ste": 1612,
      "Ġleg": 1613,
      "Rec": 1614,
      "Page": 1615,
      "Message": 1616,
      "from": 1617,
      "AF": 1618,
      "type": 1619,
      "Ġgl": 1620,
      "ĠMan": 1621,
      "DI": 1622,
      "akkh": 1623,
      "Ġo": 1624,
      "aga": 1625,
      "Property": 1626,
      "ĠQx": 1627,
      "data": 1628,
      "Down": 1629,
      "current": 1630,
      "nal": 1631,
      "send": 1632,
      "oul": 1633,
      "TP": 1634,
      "do": 1635,
      "Ġact": 1636,
      "erence": 1637,
      "ges": 1638,
      "Ġinf": 1639,
      "vol": 1640,
      "IO": 1641,
      "alf": 1642,
      "eger": 1643,
      "igg": 1644,
      "cont": 1645,
      "ben": 1646,
      "End": 1647,
      "ster": 1648,
      "ION": 1649,
      "anyl": 1650,
      "isT": 1651,
      "erman": 1652,
      "eda": 1653,
      "ean": 1654,
      "CB": 1655,
      "ula": 1656,
      "AY": 1657,
      "uct": 1658,
      "open": 1659,
      "oma": 1660,
      "Detail": 1661,
      "ander": 1662,
      "gar": 1663,
      "Sw": 1664,
      "stit": 1665,
      "ibus": 1666,
      "ĠBe": 1667,
      "Cell": 1668,
      "aft": 1669,
      "ĠAt": 1670,
      "atha": 1671,
      "Sub": 1672,
      "kin": 1673,
      "ypes": 1674,
      "ersion": 1675,
      "DE": 1676,
      "itch": 1677,
      "cad": 1678,
      "ertex": 1679,
      "andler": 1680,
      "elly": 1681,
      "itth": 1682,
      "ages": 1683,
      "And": 1684,
      "RG": 1685,
      "ko": 1686,
      "arks": 1687,
      "oles": 1688,
      "CD": 1689,
      "tot": 1690,
      "ignment": 1691,
      "Ġev": 1692,
      "rat": 1693,
      "ww": 1694,
      "EM": 1695,
      "ĠVill": 1696,
      "down": 1697,
      "Ġcor": 1698,
      "rin": 1699,
      "ney": 1700,
      "ged": 1701,
      "yan": 1702,
      "ced": 1703,
      "MR": 1704,
      "uel": 1705,
      "ants": 1706,
      "Ġir": 1707,
      "ĠMar": 1708,
      "Ġpor": 1709,
      "sm": 1710,
      "Location": 1711,
      "ĠEn": 1712,
      "inch": 1713,
      "imb": 1714,
      "Web": 1715,
      "start": 1716,
      "older": 1717,
      "Main": 1718,
      "ando": 1719,
      "ico": 1720,
      "Att": 1721,
      "inate": 1722,
      "Ġman": 1723,
      "Ġhem": 1724,
      "Ġpat": 1725,
      "imento": 1726,
      "oder": 1727,
      "odes": 1728,
      "asm": 1729,
      "Null": 1730,
      "Ġend": 1731,
      "PP": 1732,
      "Back": 1733,
      "ues": 1734,
      "ĠAb": 1735,
      "roc": 1736,
      "yte": 1737,
      "ken": 1738,
      "TT": 1739,
      "ttp": 1740,
      "Buf": 1741,
      "nam": 1742,
      "patch": 1743,
      "Link": 1744,
      "oint": 1745,
      "ĠRock": 1746,
      "Dis": 1747,
      "ices": 1748,
      "Spr": 1749,
      "ye": 1750,
      "Ġav": 1751,
      "acc": 1752,
      "Status": 1753,
      "ĠSm": 1754,
      "ova": 1755,
      "Form": 1756,
      "ved": 1757,
      "GC": 1758,
      "icks": 1759,
      "Json": 1760,
      "LU": 1761,
      "Card": 1762,
      "enz": 1763,
      "HP": 1764,
      "ja": 1765,
      "Ġexp": 1766,
      "ĠMcK": 1767,
      "Ġmon": 1768,
      "riff": 1769,
      "ĠMon": 1770,
      "Height": 1771,
      "auc": 1772,
      "uen": 1773,
      "rip": 1774,
      "yth": 1775,
      "fs": 1776,
      "Pref": 1777,
      "earch": 1778,
      "ĠRo": 1779,
      "MN": 1780,
      "Posit": 1781,
      "qual": 1782,
      "Debug": 1783,
      "Rect": 1784,
      "rac": 1785,
      "Ed": 1786,
      "umer": 1787,
      "ĠMcD": 1788,
      "var": 1789,
      "mm": 1790,
      "Ġpay": 1791,
      "ather": 1792,
      "irt": 1793,
      "Ġkn": 1794,
      "stance": 1795,
      "Ġrel": 1796,
      "oft": 1797,
      "Ġne": 1798,
      "Ġip": 1799,
      "ally": 1800,
      "Row": 1801,
      "ella": 1802,
      "ente": 1803,
      "sb": 1804,
      "rif": 1805,
      "mp": 1806,
      "iev": 1807,
      "Ġur": 1808,
      "aps": 1809,
      "name": 1810,
      "etry": 1811,
      "text": 1812,
      "Build": 1813,
      "ĠMad": 1814,
      "ahan": 1815,
      "Ġsol": 1816,
      "Ġut": 1817,
      "oin": 1818,
      "elt": 1819,
      "TL": 1820,
      "Exp": 1821,
      "play": 1822,
      "Ġadj": 1823,
      "Find": 1824,
      "ci": 1825,
      "Ġver": 1826,
      "eta": 1827,
      "omen": 1828,
      "Sync": 1829,
      "point": 1830,
      "ison": 1831,
      "ivity": 1832,
      "awn": 1833,
      "ĠCar": 1834,
      "pty": 1835,
      "adr": 1836,
      "yk": 1837,
      "pond": 1838,
      "lay": 1839,
      "igest": 1840,
      "HDR": 1841,
      "ĠVer": 1842,
      "Ġcons": 1843,
      "itter": 1844,
      "ination": 1845,
      "Open": 1846,
      "eni": 1847,
      "From": 1848,
      "usc": 1849,
      "ĠAng": 1850,
      "ĠRx": 1851,
      "unch": 1852,
      "urb": 1853,
      "aug": 1854,
      "lob": 1855,
      "ted": 1856,
      "inu": 1857,
      "han": 1858,
      "Length": 1859,
      "ĠNew": 1860,
      "eit": 1861,
      "ĠMont": 1862,
      "ader": 1863,
      "getB": 1864,
      "ushed": 1865,
      "Method": 1866,
      "utto": 1867,
      "odel": 1868,
      "UC": 1869,
      "RC": 1870,
      "print": 1871,
      "Dec": 1872,
      "anda": 1873,
      "file": 1874,
      "ape": 1875,
      "chen": 1876,
      "ĠFl": 1877,
      "lection": 1878,
      "agn": 1879,
      "Create": 1880,
      "init": 1881,
      "HA": 1882,
      "ctive": 1883,
      "Ġcur": 1884,
      "Ġes": 1885,
      "Query": 1886,
      "Cho": 1887,
      "idaz": 1888,
      "ĠRed": 1889,
      "Ġnot": 1890,
      "igned": 1891,
      "ville": 1892,
      "Num": 1893,
      "Auth": 1894,
      "ersh": 1895,
      "hou": 1896,
      "ustom": 1897,
      "Ġimm": 1898,
      "iya": 1899,
      "sel": 1900,
      "omot": 1901,
      "lem": 1902,
      "mat": 1903,
      "Student": 1904,
      "md": 1905,
      "Ġprz": 1906,
      "way": 1907,
      "ĠOr": 1908,
      "apter": 1909,
      "Update": 1910,
      "mann": 1911,
      "ĠPar": 1912,
      "ĠUn": 1913,
      "oard": 1914,
      "iver": 1915,
      "eto": 1916,
      "Ġemb": 1917,
      "Ġpart": 1918,
      "ei": 1919,
      "SX": 1920,
      "word": 1921,
      "gu": 1922,
      "raf": 1923,
      "ollow": 1924,
      "des": 1925,
      "xy": 1926,
      "riz": 1927,
      "UL": 1928,
      "room": 1929,
      "auf": 1930,
      "Per": 1931,
      "Ġover": 1932,
      "osa": 1933,
      "Ġoff": 1934,
      "GE": 1935,
      "mi": 1936,
      "LC": 1937,
      "del": 1938,
      "rea": 1939,
      "IST": 1940,
      "cop": 1941,
      "Game": 1942,
      "riter": 1943,
      "ines": 1944,
      "allow": 1945,
      "duct": 1946,
      "VC": 1947,
      "Ġfor": 1948,
      "ĠLor": 1949,
      "ful": 1950,
      "Label": 1951,
      "ĠMart": 1952,
      "roid": 1953,
      "ĠBel": 1954,
      "una": 1955,
      "olo": 1956,
      "Ġann": 1957,
      "eal": 1958,
      "Ġbil": 1959,
      "anch": 1960,
      "draw": 1961,
      "sa": 1962,
      "press": 1963,
      "Token": 1964,
      "ume": 1965,
      "irst": 1966,
      "Ġdem": 1967,
      "under": 1968,
      "ĠHar": 1969,
      "argin": 1970,
      "Asset": 1971,
      "Ġref": 1972,
      "ĠCol": 1973,
      "elles": 1974,
      "TH": 1975,
      "obj": 1976,
      "ellen": 1977,
      "vas": 1978,
      "ribute": 1979,
      "Not": 1980,
      "Sl": 1981,
      "Tool": 1982,
      "eks": 1983,
      "Ġneut": 1984,
      "vers": 1985,
      "DS": 1986,
      "atrix": 1987,
      "Style": 1988,
      "ĠSe": 1989,
      "Attribute": 1990,
      "hav": 1991,
      "counter": 1992,
      "Ġpol": 1993,
      "emia": 1994,
      "Ġspl": 1995,
      "ains": 1996,
      "ende": 1997,
      "unn": 1998,
      "gi": 1999,
      "ides": 2000,
      "color": 2001,
      "ba": 2002,
      "ĠFre": 2003,
      "embre": 2004,
      "Position": 2005,
      "ades": 2006,
      "Ġval": 2007,
      "ulfanyl": 2008,
      "Ġq": 2009,
      "space": 2010,
      "ared": 2011,
      "hel": 2012,
      "Builder": 2013,
      "sulfanyl": 2014,
      "Ġacc": 2015,
      "pie": 2016,
      "sal": 2017,
      "arat": 2018,
      "phen": 2019,
      "Full": 2020,
      "URN": 2021,
      "ense": 2022,
      "ĠEll": 2023,
      "ĠBlack": 2024,
      "len": 2025,
      "lov": 2026,
      "esthet": 2027,
      "Ġhum": 2028,
      "ives": 2029,
      "inst": 2030,
      "vel": 2031,
      "bu": 2032,
      "Cent": 2033,
      "Add": 2034,
      "esi": 2035,
      "perm": 2036,
      "Sprite": 2037,
      "Ġsn": 2038,
      "aat": 2039,
      "GR": 2040,
      "ijk": 2041,
      "onc": 2042,
      "api": 2043,
      "ourn": 2044,
      "ites": 2045,
      "Ġtri": 2046,
      "inding": 2047,
      "ungen": 2048,
      "ceed": 2049,
      "ote": 2050,
      "ents": 2051,
      "eton": 2052,
      "iego": 2053,
      "aires": 2054,
      "onne": 2055,
      "opp": 2056,
      "acute": 2057,
      "Ġfre": 2058,
      "irect": 2059,
      "Components": 2060,
      "ĠMor": 2061,
      "rone": 2062,
      "har": 2063,
      "angk": 2064,
      "Offset": 2065,
      "agen": 2066,
      "rog": 2067,
      "Ġtra": 2068,
      "itar": 2069,
      "enna": 2070,
      "cs": 2071,
      "Vertex": 2072,
      "view": 2073,
      "rie": 2074,
      "bb": 2075,
      "ĠWal": 2076,
      "war": 2077,
      "Now": 2078,
      "Ġcar": 2079,
      "bor": 2080,
      "link": 2081,
      "Th": 2082,
      "ugin": 2083,
      "OC": 2084,
      "prop": 2085,
      "sky": 2086,
      "sis": 2087,
      "aph": 2088,
      "ito": 2089,
      "EG": 2090,
      "test": 2091,
      "class": 2092,
      "Ġwh": 2093,
      "esto": 2094,
      "pton": 2095,
      "arsh": 2096,
      "eller": 2097,
      "itis": 2098,
      "ams": 2099,
      "SF": 2100,
      "Source": 2101,
      "Ġpres": 2102,
      "ucc": 2103,
      "iento": 2104,
      "eil": 2105,
      "iler": 2106,
      "ĠGal": 2107,
      "LP": 2108,
      "pos": 2109,
      "string": 2110,
      "isi": 2111,
      "ries": 2112,
      "ital": 2113,
      "sen": 2114,
      "oom": 2115,
      "ĠRaj": 2116,
      "ĠKe": 2117,
      "ĠMo": 2118,
      "ution": 2119,
      "Ġpret": 2120,
      "Port": 2121,
      "ohn": 2122,
      "ique": 2123,
      "Record": 2124,
      "uring": 2125,
      "Non": 2126,
      "rite": 2127,
      "CR": 2128,
      "ERN": 2129,
      "log": 2130,
      "hn": 2131,
      "Body": 2132,
      "Keys": 2133,
      "so": 2134,
      "Sett": 2135,
      "ĠRUT": 2136,
      "umn": 2137,
      "ranch": 2138,
      "Pos": 2139,
      "ĠUI": 2140,
      "ours": 2141,
      "ĠPol": 2142,
      "hab": 2143,
      "ĠHo": 2144,
      "Ġdist": 2145,
      "aker": 2146,
      "ilt": 2147,
      "Login": 2148,
      "akukan": 2149,
      "ideo": 2150,
      "emy": 2151,
      "El": 2152,
      "Video": 2153,
      "ueue": 2154,
      "inct": 2155,
      "Ġmy": 2156,
      "Marks": 2157,
      "review": 2158,
      "ymbol": 2159,
      "Ġpop": 2160,
      "lig": 2161,
      "eler": 2162,
      "ĠHe": 2163,
      "efont": 2164,
      "ĠGar": 2165,
      "eport": 2166,
      "elli": 2167,
      "Ġhab": 2168,
      "mond": 2169,
      "ocket": 2170,
      "Settings": 2171,
      "eft": 2172,
      "ĠEp": 2173,
      "ocalVar": 2174,
      "gg": 2175,
      "other": 2176,
      "TI": 2177,
      "Ġple": 2178,
      "bert": 2179,
      "page": 2180,
      "Sup": 2181,
      "yo": 2182,
      "atu": 2183,
      "etter": 2184,
      "ĠCav": 2185,
      "zn": 2186,
      "Script": 2187,
      "ahi": 2188,
      "annya": 2189,
      "Sal": 2190,
      "Did": 2191,
      "HL": 2192,
      "itle": 2193,
      "big": 2194,
      "ingen": 2195,
      "cher": 2196,
      "rel": 2197,
      "TO": 2198,
      "vo": 2199,
      "ĠCro": 2200,
      "uda": 2201,
      "Ġsur": 2202,
      "Screen": 2203,
      "Player": 2204,
      "Temp": 2205,
      "Ġmel": 2206,
      "ĠCont": 2207,
      "Rad": 2208,
      "FS": 2209,
      "ves": 2210,
      "Counter": 2211,
      "lich": 2212,
      "eston": 2213,
      "eva": 2214,
      "Types": 2215,
      "HS": 2216,
      "Show": 2217,
      "Ġvatt": 2218,
      "ĠIr": 2219,
      "Sql": 2220,
      "OU": 2221,
      "zin": 2222,
      "rvGroup": 2223,
      "ista": 2224,
      "MT": 2225,
      "Ġcyt": 2226,
      "ĠRh": 2227,
      "Queue": 2228,
      "Load": 2229,
      "ilde": 2230,
      "upt": 2231,
      "Ġaus": 2232,
      "count": 2233,
      "Para": 2234,
      "ĠHor": 2235,
      "right": 2236,
      "Ġcomp": 2237,
      "imi": 2238,
      "ude": 2239,
      "tils": 2240,
      "Items": 2241,
      "BE": 2242,
      "reens": 2243,
      "Dict": 2244,
      "ĠSom": 2245,
      "hd": 2246,
      "ashi": 2247,
      "Parameter": 2248,
      "lish": 2249,
      "Parser": 2250,
      "dl": 2251,
      "Ġstat": 2252,
      "ists": 2253,
      "yg": 2254,
      "RS": 2255,
      "ehyd": 2256,
      "illy": 2257,
      "nc": 2258,
      "ocument": 2259,
      "Compat": 2260,
      "yll": 2261,
      "htt": 2262,
      "vider": 2263,
      "Ġbr": 2264,
      "Ġconc": 2265,
      "ece": 2266,
      "omy": 2267,
      "Com": 2268,
      "Ġhot": 2269,
      "getC": 2270,
      "ystem": 2271,
      "aten": 2272,
      "osis": 2273,
      "rome": 2274,
      "gram": 2275,
      "iendo": 2276,
      "efore": 2277,
      "ones": 2278,
      "mouse": 2279,
      "ollis": 2280,
      "FT": 2281,
      "istic": 2282,
      "eed": 2283,
      "AB": 2284,
      "Ġins": 2285,
      "PL": 2286,
      "ki": 2287,
      "augh": 2288,
      "itte": 2289,
      "Ġtre": 2290,
      "atter": 2291,
      "Module": 2292,
      "ymph": 2293,
      "ĠGo": 2294,
      "Btn": 2295,
      "otrop": 2296,
      "ĠBerg": 2297,
      "ĠEst": 2298,
      "Ġele": 2299,
      "Bound": 2300,
      "FF": 2301,
      "create": 2302,
      "wick": 2303,
      "ika": 2304,
      "Wait": 2305,
      "Ġmin": 2306,
      "ĠPA": 2307,
      "Ġcontent": 2308,
      "URL": 2309,
      "irm": 2310,
      "ony": 2311,
      "ativ": 2312,
      "BL": 2313,
      "math": 2314,
      "aria": 2315,
      "une": 2316,
      "rine": 2317,
      "owan": 2318,
      "ĠPl": 2319,
      "aret": 2320,
      "Ġmast": 2321,
      "ici": 2322,
      "Plugin": 2323,
      "etta": 2324,
      "nej": 2325,
      "OL": 2326,
      "Ġpur": 2327,
      "imer": 2328,
      "icons": 2329,
      "BI": 2330,
      "ilit": 2331,
      "iley": 2332,
      "Ġmag": 2333,
      "ytes": 2334,
      "Ġenc": 2335,
      "iled": 2336,
      "hot": 2337,
      "AA": 2338,
      "hm": 2339,
      "ther": 2340,
      "GP": 2341,
      "ival": 2342,
      "ĠSte": 2343,
      "elet": 2344,
      "Ġconse": 2345,
      "obac": 2346,
      "aran": 2347,
      "Ġass": 2348,
      "SU": 2349,
      "ĠAy": 2350,
      "ache": 2351,
      "oen": 2352,
      "Struct": 2353,
      "allback": 2354,
      "andom": 2355,
      "ogen": 2356,
      "Ġcre": 2357,
      "Pk": 2358,
      "aint": 2359,
      "aler": 2360,
      "Operation": 2361,
      "Command": 2362,
      "Dev": 2363,
      "uml": 2364,
      "eek": 2365,
      "ĠAsh": 2366,
      "Ġtor": 2367,
      "zen": 2368,
      "bs": 2369,
      "Scroll": 2370,
      "atham": 2371,
      "uble": 2372,
      "iye": 2373,
      "bury": 2374,
      "Ġdham": 2375,
      "Ret": 2376,
      "Avg": 2377,
      "ited": 2378,
      "Sch": 2379,
      "ĠArch": 2380,
      "Ġpos": 2381,
      "Ġor": 2382,
      "imo": 2383,
      "osc": 2384,
      "Vis": 2385,
      "stock": 2386,
      "ayam": 2387,
      "Ġinv": 2388,
      "Font": 2389,
      "ample": 2390,
      "rou": 2391,
      "AE": 2392,
      "rug": 2393,
      "ether": 2394,
      "ĠPL": 2395,
      "eon": 2396,
      "Rout": 2397,
      "inf": 2398,
      "hal": 2399,
      "rown": 2400,
      "anja": 2401,
      "erto": 2402,
      "amo": 2403,
      "ulation": 2404,
      "Ġstr": 2405,
      "Ġpe": 2406,
      "mas": 2407,
      "roller": 2408,
      "tim": 2409,
      "opl": 2410,
      "Right": 2411,
      "ike": 2412,
      "tered": 2413,
      "Ġreg": 2414,
      "kit": 2415,
      "osph": 2416,
      "ristian": 2417,
      "rowser": 2418,
      "Ġvel": 2419,
      "ga": 2420,
      "ĠNag": 2421,
      "ogram": 2422,
      "ework": 2423,
      "Pack": 2424,
      "Top": 2425,
      "eco": 2426,
      "ogo": 2427,
      "ness": 2428,
      "olson": 2429,
      "vation": 2430,
      "ND": 2431,
      "Ptr": 2432,
      "ĠReg": 2433,
      "ĠRos": 2434,
      "outs": 2435,
      "Ġpers": 2436,
      "etch": 2437,
      "ono": 2438,
      "ados": 2439,
      "unsch": 2440,
      "GS": 2441,
      "asis": 2442,
      "CF": 2443,
      "Press": 2444,
      "face": 2445,
      "olicy": 2446,
      "nem": 2447,
      "Ġsil": 2448,
      "Task": 2449,
      "Ġduk": 2450,
      "lav": 2451,
      "oggle": 2452,
      "Ġmer": 2453,
      "ania": 2454,
      "ĠGir": 2455,
      "iol": 2456,
      "SXml": 2457,
      "Version": 2458,
      "ĠEM": 2459,
      "image": 2460,
      "assa": 2461,
      "umph": 2462,
      "czn": 2463,
      "oup": 2464,
      "Ġloc": 2465,
      "lj": 2466,
      "Search": 2467,
      "hes": 2468,
      "obb": 2469,
      "UID": 2470,
      "ĠMcInt": 2471,
      "Navig": 2472,
      "Http": 2473,
      "Equal": 2474,
      "Gl": 2475,
      "Ġsput": 2476,
      "Instance": 2477,
      "edit": 2478,
      "akes": 2479,
      "oji": 2480,
      "Character": 2481,
      "Ġinput": 2482,
      "Connection": 2483,
      "Unary": 2484,
      "olm": 2485,
      "illes": 2486,
      "lio": 2487,
      "Ġrect": 2488,
      "ilda": 2489,
      "Ġdo": 2490,
      "rame": 2491,
      "ĠDom": 2492,
      "atform": 2493,
      "angu": 2494,
      "asena": 2495,
      "ĠBer": 2496,
      "onucle": 2497,
      "Ġaf": 2498,
      "Props": 2499,
      "ĠEx": 2500,
      "aton": 2501,
      "Ġbul": 2502,
      "icker": 2503,
      "Ġext": 2504,
      "SON": 2505,
      "ĠMcL": 2506,
      "atas": 2507,
      "ART": 2508,
      "aron": 2509,
      "erred": 2510,
      "Ġing": 2511,
      "cre": 2512,
      "racket": 2513,
      "asal": 2514,
      "Pix": 2515,
      "uced": 2516,
      "getM": 2517,
      "Camera": 2518,
      "ology": 2519,
      "rew": 2520,
      "irl": 2521,
      "Ġparab": 2522,
      "Empty": 2523,
      "OW": 2524,
      "Ġsam": 2525,
      "ify": 2526,
      "screen": 2527,
      "Ġlle": 2528,
      "Mutability": 2529,
      "Ġsymbol": 2530,
      "head": 2531,
      "econds": 2532,
      "PD": 2533,
      "idden": 2534,
      "aliz": 2535,
      "idazole": 2536,
      "Ġmic": 2537,
      "Interface": 2538,
      "isTrack": 2539,
      "ador": 2540,
      "Ġgi": 2541,
      "ori": 2542,
      "ained": 2543,
      "alan": 2544,
      "rep": 2545,
      "arant": 2546,
      "cy": 2547,
      "ILL": 2548,
      "hy": 2549,
      "Ow": 2550,
      "apping": 2551,
      "ĠHay": 2552,
      "DL": 2553,
      "Fit": 2554,
      "ground": 2555,
      "Push": 2556,
      "azar": 2557,
      "Ġred": 2558,
      "rod": 2559,
      "ective": 2560,
      "Policy": 2561,
      "miss": 2562,
      "EP": 2563,
      "ury": 2564,
      "ikt": 2565,
      "Ġkar": 2566,
      "ĠLuc": 2567,
      "ials": 2568,
      "Target": 2569,
      "pm": 2570,
      "VCT": 2571,
      "Ġte": 2572,
      "ske": 2573,
      "lectic": 2574,
      "BP": 2575,
      "Ġfo": 2576,
      "Ġde": 2577,
      "ief": 2578,
      "ORT": 2579,
      "enden": 2580,
      "ĠCH": 2581,
      "osk": 2582,
      "nav": 2583,
      "FC": 2584,
      "raven": 2585,
      "Board": 2586,
      "eros": 2587,
      "Bl": 2588,
      "Callback": 2589,
      "bad": 2590,
      "RA": 2591,
      "oor": 2592,
      "Project": 2593,
      "iana": 2594,
      "vr": 2595,
      "Ġcol": 2596,
      "Handler": 2597,
      "rows": 2598,
      "ĠGi": 2599,
      "ister": 2600,
      "amily": 2601,
      "appe": 2602,
      "PO": 2603,
      "Device": 2604,
      "Sample": 2605,
      "ingham": 2606,
      "ĠSk": 2607,
      "race": 2608,
      "ytic": 2609,
      "inde": 2610,
      "ondo": 2611,
      "idin": 2612,
      "Ġpercent": 2613,
      "erno": 2614,
      "ardi": 2615,
      "char": 2616,
      "Ġviv": 2617,
      "Fact": 2618,
      "Flight": 2619,
      "arker": 2620,
      "eground": 2621,
      "esus": 2622,
      "ife": 2623,
      "Used": 2624,
      "Ġvutt": 2625,
      "ĠKx": 2626,
      "Ġmeg": 2627,
      "atiti": 2628,
      "ersch": 2629,
      "ĠBad": 2630,
      "code": 2631,
      "esse": 2632,
      "umann": 2633,
      "Ġbet": 2634,
      "Ġsu": 2635,
      "search": 2636,
      "oney": 2637,
      "ĠMax": 2638,
      "peat": 2639,
      "PI": 2640,
      "imple": 2641,
      "Ġmost": 2642,
      "ungs": 2643,
      "itone": 2644,
      "Ġferr": 2645,
      "Ġren": 2646,
      "Ġgel": 2647,
      "ilis": 2648,
      "wise": 2649,
      "ired": 2650,
      "pear": 2651,
      "inner": 2652,
      "Ġfamil": 2653,
      "ordan": 2654,
      "Ġdiss": 2655,
      "rift": 2656,
      "Ġknock": 2657,
      "rish": 2658,
      "Details": 2659,
      "ĠMaur": 2660,
      "ursor": 2661,
      "ushroom": 2662,
      "ergic": 2663,
      "ĠAll": 2664,
      "osi": 2665,
      "oon": 2666,
      "ĠGall": 2667,
      "eza": 2668,
      "Ġic": 2669,
      "outh": 2670,
      "Ġdata": 2671,
      "ĠBeat": 2672,
      "aze": 2673,
      "burg": 2674,
      "angle": 2675,
      "ahu": 2676,
      "aim": 2677,
      "anny": 2678,
      "DT": 2679,
      "zi": 2680,
      "ilm": 2681,
      "ĠRUTAR": 2682,
      "Save": 2683,
      "url": 2684,
      "ĠOb": 2685,
      "FR": 2686,
      "sid": 2687,
      "ahul": 2688,
      "ague": 2689,
      "rot": 2690,
      "ida": 2691,
      "Ġsubt": 2692,
      "urope": 2693,
      "roke": 2694,
      "lyn": 2695,
      "Ġphen": 2696,
      "tha": 2697,
      "ebra": 2698,
      "Bin": 2699,
      "eres": 2700,
      "stream": 2701,
      "OH": 2702,
      "Ġcle": 2703,
      "UD": 2704,
      "Ġbro": 2705,
      "ures": 2706,
      "ikan": 2707,
      "yatt": 2708,
      "stone": 2709,
      "Ext": 2710,
      "ĠBuk": 2711,
      "Provider": 2712,
      "Ġax": 2713,
      "Ġhead": 2714,
      "owell": 2715,
      "had": 2716,
      "ĠGh": 2717,
      "Wall": 2718,
      "ĠShe": 2719,
      "Adapter": 2720,
      "ĠBoy": 2721,
      "amine": 2722,
      "abbam": 2723,
      "Ġdign": 2724,
      "rust": 2725,
      "Args": 2726,
      "igo": 2727,
      "Ġposit": 2728,
      "amento": 2729,
      "ĠDal": 2730,
      "ĠAnd": 2731,
      "olver": 2732,
      "Des": 2733,
      "Ġmot": 2734,
      "ĠHumph": 2735,
      "tb": 2736,
      "mult": 2737,
      "Flag": 2738,
      "him": 2739,
      "odor": 2740,
      "rant": 2741,
      "ward": 2742,
      "uls": 2743,
      "NS": 2744,
      "Center": 2745,
      "iers": 2746,
      "arah": 2747,
      "Ġvert": 2748,
      "ĠCR": 2749,
      "sad": 2750,
      "ERC": 2751,
      "Ġhand": 2752,
      "Utils": 2753,
      "Ġprop": 2754,
      "Ġcr": 2755,
      "alam": 2756,
      "ffen": 2757,
      "EY": 2758,
      "raul": 2759,
      "Ġtot": 2760,
      "alar": 2761,
      "allel": 2762,
      "stant": 2763,
      "ational": 2764,
      "ĠMarg": 2765,
      "ranc": 2766,
      "urd": 2767,
      "aye": 2768,
      "umm": 2769,
      "VER": 2770,
      "ieg": 2771,
      "Ġmill": 2772,
      "ĠGr": 2773,
      "Controller": 2774,
      "Tab": 2775,
      "alm": 2776,
      "eno": 2777,
      "eless": 2778,
      "tol": 2779,
      "edd": 2780,
      "Ġabh": 2781,
      "ĠCorn": 2782,
      "Ġdil": 2783,
      "Str": 2784,
      "Ass": 2785,
      "ĠNorth": 2786,
      "ĠUt": 2787,
      "ello": 2788,
      "Ġkey": 2789,
      "Dto": 2790,
      "Ġexc": 2791,
      "por": 2792,
      "ĠNL": 2793,
      "uest": 2794,
      "Del": 2795,
      "Opt": 2796,
      "Ġten": 2797,
      "BT": 2798,
      "bre": 2799,
      "revi": 2800,
      "akespe": 2801,
      "wrap": 2802,
      "kar": 2803,
      "itrile": 2804,
      "Current": 2805,
      "Ġvucc": 2806,
      "aad": 2807,
      "ĠBa": 2808,
      "dk": 2809,
      "Ġat": 2810,
      "Ġkah": 2811,
      "Radius": 2812,
      "auer": 2813,
      "pop": 2814,
      "Ġmyc": 2815,
      "sche": 2816,
      "Ġprim": 2817,
      "ĠUIC": 2818,
      "inder": 2819,
      "Ġunder": 2820,
      "itting": 2821,
      "endez": 2822,
      "sy": 2823,
      "reet": 2824,
      "ryst": 2825,
      "fordshire": 2826,
      "VS": 2827,
      "anger": 2828,
      "trl": 2829,
      "esu": 2830,
      "idad": 2831,
      "ĠMull": 2832,
      "oster": 2833,
      "si": 2834,
      "ĠCan": 2835,
      "ily": 2836,
      "Beat": 2837,
      "ĠGreen": 2838,
      "Vector": 2839,
      "ches": 2840,
      "imation": 2841,
      "ommon": 2842,
      "sn": 2843,
      "iaz": 2844,
      "sec": 2845,
      "eder": 2846,
      "Ġven": 2847,
      "Ġsem": 2848,
      "house": 2849,
      "Dir": 2850,
      "Child": 2851,
      "aird": 2852,
      "Re": 2853,
      "atir": 2854,
      "Chang": 2855,
      "icate": 2856,
      "obil": 2857,
      "Popup": 2858,
      "andal": 2859,
      "eze": 2860,
      "struct": 2861,
      "ĠComp": 2862,
      "ĠTon": 2863,
      "Photo": 2864,
      "ĠStaff": 2865,
      "Stack": 2866,
      "ĠStr": 2867,
      "One": 2868,
      "Ġtub": 2869,
      "ences": 2870,
      "ging": 2871,
      "acht": 2872,
      "ĠWeb": 2873,
      "quier": 2874,
      "System": 2875,
      "nes": 2876,
      "drop": 2877,
      "fol": 2878,
      "ypt": 2879,
      "bum": 2880,
      "Byte": 2881,
      "alur": 2882,
      "ĠBarcl": 2883,
      "ĠSab": 2884,
      "ilib": 2885,
      "enie": 2886,
      "INT": 2887,
      "lia": 2888,
      "ĠAp": 2889,
      "ije": 2890,
      "Keyboard": 2891,
      "brevi": 2892,
      "Ġwarm": 2893,
      "ĠFerr": 2894,
      "Ġconf": 2895,
      "Ġest": 2896,
      "cor": 2897,
      "quam": 2898,
      "ayan": 2899,
      "ska": 2900,
      "ĠHer": 2901,
      "ulin": 2902,
      "Mov": 2903,
      "iros": 2904,
      "orum": 2905,
      "Route": 2906,
      "iyet": 2907,
      "has": 2908,
      "iller": 2909,
      "azi": 2910,
      "sql": 2911,
      "Ġet": 2912,
      "abs": 2913,
      "sman": 2914,
      "ME": 2915,
      "Aud": 2916,
      "Case": 2917,
      "eman": 2918,
      "ĠMain": 2919,
      "Ġbe": 2920,
      "uchi": 2921,
      "zym": 2922,
      "orrh": 2923,
      "ikum": 2924,
      "Ġfile": 2925,
      "jel": 2926,
      "ĠsubTest": 2927,
      "olds": 2928,
      "elf": 2929,
      "RAN": 2930,
      "ĠMa": 2931,
      "Ġrup": 2932,
      "ements": 2933,
      "Ġeg": 2934,
      "Percent": 2935,
      "lt": 2936,
      "QL": 2937,
      "uang": 2938,
      "Document": 2939,
      "Product": 2940,
      "ĠFair": 2941,
      "Ġatth": 2942,
      "ewer": 2943,
      "Ġodp": 2944,
      "Ġcin": 2945,
      "Ac": 2946,
      "Ġtem": 2947,
      "iner": 2948,
      "ators": 2949,
      "asp": 2950,
      "Ġmet": 2951,
      "Ġbo": 2952,
      "GA": 2953,
      "ĠHein": 2954,
      "ube": 2955,
      "ĠGer": 2956,
      "Ġmod": 2957,
      "ehen": 2958,
      "wen": 2959,
      "erre": 2960,
      "Ġaff": 2961,
      "kk": 2962,
      "arra": 2963,
      "ĠGro": 2964,
      "cd": 2965,
      "inh": 2966,
      "ĠLut": 2967,
      "aste": 2968,
      "aries": 2969,
      "ograph": 2970,
      "spl": 2971,
      "DF": 2972,
      "onda": 2973,
      "aris": 2974,
      "vach": 2975,
      "wt": 2976,
      "iper": 2977,
      "olt": 2978,
      "Pass": 2979,
      "ieht": 2980,
      "atin": 2981,
      "elo": 2982,
      "ĠCam": 2983,
      "aneu": 2984,
      "ramework": 2985,
      "ission": 2986,
      "ryl": 2987,
      "XY": 2988,
      "ĠAss": 2989,
      "We": 2990,
      "ĠRad": 2991,
      "rach": 2992,
      "ĠEng": 2993,
      "rik": 2994,
      "Navigator": 2995,
      "ĠHaw": 2996,
      "ruff": 2997,
      "webElement": 2998,
      "ermi": 2999,
      "Tree": 3000,
      "inden": 3001,
      "Ġdev": 3002,
      "unct": 3003,
      "stat": 3004,
      "Ġmit": 3005,
      "ofar": 3006,
      "iser": 3007,
      "arin": 3008,
      "ongo": 3009,
      "ĠSur": 3010,
      "igan": 3011,
      "yloxy": 3012,
      "col": 3013,
      "Area": 3014,
      "align": 3015,
      "lands": 3016,
      "sun": 3017,
      "ibb": 3018,
      "phal": 3019,
      "YPE": 3020,
      "romo": 3021,
      "iko": 3022,
      "Each": 3023,
      "Unit": 3024,
      "write": 3025,
      "Kind": 3026,
      "ĠMal": 3027,
      "Core": 3028,
      "If": 3029,
      "VP": 3030,
      "ĠUl": 3031,
      "adam": 3032,
      "Ab": 3033,
      "ĠPet": 3034,
      "ells": 3035,
      "ky": 3036,
      "feit": 3037,
      "Ġart": 3038,
      "def": 3039,
      "iph": 3040,
      "ool": 3041,
      "ĠBrit": 3042,
      "Cap": 3043,
      "Ġoct": 3044,
      "atts": 3045,
      "ela": 3046,
      "rex": 3047,
      "nown": 3048,
      "Ġand": 3049,
      "lis": 3050,
      "Ġid": 3051,
      "rypt": 3052,
      "olid": 3053,
      "hens": 3054,
      "ĠFA": 3055,
      "list": 3056,
      "Grid": 3057,
      "ucleaires": 3058,
      "UE": 3059,
      "umble": 3060,
      "LAG": 3061,
      "Ap": 3062,
      "agger": 3063,
      "etz": 3064,
      "ysz": 3065,
      "posit": 3066,
      "Preview": 3067,
      "greg": 3068,
      "Pane": 3069,
      "ĠSL": 3070,
      "owe": 3071,
      "ubs": 3072,
      "urk": 3073,
      "angs": 3074,
      "rote": 3075,
      "oku": 3076,
      "Ġauto": 3077,
      "ising": 3078,
      "Ġrealiz": 3079,
      "Drop": 3080,
      "Ġmar": 3081,
      "0x": 3082,
      "<0x": 3083,
      "Ġcond": 3084,
      "ĠWill": 3085,
      "etic": 3086,
      "RGB": 3087,
      "IK": 3088,
      "resh": 3089,
      "ĠGab": 3090,
      "iffer": 3091,
      "Ġther": 3092,
      "Rx": 3093,
      "RxDocument": 3094,
      "Ġatt": 3095,
      "rict": 3096,
      "comstock": 3097,
      "ĠSRP": 3098,
      "Asp": 3099,
      "icle": 3100,
      "ahl": 3101,
      "ekt": 3102,
      "Support": 3103,
      "chn": 3104,
      "agon": 3105,
      "Ġbre": 3106,
      "ĠYam": 3107,
      "kinson": 3108,
      "ĠMaj": 3109,
      "Ġnov": 3110,
      "phenyl": 3111,
      "Ġbeg": 3112,
      "ĠAug": 3113,
      "thorax": 3114,
      "igation": 3115,
      "Events": 3116,
      "rane": 3117,
      "ToProps": 3118,
      "iddle": 3119,
      "ĠBal": 3120,
      "anes": 3121,
      "ĠFitz": 3122,
      "erial": 3123,
      "illus": 3124,
      "Concept": 3125,
      "YY": 3126,
      "Ġtw": 3127,
      "Ġmand": 3128,
      "Graph": 3129,
      "ĠPad": 3130,
      "beat": 3131,
      "ATIV": 3132,
      "Perm": 3133,
      "ophor": 3134,
      "xx": 3135,
      "http": 3136,
      "rington": 3137,
      "follow": 3138,
      "ĠBern": 3139,
      "Ġrev": 3140,
      "agin": 3141,
      "uana": 3142,
      "Ġla": 3143,
      "illon": 3144,
      "Ġneg": 3145,
      "aved": 3146,
      "isms": 3147,
      "Ent": 3148,
      "Ġhalf": 3149,
      "cup": 3150,
      "Ġped": 3151,
      "expr": 3152,
      "Ġcele": 3153,
      "Ġgacch": 3154,
      "oe": 3155,
      "onom": 3156,
      "Ġfast": 3157,
      "Compl": 3158,
      "ermin": 3159,
      "ĠLiv": 3160,
      "hook": 3161,
      "Edit": 3162,
      "She": 3163,
      "Choice": 3164,
      "Ġju": 3165,
      "Root": 3166,
      "acet": 3167,
      "Ġport": 3168,
      "iot": 3169,
      "anche": 3170,
      "Trans": 3171,
      "ĠKais": 3172,
      "imiz": 3173,
      "Br": 3174,
      "GT": 3175,
      "XYZ": 3176,
      "Ġsob": 3177,
      "wan": 3178,
      "exec": 3179,
      "irth": 3180,
      "Matrix": 3181,
      "Dispatch": 3182,
      "ommod": 3183,
      "SL": 3184,
      "ently": 3185,
      "Shape": 3186,
      "cul": 3187,
      "ĠCyr": 3188,
      "iat": 3189,
      "arded": 3190,
      "etr": 3191,
      "onna": 3192,
      "yer": 3193,
      "ikut": 3194,
      "iert": 3195,
      "Ġbas": 3196,
      "idget": 3197,
      "ĠBog": 3198,
      "offset": 3199,
      "uge": 3200,
      "ympt": 3201,
      "Lua": 3202,
      "plot": 3203,
      "method": 3204,
      "egu": 3205,
      "corr": 3206,
      "BU": 3207,
      "Ġinst": 3208,
      "thol": 3209,
      "iary": 3210,
      "rek": 3211,
      "esz": 3212,
      "ctivity": 3213,
      "sie": 3214,
      "bib": 3215,
      "Ġtro": 3216,
      "II": 3217,
      "SH": 3218,
      "Ġwa": 3219,
      "ĠLak": 3220,
      "quare": 3221,
      "ried": 3222,
      "icles": 3223,
      "ĠPe": 3224,
      "anvas": 3225,
      "obe": 3226,
      "BR": 3227,
      "ateral": 3228,
      "ĠPro": 3229,
      "nego": 3230,
      "ĠEug": 3231,
      "adal": 3232,
      "Ġfe": 3233,
      "rig": 3234,
      "Base": 3235,
      "Column": 3236,
      "ydro": 3237,
      "unes": 3238,
      "sor": 3239,
      "erecht": 3240,
      "iran": 3241,
      "Ġall": 3242,
      "ĠDown": 3243,
      "apsed": 3244,
      "jal": 3245,
      "urity": 3246,
      "DM": 3247,
      "Factory": 3248,
      "Ġbase": 3249,
      "okat": 3250,
      "etto": 3251,
      "ĠDod": 3252,
      "Before": 3253,
      "IZ": 3254,
      "param": 3255,
      "Platform": 3256,
      "iber": 3257,
      "asus": 3258,
      "Ġdep": 3259,
      "ĠDh": 3260,
      "Ġyath": 3261,
      "iven": 3262,
      "ĠAugust": 3263,
      "itten": 3264,
      "Ġnaj": 3265,
      "itim": 3266,
      "Arch": 3267,
      "hatu": 3268,
      "imet": 3269,
      "yb": 3270,
      "anne": 3271,
      "then": 3272,
      "namefont": 3273,
      "Canvas": 3274,
      "udan": 3275,
      "mund": 3276,
      "evel": 3277,
      "opy": 3278,
      "mont": 3279,
      "ullam": 3280,
      "post": 3281,
      "rade": 3282,
      "CTOR": 3283,
      "Background": 3284,
      "Sort": 3285,
      "Ġphot": 3286,
      "Enc": 3287,
      "ĠOl": 3288,
      "Space": 3289,
      "ĠlocalVar": 3290,
      "ottom": 3291,
      "ĠViv": 3292,
      "ublic": 3293,
      "game": 3294,
      "ĠNP": 3295,
      "oja": 3296,
      "ARR": 3297,
      "Folder": 3298,
      "cest": 3299,
      "Texture": 3300,
      "dd": 3301,
      "organ": 3302,
      "ivo": 3303,
      "Level": 3304,
      "erme": 3305,
      "adis": 3306,
      "Ġdob": 3307,
      "Activity": 3308,
      "engu": 3309,
      "encent": 3310,
      "ASE": 3311,
      "ĠPel": 3312,
      "ungan": 3313,
      "arbox": 3314,
      "ELE": 3315,
      "ĠBo": 3316,
      "ipe": 3317,
      "ĠIN": 3318,
      "ĠKey": 3319,
      "ousse": 3320,
      "Scale": 3321,
      "ELEASE": 3322,
      "Ġitem": 3323,
      "rech": 3324,
      "eben": 3325,
      "SrvGroup": 3326,
      "rij": 3327,
      "Tmp": 3328,
      "ĠSpring": 3329,
      "Ġconsequ": 3330,
      "ential": 3331,
      "cel": 3332,
      "ple": 3333,
      "odh": 3334,
      "time": 3335,
      "ept": 3336,
      "Ġaliqu": 3337,
      "www": 3338,
      "wwwpond": 3339,
      "ento": 3340,
      "Ġlib": 3341,
      "Ġdrag": 3342,
      "andl": 3343,
      "ctx": 3344,
      "Post": 3345,
      "Ġmultic": 3346,
      "iam": 3347,
      "Match": 3348,
      "CPP": 3349,
      "ĠInput": 3350,
      "ĠKish": 3351,
      "AI": 3352,
      "Ġlab": 3353,
      "ĠPap": 3354,
      "antile": 3355,
      "urry": 3356,
      "erton": 3357,
      "ĠMH": 3358,
      "gd": 3359,
      "RAM": 3360,
      "loud": 3361,
      "uses": 3362,
      "ARG": 3363,
      "max": 3364,
      "cos": 3365,
      "ĠJac": 3366,
      "dis": 3367,
      "Package": 3368,
      "Idle": 3369,
      "vm": 3370,
      "IdleSync": 3371,
      "Pkg": 3372,
      "ParaPkg": 3373,
      "lus": 3374,
      "ĠBrid": 3375,
      "Ġrh": 3376,
      "dam": 3377,
      "uman": 3378,
      "aras": 3379,
      "Ġlu": 3380,
      "Ġgah": 3381,
      "nah": 3382,
      "ALL": 3383,
      "otlin": 3384,
      "icture": 3385,
      "Ġsac": 3386,
      "henium": 3387,
      "iom": 3388,
      "buf": 3389,
      "ĠHeid": 3390,
      "fu": 3391,
      "Ġtran": 3392,
      "awks": 3393,
      "Take": 3394,
      "ship": 3395,
      "ĠWat": 3396,
      "feat": 3397,
      "ENUM": 3398,
      "NewUrl": 3399,
      "formed": 3400,
      "Ġgahet": 3401,
      "Ġmicro": 3402,
      "ĠhalfCanvas": 3403,
      "amos": 3404,
      "Ġmem": 3405,
      "omes": 3406,
      "ĠAv": 3407,
      "ershire": 3408,
      "usp": 3409,
      "ĠVen": 3410,
      "arlene": 3411,
      "MethodBeat": 3412,
      "mit": 3413,
      "coprote": 3414,
      "Ġanis": 3415,
      "gn": 3416,
      "Raw": 3417,
      "Ġneutral": 3418,
      "Ġgol": 3419,
      "ĠPat": 3420,
      "Ġmorph": 3421,
      "ĠMerc": 3422,
      "aric": 3423,
      "enny": 3424,
      "ĠAst": 3425,
      "job": 3426,
      "enia": 3427,
      "osin": 3428,
      "apped": 3429,
      "Do": 3430,
      "sten": 3431,
      "ĠMod": 3432,
      "ober": 3433,
      "OCC": 3434,
      "Point": 3435,
      "aniy": 3436,
      "uo": 3437,
      "rar": 3438,
      "NN": 3439,
      "alg": 3440,
      "size": 3441,
      "fill": 3442,
      "Ġsett": 3443,
      "Ġinterview": 3444,
      "Ġsle": 3445,
      "enth": 3446,
      "ĠBang": 3447,
      "abbo": 3448,
      "ĠPfe": 3449,
      "FER": 3450,
      "ago": 3451,
      "tin": 3452,
      "Ġus": 3453,
      "otherm": 3454,
      "esting": 3455,
      "WMN": 3456,
      "sz": 3457,
      "atory": 3458,
      "hed": 3459,
      "orman": 3460,
      "Put": 3461,
      "alaikum": 3462,
      "ĠPear": 3463,
      "orrent": 3464,
      "ehyde": 3465,
      "ordon": 3466,
      "EE": 3467,
      "ĠCov": 3468,
      "VOA": 3469,
      "lr": 3470,
      "ilian": 3471,
      "lef": 3472,
      "ungk": 3473,
      "StructOf": 3474,
      "ĠPay": 3475,
      "ycle": 3476,
      "iente": 3477,
      "jug": 3478,
      "ĠMcM": 3479,
      "Archive": 3480,
      "curs": 3481,
      "Left": 3482,
      "stm": 3483,
      "keit": 3484,
      "ified": 3485,
      "egen": 3486,
      "inter": 3487,
      "Pressed": 3488,
      "piece": 3489,
      "bed": 3490,
      "ĠLD": 3491,
      "ilon": 3492,
      "erat": 3493,
      "Ġrepet": 3494,
      "band": 3495,
      "ued": 3496,
      "utte": 3497,
      "LAN": 3498,
      "ohl": 3499,
      "burn": 3500,
      "ĠHod": 3501,
      "command": 3502,
      "imura": 3503,
      "Ġher": 3504,
      "DBOutput": 3505,
      "Ġcal": 3506,
      "river": 3507,
      "akam": 3508,
      "Ġprec": 3509,
      "Mapping": 3510,
      "rizz": 3511,
      "arts": 3512,
      "ongs": 3513,
      "ategory": 3514,
      "dal": 3515,
      "ummy": 3516,
      "ĠInd": 3517,
      "ivers": 3518,
      "Values": 3519,
      "Ġu": 3520,
      "ĠMcKin": 3521,
      "Ġtop": 3522,
      "aty": 3523,
      "amom": 3524,
      "Max": 3525,
      "itu": 3526,
      "ifier": 3527,
      "arshal": 3528,
      "exual": 3529,
      "ugo": 3530,
      "oxic": 3531,
      "EO": 3532,
      "estruct": 3533,
      "ĠLour": 3534,
      "slide": 3535,
      "BitCount": 3536,
      "Ġodb": 3537,
      "mic": 3538,
      "ĠDomin": 3539,
      "uration": 3540,
      "atal": 3541,
      "Ġdisc": 3542,
      "estro": 3543,
      "Ġsadd": 3544,
      "Findings": 3545,
      "idu": 3546,
      "ying": 3547,
      "ateMutability": 3548,
      "ously": 3549,
      "eps": 3550,
      "ĠGod": 3551,
      "ardin": 3552,
      "Ġaut": 3553,
      "ByURL": 3554,
      "ĠSa": 3555,
      "Ġausten": 3556,
      "ĠMend": 3557,
      "amanam": 3558,
      "edRight": 3559,
      "Ġit": 3560,
      "ĠLev": 3561,
      "aking": 3562,
      "hang": 3563,
      "setF": 3564,
      "border": 3565,
      "Ok": 3566,
      "Ġprimary": 3567,
      "phrine": 3568,
      "Ġselect": 3569,
      "Ġiz": 3570,
      "dev": 3571,
      "zhou": 3572,
      "ĠSlov": 3573,
      "ĠAri": 3574,
      "ature": 3575,
      "Ġtuberc": 3576,
      "Bib": 3577,
      "uncul": 3578,
      "ected": 3579,
      "este": 3580,
      "ariant": 3581,
      "Ġnam": 3582,
      "ATE": 3583,
      "Ant": 3584,
      "iesz": 3585,
      "iga": 3586,
      "Listener": 3587,
      "assing": 3588,
      "ĠEnd": 3589,
      "methyl": 3590,
      "mak": 3591,
      "uent": 3592,
      "egan": 3593,
      "Nam": 3594,
      "uje": 3595,
      "ĠGust": 3596,
      "Ġflav": 3597,
      "aldehyde": 3598,
      "ĠBos": 3599,
      "Rew": 3600,
      "Ġkon": 3601,
      "rained": 3602,
      "abin": 3603,
      "iao": 3604,
      "Ġbit": 3605,
      "ĠNor": 3606,
      "elia": 3607,
      "hatt": 3608,
      "ĠServ": 3609,
      "aq": 3610,
      "Delete": 3611,
      "olan": 3612,
      "Ġbes": 3613,
      "spec": 3614,
      "UND": 3615,
      "hut": 3616,
      "Ġpinch": 3617,
      "atholic": 3618,
      "Mat": 3619,
      "iance": 3620,
      "Ġpri": 3621,
      "ĠSil": 3622,
      "findBy": 3623,
      "ĠSomers": 3624,
      "calright": 3625,
      "erken": 3626,
      "Preference": 3627,
      "dPar": 3628,
      "flow": 3629,
      "ibility": 3630,
      "oza": 3631,
      "BUR": 3632,
      "anas": 3633,
      "ĠGen": 3634,
      "ĠObject": 3635,
      "overe": 3636,
      "Ġhomot": 3637,
      "eff": 3638,
      "mooth": 3639,
      "alBlock": 3640,
      "uzz": 3641,
      "Guid": 3642,
      "Ġnek": 3643,
      "utan": 3644,
      "election": 3645,
      "cell": 3646,
      "resc": 3647,
      "Fields": 3648,
      "unci": 3649,
      "ĠNo": 3650,
      "getR": 3651,
      "Selection": 3652,
      "arik": 3653,
      "adow": 3654,
      "arkar": 3655,
      "aily": 3656,
      "STR": 3657,
      "inger": 3658,
      "Ġfont": 3659,
      "Ġdiff": 3660,
      "qt": 3661,
      "utta": 3662,
      "Ġdek": 3663,
      "empor": 3664,
      "kes": 3665,
      "ymp": 3666,
      "cation": 3667,
      "sem": 3668,
      "Visual": 3669,
      "rival": 3670,
      "ird": 3671,
      "Ġparl": 3672,
      "abc": 3673,
      "ITH": 3674,
      "ĠIP": 3675,
      "Ġunb": 3676,
      "ĠEhn": 3677,
      "ĠEhnerg": 3678,
      "rident": 3679,
      "ĠSyl": 3680,
      "esti": 3681,
      "oving": 3682,
      "ĠData": 3683,
      "eled": 3684,
      "ĠPack": 3685,
      "wyn": 3686,
      "yar": 3687,
      "ĠDer": 3688,
      "Ġexceed": 3689,
      "thal": 3690,
      "Ġgo": 3691,
      "ueva": 3692,
      "enda": 3693,
      "idal": 3694,
      "mn": 3695,
      "Pen": 3696,
      "nail": 3697,
      "nique": 3698,
      "Password": 3699,
      "ored": 3700,
      "ointer": 3701,
      "ĠRam": 3702,
      "hole": 3703,
      "LOT": 3704,
      "enberg": 3705,
      "Unique": 3706,
      "CV": 3707,
      "Picker": 3708,
      "ulu": 3709,
      "VR": 3710,
      "ensch": 3711,
      "FieldContext": 3712,
      "owied": 3713,
      "ollo": 3714,
      "issions": 3715,
      "Owner": 3716,
      "thel": 3717,
      "Okno": 3718,
      "ORN": 3719,
      "Ġthrom": 3720,
      "ĠDon": 3721,
      "ĠHan": 3722,
      "build": 3723,
      "Ġaug": 3724,
      "etty": 3725,
      "ylate": 3726,
      "Ġline": 3727,
      "eca": 3728,
      "ĠTim": 3729,
      "Ġcheck": 3730,
      "lg": 3731,
      "Ġnucle": 3732,
      "vey": 3733,
      "wd": 3734,
      "hl": 3735,
      "gh": 3736,
      "acher": 3737,
      "ibul": 3738,
      "ahon": 3739,
      "assel": 3740,
      "Ġprob": 3741,
      "ceptron": 3742,
      "noc": 3743,
      "ĠMcGu": 3744,
      "Ġps": 3745,
      "non": 3746,
      "orbid": 3747,
      "ĠNau": 3748,
      "ĠLob": 3749,
      "agy": 3750,
      "Ġtend": 3751,
      "Cycle": 3752,
      "Ġsoft": 3753,
      "Spec": 3754,
      "EF": 3755,
      "Ġanth": 3756,
      "Ġcap": 3757,
      "ondition": 3758,
      "Ġhandle": 3759,
      "akespeare": 3760,
      "oration": 3761,
      "dec": 3762,
      "ogn": 3763,
      "ĠBru": 3764,
      "chester": 3765,
      "atherm": 3766,
      "args": 3767,
      "json": 3768,
      "handle": 3769,
      "ĠGold": 3770,
      "ĠSn": 3771,
      "arca": 3772,
      "Ġstock": 3773,
      "jac": 3774,
      "HE": 3775,
      "bro": 3776,
      "ĠNe": 3777,
      "erea": 3778,
      "orod": 3779,
      "assert": 3780,
      "Ġguz": 3781,
      "uden": 3782,
      "Ġpron": 3783,
      "ĠdSample": 3784,
      "Selector": 3785,
      "acles": 3786,
      "BD": 3787,
      "next": 3788,
      "adas": 3789,
      "No": 3790,
      "Te": 3791,
      "valid": 3792,
      "asmim": 3793,
      "rivalTime": 3794,
      "Order": 3795,
      "Ġprof": 3796,
      "igen": 3797,
      "heel": 3798,
      "lid": 3799,
      "ĠKar": 3800,
      "plication": 3801,
      "Ġmal": 3802,
      "Display": 3803,
      "BinBuf": 3804,
      "ahin": 3805,
      "attha": 3806,
      "itre": 3807,
      "cpHeader": 3808,
      "slate": 3809,
      "Ġuser": 3810,
      "Ġaw": 3811,
      "ban": 3812,
      "eln": 3813,
      "eo": 3814,
      "Ġdigest": 3815,
      "ĠCom": 3816,
      "Condition": 3817,
      "thorace": 3818,
      "used": 3819,
      "uted": 3820,
      "ught": 3821,
      "ican": 3822,
      "icher": 3823,
      "ims": 3824,
      "agi": 3825,
      "aid": 3826,
      "action": 3827,
      "bin": 3828,
      "Ġstri": 3829,
      "MVC": 3830,
      "epo": 3831,
      "occo": 3832,
      "swire": 3833,
      "Ġsig": 3834,
      "aldo": 3835,
      "ĠDav": 3836,
      "ĠBag": 3837,
      "astic": 3838,
      "bi": 3839,
      "ĠDun": 3840,
      "ozz": 3841,
      "Ġist": 3842,
      "ĠImm": 3843,
      "xim": 3844,
      "haman": 3845,
      "ĠBis": 3846,
      "oda": 3847,
      "Penis": 3848,
      "ERS": 3849,
      "ĠSy": 3850,
      "anguage": 3851,
      "aux": 3852,
      "BURTS": 3853,
      "addington": 3854,
      "foreground": 3855,
      "marshal": 3856,
      "Ġung": 3857,
      "pre": 3858,
      "Ġpon": 3859,
      "tik": 3860,
      "Accept": 3861,
      "ecode": 3862,
      "Ġwav": 3863,
      "Ġform": 3864,
      "ustomer": 3865,
      "dom": 3866,
      "arp": 3867,
      "ĠRen": 3868,
      "tf": 3869,
      "uba": 3870,
      "Ġpartur": 3871,
      "Ġadh": 3872,
      "Proxy": 3873,
      "iquid": 3874,
      "erche": 3875,
      "MO": 3876,
      "eming": 3877,
      "info": 3878,
      "ewise": 3879,
      "ĠText": 3880,
      "ided": 3881,
      "enumer": 3882,
      "Ġtet": 3883,
      "oper": 3884,
      "adig": 3885,
      "eronica": 3886,
      "omon": 3887,
      "vid": 3888,
      "JSON": 3889,
      "VCTarget": 3890,
      "ieben": 3891,
      "inds": 3892,
      "irs": 3893,
      "izer": 3894,
      "furt": 3895,
      "lass": 3896,
      "Ġanesthet": 3897,
      "hib": 3898,
      "ĠReich": 3899,
      "afa": 3900,
      "rave": 3901,
      "bracket": 3902,
      "ku": 3903,
      "ĠPrit": 3904,
      "ulpt": 3905,
      "riend": 3906,
      "Ġsmear": 3907,
      "leps": 3908,
      "usses": 3909,
      "ares": 3910,
      "braith": 3911,
      "select": 3912,
      "vationMap": 3913,
      "eas": 3914,
      "Pr": 3915,
      "ĠMcGr": 3916,
      "alde": 3917,
      "inz": 3918,
      "olut": 3919,
      "lyPlugin": 3920,
      "Ġri": 3921,
      "wait": 3922,
      "model": 3923,
      "oso": 3924,
      "astian": 3925,
      "ĠInt": 3926,
      "Options": 3927,
      "ipal": 3928,
      "odnik": 3929,
      "span": 3930,
      "ĠAF": 3931,
      "oring": 3932,
      "pg": 3933,
      "Face": 3934,
      "Ġvolt": 3935,
      "recht": 3936,
      "epin": 3937,
      "ECT": 3938,
      "opic": 3939,
      "obec": 3940,
      "ritz": 3941,
      "ĠRoan": 3942,
      "Ġnum": 3943,
      "Theme": 3944,
      "thar": 3945,
      "Dep": 3946,
      "recl": 3947,
      "CU": 3948,
      "ables": 3949,
      "LL": 3950,
      "ĠPand": 3951,
      "illian": 3952,
      "Math": 3953,
      "Ġlymph": 3954,
      "ply": 3955,
      "inander": 3956,
      "cm": 3957,
      "mid": 3958,
      "reten": 3959,
      "Ġfauc": 3960,
      "FO": 3961,
      "itro": 3962,
      "Enum": 3963,
      "adani": 3964,
      "Ġug": 3965,
      "eiro": 3966,
      "utor": 3967,
      "idunt": 3968,
      "rm": 3969,
      "anis": 3970,
      "isting": 3971,
      "ICK": 3972,
      "scale": 3973,
      "yz": 3974,
      "ĠPic": 3975,
      "enko": 3976,
      "Bad": 3977,
      "ĠAT": 3978,
      "athy": 3979,
      "ĠHait": 3980,
      "ICAL": 3981,
      "Cle": 3982,
      "ĠRUTARE": 3983,
      "ĠSales": 3984,
      "Ins": 3985,
      "ingan": 3986,
      "Ġmenjal": 3987,
      "ige": 3988,
      "VID": 3989,
      "Long": 3990,
      "ĠBST": 3991,
      "ĠNST": 3992,
      "return": 3993,
      "Ġmont": 3994,
      "inia": 3995,
      "Ġphotoc": 3996,
      "Ġmart": 3997,
      "zej": 3998,
      "nest": 3999,
      "VIC": 4000,
      "Ġperj": 4001,
      "lyph": 4002,
      "ĠSey": 4003,
      "ocz": 4004,
      "Ġcard": 4005,
      "apkan": 4006,
      "Active": 4007,
      "Ġunt": 4008,
      "irc": 4009,
      "INE": 4010,
      "apar": 4011,
      "Ġdeg": 4012,
      "ecz": 4013,
      "Ġdiv": 4014,
      "Ġkahel": 4015,
      "ollision": 4016,
      "warl": 4017,
      "ened": 4018,
      "acer": 4019,
      "Collision": 4020,
      "OSS": 4021,
      "Construct": 4022,
      "mington": 4023,
      "weatherm": 4024,
      "ĠHerm": 4025,
      "KR": 4026,
      "GFS": 4027,
      "ĠVerd": 4028,
      "Ġback": 4029,
      "ĠWarwick": 4030,
      "ĠGerr": 4031,
      "ocyan": 4032,
      "DialogOpen": 4033,
      "Art": 4034,
      "Integer": 4035,
      "ety": 4036,
      "obacter": 4037,
      "append": 4038,
      "ments": 4039,
      "orld": 4040,
      "usive": 4041,
      "amer": 4042,
      "hin": 4043,
      "vonne": 4044,
      "Ġvedit": 4045,
      "ITT": 4046,
      "ojo": 4047,
      "ĠTol": 4048,
      "uts": 4049,
      "Ġrib": 4050,
      "olyb": 4051,
      "Ġview": 4052,
      "ycler": 4053,
      "ĠDev": 4054,
      "ĠCur": 4055,
      "ublicKey": 4056,
      "omn": 4057,
      "brado": 4058,
      "Mutex": 4059,
      "Ġsat": 4060,
      "Ġhe": 4061,
      "nung": 4062,
      "yne": 4063,
      "olytic": 4064,
      "Extens": 4065,
      "Days": 4066,
      "oding": 4067,
      "ĠNich": 4068,
      "Ġplead": 4069,
      "NonUser": 4070,
      "MBT": 4071,
      "aine": 4072,
      "ĠVillar": 4073,
      "idas": 4074,
      "Modal": 4075,
      "inas": 4076,
      "onuclear": 4077,
      "anal": 4078,
      "ounc": 4079,
      "CON": 4080,
      "azz": 4081,
      "ns": 4082,
      "ĠHert": 4083,
      "ourg": 4084,
      "ĠRet": 4085,
      "property": 4086,
      "here": 4087,
      "ovi": 4088,
      "UV": 4089,
      "Ġot": 4090,
      "Ġsag": 4091,
      "ynth": 4092,
      "Ġerg": 4093,
      "UVW": 4094,
      "ancy": 4095,
      "Ġvolupt": 4096,
      "ĠChron": 4097,
      "esso": 4098,
      "nalia": 4099,
      "ĠMich": 4100,
      "Ġng": 4101,
      "jee": 4102,
      "child": 4103,
      "atat": 4104,
      "ocalObject": 4105,
      "issense": 4106,
      "ORD": 4107,
      "wall": 4108,
      "Ġbland": 4109,
      "Ġpunct": 4110,
      "aina": 4111,
      "ĠNA": 4112,
      "owski": 4113,
      "oughton": 4114,
      "irectory": 4115,
      "itoneal": 4116,
      "ĠMiy": 4117,
      "aje": 4118,
      "jiwarl": 4119,
      "umberland": 4120,
      "bark": 4121,
      "token": 4122,
      "ĠgetDate": 4123,
      "uster": 4124,
      "Ġho": 4125,
      "erog": 4126,
      "Ġdess": 4127,
      "ĠCap": 4128,
      "ĠBhag": 4129,
      "anje": 4130,
      "Ġsb": 4131,
      "ĠMin": 4132,
      "obic": 4133,
      "toch": 4134,
      "Letter": 4135,
      "thur": 4136,
      "ĠCant": 4137,
      "akar": 4138,
      "ĠCal": 4139,
      "aught": 4140,
      "ParamNum": 4141,
      "ortal": 4142,
      "YAN": 4143,
      "double": 4144,
      "ĠDord": 4145,
      "eri": 4146,
      "Part": 4147,
      "Files": 4148,
      "enean": 4149,
      "ringe": 4150,
      "ĠFo": 4151,
      "urul": 4152,
      "gress": 4153,
      "Ġspray": 4154,
      "loria": 4155,
      "untamento": 4156,
      "ĠAs": 4157,
      "ĠMN": 4158,
      "ĠIng": 4159,
      "UniqueID": 4160,
      "Async": 4161,
      "Ġok": 4162,
      "unay": 4163,
      "arras": 4164,
      "multi": 4165,
      "pat": 4166,
      "Ġcul": 4167,
      "etti": 4168,
      "was": 4169,
      "ullie": 4170,
      "Ġpen": 4171,
      "ĠVillan": 4172,
      "ession": 4173,
      "Ġhor": 4174,
      "CharCode": 4175,
      "permal": 4176,
      "Store": 4177,
      "Ġfort": 4178,
      "ieter": 4179,
      "quest": 4180,
      "Ġadjourn": 4181,
      "Ġsph": 4182,
      "Ġchamp": 4183,
      "ĠChong": 4184,
      "Strip": 4185,
      "akath": 4186,
      "ĠSql": 4187,
      "hile": 4188,
      "Mesh": 4189,
      "alph": 4190,
      "Ġmut": 4191,
      "ancho": 4192,
      "ĠBelle": 4193,
      "ĠBellev": 4194,
      "asuk": 4195,
      "ĠGunn": 4196,
      "oauth": 4197,
      "Reader": 4198,
      "esc": 4199,
      "Keep": 4200,
      "Cube": 4201,
      "ymplectic": 4202,
      "CubeSize": 4203,
      "prot": 4204,
      "ycin": 4205,
      "reas": 4206,
      "Ġold": 4207,
      "Ġquin": 4208,
      "attoo": 4209,
      "gramModel": 4210,
      "ourier": 4211,
      "ubro": 4212,
      "dig": 4213,
      "pec": 4214,
      "ousel": 4215,
      "yak": 4216,
      "ĠBow": 4217,
      "vec": 4218,
      "ront": 4219,
      "kut": 4220,
      "ymi": 4221,
      "Media": 4222,
      "ĠGood": 4223,
      "ker": 4224,
      "Spawn": 4225,
      "ayashi": 4226,
      "etering": 4227,
      "Ġsv": 4228,
      "gou": 4229,
      "iw": 4230,
      "ories": 4231,
      "paths": 4232,
      "Xpaths": 4233,
      "adt": 4234,
      "Ġvad": 4235,
      "Ġplayer": 4236,
      "ieurs": 4237,
      "erce": 4238,
      "tree": 4239,
      "apur": 4240,
      "Ġwax": 4241,
      "full": 4242,
      "StarSXml": 4243,
      "qttr": 4244,
      "coni": 4245,
      "Servlet": 4246,
      "Ġak": 4247,
      "ĠNad": 4248,
      "Choose": 4249,
      "ĠKra": 4250,
      "ruz": 4251,
      "DBG": 4252,
      "ATION": 4253,
      "ĠBhagav": 4254,
      "pay": 4255,
      "aver": 4256,
      "enner": 4257,
      "jav": 4258,
      "OUG": 4259,
      "ismar": 4260,
      "aucer": 4261,
      "WT": 4262,
      "estown": 4263,
      "acanam": 4264,
      "adiene": 4265,
      "ostrum": 4266,
      "Move": 4267,
      "utable": 4268,
      "ĠAngel": 4269,
      "Has": 4270,
      "ssex": 4271,
      "aked": 4272,
      "inity": 4273,
      "wer": 4274,
      "ĠHil": 4275,
      "ifolds": 4276,
      "ĠSam": 4277,
      "Ġhal": 4278,
      "rout": 4279,
      "LM": 4280,
      "ĠSylv": 4281,
      "atz": 4282,
      "ĠChrist": 4283,
      "oten": 4284,
      "lc": 4285,
      "ĠHen": 4286,
      "ately": 4287,
      "ĠRCL": 4288,
      "ĠNav": 4289,
      "exus": 4290,
      "ĠGren": 4291,
      "Ġlo": 4292,
      "ĠSad": 4293,
      "encia": 4294,
      "ittam": 4295,
      "LogRow": 4296,
      "Ġproced": 4297,
      "abat": 4298,
      "izz": 4299,
      "aunch": 4300,
      "tri": 4301,
      "ĠEuc": 4302,
      "urst": 4303,
      "azy": 4304,
      "onyl": 4305,
      "Writer": 4306,
      "aise": 4307,
      "cha": 4308,
      "ĠRUD": 4309,
      "Ġprinc": 4310,
      "MainNav": 4311,
      "esch": 4312,
      "yles": 4313,
      "etric": 4314,
      "apet": 4315,
      "ĠEdmond": 4316,
      "ĠLo": 4317,
      "Fold": 4318,
      "ĠDur": 4319,
      "Ġlepton": 4320,
      "ĠHab": 4321,
      "ĠDeep": 4322,
      "ahang": 4323,
      "ranche": 4324,
      "Sec": 4325,
      "URNIZ": 4326,
      "Ġgew": 4327,
      "ady": 4328,
      "umbnail": 4329,
      "ogs": 4330,
      "yw": 4331,
      "andt": 4332,
      "ynch": 4333,
      "idean": 4334,
      "Ġequ": 4335,
      "instr": 4336,
      "ĠStafford": 4337,
      "instrList": 4338,
      "ropy": 4339,
      "ĠCons": 4340,
      "ripper": 4341,
      "MDA": 4342,
      "ithdraw": 4343,
      "ards": 4344,
      "ota": 4345,
      "sum": 4346,
      "illColor": 4347,
      "ĠJordan": 4348,
      "ĠPer": 4349,
      "Preferred": 4350,
      "ansing": 4351,
      "ĠGuil": 4352,
      "ApiPath": 4353,
      "CharArray": 4354,
      "Muc": 4355,
      "endale": 4356,
      "Inset": 4357,
      "Ġfur": 4358,
      "inho": 4359,
      "Ġparthen": 4360,
      "Ġcro": 4361,
      "ancell": 4362,
      "arrow": 4363,
      "iale": 4364,
      "tochrome": 4365,
      "seur": 4366,
      "olare": 4367,
      "herent": 4368,
      "Min": 4369,
      "skii": 4370,
      "eq": 4371,
      "rait": 4372,
      "Mar": 4373,
      "Ġpower": 4374,
      "ĠPop": 4375,
      "Sdk": 4376,
      "olves": 4377,
      "arantad": 4378,
      "irg": 4379,
      "QR": 4380,
      "ĠHick": 4381,
      "detail": 4382,
      "Ġfield": 4383,
      "abic": 4384,
      "innie": 4385,
      "ĠDar": 4386,
      "ppo": 4387,
      "GM": 4388,
      "zan": 4389,
      "emon": 4390,
      "isR": 4391,
      "ĠPrab": 4392,
      "asan": 4393,
      "Glare": 4394,
      "ĠMerr": 4395,
      "lens": 4396,
      "tres": 4397,
      "AU": 4398,
      "cer": 4399,
      "oslav": 4400,
      "Ald": 4401,
      "unted": 4402,
      "Arr": 4403,
      "Bibitem": 4404,
      "itable": 4405,
      "ĠPa": 4406,
      "nst": 4407,
      "Ġfra": 4408,
      "Ġuns": 4409,
      "egi": 4410,
      "sent": 4411,
      "Ġec": 4412,
      "OrderFlight": 4413,
      "ĠWor": 4414,
      "ĠNiet": 4415,
      "Ġuit": 4416,
      "Security": 4417,
      "ĠJoh": 4418,
      "ĠOut": 4419,
      "ridge": 4420,
      "addassa": 4421,
      "andan": 4422,
      "auff": 4423,
      "ĠTr": 4424,
      "illing": 4425,
      "GoObject": 4426,
      "Default": 4427,
      "Seconds": 4428,
      "Ġtok": 4429,
      "Foldout": 4430,
      "ichen": 4431,
      "ĠHel": 4432,
      "Encoder": 4433,
      "tain": 4434,
      "Ġvan": 4435,
      "Ġinfl": 4436,
      "ĠRey": 4437,
      "ĠFern": 4438,
      "Ġunw": 4439,
      "tti": 4440,
      "lytres": 4441,
      "emi": 4442,
      "ĠPey": 4443,
      "waard": 4444,
      "ariable": 4445,
      "ingu": 4446,
      "ignore": 4447,
      "ema": 4448,
      "Ġhy": 4449,
      "Ġfac": 4450,
      "ĠList": 4451,
      "oton": 4452,
      "ridLayout": 4453,
      "lik": 4454,
      "Ġbed": 4455,
      "ĠDel": 4456,
      "ĠBeck": 4457,
      "Ġcall": 4458,
      "rvats": 4459,
      "icular": 4460,
      "show": 4461,
      "ĠLaksh": 4462,
      "convol": 4463,
      "onian": 4464,
      "ĠCarl": 4465,
      "iales": 4466,
      "AutoScale": 4467,
      "sprech": 4468,
      "Ġchem": 4469,
      "ipher": 4470,
      "ĠCorb": 4471,
      "ocs": 4472,
      "into": 4473,
      "ardo": 4474,
      "awar": 4475,
      "ĠMidd": 4476,
      "ived": 4477,
      "ĠAcc": 4478,
      "ĠPDP": 4479,
      "ĠActive": 4480,
      "iping": 4481,
      "atches": 4482,
      "nab": 4483,
      "houette": 4484,
      "ĠGog": 4485,
      "ĠUly": 4486,
      "ĠAS": 4487,
      "xin": 4488,
      "ĠMats": 4489,
      "entz": 4490,
      "ends": 4491,
      "Custom": 4492,
      "VA": 4493,
      "Fil": 4494,
      "phalodes": 4495,
      "ĠEle": 4496,
      "Grad": 4497,
      "ĠKier": 4498,
      "ranian": 4499,
      "olg": 4500,
      "riendo": 4501,
      "ufen": 4502,
      "ĠLorentz": 4503,
      "ifer": 4504,
      "asey": 4505,
      "Danh": 4506,
      "aused": 4507,
      "ips": 4508,
      "DanhMuc": 4509,
      "ismarck": 4510,
      "Ġrun": 4511,
      "zet": 4512,
      "uri": 4513,
      "Ġwyk": 4514,
      "DO": 4515,
      "PTV": 4516,
      "estin": 4517,
      "Ġalle": 4518,
      "titor": 4519,
      "ucid": 4520,
      "Ġforb": 4521,
      "nash": 4522,
      "Ġyoj": 4523,
      "mac": 4524,
      "rogen": 4525,
      "Ġlegal": 4526,
      "Ġtart": 4527,
      "ĠCCS": 4528,
      "urp": 4529,
      "Animation": 4530,
      "Ġiccad": 4531,
      "vrd": 4532,
      "unov": 4533,
      "constra": 4534,
      "dn": 4535,
      "uncan": 4536,
      "constraint": 4537,
      "Ġdesp": 4538,
      "atthav": 4539,
      "rystall": 4540,
      "Ġdisorder": 4541,
      "hold": 4542,
      "irra": 4543,
      "iggins": 4544,
      "Antae": 4545,
      "First": 4546,
      "Ġdred": 4547,
      "Ary": 4548,
      "iliated": 4549,
      "tone": 4550,
      "arking": 4551,
      "rial": 4552,
      "irtual": 4553,
      "smith": 4554,
      "isia": 4555,
      "Ġlist": 4556,
      "uatu": 4557,
      "ĠPlast": 4558,
      "ĠTul": 4559,
      "eland": 4560,
      "isa": 4561,
      "btn": 4562,
      "process": 4563,
      "artz": 4564,
      "heed": 4565,
      "Lint": 4566,
      "getString": 4567,
      "Exists": 4568,
      "Clr": 4569,
      "Ġpok": 4570,
      "Ġof": 4571,
      "ĠEver": 4572,
      "kov": 4573,
      "ĠMag": 4574,
      "rer": 4575,
      "dy": 4576,
      "QAry": 4577,
      "ĠVan": 4578,
      "ĠConstant": 4579,
      "ocr": 4580,
      "StateToProps": 4581,
      "ucker": 4582,
      "ylic": 4583,
      "onal": 4584,
      "Ġey": 4585,
      "leton": 4586,
      "toL": 4587,
      "index": 4588,
      "engk": 4589,
      "amin": 4590,
      "Title": 4591,
      "oter": 4592,
      "ikkh": 4593,
      "Ġcustom": 4594,
      "ĠDra": 4595,
      "ĠId": 4596,
      "ĠMed": 4597,
      "Ġton": 4598,
      "arma": 4599,
      "ounce": 4600,
      "NO": 4601,
      "ĠLomb": 4602,
      "ĠWolver": 4603,
      "ĠMcF": 4604,
      "asser": 4605,
      "Ġsab": 4606,
      "Ġmaneu": 4607,
      "Plus": 4608,
      "Ġchew": 4609,
      "Ġunim": 4610,
      "Ġhotsp": 4611,
      "DER": 4612,
      "XR": 4613,
      "ember": 4614,
      "erview": 4615,
      "ENC": 4616,
      "empl": 4617,
      "Ġdib": 4618,
      "urch": 4619,
      "ipped": 4620,
      "igence": 4621,
      "rung": 4622,
      "ipboard": 4623,
      "ĠSar": 4624,
      "ractor": 4625,
      "enian": 4626,
      "avor": 4627,
      "awatts": 4628,
      "ĠGra": 4629,
      "ĠShel": 4630,
      "orage": 4631,
      "ĠWest": 4632,
      "Ġdisappe": 4633,
      "ioc": 4634,
      "ished": 4635,
      "ielding": 4636,
      "otherap": 4637,
      "Ġrut": 4638,
      "acak": 4639,
      "ayette": 4640,
      "Ġbif": 4641,
      "abled": 4642,
      "ĠAlb": 4643,
      "Ver": 4644,
      "itya": 4645,
      "iu": 4646,
      "DKEY": 4647,
      "onese": 4648,
      "ExpNow": 4649,
      "Ġswe": 4650,
      "anos": 4651,
      "rough": 4652,
      "beit": 4653,
      "urkish": 4654,
      "agher": 4655,
      "chym": 4656,
      "ynucleaires": 4657,
      "usen": 4658,
      "emes": 4659,
      "Bsky": 4660,
      "lysis": 4661,
      "ĠBrook": 4662,
      "aal": 4663,
      "xt": 4664,
      "arkan": 4665,
      "ĠVol": 4666,
      "ires": 4667,
      "Ġbhikkh": 4668,
      "Ġemanc": 4669,
      "Cart": 4670,
      "arif": 4671,
      "ashing": 4672,
      "asta": 4673,
      "ailles": 4674,
      "illet": 4675,
      "wm": 4676,
      "rony": 4677,
      "TING": 4678,
      "Ġbu": 4679,
      "lobulin": 4680,
      "ryn": 4681,
      "Ġtab": 4682,
      "serv": 4683,
      "NAM": 4684,
      "PlusEvents": 4685,
      "Criter": 4686,
      "Ġtant": 4687,
      "ĠWord": 4688,
      "Ġullam": 4689,
      "ophen": 4690,
      "Ġauth": 4691,
      "lier": 4692,
      "Ġzoom": 4693,
      "inos": 4694,
      "ĠMil": 4695,
      "getMain": 4696,
      "IUN": 4697,
      "Ġbel": 4698,
      "ords": 4699,
      "rick": 4700,
      "graph": 4701,
      "inca": 4702,
      "ĠKeat": 4703,
      "ydraul": 4704,
      "Acc": 4705,
      "ĠPry": 4706,
      "uku": 4707,
      "ĠCly": 4708,
      "popup": 4709,
      "vc": 4710,
      "PEG": 4711,
      "issy": 4712,
      "jati": 4713,
      "Net": 4714,
      "ause": 4715,
      "ruc": 4716,
      "BUGFS": 4717,
      "atedBy": 4718,
      "gax": 4719,
      "MSFont": 4720,
      "Ġbook": 4721,
      "rank": 4722,
      "Ġme": 4723,
      "Alignment": 4724,
      "asa": 4725,
      "arius": 4726,
      "ĠUS": 4727,
      "roir": 4728,
      "ĠMann": 4729,
      "Ġmj": 4730,
      "onti": 4731,
      "Ġpabb": 4732,
      "ambra": 4733,
      "eneg": 4734,
      "Handle": 4735,
      "ĠFig": 4736,
      "Ġrepe": 4737,
      "ould": 4738,
      "ĠBrom": 4739,
      "ĠBrent": 4740,
      "IsNull": 4741,
      "acion": 4742,
      "Ġhorr": 4743,
      "olit": 4744,
      "ukannya": 4745,
      "ande": 4746,
      "akukannya": 4747,
      "ennes": 4748,
      "erta": 4749,
      "anca": 4750,
      "IGHT": 4751,
      "WI": 4752,
      "width": 4753,
      "left": 4754,
      "mar": 4755,
      "ycop": 4756,
      "otheli": 4757,
      "romed": 4758,
      "lep": 4759,
      "Tag": 4760,
      "ĠUSA": 4761,
      "Ġrad": 4762,
      "Ġtag": 4763,
      "eback": 4764,
      "ĠSI": 4765,
      "Ziel": 4766,
      "Ġzir": 4767,
      "gest": 4768,
      "ktCap": 4769,
      "idata": 4770,
      "Java": 4771,
      "Middle": 4772,
      "Ġplur": 4773,
      "zem": 4774,
      "Ġkeh": 4775,
      "ikidata": 4776,
      "trash": 4777,
      "amble": 4778,
      "ullo": 4779,
      "ĠSmack": 4780,
      "ĠMcCle": 4781,
      "Cache": 4782,
      "Na": 4783,
      "Ġbron": 4784,
      "mett": 4785,
      "ĠSH": 4786,
      "Ġindem": 4787,
      "Ġbronch": 4788,
      "Ġbip": 4789,
      "Ġtrit": 4790,
      "emat": 4791,
      "itian": 4792,
      "vors": 4793,
      "udy": 4794,
      "scroll": 4795,
      "getSt": 4796,
      "peng": 4797,
      "ensa": 4798,
      "Rest": 4799,
      "ĠGewer": 4800,
      "ĠAdri": 4801,
      "heim": 4802,
      "chiev": 4803,
      "gio": 4804,
      "ĠGret": 4805,
      "asper": 4806,
      "Ġprincipal": 4807,
      "gdock": 4808,
      "Statement": 4809,
      "NumConst": 4810,
      "KY": 4811,
      "ĠBere": 4812,
      "ĠUml": 4813,
      "anim": 4814,
      "Ġmo": 4815,
      "ihad": 4816,
      "acul": 4817,
      "FP": 4818,
      "Track": 4819,
      "zia": 4820,
      "ikk": 4821,
      "iejsc": 4822,
      "TM": 4823,
      "ĠCheck": 4824,
      "Ġyl": 4825,
      "location": 4826,
      "anya": 4827,
      "Reference": 4828,
      "olean": 4829,
      "ĠThess": 4830,
      "ekar": 4831,
      "enched": 4832,
      "Ġgri": 4833,
      "ĠService": 4834,
      "ĠTob": 4835,
      "abr": 4836,
      "Ġoverd": 4837,
      "ILLI": 4838,
      "Cleared": 4839,
      "ĠObit": 4840,
      "ClearedBy": 4841,
      "arod": 4842,
      "olocation": 4843,
      "Obj": 4844,
      "ĠCG": 4845,
      "achen": 4846,
      "xis": 4847,
      "Need": 4848,
      "setKeep": 4849,
      "undle": 4850,
      "EOUS": 4851,
      "acon": 4852,
      "ighton": 4853,
      "ĠChin": 4854,
      "Movie": 4855,
      "ĠTij": 4856,
      "acao": 4857,
      "ĠRev": 4858,
      "zat": 4859,
      "Ġhas": 4860,
      "COc": 4861,
      "ictureBox": 4862,
      "abri": 4863,
      "ramp": 4864,
      "Ġprecinct": 4865,
      "Ġdesc": 4866,
      "azon": 4867,
      "orough": 4868,
      "UTH": 4869,
      "wyd": 4870,
      "edTest": 4871,
      "Category": 4872,
      "elijk": 4873,
      "DropDown": 4874,
      "Ġnag": 4875,
      "renzia": 4876,
      "Read": 4877,
      "neider": 4878,
      "otrex": 4879,
      "socket": 4880,
      "uffy": 4881,
      "SFER": 4882,
      "ĠTN": 4883,
      "aio": 4884,
      "onka": 4885,
      "itud": 4886,
      "ĠBrug": 4887,
      "witz": 4888,
      "itin": 4889,
      "Ġinform": 4890,
      "Mont": 4891,
      "ĠVers": 4892,
      "margin": 4893,
      "ĠShah": 4894,
      "ouri": 4895,
      "angzhou": 4896,
      "Launch": 4897,
      "Ġpav": 4898,
      "TakeVideo": 4899,
      "ĠGreens": 4900,
      "Stream": 4901,
      "yped": 4902,
      "part": 4903,
      "ertools": 4904,
      "athed": 4905,
      "low": 4906,
      "borough": 4907,
      "OUR": 4908,
      "Prz": 4909,
      "Dom": 4910,
      "Ġpadam": 4911,
      "instag": 4912,
      "arrer": 4913,
      "Ġindemn": 4914,
      "ACTOR": 4915,
      "IH": 4916,
      "nder": 4917,
      "iram": 4918,
      "mous": 4919,
      "Scaler": 4920,
      "Ġvisc": 4921,
      "elon": 4922,
      "vind": 4923,
      "arted": 4924,
      "poetry": 4925,
      "ĠHaz": 4926,
      "Missense": 4927,
      "Check": 4928,
      "ieder": 4929,
      "ĠISP": 4930,
      "Ġmez": 4931,
      "ĠTRAN": 4932,
      "esehen": 4933,
      "Ġsim": 4934,
      "Ġrandom": 4935,
      "button": 4936,
      "Ġpel": 4937,
      "ilig": 4938,
      "Ġrecept": 4939,
      "Ġbez": 4940,
      "ĠBon": 4941,
      "entry": 4942,
      "hir": 4943,
      "Ġsequest": 4944,
      "schl": 4945,
      "ĠSN": 4946,
      "Ġincub": 4947,
      "rast": 4948,
      "onitrile": 4949,
      "isor": 4950,
      "Ġalter": 4951,
      "esthetics": 4952,
      "arlton": 4953,
      "ĠFal": 4954,
      "ĠFull": 4955,
      "utup": 4956,
      "ĠMSC": 4957,
      "script": 4958,
      "Ġdefault": 4959,
      "Fullscreen": 4960,
      "JECT": 4961,
      "annie": 4962,
      "ĠGiul": 4963,
      "Entry": 4964,
      "CCCC": 4965,
      "icon": 4966,
      "Audio": 4967,
      "ĠGuild": 4968,
      "ysis": 4969,
      "gue": 4970,
      "ĠBenn": 4971,
      "ĠAk": 4972,
      "icio": 4973,
      "iyesi": 4974,
      "Kill": 4975,
      "addKill": 4976,
      "Ġdik": 4977,
      "HTree": 4978,
      "IndexOf": 4979,
      "aruh": 4980,
      "fter": 4981,
      "Ġsev": 4982,
      "lal": 4983,
      "upu": 4984,
      "ĠCO": 4985,
      "Bottom": 4986,
      "rya": 4987,
      "Ġgrant": 4988,
      "Constants": 4989,
      "ython": 4990,
      "inite": 4991,
      "Ġml": 4992,
      "iels": 4993,
      "Ġbifur": 4994,
      "attu": 4995,
      "Ġenj": 4996,
      "itattu": 4997,
      "ĠWalth": 4998,
      "peg": 4999,
      "STM": 5000,
      "StarObject": 5001,
      "Ġsuper": 5002,
      "inuous": 5003,
      "itas": 5004,
      "ĠMey": 5005,
      "UIA": 5006,
      "olls": 5007,
      "InCM": 5008,
      "rass": 5009,
      "ients": 5010,
      "ĠEt": 5011,
      "ĠBarang": 5012,
      "unken": 5013,
      "Ġtherm": 5014,
      "ĠString": 5015,
      "asu": 5016,
      "ieron": 5017,
      "ĠDi": 5018,
      "Return": 5019,
      "Ġtransf": 5020,
      "Ġeyel": 5021,
      "AspNet": 5022,
      "LOR": 5023,
      "iffe": 5024,
      "orie": 5025,
      "ObjectID": 5026,
      "ascular": 5027,
      "agg": 5028,
      "unton": 5029,
      "existing": 5030,
      "fx": 5031,
      "Ġrecomb": 5032,
      "ĠMedia": 5033,
      "ĠBurg": 5034,
      "Ġvij": 5035,
      "Ġpengu": 5036,
      "estroy": 5037,
      "Ġovip": 5038,
      "aia": 5039,
      "ended": 5040,
      "Ġtep": 5041,
      "ainer": 5042,
      "onnie": 5043,
      "Ġtool": 5044,
      "ably": 5045,
      "Ġcongen": 5046,
      "obacz": 5047,
      "Ġnozz": 5048,
      "aper": 5049,
      "ĠTah": 5050,
      "ĠBernad": 5051,
      "sia": 5052,
      "ersen": 5053,
      "Alert": 5054,
      "zok": 5055,
      "Ġadjud": 5056,
      "astan": 5057,
      "NewUrlParser": 5058,
      "bai": 5059,
      "Hash": 5060,
      "genstein": 5061,
      "PTMR": 5062,
      "DidLoad": 5063,
      "can": 5064,
      "De": 5065,
      "ĠJama": 5066,
      "utsch": 5067,
      "udi": 5068,
      "Ġoffset": 5069,
      "ocity": 5070,
      "atakan": 5071,
      "agles": 5072,
      "Op": 5073,
      "Leg": 5074,
      "camera": 5075,
      "Ġfind": 5076,
      "NA": 5077,
      "Ġkap": 5078,
      "ĠBey": 5079,
      "ZielPanel": 5080,
      "ĠSher": 5081,
      "ĠPo": 5082,
      "Ġmasc": 5083,
      "olph": 5084,
      "ĠWel": 5085,
      "ĠRw": 5086,
      "Ġig": 5087,
      "ibals": 5088,
      "radio": 5089,
      "rlen": 5090,
      "Ġpern": 5091,
      "ĠKeen": 5092,
      "ĠDIC": 5093,
      "ural": 5094,
      "Ġhed": 5095,
      "uity": 5096,
      "uffered": 5097,
      "omyc": 5098,
      "Ġtes": 5099,
      "itted": 5100,
      "ĠCoch": 5101,
      "yllium": 5102,
      "otia": 5103,
      "elius": 5104,
      "oking": 5105,
      "OnInit": 5106,
      "Bundle": 5107,
      "ALT": 5108,
      "centaje": 5109,
      "Ġbhav": 5110,
      "oblast": 5111,
      "ellular": 5112,
      "ikian": 5113,
      "aliana": 5114,
      "ĠHu": 5115,
      "ĠMuk": 5116,
      "mey": 5117,
      "ĠPatt": 5118,
      "IAN": 5119,
      "ĠMos": 5120,
      "Ġgreen": 5121,
      "LOTRE": 5122,
      "Ġpotenc": 5123,
      "ollah": 5124,
      "egal": 5125,
      "Ġlug": 5126,
      "URNIZOR": 5127,
      "olf": 5128,
      "Changed": 5129,
      "usBar": 5130,
      "Ġferm": 5131,
      "rafo": 5132,
      "aksan": 5133,
      "ĠJez": 5134,
      "Copy": 5135,
      "AtIndex": 5136,
      "osto": 5137,
      "EqualTo": 5138,
      "illings": 5139,
      "Ġverteb": 5140,
      "kup": 5141,
      "yre": 5142,
      "eline": 5143,
      "WallArray": 5144,
      "imens": 5145,
      "Img": 5146,
      "omo": 5147,
      "iox": 5148,
      "Ġlau": 5149,
      "niOkno": 5150,
      "ĠmorphOutput": 5151,
      "reek": 5152,
      "Ġafter": 5153,
      "hots": 5154,
      "Ġcoll": 5155,
      "haya": 5156,
      "Ġperi": 5157,
      "regor": 5158,
      "adoc": 5159,
      "ĠDy": 5160,
      "square": 5161,
      "ohVP": 5162,
      "ecek": 5163,
      "ĠBarn": 5164,
      "avage": 5165,
      "inces": 5166,
      "weight": 5167,
      "ĠOrr": 5168,
      "Ġsho": 5169,
      "onduct": 5170,
      "ococ": 5171,
      "slateg": 5172,
      "Ġfenc": 5173,
      "img": 5174,
      "ĠNai": 5175,
      "ornare": 5176,
      "ĠBrown": 5177,
      "ggbb": 5178,
      "ĠLock": 5179,
      "Pherson": 5180,
      "uple": 5181,
      "ĠGl": 5182,
      "CUR": 5183,
      "ĠNa": 5184,
      "ĠSpart": 5185,
      "oni": 5186,
      "ption": 5187,
      "Over": 5188,
      "orges": 5189,
      "oplas": 5190,
      "hta": 5191,
      "BeforeText": 5192,
      "ariate": 5193,
      "orne": 5194,
      "fit": 5195,
      "ĠCumm": 5196,
      "Ġpushed": 5197,
      "plement": 5198,
      "ĠVall": 5199,
      "fromRGB": 5200,
      "Ġhib": 5201,
      "ĠCoron": 5202,
      "ixed": 5203,
      "mus": 5204,
      "iav": 5205,
      "Ġlob": 5206,
      "eville": 5207,
      "Ġspe": 5208,
      "unp": 5209,
      "apole": 5210,
      "ĠRech": 5211,
      "Cmd": 5212,
      "ukawa": 5213,
      "bank": 5214,
      "ibt": 5215,
      "iax": 5216,
      "orate": 5217,
      "Ġdv": 5218,
      "ĠIO": 5219,
      "idos": 5220,
      "ĠGriff": 5221,
      "oxal": 5222,
      "Ġramp": 5223,
      "iliar": 5224,
      "cien": 5225,
      "anesulf": 5226,
      "calup": 5227,
      "zcz": 5228,
      "abbat": 5229,
      "ĠAle": 5230,
      "ĠHS": 5231,
      "sci": 5232,
      "abad": 5233,
      "ushing": 5234,
      "df": 5235,
      "Ġeff": 5236,
      "Emoji": 5237,
      "ĠCec": 5238,
      "ĠPercent": 5239,
      "king": 5240,
      "ĠRom": 5241,
      "IServer": 5242,
      "squarePos": 5243,
      "auth": 5244,
      "otts": 5245,
      "yin": 5246,
      "adast": 5247,
      "ĠMill": 5248,
      "ĠEmil": 5249,
      "click": 5250,
      "roqu": 5251,
      "Tran": 5252,
      "ilic": 5253,
      "aisi": 5254,
      "andel": 5255,
      "ĠRef": 5256,
      "comp": 5257,
      "Ġprotot": 5258,
      "Ġburl": 5259,
      "ĠPanth": 5260,
      "roud": 5261,
      "UCLE": 5262,
      "userd": 5263,
      "Ġsting": 5264,
      "Ġlac": 5265,
      "kte": 5266,
      "eckt": 5267,
      "ActionBar": 5268,
      "HTTP": 5269,
      "bpm": 5270,
      "bpmOb": 5271,
      "asz": 5272,
      "Ġprototyp": 5273,
      "Ġno": 5274,
      "Water": 5275,
      "havam": 5276,
      "Ġgra": 5277,
      "ozer": 5278,
      "aluronic": 5279,
      "Ġpih": 5280,
      "ĠDu": 5281,
      "kat": 5282,
      "gett": 5283,
      "itos": 5284,
      "ugia": 5285,
      "iad": 5286,
      "ylinder": 5287,
      "ĠLib": 5288,
      "opt": 5289,
      "ount": 5290,
      "ipot": 5291,
      "ĠHU": 5292,
      "urit": 5293,
      "webtoken": 5294,
      "Npm": 5295,
      "uation": 5296,
      "loadNpm": 5297,
      "IFORN": 5298,
      "Binding": 5299,
      "iton": 5300,
      "ĠHub": 5301,
      "ĠSait": 5302,
      "Ġmac": 5303,
      "LLO": 5304,
      "Ġsudd": 5305,
      "Ġesp": 5306,
      "nie": 5307,
      "untime": 5308,
      "Ġsor": 5309,
      "ĠNakam": 5310,
      "omial": 5311,
      "InOut": 5312,
      "Report": 5313,
      "weathermap": 5314,
      "KK": 5315,
      "sPath": 5316,
      "ByteArray": 5317,
      "KAKK": 5318,
      "KAKKIA": 5319,
      "AYLOR": 5320,
      "Fcm": 5321,
      "Ang": 5322,
      "Cel": 5323,
      "Ġbod": 5324,
      "ziem": 5325,
      "clare": 5326,
      "iots": 5327,
      "rier": 5328,
      "rops": 5329,
      "Ġsubsid": 5330,
      "sorb": 5331,
      "Ġoverr": 5332,
      "OSE": 5333,
      "Ġger": 5334,
      "ittal": 5335,
      "ĠParr": 5336,
      "amilton": 5337,
      "oret": 5338,
      "lash": 5339,
      "zuk": 5340,
      "Ġoutper": 5341,
      "Ġgele": 5342,
      "sciutto": 5343,
      "usst": 5344,
      "udar": 5345,
      "gal": 5346,
      "ithin": 5347,
      "jorie": 5348,
      "ĠLa": 5349,
      "Ġya": 5350,
      "Team": 5351,
      "ĠBian": 5352,
      "inks": 5353,
      "Zaw": 5354,
      "Ġalk": 5355,
      "ĠMaul": 5356,
      "Ġpref": 5357,
      "enam": 5358,
      "Ġsurp": 5359,
      "Ġmargin": 5360,
      "Operand": 5361,
      "annten": 5362,
      "ahkan": 5363,
      "ised": 5364,
      "ding": 5365,
      "ĠLanc": 5366,
      "ril": 5367,
      "fetch": 5368,
      "Ġreset": 5369,
      "ivalent": 5370,
      "IRE": 5371,
      "asone": 5372,
      "kins": 5373,
      "ĠUIF": 5374,
      "Ġtari": 5375,
      "RouteChange": 5376,
      "ede": 5377,
      "ĠOm": 5378,
      "Ġsa": 5379,
      "ipi": 5380,
      "UAG": 5381,
      "Ġcam": 5382,
      "orf": 5383,
      "Bitmap": 5384,
      "elho": 5385,
      "weise": 5386,
      "iejs": 5387,
      "acerItem": 5388,
      "ening": 5389,
      "egir": 5390,
      "real": 5391,
      "gerufen": 5392,
      "Me": 5393,
      "Signed": 5394,
      "SelectList": 5395,
      "ImgBoard": 5396,
      "enamefont": 5397,
      "orem": 5398,
      "Ġmenget": 5399,
      "elope": 5400,
      "iliy": 5401,
      "avkh": 5402,
      "ĠPog": 5403,
      "ĠOld": 5404,
      "Send": 5405,
      "CTime": 5406,
      "Ġouts": 5407,
      "ĠBridg": 5408,
      "ĠMO": 5409,
      "ĠFile": 5410,
      "Ġmatch": 5411,
      "Container": 5412,
      "iste": 5413,
      "affold": 5414,
      "uropean": 5415,
      "asley": 5416,
      "brakk": 5417,
      "Pay": 5418,
      "embran": 5419,
      "Ġdiscret": 5420,
      "reath": 5421,
      "Ġprom": 5422,
      "naud": 5423,
      "inda": 5424,
      "localVar": 5425,
      "Ġdici": 5426,
      "ĠProb": 5427,
      "Ġobsc": 5428,
      "irection": 5429,
      "Sched": 5430,
      "aksanakan": 5431,
      "inth": 5432,
      "etics": 5433,
      "Ġmap": 5434,
      "ĠDI": 5435,
      "enom": 5436,
      "agne": 5437,
      "alda": 5438,
      "lefthar": 5439,
      "nj": 5440,
      "ylmethyl": 5441,
      "aming": 5442,
      "Fe": 5443,
      "Ġcas": 5444,
      "ctions": 5445,
      "Ġarrog": 5446,
      "alance": 5447,
      "ustus": 5448,
      "edDevice": 5449,
      "ayo": 5450,
      "dued": 5451,
      "ĠHorn": 5452,
      "Ble": 5453,
      "BleStatus": 5454,
      "Profile": 5455,
      "Ġplay": 5456,
      "Ġconstit": 5457,
      "ILLER": 5458,
      "agre": 5459,
      "kten": 5460,
      "Ġemph": 5461,
      "lexstr": 5462,
      "Flo": 5463,
      "ĠSol": 5464,
      "ualaikum": 5465,
      "oare": 5466,
      "nios": 5467,
      "atab": 5468,
      "Ġtry": 5469,
      "etest": 5470,
      "ĠSer": 5471,
      "gener": 5472,
      "Ġah": 5473,
      "asaki": 5474,
      "opa": 5475,
      "Ġruf": 5476,
      "browser": 5477,
      "Colour": 5478,
      "ĠGet": 5479,
      "getDo": 5480,
      "ĠCAG": 5481,
      "ĠSRPGo": 5482,
      "etrieb": 5483,
      "elit": 5484,
      "Ġasympt": 5485,
      "Last": 5486,
      "ogenic": 5487,
      "mente": 5488,
      "ĠHerr": 5489,
      "ioid": 5490,
      "ĠWhit": 5491,
      "Ġtol": 5492,
      "Parent": 5493,
      "ahanga": 5494,
      "oker": 5495,
      "ĠSchwar": 5496,
      "pret": 5497,
      "erse": 5498,
      "olin": 5499,
      "Ġmath": 5500,
      "Ġpour": 5501,
      "Ġprotr": 5502,
      "Ġjal": 5503,
      "delay": 5504,
      "urz": 5505,
      "ography": 5506,
      "ixin": 5507,
      "anyu": 5508,
      "cliffe": 5509,
      "SCH": 5510,
      "hte": 5511,
      "ellow": 5512,
      "ommerce": 5513,
      "abwe": 5514,
      "ĠEdmund": 5515,
      "Ġnir": 5516,
      "sru": 5517,
      "spring": 5518,
      "sruhe": 5519,
      "oxid": 5520,
      "uGet": 5521,
      "atom": 5522,
      "rement": 5523,
      "ĠArist": 5524,
      "erville": 5525,
      "imest": 5526,
      "perg": 5527,
      "Ġendow": 5528,
      "Ġhandc": 5529,
      "inary": 5530,
      "ackbar": 5531,
      "ĠTrou": 5532,
      "ullen": 5533,
      "pc": 5534,
      "ĠMTL": 5535,
      "Ġnon": 5536,
      "NG": 5537,
      "acchar": 5538,
      "dul": 5539,
      "Ġwir": 5540,
      "base": 5541,
      "chnen": 5542,
      "IntValue": 5543,
      "eping": 5544,
      "apia": 5545,
      "ĠNx": 5546,
      "Ġruh": 5547,
      "ertown": 5548,
      "ibar": 5549,
      "Ht": 5550,
      "ĠGlo": 5551,
      "ĠGlouc": 5552,
      "unger": 5553,
      "arga": 5554,
      "ĠBens": 5555,
      "setImage": 5556,
      "ehr": 5557,
      "asmine": 5558,
      "Ġprobation": 5559,
      "Ġsign": 5560,
      "erein": 5561,
      "ĠTs": 5562,
      "Ġfoll": 5563,
      "Ġben": 5564,
      "Serial": 5565,
      "ogle": 5566,
      "avre": 5567,
      "ashed": 5568,
      "kowicz": 5569,
      "rances": 5570,
      "Death": 5571,
      "Ġbic": 5572,
      "iard": 5573,
      "MessageBox": 5574,
      "Ġscreen": 5575,
      "RN": 5576,
      "DetailUI": 5577,
      "gesch": 5578,
      "EK": 5579,
      "ayle": 5580,
      "slam": 5581,
      "ospor": 5582,
      "thena": 5583,
      "ĠOsb": 5584,
      "Ag": 5585,
      "quar": 5586,
      "ĠSrin": 5587,
      "ENCE": 5588,
      "ToJava": 5589,
      "uyu": 5590,
      "abella": 5591,
      "Mouse": 5592,
      "Loader": 5593,
      "angkat": 5594,
      "ĠJes": 5595,
      "ĠJesuit": 5596,
      "usin": 5597,
      "files": 5598,
      "stack": 5599,
      "PlatformImage": 5600,
      "jet": 5601,
      "adeh": 5602,
      "Ġpavatt": 5603,
      "isan": 5604,
      "Offsets": 5605,
      "OfDeath": 5606,
      "ĠDais": 5607,
      "ocarp": 5608,
      "ĠGile": 5609,
      "Templ": 5610,
      "Ġfles": 5611,
      "eja": 5612,
      "Ġsak": 5613,
      "Ġdhat": 5614,
      "indon": 5615,
      "hanahu": 5616,
      "ints": 5617,
      "inqu": 5618,
      "anesh": 5619,
      "Win": 5620,
      "WinCounter": 5621,
      "phant": 5622,
      "check": 5623,
      "Ġtransfer": 5624,
      "Annot": 5625,
      "heit": 5626,
      "ersive": 5627,
      "ĠRash": 5628,
      "iac": 5629,
      "ĠLE": 5630,
      "ĠRosh": 5631,
      "adip": 5632,
      "ĠCV": 5633,
      "oped": 5634,
      "enga": 5635,
      "tnie": 5636,
      "incl": 5637,
      "chievement": 5638,
      "Hot": 5639,
      "olen": 5640,
      "uously": 5641,
      "antiate": 5642,
      "ĠOsw": 5643,
      "rir": 5644,
      "amoto": 5645,
      "MM": 5646,
      "Scripts": 5647,
      "Tint": 5648,
      "uleiro": 5649,
      "INK": 5650,
      "seek": 5651,
      "eches": 5652,
      "ĠKec": 5653,
      "atim": 5654,
      "edown": 5655,
      "Translate": 5656,
      "Translatef": 5657,
      "Ġlag": 5658,
      "Ġmengg": 5659,
      "yel": 5660,
      "GRAM": 5661,
      "Complete": 5662,
      "sg": 5663,
      "ĠGlad": 5664,
      "Ġarter": 5665,
      "bound": 5666,
      "xcsch": 5667,
      "othermic": 5668,
      "imony": 5669,
      "zent": 5670,
      "Ġdehyd": 5671,
      "asy": 5672,
      "aner": 5673,
      "9>": 5674,
      "endum": 5675,
      "Ġphosph": 5676,
      "PushButton": 5677,
      "ethe": 5678,
      "orde": 5679,
      "ĠBanglad": 5680,
      "Ġdolor": 5681,
      "Ġleicht": 5682,
      "getS": 5683,
      "Ġkarot": 5684,
      "Range": 5685,
      "Infl": 5686,
      "uma": 5687,
      "Head": 5688,
      "Ġnirvach": 5689,
      "ĠNapole": 5690,
      "Ġmagnet": 5691,
      "ĠMenz": 5692,
      "Inflater": 5693,
      "nos": 5694,
      "ĠKab": 5695,
      "arlow": 5696,
      "onica": 5697,
      "Ġenroll": 5698,
      "aceut": 5699,
      "perBound": 5700,
      "iscilla": 5701,
      "Ġrag": 5702,
      "Ġmock": 5703,
      "Score": 5704,
      "elson": 5705,
      "Frame": 5706,
      "ritic": 5707,
      "uxt": 5708,
      "iding": 5709,
      "inguish": 5710,
      "adrup": 5711,
      "ĠRein": 5712,
      "agna": 5713,
      "ensity": 5714,
      "spective": 5715,
      "GTBase": 5716,
      "typ": 5717,
      "foam": 5718,
      "SignedIn": 5719,
      "actone": 5720,
      "emen": 5721,
      "Ġmadr": 5722,
      "HDROffsets": 5723,
      "Ġtariff": 5724,
      "Ġku": 5725,
      "anoe": 5726,
      "umlahan": 5727,
      "Found": 5728,
      "ĠLou": 5729,
      "tolower": 5730,
      "Ġbut": 5731,
      "INF": 5732,
      "inha": 5733,
      "uerite": 5734,
      "enum": 5735,
      "Ġmanoe": 5736,
      "ĠKauf": 5737,
      "ĠBra": 5738,
      "ĠLau": 5739,
      "icked": 5740,
      "Bride": 5741,
      "Compos": 5742,
      "ereo": 5743,
      "CIS": 5744,
      "binicons": 5745,
      "ormed": 5746,
      "Ġhepin": 5747,
      "car": 5748,
      "Flare": 5749,
      "arcin": 5750,
      "fried": 5751,
      "onies": 5752,
      "ingles": 5753,
      "othe": 5754,
      "py": 5755,
      "ichten": 5756,
      "orge": 5757,
      "wati": 5758,
      "ĠRow": 5759,
      "inear": 5760,
      "ĠMour": 5761,
      "Ġsplen": 5762,
      "Ġhom": 5763,
      "SCE": 5764,
      "Ġpoz": 5765,
      "CHAR": 5766,
      "Ġdigniss": 5767,
      "Ġfing": 5768,
      "pack": 5769,
      "ĠKy": 5770,
      "bd": 5771,
      "abil": 5772,
      "aching": 5773,
      "PhotoButton": 5774,
      "yip": 5775,
      "andae": 5776,
      "ĠAc": 5777,
      "Ġpropag": 5778,
      "unker": 5779,
      "Argument": 5780,
      "feld": 5781,
      "plained": 5782,
      "ingSt": 5783,
      "ĠRav": 5784,
      "Design": 5785,
      "ompar": 5786,
      "ĠVic": 5787,
      "ĠOk": 5788,
      "orral": 5789,
      "ibia": 5790,
      "theb": 5791,
      "idalgo": 5792,
      "peed": 5793,
      "inton": 5794,
      "Ġze": 5795,
      "day": 5796,
      "sig": 5797,
      "Ġimage": 5798,
      "ERV": 5799,
      "Ġdescon": 5800,
      "yste": 5801,
      "ĠCop": 5802,
      "oust": 5803,
      "aas": 5804,
      "zyst": 5805,
      "aspid": 5806,
      "kaar": 5807,
      "bell": 5808,
      "lems": 5809,
      "revista": 5810,
      "corper": 5811,
      "ethane": 5812,
      "BadRequest": 5813,
      "Ġzeb": 5814,
      "OD": 5815,
      "inak": 5816,
      "Ġsolen": 5817,
      "olk": 5818,
      "uza": 5819,
      "CharAt": 5820,
      "inin": 5821,
      "inters": 5822,
      "otient": 5823,
      "chau": 5824,
      "Idx": 5825,
      "HtIdx": 5826,
      "ophorus": 5827,
      "ĠTink": 5828,
      "Ġanisotrop": 5829,
      "Ġner": 5830,
      "ombe": 5831,
      "default": 5832,
      "TEST": 5833,
      "ĠSS": 5834,
      "Ġhyp": 5835,
      "azaki": 5836,
      "ĠOS": 5837,
      "ĠPen": 5838,
      "ermat": 5839,
      "ksam": 5840,
      "SaveFolder": 5841,
      "Ġconjug": 5842,
      "akra": 5843,
      "betrieb": 5844,
      "merksam": 5845,
      "ĠZus": 5846,
      "eban": 5847,
      "Ġsuit": 5848,
      "UST": 5849,
      "salary": 5850,
      "capt": 5851,
      "enger": 5852,
      "iso": 5853,
      "lyl": 5854,
      "iput": 5855,
      "ĠFeder": 5856,
      "Ġpositiv": 5857,
      "Ġrod": 5858,
      "othp": 5859,
      "ĠSac": 5860,
      "gbo": 5861,
      "ifix": 5862,
      "ypass": 5863,
      "ĠPaul": 5864,
      "osed": 5865,
      "outi": 5866,
      "amata": 5867,
      "ansson": 5868,
      "ĠBrun": 5869,
      "zie": 5870,
      "Speed": 5871,
      "ĠCF": 5872,
      "gebra": 5873,
      "Lens": 5874,
      "Ġdos": 5875,
      "hiy": 5876,
      "ĠSIINF": 5877,
      "ĠMoh": 5878,
      "value": 5879,
      "aguchi": 5880,
      "rific": 5881,
      "UNG": 5882,
      "adar": 5883,
      "Sant": 5884,
      "ULD": 5885,
      "pergillus": 5886,
      "ĠPeg": 5887,
      "ulose": 5888,
      "Local": 5889,
      "rc": 5890,
      "imid": 5891,
      "Ġboast": 5892,
      "onio": 5893,
      "Ġlance": 5894,
      "nemid": 5895,
      "itius": 5896,
      "annel": 5897,
      "Ġtap": 5898,
      "istan": 5899,
      "Decoration": 5900,
      "Ġimmun": 5901,
      "ERCENT": 5902,
      "mad": 5903,
      "metry": 5904,
      "cek": 5905,
      "Ġlay": 5906,
      "ĠBlanch": 5907,
      "breviation": 5908,
      "ĠtotalBlock": 5909,
      "ĠtotalBlockUsed": 5910,
      "Ġfact": 5911,
      "AMS": 5912,
      "hea": 5913,
      "ĠAK": 5914,
      "ĠSarat": 5915,
      "SSI": 5916,
      "Ġdraw": 5917,
      "ynh": 5918,
      "ĠMcCorm": 5919,
      "positroid": 5920,
      "Ġfug": 5921,
      "umped": 5922,
      "Ġclear": 5923,
      "vency": 5924,
      "Clazz": 5925,
      "ĠBarthol": 5926,
      "ĠBartholom": 5927,
      "ueprint": 5928,
      "ĠKam": 5929,
      "rameN": 5930,
      "ongrass": 5931,
      "BM": 5932,
      "aju": 5933,
      "Ġeu": 5934,
      "ourne": 5935,
      "errer": 5936,
      "lessis": 5937,
      "orp": 5938,
      "Ġdisf": 5939,
      "angen": 5940,
      "Ġmaneuver": 5941,
      "Ġvalid": 5942,
      "atar": 5943,
      "lan": 5944,
      "Us": 5945,
      "addies": 5946,
      "LA": 5947,
      "ossible": 5948,
      "Rt": 5949,
      "xRt": 5950,
      "ierra": 5951,
      "Ġsecond": 5952,
      "Ġdox": 5953,
      "eted": 5954,
      "isInt": 5955,
      "Ġvii": 5956,
      "Ġjob": 5957,
      "aders": 5958,
      "TypeCode": 5959,
      "TOR": 5960,
      "thorne": 5961,
      "Ġprost": 5962,
      "Ġuro": 5963,
      "<0x6": 5964,
      "ecido": 5965,
      "ĠSach": 5966,
      "orphisms": 5967,
      "ĠKait": 5968,
      "aust": 5969,
      "QT": 5970,
      "Weight": 5971,
      "ikh": 5972,
      "athe": 5973,
      "ration": 5974,
      "QTTR": 5975,
      "staw": 5976,
      "onia": 5977,
      "Ġbrib": 5978,
      "Pre": 5979,
      "ĠCart": 5980,
      "Ġbaj": 5981,
      "aldi": 5982,
      "std": 5983,
      "ĠSub": 5984,
      "RESS": 5985,
      "Ġunbel": 5986,
      "orov": 5987,
      "ĠStrick": 5988,
      "Eff": 5989,
      "aso": 5990,
      "getPackage": 5991,
      "label": 5992,
      "ĠPW": 5993,
      "ercicio": 5994,
      "Effect": 5995,
      "small": 5996,
      "elve": 5997,
      "aient": 5998,
      "ushrooms": 5999,
      "ivariate": 6000,
      "Ġcomment": 6001,
      "itorG": 6002,
      "idazol": 6003,
      "arty": 6004,
      "bol": 6005,
      "ĠPir": 6006,
      "aes": 6007,
      "LAGS": 6008,
      "ohar": 6009,
      "ĠKow": 6010,
      "acyj": 6011,
      "ople": 6012,
      "ositol": 6013,
      "atto": 6014,
      "itva": 6015,
      "ĠLamp": 6016,
      "eker": 6017,
      "ĠPick": 6018,
      "efinite": 6019,
      "idefinite": 6020,
      "Ġty": 6021,
      "ĠEg": 6022,
      "My": 6023,
      "ĠRec": 6024,
      "ancel": 6025,
      "Pham": 6026,
      "Ġdiarr": 6027,
      "Ġcanal": 6028,
      "Mob": 6029,
      "ellik": 6030,
      "itzer": 6031,
      "angka": 6032,
      "Ġcanalicul": 6033,
      "Border": 6034,
      "Ġnah": 6035,
      "Ġdukk": 6036,
      "riendly": 6037,
      "Ġasc": 6038,
      "Ġwc": 6039,
      "Ġpej": 6040,
      "rock": 6041,
      "KindOf": 6042,
      "ĠFate": 6043,
      "ĠOt": 6044,
      "ĠNE": 6045,
      "Ġbulund": 6046,
      "Ġaggreg": 6047,
      "imbabwe": 6048,
      "ĠRa": 6049,
      "uir": 6050,
      "ĠUnwrap": 6051,
      "LAND": 6052,
      "getMetering": 6053,
      "Qt": 6054,
      "ĠnewInput": 6055,
      "ĠMel": 6056,
      "ioxid": 6057,
      "Ġmes": 6058,
      "Overlay": 6059,
      "ITY": 6060,
      "esis": 6061,
      "ajun": 6062,
      "Ġload": 6063,
      "ĠWnd": 6064,
      "iland": 6065,
      "valho": 6066,
      "nod": 6067,
      "ojana": 6068,
      "eus": 6069,
      "Ġgac": 6070,
      "ĠAnt": 6071,
      "Ġmandib": 6072,
      "display": 6073,
      "rem": 6074,
      "Ġencaps": 6075,
      "ĠTak": 6076,
      "aec": 6077,
      "Ġforg": 6078,
      "ropriate": 6079,
      "llr": 6080,
      "arrell": 6081,
      "Ġzircon": 6082,
      "Attr": 6083,
      "Ġresult": 6084,
      "estand": 6085,
      "iant": 6086,
      "inaire": 6087,
      "usun": 6088,
      "inuation": 6089,
      "Enabled": 6090,
      "ĠDM": 6091,
      "fek": 6092,
      "ĠMay": 6093,
      "opia": 6094,
      "GPIO": 6095,
      "iniz": 6096,
      "ycz": 6097,
      "adden": 6098,
      "Ġbush": 6099,
      "ĠMIM": 6100,
      "Ġconcur": 6101,
      "umpa": 6102,
      "ongol": 6103,
      "rous": 6104,
      "ĠHend": 6105,
      "Directory": 6106,
      "angleOf": 6107,
      "reeks": 6108,
      "ucz": 6109,
      "onductor": 6110,
      "ĠChau": 6111,
      "nehm": 6112,
      "gul": 6113,
      "nak": 6114,
      "Swift": 6115,
      "upy": 6116,
      "ĠMahm": 6117,
      "vate": 6118,
      "Ġadsorb": 6119,
      "inam": 6120,
      "Ġaccus": 6121,
      "Ġfam": 6122,
      "Ġperk": 6123,
      "DidChange": 6124,
      "KeyCode": 6125,
      "iques": 6126,
      "Calls": 6127,
      "ApiCalls": 6128,
      "ijke": 6129,
      "indelijk": 6130,
      "Iam": 6131,
      "ebastian": 6132,
      "osecond": 6133,
      "Ġcoment": 6134,
      "upani": 6135,
      "LuaPush": 6136,
      "reon": 6137,
      "ableConcept": 6138,
      "rawler": 6139,
      "ustellen": 6140,
      "vania": 6141,
      "fik": 6142,
      "cover": 6143,
      "ourke": 6144,
      "othy": 6145,
      "MaxScaler": 6146,
      "embranes": 6147,
      "eney": 6148,
      "ĠChester": 6149,
      "apiro": 6150,
      "Ġeng": 6151,
      "Hein": 6152,
      "uben": 6153,
      "sworth": 6154,
      "Ġul": 6155,
      "iges": 6156,
      "ardino": 6157,
      "ofield": 6158,
      "Ġwild": 6159,
      "jek": 6160,
      "ritable": 6161,
      "ropical": 6162,
      "ensor": 6163,
      "aknya": 6164,
      "hoff": 6165,
      "akur": 6166,
      "HLIGHT": 6167,
      "egs": 6168,
      "ueDate": 6169,
      "chelon": 6170,
      "Ġens": 6171,
      "PASD": 6172,
      "PASDW": 6173,
      "PAss": 6174,
      "upload": 6175,
      "obson": 6176,
      "iname": 6177,
      "ssf": 6178,
      "acan": 6179,
      "Ġarr": 6180,
      "Ġsubl": 6181,
      "Ġterm": 6182,
      "ATEC": 6183,
      "MDE": 6184,
      "hak": 6185,
      "ortis": 6186,
      "Ġscr": 6187,
      "stmt": 6188,
      "oco": 6189,
      "ermott": 6190,
      "Ġsyn": 6191,
      "wal": 6192,
      "ĠTun": 6193,
      "Ġlocomot": 6194,
      "ETA": 6195,
      "Ġdismiss": 6196,
      "inture": 6197,
      "Msg": 6198,
      "Ġszy": 6199,
      "ucumber": 6200,
      "angers": 6201,
      "mip": 6202,
      "ĠSacram": 6203,
      "aterial": 6204,
      "rb": 6205,
      "uchar": 6206,
      "phine": 6207,
      "ĠSimp": 6208,
      "ĠSimpson": 6209,
      "ctrine": 6210,
      "uche": 6211,
      "REIB": 6212,
      "BB": 6213,
      "Thread": 6214,
      "Ġwithdraw": 6215,
      "usi": 6216,
      "nahme": 6217,
      "Ġcert": 6218,
      "umbs": 6219,
      "OAVOA": 6220,
      "HAOAVOA": 6221,
      "Nil": 6222,
      "Ġdap": 6223,
      "ĠnChar": 6224,
      "jay": 6225,
      "Namara": 6226,
      "chard": 6227,
      "Ġjun": 6228,
      "Ġverw": 6229,
      "Ġspring": 6230,
      "archar": 6231,
      "Ġnig": 6232,
      "Ġferrug": 6233,
      "efer": 6234,
      "ToJavaResult": 6235,
      "newswire": 6236,
      "opsis": 6237,
      "Ġcomput": 6238,
      "Ġstup": 6239,
      "ĠElev": 6240,
      "ĠHez": 6241,
      "sein": 6242,
      "urtis": 6243,
      "irling": 6244,
      "Ġsqu": 6245,
      "ottl": 6246,
      "Ġcit": 6247,
      "ĠHttp": 6248,
      "Ġodnos": 6249,
      "aue": 6250,
      "CallBack": 6251,
      "antium": 6252,
      "ĠBox": 6253,
      "icin": 6254,
      "amag": 6255,
      "Ġpred": 6256,
      "Ġdid": 6257,
      "kre": 6258,
      "Ġbah": 6259,
      "ĠBull": 6260,
      "ifstream": 6261,
      "ruch": 6262,
      "cimento": 6263,
      "Ġmolyb": 6264,
      "ORE": 6265,
      "Use": 6266,
      "ACY": 6267,
      "unte": 6268,
      "straction": 6269,
      "pped": 6270,
      "IVER": 6271,
      "Ġdic": 6272,
      "ulner": 6273,
      "osil": 6274,
      "fNil": 6275,
      "rio": 6276,
      "Ġfingert": 6277,
      "ommodity": 6278,
      "oform": 6279,
      "Ġmed": 6280,
      "Ġisoform": 6281,
      "ĠDr": 6282,
      "ismod": 6283,
      "ĠGuang": 6284,
      "rison": 6285,
      "aney": 6286,
      "rien": 6287,
      "lying": 6288,
      "arantadhatu": 6289,
      "Black": 6290,
      "Ġrame": 6291,
      "anjutan": 6292,
      "urno": 6293,
      "Ġundist": 6294,
      "Ġopioid": 6295,
      "EnCPP": 6296,
      "Pointer": 6297,
      "ĠVern": 6298,
      "recation": 6299,
      "Ġtext": 6300,
      "Ġregener": 6301,
      "methods": 6302,
      "esses": 6303,
      "ipotent": 6304,
      "Ġrot": 6305,
      "noop": 6306,
      "Ġtow": 6307,
      "cons": 6308,
      "Icon": 6309,
      "hagen": 6310,
      "ĠRem": 6311,
      "Raz": 6312,
      "tl": 6313,
      "ĠKel": 6314,
      "anian": 6315,
      "ulates": 6316,
      "Kit": 6317,
      "Ġplast": 6318,
      "waitFor": 6319,
      "Ġtinc": 6320,
      "ĠCrow": 6321,
      "assan": 6322,
      "ĠWith": 6323,
      "ĠWithers": 6324,
      "ĠUm": 6325,
      "ongy": 6326,
      "pher": 6327,
      "Ġfert": 6328,
      "Ġmanif": 6329,
      "renn": 6330,
      "ĠIm": 6331,
      "ĠVie": 6332,
      "Ġwal": 6333,
      "ĠMe": 6334,
      "Rewarded": 6335,
      "Ġacryl": 6336,
      "error": 6337,
      "forder": 6338,
      "TextBox": 6339,
      "ModelGrid": 6340,
      "Ġcristian": 6341,
      "Hours": 6342,
      "itiis": 6343,
      "ĠKhal": 6344,
      "araham": 6345,
      "ĠVog": 6346,
      "ĠUIA": 6347,
      "ĠBent": 6348,
      "drag": 6349,
      "foot": 6350,
      "ĠHSP": 6351,
      "ĠTom": 6352,
      "antation": 6353,
      "ege": 6354,
      "ĠSudan": 6355,
      "hmen": 6356,
      "ĠTanj": 6357,
      "anded": 6358,
      "Jpeg": 6359,
      "sko": 6360,
      "ecoexpr": 6361,
      "Contact": 6362,
      "pool": 6363,
      "Ġproduct": 6364,
      "adakan": 6365,
      "AGEmoji": 6366,
      "lare": 6367,
      "Manus": 6368,
      "Ġexfol": 6369,
      "ĠJohn": 6370,
      "CTION": 6371,
      "abe": 6372,
      "GBT": 6373,
      "Results": 6374,
      "aits": 6375,
      "Ġheter": 6376,
      "ĠWelles": 6377,
      "ollip": 6378,
      "orini": 6379,
      "Len": 6380,
      "afHandle": 6381,
      "cov": 6382,
      "ubei": 6383,
      "ellite": 6384,
      "Ġthuring": 6385,
      "inston": 6386,
      "ĠChev": 6387,
      "estructive": 6388,
      "irectional": 6389,
      "onnell": 6390,
      "dict": 6391,
      "utti": 6392,
      "ĠNass": 6393,
      "owane": 6394,
      "usz": 6395,
      "anie": 6396,
      "execute": 6397,
      "cie": 6398,
      "Actions": 6399,
      "enio": 6400,
      "Sn": 6401,
      "Configure": 6402,
      "cho": 6403,
      "xyz": 6404,
      "Ġcomorbid": 6405,
      "snow": 6406,
      "wxyz": 6407,
      "sett": 6408,
      "Ġbi": 6409,
      "Socket": 6410,
      "onym": 6411,
      "ĠSR": 6412,
      "iveness": 6413,
      "ukh": 6414,
      "yman": 6415,
      "ĠLith": 6416,
      "upyter": 6417,
      "ikis": 6418,
      "ulture": 6419,
      "ĠBron": 6420,
      "chini": 6421,
      "Ġbetray": 6422,
      "ietic": 6423,
      "ĠClem": 6424,
      "ĠArchiv": 6425,
      "ylem": 6426,
      "OS": 6427,
      "Eng": 6428,
      "ĠAmit": 6429,
      "osch": 6430,
      "ILayout": 6431,
      "Ġyojet": 6432,
      "itability": 6433,
      "ĠSDL": 6434,
      "atthakath": 6435,
      "ĠLithuan": 6436,
      "agam": 6437,
      "ĠVand": 6438,
      "ĠDMS": 6439,
      "omone": 6440,
      "reat": 6441,
      "ĠBorder": 6442,
      "esley": 6443,
      "InitFlag": 6444,
      "ttps": 6445,
      "ollipop": 6446,
      "avicon": 6447,
      "inesh": 6448,
      "Ġnar": 6449,
      "ĠBlueprint": 6450,
      "keygen": 6451,
      "aeskeygen": 6452,
      "ĠSM": 6453,
      "ixe": 6454,
      "Ġencl": 6455,
      "onen": 6456,
      "endra": 6457,
      "usia": 6458,
      "wig": 6459,
      "Ġesc": 6460,
      "Autor": 6461,
      "evan": 6462,
      "ĠUb": 6463,
      "ĠZanz": 6464,
      "overed": 6465,
      "assay": 6466,
      "eki": 6467,
      "ubb": 6468,
      "ria": 6469,
      "atian": 6470,
      "Ġfen": 6471,
      "ulous": 6472,
      "Ġunivers": 6473,
      "opor": 6474,
      "ĠBolog": 6475,
      "ynam": 6476,
      "ysi": 6477,
      "ialmente": 6478,
      "azione": 6479,
      "rosc": 6480,
      "ĠSorrent": 6481,
      "asse": 6482,
      "ĠHash": 6483,
      "dar": 6484,
      "amber": 6485,
      "royo": 6486,
      "wargs": 6487,
      "erms": 6488,
      "geon": 6489,
      "Ġsputter": 6490,
      "Ġkont": 6491,
      "fix": 6492,
      "Ġcapill": 6493,
      "ilar": 6494,
      "ĠCat": 6495,
      "aughlin": 6496,
      "Ġbeque": 6497,
      "Ġprerog": 6498,
      "icited": 6499,
      "Ġangl": 6500,
      "artner": 6501,
      "Ġmlij": 6502,
      "illis": 6503,
      "ĠAlv": 6504,
      "ĠKum": 6505,
      "obl": 6506,
      "Ġhinz": 6507,
      "inders": 6508,
      "Tuple": 6509,
      "ahn": 6510,
      "lim": 6511,
      "ORK": 6512,
      "FileSync": 6513,
      "oga": 6514,
      "estation": 6515,
      "oreet": 6516,
      "chsel": 6517,
      "ĠDarm": 6518,
      "ogener": 6519,
      "zte": 6520,
      "udge": 6521,
      "Ġpy": 6522,
      "chemy": 6523,
      "Ġtomon": 6524,
      "zun": 6525,
      "aml": 6526,
      "umoto": 6527,
      "Ġthor": 6528,
      "QRST": 6529,
      "Cs": 6530,
      "Native": 6531,
      "aisse": 6532,
      "Ġscout": 6533,
      "enje": 6534,
      "iht": 6535,
      "Intensity": 6536,
      "uada": 6537,
      "vette": 6538,
      "ienda": 6539,
      "Ġobject": 6540,
      "raves": 6541,
      "Ġinfil": 6542,
      "hdad": 6543,
      "BJECT": 6544,
      "Float": 6545,
      "lynk": 6546,
      "hnt": 6547,
      "ston": 6548,
      "ĠLeh": 6549,
      "Ġbuoy": 6550,
      "BOM": 6551,
      "chelles": 6552,
      "richt": 6553,
      "Be": 6554,
      "Ġbau": 6555,
      "Ġmerhab": 6556,
      "andro": 6557,
      "inect": 6558,
      "Ġling": 6559,
      "Ġpsych": 6560,
      "iquidacion": 6561,
      "Ġoh": 6562,
      "Ġflavon": 6563,
      "Android": 6564,
      "uco": 6565,
      "ayvach": 6566,
      "ayvachi": 6567,
      "RawContext": 6568,
      "Ġmang": 6569,
      "CLion": 6570,
      "ĠEph": 6571,
      "Ġlect": 6572,
      "bes": 6573,
      "Ġlong": 6574,
      "ulkan": 6575,
      "isbury": 6576,
      "iliz": 6577,
      "ĠTouch": 6578,
      "bew": 6579,
      "coords": 6580,
      "acity": 6581,
      "Ġust": 6582,
      "ĠOpen": 6583,
      "Fail": 6584,
      "WithOwner": 6585,
      "imcoords": 6586,
      "ogaster": 6587,
      "rovers": 6588,
      "ĠLeib": 6589,
      "TargetPath": 6590,
      "atten": 6591,
      "Ġwyn": 6592,
      "Ġwab": 6593,
      "PreferenceKey": 6594,
      "Ġcost": 6595,
      "retr": 6596,
      "Ġfrict": 6597,
      "attup": 6598,
      "laki": 6599,
      "rolog": 6600,
      "ĠIs": 6601,
      "eutral": 6602,
      "Ġbrag": 6603,
      "Family": 6604,
      "cr": 6605,
      "arboxylic": 6606,
      "Debugger": 6607,
      "ehold": 6608,
      "ĠGol": 6609,
      "wast": 6610,
      "ukary": 6611,
      "iltin": 6612,
      "ĠNest": 6613,
      "ĠOff": 6614,
      "ĠEngle": 6615,
      "Ġkick": 6616,
      "anus": 6617,
      "ĠGuadal": 6618,
      "Ġseb": 6619,
      "ĠQt": 6620,
      "Ġindex": 6621,
      "blast": 6622,
      "unning": 6623,
      "rins": 6624,
      "arse": 6625,
      "okol": 6626,
      "Ġforce": 6627,
      "GridView": 6628,
      "ĠRah": 6629,
      "lvm": 6630,
      "agog": 6631,
      "aling": 6632,
      "Ġshe": 6633,
      "Ġdzie": 6634,
      "ovat": 6635,
      "antiated": 6636,
      "simple": 6637,
      "lag": 6638,
      "Plot": 6639,
      "agar": 6640,
      "ĠNex": 6641,
      "ĠArray": 6642,
      "Ġsaff": 6643,
      "rano": 6644,
      "ĠWitt": 6645,
      "oge": 6646,
      "ogie": 6647,
      "osov": 6648,
      "Ġpo": 6649,
      "ibouti": 6650,
      "ĠSeah": 6651,
      "ULT": 6652,
      "atik": 6653,
      "SizeMode": 6654,
      "ademia": 6655,
      "ĠFle": 6656,
      "entum": 6657,
      "evron": 6658,
      "Ġdaily": 6659,
      "Ġdeter": 6660,
      "icult": 6661,
      "artTime": 6662,
      "denum": 6663,
      "far": 6664,
      "Ġboy": 6665,
      "Ġpronoun": 6666,
      "Under": 6667,
      "lant": 6668,
      "herjee": 6669,
      "Sales": 6670,
      "array": 6671,
      "JpegLen": 6672,
      "ĠKid": 6673,
      "DAR": 6674,
      "hrer": 6675,
      "Ġdjel": 6676,
      "ArchivePath": 6677,
      "assertArg": 6678,
      "pleClass": 6679,
      "ĠTok": 6680,
      "ĠdailySales": 6681,
      "ĠSalford": 6682,
      "Ġleft": 6683,
      "lexeme": 6684,
      "Changes": 6685,
      "lam": 6686,
      "ĠCSI": 6687,
      "Ġtime": 6688,
      "kannya": 6689,
      "Products": 6690,
      "OGRAM": 6691,
      "Wheel": 6692,
      "ĠMicha": 6693,
      "ProductsStore": 6694,
      "ĠleftWheel": 6695,
      "lementine": 6696,
      "accarat": 6697,
      "Ġtund": 6698,
      "ĠGuant": 6699,
      "ĠReb": 6700,
      "ĠChing": 6701,
      "Ġtrial": 6702,
      "ĠtrialComponents": 6703,
      "Legend": 6704,
      "ColorLegend": 6705,
      "alingrad": 6706,
      "ColumnKind": 6707,
      "Ġviti": 6708,
      "Jordan": 6709,
      "ĠEnglewood": 6710,
      "ĠBisby": 6711,
      "ĠclearContext": 6712,
      "ĠcontentLength": 6713,
      "HIG": 6714,
      "ĠGTS": 6715,
      "ĠUCC": 6716,
      "arcel": 6717,
      "navigation": 6718,
      "HIGHLIGHT": 6719,
      "ĠCAA": 6720,
      "ĠJoa": 6721,
      "ĠJoaqu": 6722,
      "veless": 6723,
      "Ġerled": 6724,
      "ĠPieter": 6725,
      "ĠcurrentGame": 6726,
      "Prog": 6727,
      "egin": 6728,
      "Ġdung": 6729,
      "ĠPST": 6730,
      "ĠRuh": 6731,
      "fie": 6732,
      "orant": 6733,
      "Ġiss": 6734,
      "inol": 6735,
      "ĠBismarck": 6736,
      "raag": 6737,
      "ixeira": 6738,
      "symplectic": 6739,
      "ĠlineColor": 6740,
      "ĠUnwrapRef": 6741,
      "Ġinterviews": 6742,
      "ĠCCI": 6743,
      "elan": 6744,
      "ĠQTL": 6745,
      "wnie": 6746,
      "ioane": 6747,
      "ceu": 6748,
      "Ġsteckt": 6749,
      "esin": 6750,
      "ainak": 6751,
      "FBSDKApp": 6752,
      "UserProg": 6753,
      "SCEcorr": 6754,
      "estershire": 6755,
      "ĠGloucestershire": 6756,
      "CTOGRAM": 6757,
      "Ġstaw": 6758,
      "lib": 6759,
      "ĠthisT": 6760,
      "ĠthisTrial": 6761,
      "ĠMcKe": 6762,
      "ĠIBC": 6763,
      "hand": 6764,
      "oczes": 6765,
      "irk": 6766,
      "ĠWarrington": 6767,
      "enge": 6768,
      "wna": 6769,
      "lasz": 6770,
      "zub": 6771,
      "awanda": 6772,
      "aaye": 6773,
      "Ġappl": 6774,
      "ĠGorman": 6775,
      "ĠLSP": 6776,
      "Dummy": 6777,
      "LAGAB": 6778,
      "abes": 6779,
      "ĠVieira": 6780,
      "Decoder": 6781,
      "iden": 6782,
      "ĠMukesh": 6783,
      "alnya": 6784,
      "Ġmouth": 6785,
      "ĠHoover": 6786,
      "ĠDalib": 6787,
      "ĠMCI": 6788,
      "ĠArrayRef": 6789,
      "pst": 6790,
      "steen": 6791,
      "esan": 6792,
      "ĠSpringsteen": 6793,
      "uidor": 6794,
      "ĠimageHeight": 6795,
      "ĠHertfordshire": 6796,
      "upon": 6797,
      "ĠRUDDER": 6798,
      "ĠICC": 6799,
      "Ġmanglid": 6800,
      "NSInteger": 6801,
      "apollo": 6802,
      "xes": 6803,
      "rophages": 6804,
      "ĠappId": 6805,
      "RefIn": 6806,
      "VICIO": 6807,
      "UnderTest": 6808,
      "ĠLiving": 6809,
      "apl": 6810,
      "ObjectUnderTest": 6811,
      "ĠBao": 6812,
      "ARCHAR": 6813,
      "jte": 6814,
      "ToShow": 6815,
      "ĠTCS": 6816,
      "street": 6817,
      "ĠMatsumoto": 6818,
      "convolve": 6819,
      "ĠeTo": 6820,
      "ĠPegasus": 6821,
      "ĠTFA": 6822,
      "ĠHSBC": 6823,
      "Ġangios": 6824,
      "TreeNavigator": 6825,
      "iziert": 6826,
      "ĠMannheim": 6827,
      "<0x4": 6828,
      "qal": 6829,
      "agas": 6830,
      "dDays": 6831,
      "ĠTAC": 6832,
      "ĠDigest": 6833,
      "Ġbhe": 6834,
      "Ġafl": 6835,
      "HPO": 6836,
      "coin": 6837,
      "Ġnayo": 6838,
      "ĠFileResource": 6839,
      "cast": 6840,
      "everance": 6841,
      "idcoin": 6842,
      "ĠTulane": 6843,
      "Ġaflat": 6844,
      "acchati": 6845,
      "ĠFigma": 6846,
      "ĠElevated": 6847,
      "ĠElevatedButton": 6848,
      "ĠPTI": 6849,
      "ĠBergamo": 6850,
      "Bracket": 6851,
      "ĠPCI": 6852,
      "Bracketing": 6853,
      "usion": 6854,
      "Templates": 6855,
      "Ġname": 6856,
      "ĠCRM": 6857,
      "ĠJord": 6858,
      "ĠnameWithOwner": 6859,
      "pathTemplates": 6860,
      "ĠDSA": 6861,
      "andra": 6862,
      "temuan": 6863,
      "Ġkotlin": 6864,
      "semos": 6865,
      "onya": 6866,
      "Ġcovered": 6867,
      "ĠFCI": 6868,
      "DummyView": 6869,
      "ĠBarclays": 6870,
      "Ġcoveredmethods": 6871,
      "ĠOp": 6872,
      "Emitter": 6873,
      "ĠinputBox": 6874,
      "ĠPDPN": 6875,
      "AndroidResource": 6876,
      "tei": 6877,
      "iduc": 6878,
      "nienia": 6879,
      "Gordon": 6880,
      "UP": 6881,
      "ĠMcFadden": 6882,
[...]
