{
  "version": "1.0",
  "truncation": null,
  "padding": null,
  "added_tokens": [
    {
      "id": 5627,
      "content": "<UNK>",
      "single_word": false,
      "lstrip": false,
      "rstrip": false,
      "normalized": true,
      "special": true
    },
    {
      "id": 5628,
      "content": "<｜end▁of▁sentence｜>",
      "single_word": false,
      "lstrip": false,
      "rstrip": false,
      "normalized": true,
      "special": true
    },
    {
      "id": 5629,
      "content": "<｜pad｜>",
      "single_word": false,
      "lstrip": false,
      "rstrip": false,
      "normalized": true,
      "special": true
    },
    {
      "id": 5630,
      "content": "<｜begin▁of▁sentence｜>",
      "single_word": false,
      "lstrip": false,
      "rstrip": false,
      "normalized": true,
      "special": true
    }
  ],
  "normalizer": {
    "type": "Sequence",
    "normalizers": []
  },
  "pre_tokenizer": {
    "type": "Sequence",
    "pretokenizers": [
      {
        "type": "Split",
        "pattern": {
          "Regex": "[\\r\\n]"
        },
        "behavior": "Isolated",
        "invert": false
      },
      {
        "type": "Split",
        "pattern": {
          "Regex": "\\s?[A-Za-zµÀ-ÖØ-öø-ƺƼ-ƿǄ-ʓʕ-ʯͰ-ͳͶͷͻ-ͽͿΆΈ-ΊΌΎ-ΡΣ-ϵϷ-ҁҊ-ԯԱ-ՖႠ-ჅᎠ-Ᏽᏸ-ᏽᲐ-ᲺᲽ-Ჿᴀ-ᴫᵫ-ᵷᵹ-ᶚḀ-ἕἘ-Ἕἠ-ὅὈ-Ὅὐ-ὗὙὛὝὟ-ώᾀ-ᾴᾶ-ᾼιῂ-ῄῆ-ῌῐ-ΐῖ-Ίῠ-Ῥῲ-ῴῶ-ῼℂℇℊ-ℓℕℙ-ℝℤΩℨK-ℭℯ-ℴℹℼ-ℿⅅ-ⅉⅎↃↄⰀ-ⱻⱾ-ⳤⳫ-ⳮⳲⳳꙀ-ꙭꚀ-ꚛꜢ-ꝯꝱ-ꞇꞋ-ꞎꭰ-ꮿﬀ-ﬆﬓ-ﬗＡ-Ｚａ-ｚ𐐀-𐑏𐒰-𐓓𐓘-𐓻𐲀-𐲲𐳀-𐳲𑢠-𑣟𞤀-𞥃]+"
        },
        "behavior": "Isolated",
        "invert": false
      },
      {
        "type": "Split",
        "pattern": {
          "Regex": "\\s?[!-/:-~！-／：-～‘-‟　-。]+"
        },
        "behavior": "Isolated",
        "invert": false
      },
      {
        "type": "Split",
        "pattern": {
          "Regex": "\\s+$"
        },
        "behavior": "Isolated",
        "invert": false
      },
      {
        "type": "Split",
        "pattern": {
          "Regex": "[一-龥ࠀ-一가-퟿]+"
        },
        "behavior": "Isolated",
        "invert": false
      },
      {
        "type": "Digits",
        "individual_digits": true
      },
      {
        "type": "ByteLevel",
        "add_prefix_space": false,
        "trim_offsets": true,
        "use_regex": false
      }
    ]
  },
  "post_processor": {
    "type": "ByteLevel",
    "add_prefix_space": true,
    "trim_offsets": false,
    "use_regex": true
  },
  "decoder": {
    "type": "ByteLevel",
    "add_prefix_space": true,
    "trim_offsets": true,
    "use_regex": true
  },
  "model": {
    "type": "BPE",
    "dropout": null,
    "unk_token": "<UNK>",
    "continuing_subword_prefix": null,
    "end_of_word_suffix": null,
    "fuse_unk": false,
    "byte_fallback": false,
    "ignore_merges": false,
    "bMax_frequency": true,
    "max_frequency": 63649887,
    "vocab": {
      "ĠHeb": 0,
      "ogel": 1,
      "ACITY": 2,
      "elong": 3,
      "ĠHeter": 4,
      "ĠNg": 5,
      "ĠMarques": 6,
      "nio": 7,
      "Ġfric": 8,
      "ĠHeterocycl": 9,
      "Ġvyn": 10,
      "Ġuniversities": 11,
      "Birth": 12,
      "ĠLay": 13,
      "ensuche": 14,
      "ĠSamuels": 15,
      "rache": 16,
      "ĠINTEGER": 17,
      "ĠCodeableConcept": 18,
      "Ġence": 19,
      "Ġenceinte": 20,
      "ĠWiley": 21,
      "ASTER": 22,
      "cyte": 23,
      "Ġconduire": 24,
      "eson": 25,
      "ichannel": 26,
      "Comments": 27,
      "Ġerinnert": 28,
      "ĠDury": 29,
      "ĠVoll": 30,
      "Ġabog": 31,
      "ĠHaring": 32,
      "correct": 33,
      "legt": 34,
      "ĠRuk": 35,
      "Ġqueues": 36,
      "Ġrecouvre": 37,
      "ĠVoyager": 38,
      "Ġsiding": 39,
      "ĠGord": 40,
      "Ġdefaulted": 41,
      "avate": 42,
      "Ġcaries": 43,
      "fv": 44,
      "ĠglLightfv": 45,
      "Ġdanos": 46,
      "ĠBarnard": 47,
      "Ġgire": 48,
      "Ġextrud": 49,
      "OTAL": 50,
      "Ġbih": 51,
      "enzione": 52,
      "Ġmischiev": 53,
      "arism": 54,
      "ovich": 55,
      "raulic": 56,
      "osterol": 57,
      "iviato": 58,
      "Ġheg": 59,
      "Ġgrasping": 60,
      "ĠIRON": 61,
      "Ġpil": 62,
      "Ġinsan": 63,
      "Ġcelebrar": 64,
      "Ġronda": 65,
      "agiarism": 66,
      "ĠNewtonsoft": 67,
      "ĠroomId": 68,
      "fieldName": 69,
      "Ġneur": 70,
      "igarh": 71,
      "TestSource": 72,
      "Ġinclusive": 73,
      "Ġangels": 74,
      "ĠOlha": 75,
      "Ġcondesc": 76,
      "uencia": 77,
      "Ġperovsk": 78,
      "iputi": 79,
      "uria": 80,
      "Ġfelled": 81,
      "ytics": 82,
      "Ġphare": 83,
      "rigger": 84,
      "Ġdropdown": 85,
      "Ġprotein": 86,
      "ĠGardiner": 87,
      "ulich": 88,
      "Ġproteinuria": 89,
      "chromo": 90,
      "asat": 91,
      "olition": 92,
      "igon": 93,
      "Trigger": 94,
      "idane": 95,
      "ĠEgo": 96,
      "Ġjuxtaposition": 97,
      "ĠSaigon": 98,
      "sgd": 99,
      "Ġuga": 100,
      "Topology": 101,
      "rightbar": 102,
      "Ġkug": 103,
      "ĠPenguin": 104,
      "opens": 105,
      "ermis": 106,
      "Ġfogl": 107,
      "Ġtiz": 108,
      "ĠAir": 109,
      "ĠMuse": 110,
      "Ġallyl": 111,
      "Ġpani": 112,
      "Ġunsp": 113,
      "ĠGoPro": 114,
      "ARIFF": 115,
      "Ġconvolutions": 116,
      "lene": 117,
      "entes": 118,
      "Ġperone": 119,
      "ĠPafHandle": 120,
      "Toolset": 121,
      "ombian": 122,
      "Ġaffections": 123,
      "orner": 124,
      "ĠMori": 125,
      "ĠlineWidth": 126,
      "ctus": 127,
      "ĠChua": 128,
      "ejam": 129,
      "ĠGabri": 130,
      "jpe": 131,
      "opensource": 132,
      "eria": 133,
      "Decimal": 134,
      "ĠCGRect": 135,
      "ĠWhitman": 136,
      "Ġunspo": 137,
      "nungs": 138,
      "Ġemozioni": 139,
      "Ġpoked": 140,
      "ĠChurches": 141,
      "ĠNeuro": 142,
      "ĠEventHandler": 143,
      "ĠStreamWriter": 144,
      "Ġajun": 145,
      "Ġajuns": 146,
      "geo": 147,
      "ilogue": 148,
      "Ġcalm": 149,
      "cientes": 150,
      "ilangkan": 151,
      "marginBottom": 152,
      "yng": 153,
      "Ġisten": 154,
      "getJSONObject": 155,
      "dern": 156,
      "ĠOg": 157,
      "Ġdemanded": 158,
      "Ġserde": 159,
      "Ġprivy": 160,
      "Ġvisant": 161,
      "Ġjulho": 162,
      "FIELDS": 163,
      "Ġshear": 164,
      "SEE": 165,
      "ClassLoader": 166,
      "Ġjanvier": 167,
      "uckle": 168,
      "ĠINSEE": 169,
      "ĠBarros": 170,
      "Leet": 171,
      "heids": 172,
      "ĠNorton": 173,
      "direccion": 174,
      "addChild": 175,
      "innerHeight": 176,
      "iodate": 177,
      "pril": 178,
      "oelectronic": 179,
      "ĠCylinder": 180,
      "Ġnoy": 181,
      "ĠIGD": 182,
      "series": 183,
      "Ġsoph": 184,
      "Ġvorstellen": 185,
      "ĠthrowIf": 186,
      "NavigationBar": 187,
      "CellStyle": 188,
      "Ġdecad": 189,
      "Webster": 190,
      "opping": 191,
      "Ġocor": 192,
      "ĠGresham": 193,
      "Ġobliter": 194,
      "PlatformToolset": 195,
      "Ġscipy": 196,
      "rypted": 197,
      "voegd": 198,
      "Ġendereco": 199,
      "semaphore": 200,
      "rawy": 201,
      "ipsych": 202,
      "ĠOkan": 203,
      "Ġspawn": 204,
      "Ġrosette": 205,
      "adata": 206,
      "ĠRudd": 207,
      "ĠNeg": 208,
      "kee": 209,
      "AGO": 210,
      "patan": 211,
      "irms": 212,
      "Ġkelah": 213,
      "ksom": 214,
      "Ġkelahiran": 215,
      "ICAGO": 216,
      "ĠVanity": 217,
      "marks": 218,
      "emph": 219,
      "Ġwits": 220,
      "ĠMika": 221,
      "Ġtern": 222,
      "abhuto": 223,
      "Ġobsol": 224,
      "ĠBoo": 225,
      "Ġinterstitial": 226,
      "opengl": 227,
      "arshall": 228,
      "DbContext": 229,
      "ĠOgden": 230,
      "Ġobese": 231,
      "Ġsupre": 232,
      "Headers": 233,
      "thren": 234,
      "ĠmiR": 235,
      "ĠCrossing": 236,
      "ĠLugar": 237,
      "inist": 238,
      "Ġgsap": 239,
      "lasan": 240,
      "decin": 241,
      "Ġradica": 242,
      "ijske": 243,
      "Ġswarm": 244,
      "ĠPWM": 245,
      "SAG": 246,
      "arap": 247,
      "embar": 248,
      "Ġfroth": 249,
      "Ġoscill": 250,
      "Ġconsag": 251,
      "Ġdisturbed": 252,
      "gro": 253,
      "okas": 254,
      "Ġsupernat": 255,
      "Ġsubsum": 256,
      "uppercase": 257,
      "AK": 258,
      "asonic": 259,
      "ĠSwords": 260,
      "ĠKonrad": 261,
      "pham": 262,
      "splitext": 263,
      "Ġkawa": 264,
      "weixin": 265,
      "ĠSamen": 266,
      "SCREEN": 267,
      "Ġbreak": 268,
      "Crossing": 269,
      "asson": 270,
      "ĠUINavigation": 271,
      "Ġrmse": 272,
      "ĠKazim": 273,
      "Ġbele": 274,
      "smittel": 275,
      "lerinin": 276,
      "blah": 277,
      "opically": 278,
      "Ġlounge": 279,
      "ĠSu": 280,
      "ĠKirchen": 281,
      "ĠFerrell": 282,
      "Ġbesonder": 283,
      "otopy": 284,
      "ĠGau": 285,
      "ĠRTL": 286,
      "Ġneuralgia": 287,
      "ĠMiddleton": 288,
      "antec": 289,
      "UpSync": 290,
      "LSX": 291,
      "ĠXLSX": 292,
      "Ġoscilloscope": 293,
      "phere": 294,
      "ombat": 295,
      "Ġhelium": 296,
      "ĠCato": 297,
      "ĠstartActivity": 298,
      "ĠAuthent": 299,
      "ĠHatch": 300,
      "ĠUnidos": 301,
      "ĠYoshi": 302,
      "Ġampere": 303,
      "Ġprod": 304,
      "xtures": 305,
      "Exposure": 306,
      "ĠSuz": 307,
      "andex": 308,
      "habalar": 309,
      "Ġbrut": 310,
      "Ġduv": 311,
      "eates": 312,
      "ĠCameras": 313,
      "Ġpermeates": 314,
      "Ġvassals": 315,
      "Ġduvar": 316,
      "imana": 317,
      "Ġmesso": 318,
      "ĠKombat": 319,
      "ĠSuu": 320,
      "captivity": 321,
      "raud": 322,
      "UMNS": 323,
      "Ġchans": 324,
      "Ġhent": 325,
      "eship": 326,
      "elaar": 327,
      "PERT": 328,
      "ĠMDS": 329,
      "agaimana": 330,
      "Ġmagas": 331,
      "Workbook": 332,
      "ĠQuakers": 333,
      "Ġfinanc": 334,
      "ĠSuzhou": 335,
      "ĠKaltura": 336,
      "Ġbreakaway": 337,
      "Ġuve": 338,
      "Ġalam": 339,
      "contrast": 340,
      "Ġsebagaimana": 341,
      "ĠNaina": 342,
      "Ġolmadan": 343,
      "orey": 344,
      "jercicio": 345,
      "Ġkuul": 346,
      "Ġconstitutive": 347,
      "Ġauthenticity": 348,
      "empo": 349,
      "Ġbypass": 350,
      "Ejercicio": 351,
      "mtrl": 352,
      "feira": 353,
      "BSCR": 354,
      "zhen": 355,
      "IBE": 356,
      "BSCRIBE": 357,
      "aisy": 358,
      "Ġmitad": 359,
      "ayal": 360,
      "Ġexplains": 361,
      "Ġseas": 362,
      "inizin": 363,
      "ĠBoxFit": 364,
      "ĠToms": 365,
      "Ġvivido": 366,
      "qrcode": 367,
      "Linking": 368,
      "Ġcru": 369,
      "vetica": 370,
      "dler": 371,
      "LevelLinking": 372,
      "github": 373,
      "ĠAtkins": 374,
      "ueness": 375,
      "Ġunivariate": 376,
      "oneg": 377,
      "avorites": 378,
      "mutex": 379,
      "Ġma": 380,
      "Ġko": 381,
      "ĠHodges": 382,
      "MgSO": 383,
      "osti": 384,
      "embry": 385,
      "ĠKod": 386,
      "Ġunnamed": 387,
      "gorod": 388,
      "ĠKhim": 389,
      "closed": 390,
      "ĠZeng": 391,
      "Maui": 392,
      "gens": 393,
      "ĠRCW": 394,
      "Ġseg": 395,
      "urare": 396,
      "ĠKodak": 397,
      "koa": 398,
      "Declared": 399,
      "ĠGlyph": 400,
      "ĠRana": 401,
      "lesh": 402,
      "Ġprzek": 403,
      "Ġafge": 404,
      "btnEjercicio": 405,
      "werk": 406,
      "SetActive": 407,
      "ihara": 408,
      "posTocco": 409,
      "uchen": 410,
      "feas": 411,
      "Ġdifficiles": 412,
      "uname": 413,
      "Ġmusculoskeletal": 414,
      "corners": 415,
      "Ġessen": 416,
      "ĠPacquiao": 417,
      "ĠAlbrecht": 418,
      "Ġpran": 419,
      "ĠCorning": 420,
      "onaut": 421,
      "getDeclared": 422,
      "tenham": 423,
      "Ġsapi": 424,
      "Ġyorum": 425,
      "ĠProceed": 426,
      "Ġisteyen": 427,
      "iddhi": 428,
      "novu": 429,
      "ĠCorbett": 430,
      "eud": 431,
      "getDate": 432,
      "ĠCtrl": 433,
      "Ġmein": 434,
      "Ġcaut": 435,
      "stained": 436,
      "ENANCE": 437,
      "ANDA": 438,
      "edinte": 439,
      "CharField": 440,
      "hatiti": 441,
      "InitTypeDef": 442,
      "imar": 443,
      "ĠABI": 444,
      "Ġgive": 445,
      "ĠScud": 446,
      "arul": 447,
      "ĠBigDecimal": 448,
      "Ġhurd": 449,
      "ĠbaseY": 450,
      "axies": 451,
      "Ġalg": 452,
      "Ġabogado": 453,
      "olc": 454,
      "decrypt": 455,
      "AlertType": 456,
      "Ġstadion": 457,
      "ĠXen": 458,
      "bootstrap": 459,
      "iraan": 460,
      "Ġmillones": 461,
      "ĠMacc": 462,
      "ĠZidane": 463,
      "bootstrapcdn": 464,
      "Ġmuque": 465,
      "chine": 466,
      "ahua": 467,
      "orting": 468,
      "classlist": 469,
      "Ġmewn": 470,
      "ĠTarifleri": 471,
      "Ġempe": 472,
      "EDGE": 473,
      "Ġsway": 474,
      "Ġdesignating": 475,
      "xcuser": 476,
      "ofd": 477,
      "Ġcomposta": 478,
      "Ġraj": 479,
      "ĠsignIn": 480,
      "Ġawn": 481,
      "ĠASU": 482,
      "Ġfly": 483,
      "imps": 484,
      "ĠKBS": 485,
      "Ġloo": 486,
      "Proceed": 487,
      "Ġbeggars": 488,
      "Ġincent": 489,
      "Ġwhole": 490,
      "osyl": 491,
      "ĠEuchar": 492,
      "Ġflywheel": 493,
      "Ġquia": 494,
      "calcountery": 495,
      "Ġduck": 496,
      "Ġwholeheartedly": 497,
      "ĠHewitt": 498,
      "Ġduckys": 499,
      "Ġaliv": 500,
      "ĠJO": 501,
      "urnal": 502,
      "screening": 503,
      "Exponential": 504,
      "ĠPache": 505,
      "URNAL": 506,
      "ointees": 507,
      "ĠJOURNAL": 508,
      "Ġdashes": 509,
      "ĠFateh": 510,
      "datatables": 511,
      "lemme": 512,
      "Ġsoaring": 513,
      "Ġreiterate": 514,
      "ellar": 515,
      "bursement": 516,
      "cue": 517,
      "ParentElement": 518,
      "Ġtincture": 519,
      "icip": 520,
      "ĠGIL": 521,
      "ItemStack": 522,
      "etil": 523,
      "Ġparable": 524,
      "Ġbane": 525,
      "rocos": 526,
      "Ġmicrocos": 527,
      "Prefab": 528,
      "jung": 529,
      "Ġwcex": 530,
      "Ġesi": 531,
      "Ġayn": 532,
      "uger": 533,
      "PTH": 534,
      "oconut": 535,
      "itans": 536,
      "clamps": 537,
      "SendData": 538,
      "ObjectIndex": 539,
      "Ġdotato": 540,
      "issait": 541,
      "ndan": 542,
      "ĠInst": 543,
      "viamente": 544,
      "Tap": 545,
      "Ġkumar": 546,
      "Ġadecuadas": 547,
      "xh": 548,
      "Ġgxh": 549,
      "mohan": 550,
      "egon": 551,
      "Ġaz": 552,
      "ĠDharma": 553,
      "pointer": 554,
      "acial": 555,
      "commentaire": 556,
      "Ġschermo": 557,
      "nerv": 558,
      "ĠLayton": 559,
      "Ġdett": 560,
      "Ġscherm": 561,
      "Ġdou": 562,
      "kaisi": 563,
      "Ġpostav": 564,
      "Ġwhirl": 565,
      "Ġukaz": 566,
      "Ġprie": 567,
      "ĠSprache": 568,
      "ĠITable": 569,
      "estim": 570,
      "ĠManson": 571,
      "Ġvost": 572,
      "Ġscreened": 573,
      "Ġminhas": 574,
      "dtypes": 575,
      "ĠJacobian": 576,
      "ĠisKindOfClass": 577,
      "PART": 578,
      "buc": 579,
      "liet": 580,
      "Ġdislik": 581,
      "ĠnDims": 582,
      "ĠLanger": 583,
      "ĠEPC": 584,
      "rix": 585,
      "oist": 586,
      "Ġcaliente": 587,
      "PARTMENT": 588,
      "Ġmatahari": 589,
      "ĠOny": 590,
      "Ġantagon": 591,
      "ĠSaad": 592,
      "Ġmultichannel": 593,
      "Ġtqdm": 594,
      "IPT": 595,
      "cumsum": 596,
      "Ġremodel": 597,
      "Ġpunctatis": 598,
      "etime": 599,
      "Ġremodeling": 600,
      "arena": 601,
      "Ġplenary": 602,
      "Ġvaults": 603,
      "ungere": 604,
      "Ġseventeenth": 605,
      "Ġdeepen": 606,
      "Ġreine": 607,
      "textAllCaps": 608,
      "Salman": 609,
      "ĠELI": 610,
      "ĠELISA": 611,
      "acitor": 612,
      "ĠGarth": 613,
      "ĠInu": 614,
      "rotron": 615,
      "ropi": 616,
      "Ġapropi": 617,
      "ĠSupremo": 618,
      "ĠVikram": 619,
      "Ġchiede": 620,
      "databinding": 621,
      "Ġdve": 622,
      "fordul": 623,
      "agaman": 624,
      "RCode": 625,
      "ĠQRCode": 626,
      "ĠSteff": 627,
      "Ġeighteen": 628,
      "ĠARXIV": 629,
      "ĠNash": 630,
      "ĠonTap": 631,
      "ikke": 632,
      "ĠTestCase": 633,
      "Ġinco": 634,
      "Ġcetera": 635,
      "Digit": 636,
      "ĠMito": 637,
      "renaline": 638,
      "Ġnantinya": 639,
      "Ġgalt": 640,
      "createdAt": 641,
      "BITS": 642,
      "ĠMitgl": 643,
      "Ġcoerce": 644,
      "UILLER": 645,
      "roy": 646,
      "ormap": 647,
      "ĠLDAP": 648,
      "addDigit": 649,
      "ledon": 650,
      "ursing": 651,
      "Ġclang": 652,
      "osen": 653,
      "capacitor": 654,
      "Bard": 655,
      "ĠETA": 656,
      "shiv": 657,
      "Incremental": 658,
      "Ġrods": 659,
      "Ġtemporadas": 660,
      "lesque": 661,
      "offrey": 662,
      "StringSet": 663,
      "Ġperif": 664,
      "ĠRunnable": 665,
      "ulling": 666,
      "ĠUSART": 667,
      "omegal": 668,
      "writ": 669,
      "ĠRPA": 670,
      "leit": 671,
      "Ġcoars": 672,
      "regener": 673,
      "Ġteller": 674,
      "NOV": 675,
      "alsey": 676,
      "imamente": 677,
      "adang": 678,
      "fos": 679,
      "Ġoph": 680,
      "Ġuska": 681,
      "Ġbusque": 682,
      "Ġbra": 683,
      "WebpackPlugin": 684,
      "ĠFenn": 685,
      "snp": 686,
      "POSITIVE": 687,
      "arct": 688,
      "Ġrtl": 689,
      "Ġexpediente": 690,
      "ĠNSDictionary": 691,
      "ĠOrphans": 692,
      "pset": 693,
      "ĠPH": 694,
      "ĠScrib": 695,
      "chnitt": 696,
      "oeud": 697,
      "postas": 698,
      "ĠWorship": 699,
      "Ġreactance": 700,
      "Ġwanton": 701,
      "Ġinicio": 702,
      "insuku": 703,
      "onError": 704,
      "ycor": 705,
      "wale": 706,
      "getKeyCode": 707,
      "bly": 708,
      "htein": 709,
      "ĠOliva": 710,
      "itage": 711,
      "aza": 712,
      "uszko": 713,
      "ĠSerrano": 714,
      "ĠHorizons": 715,
      "ByKey": 716,
      "Ġxylem": 717,
      "ĠMontes": 718,
      "lacian": 719,
      "poc": 720,
      "ilarly": 721,
      "slope": 722,
      "yanka": 723,
      "Ġhandeln": 724,
      "Ġforgiveness": 725,
      "GIS": 726,
      "Ġincomp": 727,
      "Ġscab": 728,
      "PAR": 729,
      "ĠBakker": 730,
      "Ġaru": 731,
      "Ġdouze": 732,
      "Blind": 733,
      "ĠDAMAGES": 734,
      "Ġsurpr": 735,
      "Ġlaver": 736,
      "Ġantigu": 737,
      "servic": 738,
      "zzles": 739,
      "Buscar": 740,
      "Ġisu": 741,
      "astico": 742,
      "ulful": 743,
      "aggia": 744,
      "Ġsoulful": 745,
      "servicetime": 746,
      "Ġyur": 747,
      "adeIn": 748,
      "ISING": 749,
      "Advent": 750,
      "Hayes": 751,
      "Ġpredicates": 752,
      "ĠIRL": 753,
      "Ġshy": 754,
      "tabPage": 755,
      "Ġbuscan": 756,
      "jes": 757,
      "Ġerode": 758,
      "Ġbulat": 759,
      "uniya": 760,
      "ĠTurnier": 761,
      "Ġanalges": 762,
      "Ġcoronal": 763,
      "akata": 764,
      "effer": 765,
      "Ġosmosis": 766,
      "Ġtez": 767,
      "ĠaddObject": 768,
      "ENING": 769,
      "Ġluke": 770,
      "amish": 771,
      "ffa": 772,
      "Emojis": 773,
      "Ġasalamualaikum": 774,
      "Ġakammak": 775,
      "Ġimprovis": 776,
      "ĠgetWeather": 777,
      "GoRawContext": 778,
      "Ġcasse": 779,
      "anym": 780,
      "SearchView": 781,
      "Ġspasm": 782,
      "TRACE": 783,
      "Ġupsets": 784,
      "edale": 785,
      "Woh": 786,
      "Linear": 787,
      "ĠPun": 788,
      "ogli": 789,
      "Ġjoking": 790,
      "Ġadmits": 791,
      "Ġtark": 792,
      "Ġnought": 793,
      "ĠPeb": 794,
      "sf": 795,
      "Ġjet": 796,
      "letscher": 797,
      "mathsf": 798,
      "Ġqueued": 799,
      "Ġsaham": 800,
      "cett": 801,
      "Ġjie": 802,
      "entityManager": 803,
      "Ġeril": 804,
      "Ġphysi": 805,
      "ListenAnd": 806,
      "Serve": 807,
      "Ġplasmid": 808,
      "verz": 809,
      "Ġdoit": 810,
      "Picture": 811,
      "atinum": 812,
      "ListenAndServe": 813,
      "TakePicture": 814,
      "ĠWada": 815,
      "ĠSich": 816,
      "Ġabsorb": 817,
      "TextField": 818,
      "Ġobsid": 819,
      "Ġobsidian": 820,
      "ĠSita": 821,
      "Spy": 822,
      "Ġdettag": 823,
      "ĠLew": 824,
      "atsii": 825,
      "TOG": 826,
      "ĠAFP": 827,
      "ĠLewandowski": 828,
      "anvil": 829,
      "Ġsaga": 830,
      "enta": 831,
      "azed": 832,
      "ĠMullen": 833,
      "Ġfinit": 834,
      "clair": 835,
      "ĠGridSearchCV": 836,
      "Ġsizz": 837,
      "inguishable": 838,
      "Ġkuris": 839,
      "getCameraId": 840,
      "ieck": 841,
      "accum": 842,
      "Ġtropomyosin": 843,
      "Ġsizzling": 844,
      "ĠKomm": 845,
      "Ġustawy": 846,
      "Ġdegeneracy": 847,
      "Ġcallback": 848,
      "Ġhail": 849,
      "ĠOogie": 850,
      "ensia": 851,
      "editable": 852,
      "rophication": 853,
      "Ġtwenty": 854,
      "ipynb": 855,
      "MenuInflater": 856,
      "ĠFum": 857,
      "ĠManch": 858,
      "Ġrecibieron": 859,
      "held": 860,
      "Ġconfr": 861,
      "mead": 862,
      "Ġtygod": 863,
      "Inv": 864,
      "ikalis": 865,
      "Ġngang": 866,
      "ikalische": 867,
      "elev": 868,
      "ĠENGLAND": 869,
      "ĠNok": 870,
      "ĠVinh": 871,
      "Ġrenvers": 872,
      "Ġwithheld": 873,
      "Ġcock": 874,
      "keb": 875,
      "lead": 876,
      "Hop": 877,
      "Ġseizoen": 878,
      "Pods": 879,
      "uresh": 880,
      "mdash": 881,
      "vern": 882,
      "Ġnomen": 883,
      "DIR": 884,
      "ellia": 885,
      "ĠShazam": 886,
      "Ġradially": 887,
      "ĠNgo": 888,
      "Ġgraft": 889,
      "setConfig": 890,
      "irming": 891,
      "ĠVaill": 892,
      "LinearLayout": 893,
      "quoia": 894,
      "Ġunseres": 895,
      "ĠIRAS": 896,
      "HeightSizeMode": 897,
      "Ġeasing": 898,
      "ogeneities": 899,
      "akawa": 900,
      "Ġtweed": 901,
      "obaan": 902,
      "estimators": 903,
      "ĠConsiglio": 904,
      "Ġcec": 905,
      "Ġcast": 906,
      "Ġretrouve": 907,
      "isst": 908,
      "adolid": 909,
      "Ġelaborado": 910,
      "vecb": 911,
      "Ġsiku": 912,
      "ARP": 913,
      "ĠKurdistan": 914,
      "ĠKhalid": 915,
      "ĠTham": 916,
      "devil": 917,
      "ĠMits": 918,
      "ubert": 919,
      "Ġbreather": 920,
      "lerce": 921,
      "Ġsyg": 922,
      "ptor": 923,
      "Ġterb": 924,
      "cycline": 925,
      "ĠAbschluss": 926,
      "Ġtragen": 927,
      "Ġasin": 928,
      "Bah": 929,
      "Ġaggi": 930,
      "fileExistsAtPath": 931,
      "Ġdago": 932,
      "Ġvene": 933,
      "ĠMIME": 934,
      "Ġrecessed": 935,
      "ArchiveAction": 936,
      "chessboard": 937,
      "Direction": 938,
      "kali": 939,
      "Ġpase": 940,
      "ringle": 941,
      "affron": 942,
      "Ġrik": 943,
      "winds": 944,
      "textwidth": 945,
      "Ġoverride": 946,
      "Ġheadwinds": 947,
      "Ġez": 948,
      "irot": 949,
      "ĠPoirot": 950,
      "ImageBox": 951,
      "atino": 952,
      "Ġphyto": 953,
      "utes": 954,
      "Ġtarko": 955,
      "Ġwart": 956,
      "ĠDuck": 957,
      "boundingRect": 958,
      "ĠDuckworth": 959,
      "div": 960,
      "StarSrvGroup": 961,
      "blue": 962,
      "Ġgirlfriends": 963,
      "ONI": 964,
      "awia": 965,
      "Ġnombres": 966,
      "Ġhydrolysis": 967,
      "ĠhttpRequest": 968,
      "ĠKae": 969,
      "Ġlaur": 970,
      "Ġsif": 971,
      "Ġpuse": 972,
      "ĠCaterpillar": 973,
      "llama": 974,
      "ĠWorthington": 975,
      "ĠPHILLIPS": 976,
      "comm": 977,
      "emek": 978,
      "oczy": 979,
      "ĠBernal": 980,
      "pic": 981,
      "Ġpuls": 982,
      "issors": 983,
      "ĠCapri": 984,
      "Ġafterthought": 985,
      "ceva": 986,
      "Ġperoneal": 987,
      "ĠBEE": 988,
      "ocolate": 989,
      "shid": 990,
      "ppt": 991,
      "scatter": 992,
      "zicht": 993,
      "Ġtenths": 994,
      "Ġprequel": 995,
      "odulin": 996,
      "atschapp": 997,
      "Ġcalmodulin": 998,
      "kende": 999,
      "Ġinvigor": 1000,
      "vin": 1001,
      "XmlApplication": 1002,
      "Ġdial": 1003,
      "Ġautoch": 1004,
      "silhouette": 1005,
      "Ġembossing": 1006,
      "onycha": 1007,
      "ĠAnushka": 1008,
      "Ġcuesta": 1009,
      "eaders": 1010,
      "nasium": 1011,
      "ĠTemp": 1012,
      "Ġdibujos": 1013,
      "ieves": 1014,
      "NSArray": 1015,
      "ĠAMI": 1016,
      "Ġbajos": 1017,
      "Epic": 1018,
      "ĠAram": 1019,
      "Ġanecd": 1020,
      "refixer": 1021,
      "Ġtrzec": 1022,
      "Ġude": 1023,
      "inplace": 1024,
      "deut": 1025,
      "Ġpleads": 1026,
      "Ġdetract": 1027,
      "ĠMillionen": 1028,
      "ĠProse": 1029,
      "nextNode": 1030,
      "statuses": 1031,
      "ĠAuft": 1032,
      "Ġphun": 1033,
      "stado": 1034,
      "ĠACL": 1035,
      "ĠexposureLock": 1036,
      "ĠHartman": 1037,
      "getEstado": 1038,
      "neurs": 1039,
      "Ġdevolution": 1040,
      "couvre": 1041,
      "lere": 1042,
      "Ġdict": 1043,
      "iais": 1044,
      "couvrez": 1045,
      "odd": 1046,
      "ĠGagn": 1047,
      "ĠorderService": 1048,
      "jaty": 1049,
      "Ġkth": 1050,
      "ĠATL": 1051,
      "quet": 1052,
      "ĠKarla": 1053,
      "Ġheadroom": 1054,
      "ĠATLAS": 1055,
      "reader": 1056,
      "ĠOSCE": 1057,
      "ezza": 1058,
      "imbledon": 1059,
      "ĠBrowserRouter": 1060,
      "nehmen": 1061,
      "Ġacad": 1062,
      "Ġantide": 1063,
      "opolar": 1064,
      "ĠMCL": 1065,
      "ĠflexDirection": 1066,
      "LDA": 1067,
      "ĠIncre": 1068,
      "ĠGoName": 1069,
      "Ġteles": 1070,
      "tStart": 1071,
      "rified": 1072,
      "ĠplayerCount": 1073,
      "Ġcontinue": 1074,
      "uny": 1075,
      "ĠcontinueRoutine": 1076,
      "ExceptionHandler": 1077,
      "ungunya": 1078,
      "patches": 1079,
      "Ġforgiven": 1080,
      "ĠNeurog": 1081,
      "Ġtowards": 1082,
      "getSelectedItem": 1083,
      "Ġfund": 1084,
      "Ġinfo": 1085,
      "Ġpantalla": 1086,
      "Ġpoor": 1087,
      "Ġstrokes": 1088,
      "Ġmanifesting": 1089,
      "elor": 1090,
      "Ġcae": 1091,
      "arcz": 1092,
      "ĠmenuItem": 1093,
      "cubic": 1094,
      "Ġaggiungere": 1095,
      "Ġunprof": 1096,
      "Ġaffine": 1097,
      "Ġpoorly": 1098,
      "ĠMoshe": 1099,
      "ĠKazakh": 1100,
      "lerden": 1101,
      "NotEmpty": 1102,
      "ĠJCV": 1103,
      "ĠKommune": 1104,
      "ĠSejam": 1105,
      "ĠConsolidated": 1106,
      "ĠFigueroa": 1107,
      "oller": 1108,
      "Ġhohe": 1109,
      "mouth": 1110,
      "Ġrappeler": 1111,
      "Ġluoghi": 1112,
      "Ġovercrowding": 1113,
      "ymy": 1114,
      "eslint": 1115,
      "ĠGa": 1116,
      "ĠMaxime": 1117,
      "multiplier": 1118,
      "appell": 1119,
      "Tomas": 1120,
      "ĠMonmouth": 1121,
      "ĠJaya": 1122,
      "stool": 1123,
      "orton": 1124,
      "Ġnem": 1125,
      "PropTypes": 1126,
      "Ġnotch": 1127,
      "Ġhalted": 1128,
      "Ġmanis": 1129,
      "Ġaccum": 1130,
      "itat": 1131,
      "Ġlucrat": 1132,
      "ĠPolygon": 1133,
      "Ġeuc": 1134,
      "authenticate": 1135,
      "nnet": 1136,
      "Ġdrug": 1137,
      "Ġplatoon": 1138,
      "Ġmening": 1139,
      "Namespace": 1140,
      "Ġimped": 1141,
      "Ġkisses": 1142,
      "flage": 1143,
      "Ġreside": 1144,
      "umpy": 1145,
      "ovce": 1146,
      "rollback": 1147,
      "kla": 1148,
      "iosity": 1149,
      "odesmium": 1150,
      "RootNamespace": 1151,
      "Ġellips": 1152,
      "ĠSable": 1153,
      "Ġshak": 1154,
      "BackButton": 1155,
      "ĠFAR": 1156,
      "Ġsamar": 1157,
      "Ġtrouv": 1158,
      "Jimbo": 1159,
      "Ġspike": 1160,
      "ĠinitWith": 1161,
      "enqueue": 1162,
      "Ġpulsating": 1163,
      "Ġlevou": 1164,
      "aises": 1165,
      "ceptions": 1166,
      "incu": 1167,
      "ĠFachwerk": 1168,
      "entropy": 1169,
      "iflor": 1170,
      "Ġquotid": 1171,
      "Ġreluct": 1172,
      "Ġkaha": 1173,
      "ĠEDI": 1174,
      "phi": 1175,
      "ĠXXIV": 1176,
      "Ġalamu": 1177,
      "ince": 1178,
      "oweit": 1179,
      "Ġperal": 1180,
      "VarArgs": 1181,
      "Ġlegitimacy": 1182,
      "ferd": 1183,
      "razer": 1184,
      "nader": 1185,
      "ĠGallow": 1186,
      "ĠVirtual": 1187,
      "InputDir": 1188,
      "Ġtrow": 1189,
      "elloWorld": 1190,
      "timeStamp": 1191,
      "Ġtaim": 1192,
      "ClickListener": 1193,
      "ĠinitWithFrame": 1194,
      "Ġnorm": 1195,
      "autop": 1196,
      "houettes": 1197,
      "Ġspasmod": 1198,
      "ExposureTime": 1199,
      "ĠRoach": 1200,
      "ĠMuseu": 1201,
      "ĠKerm": 1202,
      "Ġanses": 1203,
      "ascal": 1204,
      "ĠInstantiate": 1205,
      "Ġinterfer": 1206,
      "Ġsuccumbed": 1207,
      "engel": 1208,
      "Ġstrand": 1209,
      "Ġfugiat": 1210,
      "Ġclam": 1211,
      "rator": 1212,
      "agit": 1213,
      "uldig": 1214,
      "Ġmip": 1215,
      "Ġimpide": 1216,
      "autoprefixer": 1217,
      "Ġchon": 1218,
      "Ġinsulina": 1219,
      "inkler": 1220,
      "ĠTimo": 1221,
      "ĠCinque": 1222,
      "ĠPaise": 1223,
      "SSFWorkbook": 1224,
      "Ġanivers": 1225,
      "rubyg": 1226,
      "Into": 1227,
      "Ġwoo": 1228,
      "InfoWindow": 1229,
      "MaskInto": 1230,
      "hyg": 1231,
      "pons": 1232,
      "engelsk": 1233,
      "hygine": 1234,
      "ĠSwagger": 1235,
      "Ġsebelah": 1236,
      "umnos": 1237,
      "Ġmilling": 1238,
      "ĠMagdalena": 1239,
      "ĠPyaar": 1240,
      "erties": 1241,
      "jacent": 1242,
      "ĠHelios": 1243,
      "osine": 1244,
      "Cemento": 1245,
      "ĠDelaney": 1246,
      "urney": 1247,
      "Adjacent": 1248,
      "adrenaline": 1249,
      "netlify": 1250,
      "insertAdjacent": 1251,
      "ĠCFP": 1252,
      "built": 1253,
      "PLY": 1254,
      "avant": 1255,
      "ADB": 1256,
      "astien": 1257,
      "Ġpieds": 1258,
      "Bast": 1259,
      "erala": 1260,
      "redd": 1261,
      "Grace": 1262,
      "Ġpund": 1263,
      "ĠRoHS": 1264,
      "Ġpostice": 1265,
      "icama": 1266,
      "Ġisother": 1267,
      "raphic": 1268,
      "ĠColombian": 1269,
      "Ġonyx": 1270,
      "bbe": 1271,
      "eper": 1272,
      "Ġcontempl": 1273,
      "Ġmengatasi": 1274,
      "ĠBxa": 1275,
      "Ġdevra": 1276,
      "gnu": 1277,
      "ĠDavenport": 1278,
      "mies": 1279,
      "ytale": 1280,
      "Ġtriglycer": 1281,
      "readers": 1282,
      "iese": 1283,
      "sour": 1284,
      "Ġmals": 1285,
      "ernetes": 1286,
      "ĠAarti": 1287,
      "Ġfastapi": 1288,
      "TOGRAM": 1289,
      "Ġcerim": 1290,
      "Ġinbuilt": 1291,
      "avo": 1292,
      "genos": 1293,
      "Ġvivent": 1294,
      "Ġopet": 1295,
      "Ġradion": 1296,
      "ĠLoon": 1297,
      "Ġfugit": 1298,
      "randint": 1299,
      "basename": 1300,
      "Ġtrauer": 1301,
      "IZE": 1302,
      "Coll": 1303,
      "Power": 1304,
      "bearing": 1305,
      "Ġwillpower": 1306,
      "MSBuild": 1307,
      "Ġressort": 1308,
      "errated": 1309,
      "Ġdigitar": 1310,
      "ĠCasimir": 1311,
      "Ġdeja": 1312,
      "Ġrigidly": 1313,
      "ĠYunn": 1314,
      "ĠYunnan": 1315,
      "Ġverd": 1316,
      "Ġchub": 1317,
      "Ġvertigo": 1318,
      "Ġpointwise": 1319,
      "ĠRough": 1320,
      "ĠRSI": 1321,
      "Ġnursing": 1322,
      "ĠMess": 1323,
      "Ġenjoying": 1324,
      "SAN": 1325,
      "ĠgetMenuInflater": 1326,
      "astikan": 1327,
      "Properties": 1328,
      "ĠPR": 1329,
      "SANIT": 1330,
      "SANITIZE": 1331,
      "ĠisTestSource": 1332,
      "CreateIndex": 1333,
      "arynx": 1334,
      "Hib": 1335,
      "Ġfar": 1336,
      "Ġmagaz": 1337,
      "Ġhotels": 1338,
      "Ġiht": 1339,
      "Ġlois": 1340,
      "ĠindexPath": 1341,
      "ipated": 1342,
      "addons": 1343,
      "Ġconsigned": 1344,
      "ĠJus": 1345,
      "rection": 1346,
      "getActivity": 1347,
      "Ġcogn": 1348,
      "ĠIps": 1349,
      "znego": 1350,
      "Ġausz": 1351,
      "kernels": 1352,
      "Ġris": 1353,
      "Ġtratto": 1354,
      "furter": 1355,
      "elesaian": 1356,
      "ĠIpswich": 1357,
      "EAS": 1358,
      "Ġantennes": 1359,
      "Ġasap": 1360,
      "aVal": 1361,
      "style": 1362,
      "Ġvyk": 1363,
      "ĠChange": 1364,
      "accompan": 1365,
      "Notifier": 1366,
      "Ġfaraway": 1367,
      "dokka": 1368,
      "Ġfinden": 1369,
      "Ġbronchial": 1370,
      "azaar": 1371,
      "ĠChangeNotifier": 1372,
      "ĠYor": 1373,
      "alese": 1374,
      "issed": 1375,
      "IRA": 1376,
      "charCode": 1377,
      "Ġerricht": 1378,
      "romycin": 1379,
      "Ġsupp": 1380,
      "Ġpsychopath": 1381,
      "Ġconnot": 1382,
      "Ġcorroborate": 1383,
      "Ġranger": 1384,
      "ituus": 1385,
      "Ġsuperconduct": 1386,
      "Ġsuppuration": 1387,
      "card": 1388,
      "orgio": 1389,
      "ĠGiorgio": 1390,
      "Ġdah": 1391,
      "Ġhissed": 1392,
      "ealth": 1393,
      "jelder": 1394,
      "ijski": 1395,
      "ĠUInt": 1396,
      "ĠEller": 1397,
      "estiny": 1398,
      "boten": 1399,
      "Ġmemperhatikan": 1400,
      "deprecated": 1401,
      "Ġinscre": 1402,
      "Chooser": 1403,
      "Ġtempt": 1404,
      "Ġundisclosed": 1405,
      "elapse": 1406,
      "putes": 1407,
      "IsPass": 1408,
      "izlik": 1409,
      "itsi": 1410,
      "Ġsaluto": 1411,
      "Ġnightcl": 1412,
      "wesen": 1413,
      "Ġvoto": 1414,
      "Ġglfw": 1415,
      "Ġprovoc": 1416,
      "ĠAche": 1417,
      "Ġsecretory": 1418,
      "ĠNFS": 1419,
      "uddho": 1420,
      "Ġpeck": 1421,
      "ĠOskar": 1422,
      "ermore": 1423,
      "oides": 1424,
      "ptuous": 1425,
      "boxylate": 1426,
      "ĠContentValues": 1427,
      "ĠLivermore": 1428,
      "ĠStanton": 1429,
      "Ġvinden": 1430,
      "ĠPolice": 1431,
      "nig": 1432,
      "outputPath": 1433,
      "Ġquente": 1434,
      "entrum": 1435,
      "Ġtranquilo": 1436,
      "Ġmultitask": 1437,
      "wsdl": 1438,
      "Ġspolu": 1439,
      "Ġerb": 1440,
      "ĠCornwall": 1441,
      "django": 1442,
      "greeting": 1443,
      "apore": 1444,
      "ethoscope": 1445,
      "pss": 1446,
      "Ġgift": 1447,
      "waitSeconds": 1448,
      "anterior": 1449,
      "ĠLordships": 1450,
      "world": 1451,
      "Ġnaman": 1452,
      "Ġquarts": 1453,
      "Ġtemptation": 1454,
      "Ġvina": 1455,
      "ĠJacob": 1456,
      "Ġkaas": 1457,
      "pause": 1458,
      "tham": 1459,
      "Zitat": 1460,
      "Ġbak": 1461,
      "ĠReaders": 1462,
      "Ġhon": 1463,
      "Ġpojem": 1464,
      "addContainer": 1465,
      "gradient": 1466,
      "Ġtextvariable": 1467,
      "wx": 1468,
      "myX": 1469,
      "atorship": 1470,
      "hoed": 1471,
      "ĠMeld": 1472,
      "Ġcompat": 1473,
      "ĠJES": 1474,
      "otus": 1475,
      "Ġmonstru": 1476,
      "Ġpiss": 1477,
      "ĠJESUS": 1478,
      "Ġconsegu": 1479,
      "Ġkic": 1480,
      "roblast": 1481,
      "imageData": 1482,
      "Ġfibroblast": 1483,
      "Fetch": 1484,
      "ĠOCD": 1485,
      "dr": 1486,
      "ĠJakarta": 1487,
      "range": 1488,
      "tenths": 1489,
      "Ġchast": 1490,
      "getstarc": 1491,
      "oredata": 1492,
      "getstarcoredata": 1493,
      "RV": 1494,
      "ĠHRV": 1495,
      "DATUM": 1496,
      "Tinh": 1497,
      "treme": 1498,
      "ĠTahoma": 1499,
      "antiates": 1500,
      "NumberOperation": 1501,
      "Ġdezembro": 1502,
      "ĠSalmon": 1503,
      "idhi": 1504,
      "ĠWarhol": 1505,
      "lith": 1506,
      "Ġbattle": 1507,
      "ldigt": 1508,
      "ĠHillary": 1509,
      "Ġairways": 1510,
      "ĠSalmonella": 1511,
      "ariables": 1512,
      "Ġconfided": 1513,
      "ĠNOA": 1514,
      "addena": 1515,
      "ĠNOAA": 1516,
      "osynthesis": 1517,
      "Ġljub": 1518,
      "ĠOsim": 1519,
      "Ġemulsion": 1520,
      "ynitrite": 1521,
      "ĠbattleF": 1522,
      "Ġcristianos": 1523,
      "Ġljubav": 1524,
      "itonitis": 1525,
      "MemoryWarning": 1526,
      "ĠSAMP": 1527,
      "kloudformation": 1528,
      "ĠBarro": 1529,
      "wss": 1530,
      "bcrypt": 1531,
      "OREM": 1532,
      "Ġsuces": 1533,
      "MIER": 1534,
      "atka": 1535,
      "Ġverste": 1536,
      "THE": 1537,
      "ĠIdol": 1538,
      "ĠJournals": 1539,
      "THEOREM": 1540,
      "Ġeren": 1541,
      "Ġsyphilis": 1542,
      "cija": 1543,
      "Ġagric": 1544,
      "Ġmonos": 1545,
      "ĠSTM": 1546,
      "ĠDolan": 1547,
      "ĠSaga": 1548,
      "Ġplano": 1549,
      "Ġmoy": 1550,
      "acrylamide": 1551,
      "getFocus": 1552,
      "accomp": 1553,
      "Ġpositives": 1554,
      "Ġbereaved": 1555,
      "tach": 1556,
      "Ġvasodil": 1557,
      "ĠBundestag": 1558,
      "anied": 1559,
      "Ġdeleter": 1560,
      "Ġternyata": 1561,
      "Ġlwd": 1562,
      "acts": 1563,
      "mada": 1564,
      "Ġextingu": 1565,
      "accompanied": 1566,
      "ĠErb": 1567,
      "Ġrenunci": 1568,
      "ĠproductColor": 1569,
      "Ġunaccompanied": 1570,
      "Ġcountably": 1571,
      "ĠJis": 1572,
      "strom": 1573,
      "ogf": 1574,
      "ereur": 1575,
      "inj": 1576,
      "asque": 1577,
      "ĠBasil": 1578,
      "schod": 1579,
      "package": 1580,
      "ĠSAMPST": 1581,
      "Ġhyster": 1582,
      "ionato": 1583,
      "ĠMekong": 1584,
      "ijska": 1585,
      "iffness": 1586,
      "packageName": 1587,
      "angel": 1588,
      "Ġcheckered": 1589,
      "csname": 1590,
      "icillin": 1591,
      "getFocusAreas": 1592,
      "Ġembarr": 1593,
      "unier": 1594,
      "ertoire": 1595,
      "ĠOn": 1596,
      "Ġarre": 1597,
      "ubber": 1598,
      "preprocessing": 1599,
      "Ġscreenshot": 1600,
      "olai": 1601,
      "Ġabstract": 1602,
      "laublich": 1603,
      "injlim": 1604,
      "Ġyapt": 1605,
      "reflected": 1606,
      "ĠisOpen": 1607,
      "Shea": 1608,
      "ĠFris": 1609,
      "ĠITE": 1610,
      "shoulder": 1611,
      "Ġboasting": 1612,
      "Ġdialed": 1613,
      "Abs": 1614,
      "moil": 1615,
      "ifferential": 1616,
      "Ġfinancials": 1617,
      "tus": 1618,
      "ĠNACA": 1619,
      "smo": 1620,
      "ĠOceans": 1621,
      "Ġrall": 1622,
      "Ġscrewed": 1623,
      "Ġpurs": 1624,
      "Ġramen": 1625,
      "Ġemol": 1626,
      "jets": 1627,
      "correctAns": 1628,
      "ĠYoruba": 1629,
      "onday": 1630,
      "ĠSavo": 1631,
      "urken": 1632,
      "ĠMould": 1633,
      "angor": 1634,
      "Ġmonotonic": 1635,
      "Such": 1636,
      "cius": 1637,
      "lee": 1638,
      "ĠHIM": 1639,
      "merce": 1640,
      "JAV": 1641,
      "federal": 1642,
      "occ": 1643,
      "JAVADOC": 1644,
      "ownt": 1645,
      "Ġmuch": 1646,
      "ĠNoSuch": 1647,
      "GREES": 1648,
      "Ġdisfrutar": 1649,
      "tae": 1650,
      "orsky": 1651,
      "Ġutter": 1652,
      "Ġmiei": 1653,
      "phe": 1654,
      "SSR": 1655,
      "Ġfranchising": 1656,
      "iarism": 1657,
      "modern": 1658,
      "ĠRihanna": 1659,
      "ushchev": 1660,
      "zev": 1661,
      "ĠCelebr": 1662,
      "hythmic": 1663,
      "ĠOnTrigger": 1664,
      "rda": 1665,
      "Ġaniversario": 1666,
      "ĠSLASH": 1667,
      "ĠMAK": 1668,
      "Ġreproducible": 1669,
      "Ġcaiu": 1670,
      "Ġgram": 1671,
      "itlement": 1672,
      "iega": 1673,
      "Ġcobran": 1674,
      "Ġcontinuamente": 1675,
      "Ġehm": 1676,
      "cito": 1677,
      "Ġfemoral": 1678,
      "ophilus": 1679,
      "Ġmagg": 1680,
      "Ġsebum": 1681,
      "Ġemerges": 1682,
      "ĠCHCl": 1683,
      "Ġinitial": 1684,
      "Ġdbc": 1685,
      "Jur": 1686,
      "Ġbassa": 1687,
      "Ġdespised": 1688,
      "ynyl": 1689,
      "ystick": 1690,
      "ipple": 1691,
      "legte": 1692,
      "ĠErit": 1693,
      "WithType": 1694,
      "ĠBerk": 1695,
      "Ġdesee": 1696,
      "Ġjustify": 1697,
      "ĠRetriever": 1698,
      "ĠCavs": 1699,
      "ĠBerkshire": 1700,
      "buildCommand": 1701,
      "Ġvirtuales": 1702,
      "ogens": 1703,
      "ptive": 1704,
      "ĠNestle": 1705,
      "Ġrif": 1706,
      "ĠjustifyContent": 1707,
      "Ġrefin": 1708,
      "ĠSakai": 1709,
      "othor": 1710,
      "Qnt": 1711,
      "Ġjealousy": 1712,
      "eref": 1713,
      "plier": 1714,
      "cias": 1715,
      "Ġrifi": 1716,
      "Ġbundling": 1717,
      "Ġjo": 1718,
      "Ġpostmodern": 1719,
      "eding": 1720,
      "assie": 1721,
      "UIManager": 1722,
      "velocity": 1723,
      "Ġdni": 1724,
      "Ġjournalist": 1725,
      "etor": 1726,
      "Ġsnugly": 1727,
      "Ġcantar": 1728,
      "Bearing": 1729,
      "Ġappla": 1730,
      "ĠNiles": 1731,
      "Ġdynamite": 1732,
      "ĠRami": 1733,
      "Ġprotop": 1734,
      "Ġbangsa": 1735,
      "Absolute": 1736,
      "Hail": 1737,
      "schein": 1738,
      "AbsolutePath": 1739,
      "ĠDawson": 1740,
      "gez": 1741,
      "Ġmechan": 1742,
      "inaria": 1743,
      "adaya": 1744,
      "COUN": 1745,
      "utorial": 1746,
      "lyk": 1747,
      "ĠSchaden": 1748,
      "ENCI": 1749,
      "ĠAvis": 1750,
      "izione": 1751,
      "CHARS": 1752,
      "ĠJahan": 1753,
      "weg": 1754,
      "zew": 1755,
      "Ġfork": 1756,
      "ĠLuxembourg": 1757,
      "Ġspiel": 1758,
      "Ġmargine": 1759,
      "Ġnightclubs": 1760,
      "HST": 1761,
      "Sender": 1762,
      "msgSender": 1763,
      "Ġpolov": 1764,
      "ocese": 1765,
      "Ġutilizamos": 1766,
      "aksh": 1767,
      "aksha": 1768,
      "ĠBTS": 1769,
      "Ġconfessed": 1770,
      "Ġproc": 1771,
      "ĠBelediye": 1772,
      "Mountains": 1773,
      "ĠLaughlin": 1774,
      "Ġstormed": 1775,
      "ghi": 1776,
      "uder": 1777,
      "ĠPasc": 1778,
      "isnan": 1779,
      "IDENCE": 1780,
      "ĠMarkdown": 1781,
      "putchar": 1782,
      "cesz": 1783,
      "pers": 1784,
      "Ġgetty": 1785,
      "imba": 1786,
      "Passive": 1787,
      "ĠDei": 1788,
      "Ġphenotypes": 1789,
      "ĠNord": 1790,
      "Encycl": 1791,
      "rema": 1792,
      "ĠIUser": 1793,
      "lauf": 1794,
      "ihan": 1795,
      "Ġtokamak": 1796,
      "ĠNordstrom": 1797,
      "ylab": 1798,
      "xygen": 1799,
      "Quest": 1800,
      "Ġtyrannical": 1801,
      "popupButton": 1802,
      "Ġphospho": 1803,
      "entral": 1804,
      "ĠBasque": 1805,
      "ubjects": 1806,
      "spacer": 1807,
      "Ġeuropea": 1808,
      "wnd": 1809,
      "alahkan": 1810,
      "wagon": 1811,
      "Ġkih": 1812,
      "Ġcanisters": 1813,
      "elun": 1814,
      "Ġcrist": 1815,
      "ISTER": 1816,
      "ĠExp": 1817,
      "Ġembarrassment": 1818,
      "geben": 1819,
      "ipat": 1820,
      "Ġchrys": 1821,
      "zczeg": 1822,
      "position": 1823,
      "Ġdisqualified": 1824,
      "POV": 1825,
      "Ġadmira": 1826,
      "Ġadmirably": 1827,
      "ynie": 1828,
      "ĠGuten": 1829,
      "archive": 1830,
      "ĠMold": 1831,
      "Ġcomplied": 1832,
      "ĠRMS": 1833,
      "tson": 1834,
      "ĠNant": 1835,
      "Ġpas": 1836,
      "Ġdeleterious": 1837,
      "ĠBengals": 1838,
      "Ġdecid": 1839,
      "vpd": 1840,
      "ĠYog": 1841,
      "ologic": 1842,
      "odynamic": 1843,
      "first": 1844,
      "mila": 1845,
      "Ġditem": 1846,
      "Ġerrone": 1847,
      "ĠSurv": 1848,
      "ĠDavos": 1849,
      "jed": 1850,
      "Ġgelar": 1851,
      "Ġjanuar": 1852,
      "ĠMiley": 1853,
      "Ġtach": 1854,
      "Ġmaaf": 1855,
      "Ġbandwagon": 1856,
      "ystic": 1857,
      "Ġorchid": 1858,
      "Ġdoubted": 1859,
      "orary": 1860,
      "ĠIssa": 1861,
      "ĠGallows": 1862,
      "meny": 1863,
      "ĠdisplayNumber": 1864,
      "ĠDuel": 1865,
      "Ġgrudge": 1866,
      "Ġwidgets": 1867,
      "Ġjad": 1868,
      "mpeg": 1869,
      "Ġperemptory": 1870,
      "ionista": 1871,
      "Ġlif": 1872,
      "ĠglTexCoord": 1873,
      "Ġngo": 1874,
      "ĠChop": 1875,
      "ĠPinnacle": 1876,
      "ĠNDVI": 1877,
      "Ġamni": 1878,
      "Ġincentives": 1879,
      "olah": 1880,
      "akey": 1881,
      "ayers": 1882,
      "oculars": 1883,
      "Ġaviones": 1884,
      "sym": 1885,
      "ĠHelmet": 1886,
      "sync": 1887,
      "ĠMish": 1888,
      "ĠPius": 1889,
      "rawValue": 1890,
      "ouf": 1891,
      "ĠproguardFiles": 1892,
      "ozat": 1893,
      "Ġscram": 1894,
      "Ġprolifer": 1895,
      "Ġfuselage": 1896,
      "syncEach": 1897,
      "Ġdeger": 1898,
      "Ġjib": 1899,
      "nici": 1900,
      "lje": 1901,
      "ForSettings": 1902,
      "Fre": 1903,
      "FileCopy": 1904,
      "cheid": 1905,
      "ĠBont": 1906,
      "Ġkemat": 1907,
      "Ġkematian": 1908,
      "jednoc": 1909,
      "poque": 1910,
      "Ġcounters": 1911,
      "calleft": 1912,
      "Ġsoluble": 1913,
      "ĠAthenians": 1914,
      "ĠHamlin": 1915,
      "andy": 1916,
      "AIRMAN": 1917,
      "ĠCull": 1918,
      "ffmpeg": 1919,
      "DTMakeRectInCM": 1920,
      "izzata": 1921,
      "havi": 1922,
      "endlich": 1923,
      "Ġsparen": 1924,
      "ĠMAKE": 1925,
      "neos": 1926,
      "ĠMAKEINTRESOURCE": 1927,
      "ĠUhr": 1928,
      "Cal": 1929,
      "Ġentend": 1930,
      "avlja": 1931,
      "uyo": 1932,
      "ĠVerma": 1933,
      "airo": 1934,
      "Ġmomentum": 1935,
      "ĠfactoryName": 1936,
      "orice": 1937,
      "ĠBui": 1938,
      "Ġcotid": 1939,
      "Ġthickly": 1940,
      "Ġcamin": 1941,
      "omal": 1942,
      "ĠCairo": 1943,
      "ixa": 1944,
      "Ġsubordinate": 1945,
      "Ġconvince": 1946,
      "setForeground": 1947,
      "Ġraczej": 1948,
      "baikan": 1949,
      "ijker": 1950,
      "SB": 1951,
      "Ġerh": 1952,
      "arcelona": 1953,
      "owiada": 1954,
      "Ġbarcelona": 1955,
      "Ġnob": 1956,
      "Ġlute": 1957,
      "ĠSK": 1958,
      "ONENTS": 1959,
      "wegen": 1960,
      "ĠIIS": 1961,
      "reson": 1962,
      "Lob": 1963,
      "ightening": 1964,
      "umpulan": 1965,
      "datasubjects": 1966,
      "ĠglTexParameteri": 1967,
      "ĠWad": 1968,
      "Ġcaminando": 1969,
      "Ġbushing": 1970,
      "Ġhemodynamic": 1971,
      "itetty": 1972,
      "ĠPier": 1973,
      "aggregate": 1974,
      "Ġvacan": 1975,
      "Ġvacanato": 1976,
      "ĠMishra": 1977,
      "Ġagg": 1978,
      "ptime": 1979,
      "SCPC": 1980,
      "ĠPierws": 1981,
      "Ġslings": 1982,
      "Grade": 1983,
      "ĠMarca": 1984,
      "icas": 1985,
      "strptime": 1986,
      "ympic": 1987,
      "ĠParalympic": 1988,
      "ĠTup": 1989,
      "Ind": 1990,
      "Ġceremon": 1991,
      "Ġhonorary": 1992,
      "Ġtiters": 1993,
      "ometh": 1994,
      "KOH": 1995,
      "ĠWARR": 1996,
      "Ġprzew": 1997,
      "ĠWARREN": 1998,
      "ThemeOverlay": 1999,
      "ultiplier": 2000,
      "ĠYerevan": 2001,
      "LetterGrade": 2002,
      "ĠWLR": 2003,
      "ĠRecherche": 2004,
      "Ġaptly": 2005,
      "Ġmanio": 2006,
      "ĠFence": 2007,
      "ubis": 2008,
      "achos": 2009,
      "Ġhistologic": 2010,
      "Fal": 2011,
      "robe": 2012,
      "Ġnove": 2013,
      "Ġengend": 2014,
      "ertine": 2015,
      "Ġzlo": 2016,
      "Ġtravertine": 2017,
      "Ġotto": 2018,
      "quement": 2019,
      "Ġinfarct": 2020,
      "Ġmuchachos": 2021,
      "NOMBRE": 2022,
      "ĠHttpClient": 2023,
      "Ġdedim": 2024,
      "Ġlocal": 2025,
      "Ġredor": 2026,
      "demir": 2027,
      "ĠGGA": 2028,
      "missible": 2029,
      "ĠSmithsonian": 2030,
      "Ġdivisive": 2031,
      "Ġunk": 2032,
      "stantial": 2033,
      "Ġentendido": 2034,
      "ZERO": 2035,
      "omores": 2036,
      "Ġwala": 2037,
      "Ġsupernatant": 2038,
      "Ġsoften": 2039,
      "Ġcircumstantial": 2040,
      "ĠAPT": 2041,
      "Ġgraz": 2042,
      "browserAction": 2043,
      "don": 2044,
      "Ġadhesion": 2045,
      "ĠDrag": 2046,
      "ertical": 2047,
      "Ġspokes": 2048,
      "Ġrelieves": 2049,
      "yum": 2050,
      "losti": 2051,
      "ĠJand": 2052,
      "toare": 2053,
      "Ġmbi": 2054,
      "ĠDynam": 2055,
      "Ġberc": 2056,
      "ĠOlu": 2057,
      "plan": 2058,
      "itech": 2059,
      "Ġflanges": 2060,
      "Ġangesch": 2061,
      "avr": 2062,
      "formData": 2063,
      "quisitos": 2064,
      "Ġmache": 2065,
      "irian": 2066,
      "Ġschle": 2067,
      "Cursor": 2068,
      "ĠKare": 2069,
      "sanity": 2070,
      "wing": 2071,
      "Ġrespir": 2072,
      "ĠQuartz": 2073,
      "ĠPlaceholder": 2074,
      "ĠKareena": 2075,
      "nyt": 2076,
      "nhof": 2077,
      "Ġkuv": 2078,
      "ĠVold": 2079,
      "ophagus": 2080,
      "ĠHenrique": 2081,
      "ujan": 2082,
      "Ġkuvvet": 2083,
      "ĠWille": 2084,
      "Ġvecin": 2085,
      "Ġmanipulator": 2086,
      "Ġdeceduto": 2087,
      "ĠPardon": 2088,
      "Ġamt": 2089,
      "cstring": 2090,
      "Ġdlr": 2091,
      "Ġraft": 2092,
      "sib": 2093,
      "ianum": 2094,
      "addy": 2095,
      "alaman": 2096,
      "repair": 2097,
      "Ġtightly": 2098,
      "ĠGans": 2099,
      "terbury": 2100,
      "LoginPage": 2101,
      "Ġrech": 2102,
      "istant": 2103,
      "Ġextro": 2104,
      "zesz": 2105,
      "Ġramb": 2106,
      "ucionales": 2107,
      "Ġtodd": 2108,
      "Ġmst": 2109,
      "Ġexternal": 2110,
      "Ġerrand": 2111,
      "ladesh": 2112,
      "Ġglutamate": 2113,
      "Ġproactive": 2114,
      "Ġhomes": 2115,
      "lair": 2116,
      "ĠCasc": 2117,
      "ĠAhab": 2118,
      "ĠDB": 2119,
      "Ġchiar": 2120,
      "ĠArcher": 2121,
      "GetCurrent": 2122,
      "Ġrefinance": 2123,
      "ĠDBHelper": 2124,
      "adeloupe": 2125,
      "elerinde": 2126,
      "ikhil": 2127,
      "arankan": 2128,
      "ĠKih": 2129,
      "ĠDaya": 2130,
      "Freel": 2131,
      "ĠExodus": 2132,
      "buttonBar": 2133,
      "Ġabandoned": 2134,
      "endon": 2135,
      "ettent": 2136,
      "zeichnet": 2137,
      "BOUR": 2138,
      "ivat": 2139,
      "Debugging": 2140,
      "conda": 2141,
      "Ġcongest": 2142,
      "NSMutable": 2143,
      "Ġparois": 2144,
      "ĠAlphon": 2145,
      "Topo": 2146,
      "Ġdevait": 2147,
      "ĠIPTV": 2148,
      "ogia": 2149,
      "ĠAppropri": 2150,
      "Ġedifice": 2151,
      "Ġfaid": 2152,
      "breath": 2153,
      "ĠEFI": 2154,
      "Ġchaude": 2155,
      "Ġtelescop": 2156,
      "iatura": 2157,
      "Ġnue": 2158,
      "Ġwildcard": 2159,
      "ĠCOVID": 2160,
      "fast": 2161,
      "bbi": 2162,
      "Ġhomeschool": 2163,
      "ĠKirche": 2164,
      "cupine": 2165,
      "Ġmeus": 2166,
      "ĠJaved": 2167,
      "ĠON": 2168,
      "urta": 2169,
      "Ġspectrometer": 2170,
      "bitt": 2171,
      "ĠEPIC": 2172,
      "Ġvyr": 2173,
      "ysh": 2174,
      "Ġspines": 2175,
      "reducible": 2176,
      "rapes": 2177,
      "Ġtingling": 2178,
      "ĠArunachal": 2179,
      "parcel": 2180,
      "Ġreflected": 2181,
      "Ġengine": 2182,
      "Ġcompatibility": 2183,
      "rollees": 2184,
      "Ġretroactive": 2185,
      "ĠEinwill": 2186,
      "Ġcez": 2187,
      "Ġeius": 2188,
      "ĠCinderella": 2189,
      "teman": 2190,
      "Ġkojoj": 2191,
      "Ġscreamed": 2192,
      "Ġpostaci": 2193,
      "usingCamera": 2194,
      "Ġchini": 2195,
      "Ġrejuvenated": 2196,
      "estinal": 2197,
      "Ġkumpulan": 2198,
      "Ġfastening": 2199,
      "WIRE": 2200,
      "ĠVE": 2201,
      "Ġoutstretched": 2202,
      "Ġcercana": 2203,
      "Ġencontr": 2204,
      "ĠConse": 2205,
      "ĠMonter": 2206,
      "Ġeiusmod": 2207,
      "pwd": 2208,
      "canic": 2209,
      "ĠCervantes": 2210,
      "Ġpone": 2211,
      "ilius": 2212,
      "Ġfrug": 2213,
      "ĠjScrollPane": 2214,
      "Pal": 2215,
      "Ġevacuated": 2216,
      "addAnimation": 2217,
      "Ġmediana": 2218,
      "uretic": 2219,
      "attamente": 2220,
      "onimo": 2221,
      "SizeBytes": 2222,
      "ihuahua": 2223,
      "ĠCre": 2224,
      "Ġcran": 2225,
      "Ġsoz": 2226,
      "ĠVinci": 2227,
      "Ġexternally": 2228,
      "Ġeuropeo": 2229,
      "Ġzez": 2230,
      "chromium": 2231,
      "ĠChihuahua": 2232,
      "Ġnomadic": 2233,
      "Ġextruded": 2234,
      "gende": 2235,
      "chromiumfx": 2236,
      "uzzo": 2237,
      "makedirs": 2238,
      "Rets": 2239,
      "Ġsigmoid": 2240,
      "Ġvictoire": 2241,
      "enst": 2242,
      "ĠEight": 2243,
      "ĠArmani": 2244,
      "createComponent": 2245,
      "ĠRonde": 2246,
      "ĠEighteenth": 2247,
      "Ġedge": 2248,
      "ĠRanj": 2249,
      "Ġaddicts": 2250,
      "ĠTEMP": 2251,
      "nich": 2252,
      "ĠRtlOverlay": 2253,
      "rtype": 2254,
      "Ġwedges": 2255,
      "ĠTools": 2256,
      "blers": 2257,
      "Ġberkom": 2258,
      "tdd": 2259,
      "acyl": 2260,
      "Ġbounce": 2261,
      "ĠThornton": 2262,
      "arrel": 2263,
      "CNc": 2264,
      "ĠToolsVersion": 2265,
      "ĠClair": 2266,
      "ĠSemarang": 2267,
      "abola": 2268,
      "ushes": 2269,
      "Ġmigrate": 2270,
      "hoe": 2271,
      "initro": 2272,
      "valids": 2273,
      "Mead": 2274,
      "ĠFerris": 2275,
      "Ġsucesivamente": 2276,
      "getId": 2277,
      "ĠWillem": 2278,
      "Ġmettent": 2279,
      "ĠGandh": 2280,
      "gelopen": 2281,
      "Ġadju": 2282,
      "VARIABLE": 2283,
      "ĠPetter": 2284,
      "peace": 2285,
      "ĠThes": 2286,
      "Ġmicros": 2287,
      "Ġundirected": 2288,
      "Ġmicrosomal": 2289,
      "READ": 2290,
      "Ġconsejo": 2291,
      "olot": 2292,
      "Ġjol": 2293,
      "ĠXVIII": 2294,
      "ĠSoren": 2295,
      "maxage": 2296,
      "Ġlege": 2297,
      "Ġbluntly": 2298,
      "stva": 2299,
      "ethash": 2300,
      "ABOR": 2301,
      "endan": 2302,
      "illow": 2303,
      "hexahydro": 2304,
      "Ġenlightened": 2305,
      "ĠGreenpeace": 2306,
      "doped": 2307,
      "Account": 2308,
      "stoke": 2309,
      "ĠExpedia": 2310,
      "ĠCorbyn": 2311,
      "ĠHamlet": 2312,
      "iclopedia": 2313,
      "ikle": 2314,
      "setStatus": 2315,
      "oshape": 2316,
      "ĠHLA": 2317,
      "nob": 2318,
      "TTY": 2319,
      "Ġiban": 2320,
      "ĠGla": 2321,
      "ĠGregor": 2322,
      "inat": 2323,
      "cepteur": 2324,
      "embal": 2325,
      "icketts": 2326,
      "piro": 2327,
      "ĠMati": 2328,
      "ptic": 2329,
      "DAMAG": 2330,
      "Ġpatrim": 2331,
      "DAMAGE": 2332,
      "ĠDAMAGE": 2333,
      "propto": 2334,
      "OIS": 2335,
      "INOIS": 2336,
      "ĠXan": 2337,
      "uenza": 2338,
      "osage": 2339,
      "Ġhuddled": 2340,
      "Ġparalys": 2341,
      "ds": 2342,
      "spacing": 2343,
      "ĠDanville": 2344,
      "ĠHunting": 2345,
      "okin": 2346,
      "Ġparalysie": 2347,
      "ĠLij": 2348,
      "opent": 2349,
      "setRequest": 2350,
      "Ġchiff": 2351,
      "rements": 2352,
      "ĠNxf": 2353,
      "Ġstellte": 2354,
      "ObjectURL": 2355,
      "apers": 2356,
      "auern": 2357,
      "ympi": 2358,
      "Ġameri": 2359,
      "Ġolympi": 2360,
      "butanol": 2361,
      "Ġshelled": 2362,
      "ames": 2363,
      "Ġventric": 2364,
      "Ġramai": 2365,
      "ifies": 2366,
      "Ġscam": 2367,
      "Ġpubl": 2368,
      "elsior": 2369,
      "Ġsoldered": 2370,
      "Ġfifteen": 2371,
      "Titanic": 2372,
      "rude": 2373,
      "Bunch": 2374,
      "ĠScro": 2375,
      "ĠdirBR": 2376,
      "Ġaliquot": 2377,
      "ĠMotif": 2378,
      "Ġspandex": 2379,
      "crossed": 2380,
      "yno": 2381,
      "iore": 2382,
      "provid": 2383,
      "Ġoutlier": 2384,
      "itschrift": 2385,
      "removeAll": 2386,
      "nms": 2387,
      "Ġsacc": 2388,
      "ĠASME": 2389,
      "artoum": 2390,
      "ecommand": 2391,
      "providecommand": 2392,
      "ubu": 2393,
      "ftp": 2394,
      "wheeler": 2395,
      "ĠCON": 2396,
      "utilities": 2397,
      "ĠHearst": 2398,
      "forter": 2399,
      "basecode": 2400,
      "nial": 2401,
      "IGAN": 2402,
      "rijven": 2403,
      "Ġgyakor": 2404,
      "zied": 2405,
      "Ġcellspacing": 2406,
      "Ġcram": 2407,
      "CreatedAt": 2408,
      "ĠHuntingdon": 2409,
      "Sliced": 2410,
      "Ġmercure": 2411,
      "Ġvua": 2412,
      "ĠTrichodesmium": 2413,
      "ĠSPAR": 2414,
      "Ġcramps": 2415,
      "Ġgeneraliz": 2416,
      "Smart": 2417,
      "asyon": 2418,
      "Ġfuerte": 2419,
      "Ġpasaj": 2420,
      "Ġkos": 2421,
      "Ġbrill": 2422,
      "resultlist": 2423,
      "Categoria": 2424,
      "ĠHelm": 2425,
      "ĠKadar": 2426,
      "ahm": 2427,
      "swagen": 2428,
      "Ġprotrusions": 2429,
      "ToPointer": 2430,
      "Ġspitting": 2431,
      "rowable": 2432,
      "ferencia": 2433,
      "ĠGabriella": 2434,
      "heva": 2435,
      "ĠAbstract": 2436,
      "Ġcatar": 2437,
      "achron": 2438,
      "oods": 2439,
      "Ġvidrio": 2440,
      "matory": 2441,
      "ofa": 2442,
      "erdeel": 2443,
      "Ġonderdeel": 2444,
      "Ġmeta": 2445,
      "ListIterator": 2446,
      "Ġmeno": 2447,
      "ĠmetaTmp": 2448,
      "heng": 2449,
      "ĠTere": 2450,
      "Ġforo": 2451,
      "ERATURE": 2452,
      "ĠimageView": 2453,
      "Ġextravag": 2454,
      "ramine": 2455,
      "Ġplung": 2456,
      "divisor": 2457,
      "crow": 2458,
      "ĠBran": 2459,
      "ĠLambert": 2460,
      "issantes": 2461,
      "yakarta": 2462,
      "ĠKhrushchev": 2463,
      "Ġpasajeros": 2464,
      "unds": 2465,
      "ĠMedina": 2466,
      "ĠBrookings": 2467,
      "unused": 2468,
      "umbre": 2469,
      "icket": 2470,
      "ipramine": 2471,
      "ĠGong": 2472,
      "Ġslot": 2473,
      "Benzyloxy": 2474,
      "Ġrejuvenating": 2475,
      "pyx": 2476,
      "Propagation": 2477,
      "Ġcarbons": 2478,
      "Ġvinaig": 2479,
      "Ġsosten": 2480,
      "Ġprazer": 2481,
      "Ġemeritus": 2482,
      "Ġtransgene": 2483,
      "Ġlundi": 2484,
      "ĠCrude": 2485,
      "atuan": 2486,
      "getAttribute": 2487,
      "Ġintimid": 2488,
      "lars": 2489,
      "ĠEnroll": 2490,
      "ĠHercegov": 2491,
      "numeric": 2492,
      "andum": 2493,
      "plum": 2494,
      "ĠPiot": 2495,
      "plotlib": 2496,
      "FrameLength": 2497,
      "numericUpDown": 2498,
      "orkan": 2499,
      "ĠMathf": 2500,
      "Yosh": 2501,
      "Ġwarped": 2502,
      "Ġspr": 2503,
      "ĠCea": 2504,
      "Ġabstra": 2505,
      "Ġeme": 2506,
      "ĠNIG": 2507,
      "idelijk": 2508,
      "ĠTuz": 2509,
      "ributors": 2510,
      "Ġtaping": 2511,
      "ovka": 2512,
      "aneously": 2513,
      "ttk": 2514,
      "Ġwithdrawal": 2515,
      "Ġprocrast": 2516,
      "fono": 2517,
      "Ġgaat": 2518,
      "udian": 2519,
      "Ġenth": 2520,
      "Ġprocrastination": 2521,
      "ĠUgly": 2522,
      "ĠRovio": 2523,
      "Phong": 2524,
      "ĠcomputerChoice": 2525,
      "BoxLayout": 2526,
      "Ġbree": 2527,
      "ĠHead": 2528,
      "uberc": 2529,
      "ubercul": 2530,
      "Tron": 2531,
      "Ġcamera": 2532,
      "STFIELDS": 2533,
      "rivile": 2534,
      "POSTFIELDS": 2535,
      "Ġfelf": 2536,
      "Ġmercury": 2537,
      "abhav": 2538,
      "ĠTurt": 2539,
      "Fetching": 2540,
      "Bits": 2541,
      "Ġword": 2542,
      "Ġneglig": 2543,
      "atud": 2544,
      "cef": 2545,
      "zneim": 2546,
      "ĠAnu": 2547,
      "iyal": 2548,
      "ĠVICTOR": 2549,
      "deh": 2550,
      "umers": 2551,
      "Ġaufgenommen": 2552,
      "Ġradionu": 2553,
      "qvist": 2554,
      "Street": 2555,
      "elines": 2556,
      "ĠBure": 2557,
      "Ġcolspan": 2558,
      "Ġbeantwort": 2559,
      "Ġbliz": 2560,
      "AccountId": 2561,
      "rivileged": 2562,
      "Ġfie": 2563,
      "arte": 2564,
      "Ġdrifting": 2565,
      "Ġnormas": 2566,
      "Serb": 2567,
      "Serbia": 2568,
      "ĠTSI": 2569,
      "Ġappet": 2570,
      "Ġunderprivileged": 2571,
      "Ġground": 2572,
      "ambahkan": 2573,
      "Ġkalah": 2574,
      "aport": 2575,
      "ovno": 2576,
      "writelines": 2577,
      "Ġsintomas": 2578,
      "Ġvidro": 2579,
      "Ġbalcony": 2580,
      "bem": 2581,
      "wijs": 2582,
      "owska": 2583,
      "clan": 2584,
      "Ġresigned": 2585,
      "Ġfebr": 2586,
      "Ġfebrero": 2587,
      "gur": 2588,
      "avut": 2589,
      "nse": 2590,
      "lire": 2591,
      "yaan": 2592,
      "ĠwordArray": 2593,
      "Ġhedges": 2594,
      "avista": 2595,
      "mx": 2596,
      "Ġsick": 2597,
      "ahrer": 2598,
      "Ġeloquently": 2599,
      "mxCell": 2600,
      "halle": 2601,
      "Ġspons": 2602,
      "Ġcoal": 2603,
      "Ġsuppos": 2604,
      "Ġissuer": 2605,
      "Ġembarking": 2606,
      "ĠMeade": 2607,
      "obao": 2608,
      "central": 2609,
      "rural": 2610,
      "centralwidget": 2611,
      "uke": 2612,
      "lorable": 2613,
      "Ġdeplorable": 2614,
      "ĠHobson": 2615,
      "Ġaba": 2616,
      "Upsilon": 2617,
      "Passenger": 2618,
      "Luther": 2619,
      "ĠBasic": 2620,
      "Ġvague": 2621,
      "ENS": 2622,
      "table": 2623,
      "ĠBek": 2624,
      "Ġcrested": 2625,
      "artphone": 2626,
      "Ġgiveaways": 2627,
      "relli": 2628,
      "ĠBekasi": 2629,
      "ĠHoa": 2630,
      "ĠJournalist": 2631,
      "ĠTuttle": 2632,
      "Ġpurses": 2633,
      "uala": 2634,
      "ITwitter": 2635,
      "Ġplayground": 2636,
      "Ġvand": 2637,
      "Ġsmartphone": 2638,
      "cameras": 2639,
      "ORDER": 2640,
      "Ġcoalescence": 2641,
      "abon": 2642,
      "heter": 2643,
      "Ġunidirectional": 2644,
      "ĠNang": 2645,
      "ĠAFR": 2646,
      "ews": 2647,
      "Ġrepaso": 2648,
      "TempValue": 2649,
      "dat": 2650,
      "iciaire": 2651,
      "ĠVenezuelan": 2652,
      "iterate": 2653,
      "Ġvontade": 2654,
      "BORDER": 2655,
      "Ġquerc": 2656,
      "Ġjedem": 2657,
      "stay": 2658,
      "Ġporcelain": 2659,
      "Ġsinar": 2660,
      "Ġkw": 2661,
      "Ġrecid": 2662,
      "Ġblames": 2663,
      "osome": 2664,
      "Ġmainstay": 2665,
      "QString": 2666,
      "udad": 2667,
      "Ġseveral": 2668,
      "Ġfibrin": 2669,
      "ayaran": 2670,
      "gaard": 2671,
      "iyama": 2672,
      "ĠRIB": 2673,
      "cez": 2674,
      "fou": 2675,
      "sonaro": 2676,
      "ĠSebasti": 2677,
      "ĠKiran": 2678,
      "Ġlymphatiques": 2679,
      "pooling": 2680,
      "Ġstreamlit": 2681,
      "Ġcataracts": 2682,
      "ARING": 2683,
      "Ġtrustee": 2684,
      "onTouch": 2685,
      "houn": 2686,
      "ionately": 2687,
      "Ġleans": 2688,
      "Ġwholes": 2689,
      "Ġznamen": 2690,
      "ijer": 2691,
      "Ġerythrocytes": 2692,
      "Ġverschied": 2693,
      "ĠChiang": 2694,
      "uller": 2695,
      "Ġples": 2696,
      "ĠWex": 2697,
      "roidx": 2698,
      "Ġcongested": 2699,
      "beis": 2700,
      "ĠSereth": 2701,
      "Ġtarp": 2702,
      "Ġlags": 2703,
      "Ġvesicular": 2704,
      "FuncParamNum": 2705,
      "worldly": 2706,
      "btnClear": 2707,
      "razioni": 2708,
      "wxr": 2709,
      "Ġsheaf": 2710,
      "Ġinformacija": 2711,
      "Ġcomments": 2712,
      "Ġindistinct": 2713,
      "lard": 2714,
      "Ġdu": 2715,
      "OMe": 2716,
      "NaOMe": 2717,
      "ophosphate": 2718,
      "rahm": 2719,
      "Ġcens": 2720,
      "wavedeltatdouble": 2721,
      "Ġengineers": 2722,
      "hamton": 2723,
      "ples": 2724,
      "velocityY": 2725,
      "Ġsider": 2726,
      "ĠIFC": 2727,
      "Ġearl": 2728,
      "pmm": 2729,
      "Ġpractic": 2730,
      "ĠCIRCA": 2731,
      "oglycos": 2732,
      "Ġxray": 2733,
      "ifte": 2734,
      "Ġcontient": 2735,
      "ĠVoss": 2736,
      "ĠUri": 2737,
      "Und": 2738,
      "ĠCartier": 2739,
      "IamAuthConfig": 2740,
      "Ġconseille": 2741,
      "ĠFrankfurter": 2742,
      "zeg": 2743,
      "ramento": 2744,
      "anhar": 2745,
      "Ġformative": 2746,
      "Ġolursa": 2747,
      "easter": 2748,
      "Ġmembran": 2749,
      "ĠSeiko": 2750,
      "tos": 2751,
      "Ġinjector": 2752,
      "ĠHinton": 2753,
      "Ġrescu": 2754,
      "mBlitzID": 2755,
      "adinam": 2756,
      "estellt": 2757,
      "DeleteItem": 2758,
      "Ġconclusive": 2759,
      "ubuk": 2760,
      "ĠCoss": 2761,
      "uvian": 2762,
      "obod": 2763,
      "bitat": 2764,
      "isation": 2765,
      "ĠWTO": 2766,
      "pand": 2767,
      "esam": 2768,
      "Ġconm": 2769,
      "ĠBurs": 2770,
      "ĠfontWeight": 2771,
      "Ġzeal": 2772,
      "Ġsubstantiate": 2773,
      "Ġsten": 2774,
      "ĠUSDC": 2775,
      "Ġdejo": 2776,
      "amental": 2777,
      "Ġhamstring": 2778,
      "Ġsurpassed": 2779,
      "isu": 2780,
      "Ġadheres": 2781,
      "Ġplo": 2782,
      "ĠLTS": 2783,
      "ĠBateman": 2784,
      "Drawer": 2785,
      "Ġharmonize": 2786,
      "tid": 2787,
      "Ġdio": 2788,
      "Ġkac": 2789,
      "prar": 2790,
      "ĠBooker": 2791,
      "ĠDEG": 2792,
      "ĠRath": 2793,
      "ĠLach": 2794,
      "aptop": 2795,
      "ĠArcGIS": 2796,
      "hyde": 2797,
      "kenny": 2798,
      "getic": 2799,
      "ĠChry": 2800,
      "ights": 2801,
      "Ġganglion": 2802,
      "adito": 2803,
      "CONH": 2804,
      "Ġtisu": 2805,
      "DebuggingMode": 2806,
      "icuously": 2807,
      "Ġgerecht": 2808,
      "JOUR": 2809,
      "umerator": 2810,
      "Regions": 2811,
      "Ġnaszego": 2812,
      "oes": 2813,
      "toned": 2814,
      "ichage": 2815,
      "Ġdwarfs": 2816,
      "acariy": 2817,
      "elcome": 2818,
      "Ġmark": 2819,
      "Ġschol": 2820,
      "COST": 2821,
      "Ġrighteous": 2822,
      "tais": 2823,
      "Ġmatern": 2824,
      "ervasyon": 2825,
      "POSITORY": 2826,
      "drawString": 2827,
      "stift": 2828,
      "omentum": 2829,
      "Ġlanc": 2830,
      "gamma": 2831,
      "ĠCass": 2832,
      "Ġnont": 2833,
      "Unified": 2834,
      "Ġglaze": 2835,
      "Ġparasit": 2836,
      "amar": 2837,
      "Ġdecking": 2838,
      "Ġmaternelle": 2839,
      "bauen": 2840,
      "UnifiedTopology": 2841,
      "jgamma": 2842,
      "won": 2843,
      "ĠSympt": 2844,
      "agram": 2845,
      "Ġapna": 2846,
      "acay": 2847,
      "Scope": 2848,
      "Uart": 2849,
      "ĠMathe": 2850,
      "Ġdeport": 2851,
      "Ġmucus": 2852,
      "Ġspus": 2853,
      "Meta": 2854,
      "bindParam": 2855,
      "rootScope": 2856,
      "Wesley": 2857,
      "Ġequilib": 2858,
      "Besch": 2859,
      "ĠPils": 2860,
      "Ġbabel": 2861,
      "ovirus": 2862,
      "ĠVans": 2863,
      "Ġconst": 2864,
      "Ġexpliquer": 2865,
      "person": 2866,
      "Ġgostar": 2867,
      "prechen": 2868,
      "ĠHelloWorld": 2869,
      "ancher": 2870,
      "posterior": 2871,
      "Ġpneumatic": 2872,
      "Bor": 2873,
      "chos": 2874,
      "Ġrenversement": 2875,
      "ipation": 2876,
      "ĠBulls": 2877,
      "iciary": 2878,
      "ĠEquipped": 2879,
      "Ġgek": 2880,
      "uscular": 2881,
      "ĠBranson": 2882,
      "CEED": 2883,
      "Ġthoe": 2884,
      "htmlspecialchars": 2885,
      "ision": 2886,
      "ĠITC": 2887,
      "Ġvoluto": 2888,
      "IFI": 2889,
      "reflectionCamera": 2890,
      "DidEnter": 2891,
      "Ġverdi": 2892,
      "ANIEL": 2893,
      "ĠGandhiji": 2894,
      "ĠReactor": 2895,
      "ĠEich": 2896,
      "eterministic": 2897,
      "ĠEcommerce": 2898,
      "Ġdissipate": 2899,
      "Throwable": 2900,
      "ilerine": 2901,
      "Ġmerch": 2902,
      "bson": 2903,
      "AYER": 2904,
      "ccevam": 2905,
      "ĠTert": 2906,
      "ĠIccevam": 2907,
      "Ġwann": 2908,
      "CIF": 2909,
      "uesthouse": 2910,
      "Ġdwind": 2911,
      "ĠBatista": 2912,
      "ĠinitialState": 2913,
      "ĠCit": 2914,
      "metast": 2915,
      "ĠAzt": 2916,
      "Ġtreacher": 2917,
      "Ġdwindling": 2918,
      "ĠAztec": 2919,
      "Ġmarket": 2920,
      "Ġcity": 2921,
      "Ġswath": 2922,
      "Ġyao": 2923,
      "unia": 2924,
      "ĠBatu": 2925,
      "Ġmaz": 2926,
      "proj": 2927,
      "Ġtherapy": 2928,
      "ĠTherapy": 2929,
      "ashov": 2930,
      "elting": 2931,
      "rugu": 2932,
      "Ġcompels": 2933,
      "cedence": 2934,
      "Ġkena": 2935,
      "Ġmeticulously": 2936,
      "Ġcoups": 2937,
      "vcxproj": 2938,
      "amist": 2939,
      "ĠAyer": 2940,
      "dison": 2941,
      "iddlewares": 2942,
      "administrat": 2943,
      "ĠWunder": 2944,
      "Ġevap": 2945,
      "ĠEgyptians": 2946,
      "irono": 2947,
      "Ġentom": 2948,
      "ĠPoul": 2949,
      "ĠZERO": 2950,
      "Ġchicas": 2951,
      "ĠGuel": 2952,
      "onDidChange": 2953,
      "Ġgeme": 2954,
      "Chocolate": 2955,
      "Ġorci": 2956,
      "Ġyung": 2957,
      "Ġchanc": 2958,
      "Ġundet": 2959,
      "Ġinfinit": 2960,
      "wendungs": 2961,
      "okinetic": 2962,
      "okia": 2963,
      "Ġpriors": 2964,
      "ĠCTA": 2965,
      "Ġgov": 2966,
      "Ġinfinites": 2967,
      "Ġchercher": 2968,
      "argar": 2969,
      "ARTER": 2970,
      "Lum": 2971,
      "ossos": 2972,
      "itzerland": 2973,
      "Ġstenosis": 2974,
      "Ġnontrivial": 2975,
      "IFIED": 2976,
      "isin": 2977,
      "ĠYed": 2978,
      "quelle": 2979,
      "ĠobjString": 2980,
      "Ġprong": 2981,
      "Ġsadr": 2982,
      "Ġembol": 2983,
      "ilent": 2984,
      "Ġgarant": 2985,
      "Ġearth": 2986,
      "solver": 2987,
      "isNotEmpty": 2988,
      "Ġimmort": 2989,
      "bati": 2990,
      "ochen": 2991,
      "IRO": 2992,
      "Quadr": 2993,
      "rean": 2994,
      "Ġinwon": 2995,
      "ĠOlm": 2996,
      "pyt": 2997,
      "Ġbackground": 2998,
      "ĠAper": 2999,
      "TOF": 3000,
      "itive": 3001,
      "etam": 3002,
      "Ġkwiet": 3003,
      "pytorch": 3004,
      "Ġwyt": 3005,
      "Ġluogo": 3006,
      "ĠBung": 3007,
      "ĠKald": 3008,
      "glise": 3009,
      "RAF": 3010,
      "angas": 3011,
      "orama": 3012,
      "scri": 3013,
      "Ġbahas": 3014,
      "IONS": 3015,
      "Ġseverally": 3016,
      "Ġgale": 3017,
      "Println": 3018,
      "araf": 3019,
      "ĠMala": 3020,
      "uland": 3021,
      "abei": 3022,
      "WebV": 3023,
      "Ġsieben": 3024,
      "ajemy": 3025,
      "Ġediyorum": 3026,
      "Ġours": 3027,
      "ĠScribner": 3028,
      "ĠBrab": 3029,
      "legten": 3030,
      "Ġlaquelle": 3031,
      "mang": 3032,
      "ieuse": 3033,
      "ĠPly": 3034,
      "scall": 3035,
      "Ġenthal": 3036,
      "Ġtorpedo": 3037,
      "pied": 3038,
      "olak": 3039,
      "Ġcolic": 3040,
      "uaje": 3041,
      "Ġsparked": 3042,
      "ĠProctor": 3043,
      "ĠNTIS": 3044,
      "Ġannivers": 3045,
      "Ġmathcolor": 3046,
      "Toast": 3047,
      "Ġensl": 3048,
      "CCCc": 3049,
      "Ġpyrite": 3050,
      "Tra": 3051,
      "Ġmuestra": 3052,
      "Ġflamb": 3053,
      "springboot": 3054,
      "Ġformalin": 3055,
      "Ġquercetin": 3056,
      "hci": 3057,
      "Ġcalibrate": 3058,
      "ĠIMS": 3059,
      "Meth": 3060,
      "ongr": 3061,
      "gre": 3062,
      "ĠCorse": 3063,
      "Ġodpow": 3064,
      "Ġaerosol": 3065,
      "Ġiter": 3066,
      "ionych": 3067,
      "ittings": 3068,
      "Ġplato": 3069,
      "byterian": 3070,
      "Am": 3071,
      "ueling": 3072,
      "tyw": 3073,
      "ouilles": 3074,
      "ountain": 3075,
      "bilt": 3076,
      "ĠEndocr": 3077,
      "ĠBremer": 3078,
      "isel": 3079,
      "Ġmembrana": 3080,
      "ta": 3081,
      "Ġolok": 3082,
      "Ġflamboyant": 3083,
      "ĠHEP": 3084,
      "ĠMetadata": 3085,
      "tych": 3086,
      "kreuz": 3087,
      "hamdulillah": 3088,
      "itani": 3089,
      "ĠSTATUS": 3090,
      "Ġpelot": 3091,
      "Ġwastage": 3092,
      "Ġbrilliant": 3093,
      "Quadrant": 3094,
      "Ġmandible": 3095,
      "Ġenvisions": 3096,
      "mounted": 3097,
      "Ġapplique": 3098,
      "Ġbrilliantly": 3099,
      "ĠMaia": 3100,
      "Ġresa": 3101,
      "Ġpronotum": 3102,
      "ahnya": 3103,
      "autions": 3104,
      "Repos": 3105,
      "husky": 3106,
      "PAAm": 3107,
      "Ġtuf": 3108,
      "Ġscrapbook": 3109,
      "ĠHui": 3110,
      "Ġunprofitable": 3111,
      "neze": 3112,
      "Ġunderlie": 3113,
      "ĠSahib": 3114,
      "Ġmus": 3115,
      "ĠSier": 3116,
      "ypen": 3117,
      "Ġpaternal": 3118,
      "icosa": 3119,
      "Ġpublics": 3120,
      "Marshal": 3121,
      "UB": 3122,
      "Ġprecautions": 3123,
      "Ġretirar": 3124,
      "Ġkamera": 3125,
      "VariableName": 3126,
      "omi": 3127,
      "ifs": 3128,
      "Ġtorsion": 3129,
      "Ġauteurs": 3130,
      "ĠPaglinawan": 3131,
      "aura": 3132,
      "Ġfah": 3133,
      "aggable": 3134,
      "Ġmillas": 3135,
      "cler": 3136,
      "Ġsintomi": 3137,
      "anty": 3138,
      "ĠJLabel": 3139,
      "zny": 3140,
      "ĠAlton": 3141,
      "Ġsights": 3142,
      "glClear": 3143,
      "Pont": 3144,
      "scode": 3145,
      "Ġextravagant": 3146,
      "Ġverfol": 3147,
      "ampler": 3148,
      "ĠDuPont": 3149,
      "Ġconformational": 3150,
      "ĠDCE": 3151,
      "Ġhua": 3152,
      "Ġimpon": 3153,
      "Ġsvij": 3154,
      "ĠPec": 3155,
      "Ġrambling": 3156,
      "roite": 3157,
      "ĠMDF": 3158,
      "Ġrenormalization": 3159,
      "ĠAufnahme": 3160,
      "ikam": 3161,
      "Ġtender": 3162,
      "Ġnutmeg": 3163,
      "rschein": 3164,
      "Ġfait": 3165,
      "half": 3166,
      "FlagSet": 3167,
      "woch": 3168,
      "Ġhech": 3169,
      "Ġmoieties": 3170,
      "Einz": 3171,
      "Ġperpet": 3172,
      "Ġrepair": 3173,
      "ĠAzer": 3174,
      "ĠMonterrey": 3175,
      "ivad": 3176,
      "deling": 3177,
      "MenuItemView": 3178,
      "ĠGazz": 3179,
      "erees": 3180,
      "elnachweise": 3181,
      "Einzelnachweise": 3182,
      "Ġfcc": 3183,
      "Ġgetan": 3184,
      "ĠCrou": 3185,
      "XYGEN": 3186,
      "scatterplot": 3187,
      "peach": 3188,
      "Ġhur": 3189,
      "ĠgetNFiles": 3190,
      "Ġunrecognized": 3191,
      "dayspecial": 3192,
      "quiry": 3193,
      "cycl": 3194,
      "ĠDare": 3195,
      "gahan": 3196,
      "Ġbov": 3197,
      "Sole": 3198,
      "Ġinsignia": 3199,
      "Ġcongr": 3200,
      "ĠPeirce": 3201,
      "Ġethers": 3202,
      "PathTemplate": 3203,
      "Beh": 3204,
      "ĠonOptions": 3205,
      "isterschaften": 3206,
      "LookAndFeel": 3207,
      "UseCase": 3208,
      "Ġherni": 3209,
      "ĠHAY": 3210,
      "ĠAztecs": 3211,
      "Ġmetter": 3212,
      "Ġutilisez": 3213,
      "rase": 3214,
      "Behav": 3215,
      "ovima": 3216,
      "notFound": 3217,
      "WART": 3218,
      "ĠTraverse": 3219,
      "ĠOsm": 3220,
      "setLookAndFeel": 3221,
      "Ġmodelli": 3222,
      "ĠThro": 3223,
      "ĠBriggs": 3224,
      "lashes": 3225,
      "ĠIssled": 3226,
      "adamu": 3227,
      "Ġabsorbs": 3228,
      "faz": 3229,
      "sson": 3230,
      "Ġrift": 3231,
      "enos": 3232,
      "ĠLeitung": 3233,
      "imals": 3234,
      "phrase": 3235,
      "sling": 3236,
      "ĠBrune": 3237,
      "Ġextrap": 3238,
      "Ġpassphrase": 3239,
      "zaw": 3240,
      "ĠCommentaires": 3241,
      "Ġinhibits": 3242,
      "SearchResult": 3243,
      "stuhl": 3244,
      "ĠstartTime": 3245,
      "Ġnightlife": 3246,
      "issner": 3247,
      "bcb": 3248,
      "Ġsouven": 3249,
      "multicol": 3250,
      "etten": 3251,
      "REPOSITORY": 3252,
      "ĠWeller": 3253,
      "derr": 3254,
      "ĠJov": 3255,
      "multicolumn": 3256,
      "ĠOd": 3257,
      "ĠAccelerator": 3258,
      "processable": 3259,
      "ĠBabc": 3260,
      "Ġapolog": 3261,
      "heta": 3262,
      "olomorphic": 3263,
      "ĠOdysseus": 3264,
      "ĠBabcock": 3265,
      "ĠSun": 3266,
      "Ġgalloping": 3267,
      "Twig": 3268,
      "ĠGBM": 3269,
      "ilesh": 3270,
      "asad": 3271,
      "ĠBath": 3272,
      "LOC": 3273,
      "Ġatk": 3274,
      "Ġconseguiu": 3275,
      "ĠMusa": 3276,
      "isme": 3277,
      "verm": 3278,
      "Ġmittel": 3279,
      "Ġsweeps": 3280,
      "kip": 3281,
      "uruh": 3282,
      "ĠVargas": 3283,
      "Shin": 3284,
      "ieft": 3285,
      "Ġxxx": 3286,
      "Ġpedi": 3287,
      "ĠBathurst": 3288,
      "Ġcries": 3289,
      "ompact": 3290,
      "Ġpleasant": 3291,
      "Dock": 3292,
      "Ġmedit": 3293,
      "Low": 3294,
      "ataya": 3295,
      "ĠKne": 3296,
      "iori": 3297,
      "ĠDamage": 3298,
      "Ġcourrier": 3299,
      "Ġistiyorum": 3300,
      "piratory": 3301,
      "Ġpleasantly": 3302,
      "ĠMcKenna": 3303,
      "ĠSera": 3304,
      "ancock": 3305,
      "Lowercase": 3306,
      "Ġvot": 3307,
      "ĠSunil": 3308,
      "lais": 3309,
      "Ġinvocation": 3310,
      "iada": 3311,
      "ggac": 3312,
      "Ġunrecognizable": 3313,
      "Ġdiga": 3314,
      "uez": 3315,
      "AUX": 3316,
      "Ġdissemin": 3317,
      "ĠCary": 3318,
      "need": 3319,
      "getNext": 3320,
      "ightful": 3321,
      "Ġassort": 3322,
      "Ġmultitasking": 3323,
      "onth": 3324,
      "ĠPvt": 3325,
      "Ġasesin": 3326,
      "Ġtestaceis": 3327,
      "ffected": 3328,
      "indak": 3329,
      "Ġcoyote": 3330,
      "ĠQueue": 3331,
      "Ġconfess": 3332,
      "Ġinsightful": 3333,
      "owers": 3334,
      "angled": 3335,
      "ĠEndo": 3336,
      "Ġsynonym": 3337,
      "Ġskute": 3338,
      "Ġmarav": 3339,
      "Checking": 3340,
      "ĠBuddh": 3341,
      "Ġbaut": 3342,
      "vem": 3343,
      "Ġincont": 3344,
      "Ġsabato": 3345,
      "Ġlumen": 3346,
      "CheckingType": 3347,
      "ogenetics": 3348,
      "fert": 3349,
      "avanje": 3350,
      "argb": 3351,
      "ĠBuhari": 3352,
      "Ġscoping": 3353,
      "zonych": 3354,
      "Ġchuckle": 3355,
      "ĠMSN": 3356,
      "ĠFron": 3357,
      "Parse": 3358,
      "rayed": 3359,
      "atthaya": 3360,
      "RF": 3361,
      "ĠPyth": 3362,
      "ĠChelten": 3363,
      "ĠCheltenham": 3364,
      "washer": 3365,
      "Ġbiotic": 3366,
      "DMA": 3367,
      "adham": 3368,
      "Ġrecesses": 3369,
      "Ġoffic": 3370,
      "ĠLuaToJavaResult": 3371,
      "erramento": 3372,
      "encerramento": 3373,
      "lum": 3374,
      "ĠCoom": 3375,
      "ĠJacobs": 3376,
      "ĠPern": 3377,
      "Ġshort": 3378,
      "irai": 3379,
      "ĠSNAP": 3380,
      "Eugene": 3381,
      "acing": 3382,
      "neut": 3383,
      "ĠCIM": 3384,
      "ercial": 3385,
      "Ġsenyawa": 3386,
      "ĠVoj": 3387,
      "Ġsprint": 3388,
      "WithValue": 3389,
      "Ġsteamer": 3390,
      "IndexArray": 3391,
      "Ġcow": 3392,
      "iedo": 3393,
      "ĠPolonia": 3394,
      "StarSrvGroupBody": 3395,
      "pair": 3396,
      "Ġcling": 3397,
      "Ġxvi": 3398,
      "Ġosa": 3399,
      "izers": 3400,
      "dishwasher": 3401,
      "ĠEntsche": 3402,
      "ĠNorwalk": 3403,
      "Ġmanj": 3404,
      "Ġperfor": 3405,
      "Ġausgest": 3406,
      "Ġbiznes": 3407,
      "Ġgeh": 3408,
      "Ġohms": 3409,
      "myItemId": 3410,
      "webview": 3411,
      "alignParentRight": 3412,
      "clamp": 3413,
      "Ġlampe": 3414,
      "ulio": 3415,
      "sdk": 3416,
      "ColumnHeaders": 3417,
      "sweet": 3418,
      "skl": 3419,
      "structured": 3420,
      "ĠWexford": 3421,
      "Ġkonuda": 3422,
      "Bind": 3423,
      "BON": 3424,
      "ĠChurchill": 3425,
      "Ġunstructured": 3426,
      "Superview": 3427,
      "DrawerToggle": 3428,
      "ugs": 3429,
      "Ġxrange": 3430,
      "Ġsouvenirs": 3431,
      "ativistic": 3432,
      "ĠIsrael": 3433,
      "targetContext": 3434,
      "fiscal": 3435,
      "ĠNinete": 3436,
      "Ġbudget": 3437,
      "ĠNineteenth": 3438,
      "Ġmusculaire": 3439,
      "Vertical": 3440,
      "gak": 3441,
      "spike": 3442,
      "lict": 3443,
      "Ġbrune": 3444,
      "Ġorphaned": 3445,
      "ylethyl": 3446,
      "spars": 3447,
      "decomp": 3448,
      "ectonic": 3449,
      "ettier": 3450,
      "Ġchristian": 3451,
      "meas": 3452,
      "ĠKamal": 3453,
      "Ġek": 3454,
      "Ġaccom": 3455,
      "Ġlume": 3456,
      "prettier": 3457,
      "Ġcael": 3458,
      "Ġfire": 3459,
      "lte": 3460,
      "isman": 3461,
      "Ġsincer": 3462,
      "ĠDao": 3463,
      "riving": 3464,
      "Ġfilede": 3465,
      "Ġdast": 3466,
      "irmek": 3467,
      "Ġpapan": 3468,
      "aned": 3469,
      "Ġsuic": 3470,
      "Ġretort": 3471,
      "Ġclams": 3472,
      "Ġhumo": 3473,
      "ĠConstantinople": 3474,
      "pais": 3475,
      "actionBar": 3476,
      "Ġcastration": 3477,
      "mie": 3478,
      "Ġfai": 3479,
      "artney": 3480,
      "ĠCag": 3481,
      "ĠUEFI": 3482,
      "ĠMcCartney": 3483,
      "ĠThroat": 3484,
      "ĠSato": 3485,
      "Ġlongiore": 3486,
      "fung": 3487,
      "ĠDonec": 3488,
      "ĠCreole": 3489,
      "ĠTelf": 3490,
      "CEST": 3491,
      "ĠController": 3492,
      "ĠMessieurs": 3493,
      "ensible": 3494,
      "ĠOswald": 3495,
      "izaje": 3496,
      "Ġmengungk": 3497,
      "Ġmagick": 3498,
      "Behaviour": 3499,
      "ĠControllerBase": 3500,
      "Ġmengungkapkan": 3501,
      "iccation": 3502,
      "ĠSander": 3503,
      "DICTION": 3504,
      "adel": 3505,
      "Ġsze": 3506,
      "Ġhtml": 3507,
      "brando": 3508,
      "oBehaviour": 3509,
      "Ġpew": 3510,
      "ĠSai": 3511,
      "ĠMonoBehaviour": 3512,
      "Ġmanquer": 3513,
      "riger": 3514,
      "licks": 3515,
      "ĠFT": 3516,
      "ĠChines": 3517,
      "Ġenerg": 3518,
      "Ġkehad": 3519,
      "found": 3520,
      "Ġcomest": 3521,
      "Ġacolo": 3522,
      "ually": 3523,
      "arlier": 3524,
      "Ġyearn": 3525,
      "ĠAGRE": 3526,
      "Ġcercanos": 3527,
      "Ġcountertop": 3528,
      "abez": 3529,
      "manuel": 3530,
      "actifs": 3531,
      "ĠCampe": 3532,
      "Ġstumpage": 3533,
      "ĠPVP": 3534,
      "allic": 3535,
      "Ġasking": 3536,
      "Ham": 3537,
      "ĠEmanuel": 3538,
      "getResponse": 3539,
      "ushan": 3540,
      "<0x61>": 3541,
      "Ġsitter": 3542,
      "btns": 3543,
      "Ġstyc": 3544,
      "znia": 3545,
      "Ġsenhores": 3546,
      "Ġstycznia": 3547,
      "ĠSandro": 3548,
      "getResponseCode": 3549,
      "FileAlignment": 3550,
      "EnterExpr": 3551,
      "ĠBokeh": 3552,
      "izhou": 3553,
      "Ġwonders": 3554,
      "Ġbackpack": 3555,
      "triflu": 3556,
      "ĠUNIVERS": 3557,
      "trifluoromethyl": 3558,
      "ĠRond": 3559,
      "Ġeigen": 3560,
      "enient": 3561,
      "Ġunob": 3562,
      "ĠYaj": 3563,
      "Ġmenstru": 3564,
      "Ġdesi": 3565,
      "ENSATION": 3566,
      "ĠIsraelites": 3567,
      "Ġunobstructed": 3568,
      "ollower": 3569,
      "ĠCongr": 3570,
      "Ġplacent": 3571,
      "TROLL": 3572,
      "ĠMahomes": 3573,
      "Ġuphold": 3574,
      "visao": 3575,
      "aund": 3576,
      "andad": 3577,
      "ornos": 3578,
      "ĠCez": 3579,
      "ineedf": 3580,
      "accro": 3581,
      "ineedfollower": 3582,
      "ocont": 3583,
      "ĠScher": 3584,
      "embra": 3585,
      "udit": 3586,
      "httparty": 3587,
      "Ġkond": 3588,
      "Ġrick": 3589,
      "ophag": 3590,
      "FFFFFF": 3591,
      "Ġamb": 3592,
      "Ġbiom": 3593,
      "Ġcomporta": 3594,
      "Ġresistors": 3595,
      "Ġhosp": 3596,
      "Ġbragging": 3597,
      "Ġtachy": 3598,
      "Ġmenstruation": 3599,
      "odenum": 3600,
      "Ġimen": 3601,
      "udius": 3602,
      "wallet": 3603,
      "HomePage": 3604,
      "Kernel": 3605,
      "ĠMena": 3606,
      "idmat": 3607,
      "Ġtat": 3608,
      "dataReader": 3609,
      "ektiv": 3610,
      "QUENCY": 3611,
      "bucks": 3612,
      "going": 3613,
      "relativistic": 3614,
      "ĠBallard": 3615,
      "ordes": 3616,
      "ĠHermitian": 3617,
      "ochromatic": 3618,
      "STICK": 3619,
      "ĠRhod": 3620,
      "wrist": 3621,
      "ĠCaps": 3622,
      "ĠSurprise": 3623,
      "urine": 3624,
      "ĠcommandBuffer": 3625,
      "DEST": 3626,
      "Ġvirtuous": 3627,
      "ĠMyHomePage": 3628,
      "streng": 3629,
      "lisi": 3630,
      "glad": 3631,
      "PRF": 3632,
      "phantom": 3633,
      "anke": 3634,
      "ĠAllard": 3635,
      "gladbach": 3636,
      "WAS": 3637,
      "enchym": 3638,
      "rospective": 3639,
      "osures": 3640,
      "enchymal": 3641,
      "ĠGWAS": 3642,
      "ignon": 3643,
      "Ġresignation": 3644,
      "chied": 3645,
      "ELDS": 3646,
      "iphatic": 3647,
      "ispanic": 3648,
      "Ġlauren": 3649,
      "Ġmarketable": 3650,
      "guna": 3651,
      "penny": 3652,
      "Ġderrot": 3653,
      "avour": 3654,
      "Ġscrubber": 3655,
      "WH": 3656,
      "Ġbesieged": 3657,
      "ĠTOL": 3658,
      "videmment": 3659,
      "haba": 3660,
      "iota": 3661,
      "protos": 3662,
      "ĠRES": 3663,
      "ĠTajik": 3664,
      "DTO": 3665,
      "ĠMera": 3666,
      "Ġparent": 3667,
      "Ġlobby": 3668,
      "izadas": 3669,
      "Ġwandering": 3670,
      "mance": 3671,
      "abile": 3672,
      "ĠFranken": 3673,
      "odot": 3674,
      "formance": 3675,
      "Ġbaixo": 3676,
      "nier": 3677,
      "Ġlead": 3678,
      "ĠCalhoun": 3679,
      "hall": 3680,
      "ĠFringe": 3681,
      "Ġgesturing": 3682,
      "Ġdoma": 3683,
      "ĠITS": 3684,
      "sortTable": 3685,
      "Ġmaravilh": 3686,
      "yset": 3687,
      "ĠWhitehall": 3688,
      "aughey": 3689,
      "Ġunkind": 3690,
      "adelphia": 3691,
      "Curr": 3692,
      "ĠHark": 3693,
      "ĠCitibank": 3694,
      "Ġismert": 3695,
      "ĠLEC": 3696,
      "Ġduodenum": 3697,
      "bate": 3698,
      "Ġgati": 3699,
      "ĠSchlacht": 3700,
      "alamat": 3701,
      "urring": 3702,
      "queline": 3703,
      "ĠJORDAN": 3704,
      "krb": 3705,
      "Ġflares": 3706,
      "report": 3707,
      "quilibrium": 3708,
      "Ġknocking": 3709,
      "ĠPrabhu": 3710,
      "pong": 3711,
      "ĠRude": 3712,
      "Ġseptiembre": 3713,
      "ainment": 3714,
      "Ġaconte": 3715,
      "owering": 3716,
      "Ġsoldering": 3717,
      "cyclopent": 3718,
      "Ġbfs": 3719,
      "allus": 3720,
      "ĠAbuja": 3721,
      "rbac": 3722,
      "Ġmitte": 3723,
      "Ġryth": 3724,
      "eye": 3725,
      "claimed": 3726,
      "Ġspreads": 3727,
      "Ġprofitability": 3728,
      "Ġlactic": 3729,
      "Conformance": 3730,
      "topLeft": 3731,
      "Ġcotisation": 3732,
      "Ġhassle": 3733,
      "Ġmagnetite": 3734,
      "Ġaktive": 3735,
      "IVING": 3736,
      "Mbps": 3737,
      "push": 3738,
      "Ġutterance": 3739,
      "reportBody": 3740,
      "pushButton": 3741,
      "gawa": 3742,
      "Ġkines": 3743,
      "Ġemargin": 3744,
      "Ġolma": 3745,
      "Ġpellets": 3746,
      "ĠHess": 3747,
      "Ġpenas": 3748,
      "stranded": 3749,
      "lieu": 3750,
      "cione": 3751,
      "ĠNikita": 3752,
      "Ġdazz": 3753,
      "ieke": 3754,
      "rugg": 3755,
      "callback": 3756,
      "jeni": 3757,
      "Ġpasar": 3758,
      "ĠTath": 3759,
      "Flask": 3760,
      "Ġpositivity": 3761,
      "Ġproliferative": 3762,
      "Ġpert": 3763,
      "ĠECM": 3764,
      "Ġchines": 3765,
      "ĠStark": 3766,
      "Ġrecruiter": 3767,
      "woods": 3768,
      "Ġdepriving": 3769,
      "RAP": 3770,
      "variant": 3771,
      "chuk": 3772,
      "oribus": 3773,
      "rauch": 3774,
      "Ġfeb": 3775,
      "rictional": 3776,
      "Ġmagickwoods": 3777,
      "opus": 3778,
      "Ġalkoxy": 3779,
      "Ġmathvariant": 3780,
      "Ġuncomment": 3781,
      "Ġupl": 3782,
      "Ġdonnent": 3783,
      "ĠRESON": 3784,
      "Ġtruncation": 3785,
      "Ġmisa": 3786,
      "counterx": 3787,
      "OLD": 3788,
      "obi": 3789,
      "Ġvariational": 3790,
      "kule": 3791,
      "Ġwrenches": 3792,
      "Ġmnist": 3793,
      "Reven": 3794,
      "ulagway": 3795,
      "ayang": 3796,
      "olines": 3797,
      "roxine": 3798,
      "ĠMunch": 3799,
      "getLast": 3800,
      "Ġtrance": 3801,
      "categ": 3802,
      "Ġballe": 3803,
      "NaOH": 3804,
      "anesu": 3805,
      "ĠKumari": 3806,
      "agati": 3807,
      "Ġpassive": 3808,
      "umba": 3809,
      "ĠGunners": 3810,
      "onel": 3811,
      "Ġmesi": 3812,
      "Ġjamb": 3813,
      "venida": 3814,
      "markup": 3815,
      "ĠElton": 3816,
      "Ġdecadent": 3817,
      "dare": 3818,
      "Tonel": 3819,
      "iezan": 3820,
      "StatusCode": 3821,
      "Ral": 3822,
      "Ġcompuesta": 3823,
      "Ġhaszn": 3824,
      "Raleway": 3825,
      "luster": 3826,
      "ĠSuez": 3827,
      "inness": 3828,
      "Ġmyel": 3829,
      "Ġye": 3830,
      "Ġhocam": 3831,
      "ĠMila": 3832,
      "ĠNutt": 3833,
      "leon": 3834,
      "ĠStall": 3835,
      "Ġinterst": 3836,
      "Ġjetty": 3837,
      "ameleon": 3838,
      "angoloRad": 3839,
      "Ġasymptotic": 3840,
      "Ġrhinophores": 3841,
      "ĠORF": 3842,
      "MVP": 3843,
      "umpled": 3844,
      "Ġcrumpled": 3845,
      "Ġpleg": 3846,
      "Ġaliphatic": 3847,
      "abee": 3848,
      "ustrious": 3849,
      "Ġnegatif": 3850,
      "Ġfebbraio": 3851,
      "Ġdobl": 3852,
      "cat": 3853,
      "Ġtestigos": 3854,
      "Ġreaf": 3855,
      "ĠVIAF": 3856,
      "Ġgymnasium": 3857,
      "Ġlitter": 3858,
      "Ġracont": 3859,
      "Ġraconte": 3860,
      "nian": 3861,
      "Ġdix": 3862,
      "Ġgroundwork": 3863,
      "ĠSOA": 3864,
      "toBe": 3865,
      "ocysts": 3866,
      "ToList": 3867,
      "Ġlittered": 3868,
      "Ġtoug": 3869,
      "onnaise": 3870,
      "axi": 3871,
      "icherung": 3872,
      "afon": 3873,
      "scrollY": 3874,
      "Ġfundador": 3875,
      "orter": 3876,
      "ĠMith": 3877,
      "meid": 3878,
      "RestClient": 3879,
      "Ġvanity": 3880,
      "Ġboasted": 3881,
      "nCurr": 3882,
      "romatic": 3883,
      "ADESH": 3884,
      "Ġbiztos": 3885,
      "Ġpupp": 3886,
      "dzi": 3887,
      "izdat": 3888,
      "Ġgiphy": 3889,
      "Ġnouns": 3890,
      "ĠBastian": 3891,
      "Ġunfriendly": 3892,
      "Ġprogressing": 3893,
      "andran": 3894,
      "PPtr": 3895,
      "Ġtimid": 3896,
      "Ġuncut": 3897,
      "Ġminimized": 3898,
      "Ġabusive": 3899,
      "Ġdilat": 3900,
      "deter": 3901,
      "Ġpiens": 3902,
      "swan": 3903,
      "ĠXGB": 3904,
      "Ġeden": 3905,
      "getPrototypeOf": 3906,
      "Ġradios": 3907,
      "Ġgenet": 3908,
      "ĠGarfield": 3909,
      "Ġkolem": 3910,
      "ĠShire": 3911,
      "ĠNDIndexArray": 3912,
      "Ġgenetically": 3913,
      "ĠKoy": 3914,
      "ooi": 3915,
      "states": 3916,
      "ĠGers": 3917,
      "IMATE": 3918,
      "Ġpuppet": 3919,
      "cepc": 3920,
      "ypi": 3921,
      "Ġiam": 3922,
      "Ġbijection": 3923,
      "rectionType": 3924,
      "ĠITEM": 3925,
      "Ġeigenstates": 3926,
      "inutes": 3927,
      "Ġbow": 3928,
      "ocere": 3929,
      "getMinutes": 3930,
      "branes": 3931,
      "Ġhorse": 3932,
      "doom": 3933,
      "LIGENCE": 3934,
      "fid": 3935,
      "Ġrahul": 3936,
      "Ġhorsepower": 3937,
      "ableau": 3938,
      "permint": 3939,
      "Ġpeppermint": 3940,
      "SDAY": 3941,
      "syscall": 3942,
      "Ġbrutal": 3943,
      "nia": 3944,
      "amazaki": 3945,
      "ĠTableau": 3946,
      "Ġsurvey": 3947,
      "Ġeleven": 3948,
      "Ġmundur": 3949,
      "empel": 3950,
      "Await": 3951,
      "odings": 3952,
      "Ġsubcont": 3953,
      "ookeeper": 3954,
      "Ġconcession": 3955,
      "readed": 3956,
      "Ġbrun": 3957,
      "getDefault": 3958,
      "ISIONS": 3959,
      "Ġcaterpillar": 3960,
      "Ġsubserv": 3961,
      "ĠZuge": 3962,
      "ipelago": 3963,
      "ĠLone": 3964,
      "Ġrhs": 3965,
      "Ġaspir": 3966,
      "Ġdiscontinued": 3967,
      "rfImp": 3968,
      "Ġwillkommen": 3969,
      "Ġaorta": 3970,
      "ĠMav": 3971,
      "Ġinfiltrating": 3972,
      "Ġtuli": 3973,
      "Mo": 3974,
      "Ġmason": 3975,
      "ĠmethodName": 3976,
      "agonal": 3977,
      "Ġretras": 3978,
      "Ġcommentaries": 3979,
      "gag": 3980,
      "Ġsynch": 3981,
      "carboxylate": 3982,
      "Ġsynchrotron": 3983,
      "Toolbar": 3984,
      "ConfigureAwait": 3985,
      "zung": 3986,
      "Ġpropelling": 3987,
      "steam": 3988,
      "Ġhypersurface": 3989,
      "datei": 3990,
      "apsingToolbar": 3991,
      "ĠYogyakarta": 3992,
      "Interstitial": 3993,
      "Ġsurged": 3994,
      "Ġextrem": 3995,
      "ĠPamplona": 3996,
      "Ġintensively": 3997,
      "ĠCARR": 3998,
      "ĠEST": 3999,
      "ariyam": 4000,
      "aser": 4001,
      "Ġmitochond": 4002,
      "Ġgraced": 4003,
      "spruch": 4004,
      "ĠESTATE": 4005,
      "jali": 4006,
      "ikr": 4007,
      "batch": 4008,
      "anniksi": 4009,
      "rimps": 4010,
      "workItem": 4011,
      "eniz": 4012,
      "addi": 4013,
      "Ġonu": 4014,
      "handled": 4015,
      "Ġhunger": 4016,
      "culaire": 4017,
      "ĠEdgar": 4018,
      "uego": 4019,
      "alars": 4020,
      "ĠWiel": 4021,
      "Ġconjugates": 4022,
      "acheal": 4023,
      "Unhandled": 4024,
      "sels": 4025,
      "asile": 4026,
      "ĠESR": 4027,
      "Ġquier": 4028,
      "Ġremember": 4029,
      "ĠPompeo": 4030,
      "aventure": 4031,
      "ĠRailroad": 4032,
      "ĠEun": 4033,
      "ĠJar": 4034,
      "ĠShelley": 4035,
      "quero": 4036,
      "ĠXiu": 4037,
      "Ġstupe": 4038,
      "ĠJarvis": 4039,
      "ĠStich": 4040,
      "Ġexhaust": 4041,
      "Ġrealizados": 4042,
      "ĠNormdatei": 4043,
      "ĠDecentral": 4044,
      "Ġsoldats": 4045,
      "Ġretarded": 4046,
      "hesu": 4047,
      "Ġscorch": 4048,
      "monium": 4049,
      "Ġscorching": 4050,
      "cend": 4051,
      "ĠPelle": 4052,
      "Ġbgcolor": 4053,
      "rosophila": 4054,
      "niers": 4055,
      "Ġchoque": 4056,
      "AddNew": 4057,
      "ĠSind": 4058,
      "Ġholog": 4059,
      "Ġincontinence": 4060,
      "getHours": 4061,
      "ĠNgf": 4062,
      "tki": 4063,
      "Ġskal": 4064,
      "Hud": 4065,
      "iara": 4066,
      "Ġcnc": 4067,
      "Ġkoch": 4068,
      "ĠKiara": 4069,
      "Ġdones": 4070,
      "Ġradix": 4071,
      "PriceDtls": 4072,
      "ĠCarab": 4073,
      "upaten": 4074,
      "Ġcropland": 4075,
      "HALL": 4076,
      "EDanger": 4077,
      "Defaults": 4078,
      "Ġleng": 4079,
      "Ġrevolved": 4080,
      "Ġjeder": 4081,
      "ĠAsht": 4082,
      "plasma": 4083,
      "ĠHond": 4084,
      "bbene": 4085,
      "oplankton": 4086,
      "rewn": 4087,
      "ĠArter": 4088,
      "ĠLIVING": 4089,
      "versive": 4090,
      "ĠAkhtar": 4091,
      "rsa": 4092,
      "rose": 4093,
      "EX": 4094,
      "ĠCDMA": 4095,
      "otroph": 4096,
      "ffici": 4097,
      "Ġvolto": 4098,
      "Ġbangs": 4099,
      "Gap": 4100,
      "AutorLabel": 4101,
      "preview": 4102,
      "rind": 4103,
      "Ġdey": 4104,
      "annung": 4105,
      "ĠMaf": 4106,
      "ulat": 4107,
      "appart": 4108,
      "Ġoverdue": 4109,
      "aber": 4110,
      "acrylate": 4111,
      "Ġdisguised": 4112,
      "ĠSpani": 4113,
      "Ġberaber": 4114,
      "Ġplunged": 4115,
      "vived": 4116,
      "wert": 4117,
      "ĠColombeau": 4118,
      "welcome": 4119,
      "ĠPosit": 4120,
      "ĠOFFICER": 4121,
      "ĠPositive": 4122,
      "Ġkamer": 4123,
      "Ġpositive": 4124,
      "Ġcaldo": 4125,
      "ĠLanzarote": 4126,
      "HashmapKey": 4127,
      "Ġquadrat": 4128,
      "apour": 4129,
      "ĠonChanged": 4130,
      "ĠGave": 4131,
      "assar": 4132,
      "RELATES": 4133,
      "Ġsvijet": 4134,
      "ĠButch": 4135,
      "Ġheut": 4136,
      "ĠChameleon": 4137,
      "BindView": 4138,
      "ĠDutt": 4139,
      "igators": 4140,
      "setBackground": 4141,
      "Ġmarche": 4142,
      "SLAM": 4143,
      "Contacts": 4144,
      "Ġbeleza": 4145,
      "Ġviernes": 4146,
      "ĠRue": 4147,
      "Ġgrumpy": 4148,
      "isteren": 4149,
      "Ġamph": 4150,
      "Ġocean": 4151,
      "izzati": 4152,
      "Ġpointer": 4153,
      "Ġadet": 4154,
      "more": 4155,
      "izeit": 4156,
      "Ġupland": 4157,
      "urbative": 4158,
      "ĠBlackmore": 4159,
      "Nimbus": 4160,
      "Nitro": 4161,
      "Ġgout": 4162,
      "uberculosis": 4163,
      "rieved": 4164,
      "ĠEsq": 4165,
      "Aless": 4166,
      "Ġsamm": 4167,
      "ĠVander": 4168,
      "ardier": 4169,
      "Ġlees": 4170,
      "Ġsammeln": 4171,
      "ĠHRM": 4172,
      "gins": 4173,
      "Ġhydroph": 4174,
      "ĠHRMClient": 4175,
      "aabb": 4176,
      "zaXRvcn": 4177,
      "Underv": 4178,
      "emian": 4179,
      "ĠTomasz": 4180,
      "Ġreadership": 4181,
      "issive": 4182,
      "QS": 4183,
      "ĠEQS": 4184,
      "ĠColiseum": 4185,
      "RENCH": 4186,
      "Ġhydrophilic": 4187,
      "Ġmudd": 4188,
      "ĠWeld": 4189,
      "Ġvodka": 4190,
      "Ġyield": 4191,
      "findContacts": 4192,
      "Ġyearbook": 4193,
      "Ġfragen": 4194,
      "ĠbuildTypes": 4195,
      "Ġchoking": 4196,
      "positive": 4197,
      "sores": 4198,
      "ĠFin": 4199,
      "awesi": 4200,
      "identified": 4201,
      "after": 4202,
      "Ġoppressed": 4203,
      "Semif": 4204,
      "ĠThames": 4205,
      "Tournament": 4206,
      "chlor": 4207,
      "Glu": 4208,
      "Jwt": 4209,
      "ermes": 4210,
      "astel": 4211,
      "Ġpresup": 4212,
      "Pers": 4213,
      "adhy": 4214,
      "lund": 4215,
      "Ġshocks": 4216,
      "ĠSelma": 4217,
      "album": 4218,
      "ĠHopl": 4219,
      "ĠUbud": 4220,
      "Ġraha": 4221,
      "Invocation": 4222,
      "ssc": 4223,
      "Ġvias": 4224,
      "spannung": 4225,
      "ĠDELL": 4226,
      "jszip": 4227,
      "ĠSubsec": 4228,
      "afone": 4229,
      "ĠXXI": 4230,
      "araj": 4231,
      "Ġpropr": 4232,
      "Ġgy": 4233,
      "Ġquadrature": 4234,
      "PKG": 4235,
      "isees": 4236,
      "ĠBelf": 4237,
      "Ġputa": 4238,
      "Ġsheared": 4239,
      "jis": 4240,
      "Ġbackside": 4241,
      "ĠsetUp": 4242,
      "ĠAssertion": 4243,
      "ĠIMO": 4244,
      "ĠGarrison": 4245,
      "Ġlenient": 4246,
      "galax": 4247,
      "ĠFinley": 4248,
      "ĠBibi": 4249,
      "ppb": 4250,
      "utlich": 4251,
      "GoSrvGroupIndex": 4252,
      "sourceIP": 4253,
      "pur": 4254,
      "hami": 4255,
      "Ġhandelt": 4256,
      "Olymp": 4257,
      "ĠtotalSupply": 4258,
      "ĠLCM": 4259,
      "ĠJer": 4260,
      "Ġparm": 4261,
      "rige": 4262,
      "GetCharByIndex": 4263,
      "Ġtrifft": 4264,
      "ĠGalleria": 4265,
      "Gabri": 4266,
      "iminary": 4267,
      "ĠKoc": 4268,
      "ubah": 4269,
      "blica": 4270,
      "Ġwhims": 4271,
      "ĠBohemian": 4272,
      "Ġpedag": 4273,
      "arynge": 4274,
      "ĠHitch": 4275,
      "ĠsetNew": 4276,
      "umento": 4277,
      "Ġeffect": 4278,
      "Ġwhimsical": 4279,
      "uws": 4280,
      "comings": 4281,
      "Ġgoreng": 4282,
      "itespace": 4283,
      "ĠReliable": 4284,
      "Ġtesticular": 4285,
      "Ġspares": 4286,
      "ovil": 4287,
      "phin": 4288,
      "ĠONU": 4289,
      "EEC": 4290,
      "VENT": 4291,
      "ror": 4292,
      "untamiento": 4293,
      "ĠVec": 4294,
      "Ġapart": 4295,
      "PerRow": 4296,
      "ĠAssertionError": 4297,
      "zki": 4298,
      "pronged": 4299,
      "fst": 4300,
      "Ġeko": 4301,
      "ĠPers": 4302,
      "altung": 4303,
      "wParam": 4304,
      "pung": 4305,
      "Ġsio": 4306,
      "Ġunidentified": 4307,
      "ĠTemm": 4308,
      "rystal": 4309,
      "ĠTemmuz": 4310,
      "Ġserial": 4311,
      "ĠFas": 4312,
      "ClO": 4313,
      "TLIST": 4314,
      "Ġutiliser": 4315,
      "SHUNTLIST": 4316,
      "ĠTare": 4317,
      "ĠJeder": 4318,
      "Ġaud": 4319,
      "Ġadminist": 4320,
      "ayena": 4321,
      "ismos": 4322,
      "ernum": 4323,
      "Ġincendi": 4324,
      "nahmen": 4325,
      "olazione": 4326,
      "Offline": 4327,
      "Ġahead": 4328,
      "adhyay": 4329,
      "oMatrix": 4330,
      "Ġpjes": 4331,
      "wristwatch": 4332,
      "nolds": 4333,
      "Ġreligi": 4334,
      "Ġtxn": 4335,
      "taine": 4336,
      "annual": 4337,
      "Smooth": 4338,
      "dauer": 4339,
      "ĠFaber": 4340,
      "ĠSitting": 4341,
      "ionized": 4342,
      "ĠDiam": 4343,
      "webkit": 4344,
      "ĠAyuntamiento": 4345,
      "Ġcountering": 4346,
      "ĠCEA": 4347,
      "Ġprzem": 4348,
      "Ġherg": 4349,
      "Ġhergestellt": 4350,
      "fum": 4351,
      "ĠWTF": 4352,
      "ĠJahren": 4353,
      "encie": 4354,
      "Osm": 4355,
      "tok": 4356,
      "Ġcrossings": 4357,
      "Opport": 4358,
      "Ġretry": 4359,
      "workflows": 4360,
      "impanan": 4361,
      "VAE": 4362,
      "ĠFaw": 4363,
      "ĠAGM": 4364,
      "ValueChanged": 4365,
      "Ġnub": 4366,
      "Opportunities": 4367,
      "varth": 4368,
      "vartheta": 4369,
      "ĠDMSO": 4370,
      "Ġunwittingly": 4371,
      "OpportunitiesBy": 4372,
      "aspect": 4373,
      "ĠLoyal": 4374,
      "Ġcomplies": 4375,
      "igs": 4376,
      "Ġgpointer": 4377,
      "Ġwides": 4378,
      "Ġsonde": 4379,
      "Ġanim": 4380,
      "Ġdispens": 4381,
      "Our": 4382,
      "Ġbleaching": 4383,
      "Ġdescenso": 4384,
      "lood": 4385,
      "RequestParam": 4386,
      "Cameras": 4387,
      "uaire": 4388,
      "Ġregione": 4389,
      "ĠPah": 4390,
      "Ġvat": 4391,
      "ĠSIR": 4392,
      "Ġgece": 4393,
      "ĠObec": 4394,
      "ĠecmaVersion": 4395,
      "putnik": 4396,
      "yscanner": 4397,
      "Ġturb": 4398,
      "cean": 4399,
      "ujacy": 4400,
      "ĠAndrade": 4401,
      "Ġhebat": 4402,
      "Ġwidescreen": 4403,
      "ĠMcA": 4404,
      "Ġblinding": 4405,
      "marginTop": 4406,
      "Ġard": 4407,
      "Ġardent": 4408,
      "Ġbraz": 4409,
      "displayText": 4410,
      "Ġtumbler": 4411,
      "Lu": 4412,
      "ĠuseRouter": 4413,
      "kking": 4414,
      "ipment": 4415,
      "ĠChiesa": 4416,
      "ĠKenyon": 4417,
      "Ġsumm": 4418,
      "ĠCint": 4419,
      "AddToCart": 4420,
      "Ġenteros": 4421,
      "DatePicker": 4422,
      "Ġcentimet": 4423,
      "rekking": 4424,
      "QtWidgets": 4425,
      "Ġlum": 4426,
      "abaya": 4427,
      "atted": 4428,
      "Ġjokingly": 4429,
      "xjs": 4430,
      "Ġrxjs": 4431,
      "ĠAnimated": 4432,
      "UPS": 4433,
      "Ġvet": 4434,
      "Ġcuriously": 4435,
      "appendTo": 4436,
      "ĠGaud": 4437,
      "Ġheme": 4438,
      "Ġsteep": 4439,
      "XVI": 4440,
      "Ġcinqu": 4441,
      "Ġsecreto": 4442,
      "Ġpassionately": 4443,
      "Revenir": 4444,
      "TY": 4445,
      "Ġpriv": 4446,
      "Ġpruned": 4447,
      "Ġcory": 4448,
      "anova": 4449,
      "ToUpper": 4450,
      "arias": 4451,
      "Ġdilap": 4452,
      "owaniem": 4453,
      "Ġjett": 4454,
      "ĠZiegler": 4455,
      "reb": 4456,
      "Ġapplic": 4457,
      "Ġobce": 4458,
      "Ġloung": 4459,
      "STRU": 4460,
      "ĠArchivado": 4461,
      "Ġreligioso": 4462,
      "ixt": 4463,
      "Ġdefaultdict": 4464,
      "Authenticated": 4465,
      "istur": 4466,
      "Ġisra": 4467,
      "habt": 4468,
      "alore": 4469,
      "OSA": 4470,
      "rest": 4471,
      "henburg": 4472,
      "fonso": 4473,
      "AMOS": 4474,
      "ixture": 4475,
      "Ġconvinc": 4476,
      "rotto": 4477,
      "reliability": 4478,
      "aspectj": 4479,
      "Ġeffektiv": 4480,
      "Ġkyr": 4481,
      "Ġappart": 4482,
      "ĠSmo": 4483,
      "Ġapi": 4484,
      "host": 4485,
      "ĠPek": 4486,
      "Ġsete": 4487,
      "ramed": 4488,
      "owne": 4489,
      "ĠJai": 4490,
      "opress": 4491,
      "iores": 4492,
      "dotted": 4493,
      "Ġvre": 4494,
      "ĠVertical": 4495,
      "calleftcounter": 4496,
      "ematic": 4497,
      "Ġemerged": 4498,
      "Ġpera": 4499,
      "Ġxenon": 4500,
      "getStatusCode": 4501,
      "yrene": 4502,
      "SearchBar": 4503,
      "Ġmaxillary": 4504,
      "Ġmandibular": 4505,
      "anolol": 4506,
      "ĠRepository": 4507,
      "FIC": 4508,
      "Ġtapp": 4509,
      "omata": 4510,
      "ĠTrom": 4511,
      "liefer": 4512,
      "ĠBoon": 4513,
      "Pascal": 4514,
      "ystyrene": 4515,
      "ĠCrusaders": 4516,
      "ĠNOMBRE": 4517,
      "ricular": 4518,
      "STRAL": 4519,
      "ĠCFU": 4520,
      "inherit": 4521,
      "ĠOna": 4522,
      "CHF": 4523,
      "obatan": 4524,
      "ĠOSC": 4525,
      "nij": 4526,
      "ĠSurety": 4527,
      "ĠPDT": 4528,
      "ĠCalibri": 4529,
      "regelen": 4530,
      "Zoom": 4531,
      "ĠCOT": 4532,
      "Ġcunning": 4533,
      "Ġhwnd": 4534,
      "getZoom": 4535,
      "Sey": 4536,
      "customer": 4537,
      "hobby": 4538,
      "Ġsoch": 4539,
      "Ġalgum": 4540,
      "UTO": 4541,
      "Ġmunicipal": 4542,
      "Ġatent": 4543,
      "lings": 4544,
      "ĠTetr": 4545,
      "andid": 4546,
      "iniu": 4547,
      "Ġkwietnia": 4548,
      "ĠKinney": 4549,
      "gger": 4550,
      "Ġbounded": 4551,
      "SRPInterface": 4552,
      "Ġlaugh": 4553,
      "Ġkurul": 4554,
      "Ġulo": 4555,
      "tgts": 4556,
      "ĠSPC": 4557,
      "Ġestadounidense": 4558,
      "Ġboundedness": 4559,
      "Ġcoste": 4560,
      "reactiv": 4561,
      "ĠqueryString": 4562,
      "reactivex": 4563,
      "meler": 4564,
      "yticks": 4565,
      "ĠFlint": 4566,
      "Ġdibangun": 4567,
      "Ġgable": 4568,
      "Ġgloss": 4569,
      "DEA": 4570,
      "ittu": 4571,
      "Ġvetro": 4572,
      "ĠWinkler": 4573,
      "scn": 4574,
      "duino": 4575,
      "Ġparentheses": 4576,
      "arf": 4577,
      "ĠEtr": 4578,
      "goed": 4579,
      "LOCAL": 4580,
      "ĠKou": 4581,
      "Ġairst": 4582,
      "Ġglossy": 4583,
      "andam": 4584,
      "Ġkelt": 4585,
      "ModelAndView": 4586,
      "caches": 4587,
      "Ġsubcontractor": 4588,
      "ĠTandy": 4589,
      "Ġkeltiradi": 4590,
      "Celebr": 4591,
      "Ġconcluir": 4592,
      "ameni": 4593,
      "iery": 4594,
      "gameObjects": 4595,
      "ĠFey": 4596,
      "ccd": 4597,
      "Ġreflecting": 4598,
      "Lst": 4599,
      "unez": 4600,
      "Ġmatrimon": 4601,
      "Ġadecuados": 4602,
      "Ġentram": 4603,
      "Ġergonomic": 4604,
      "Ġmenyebut": 4605,
      "nn": 4606,
      "ringen": 4607,
      "ijama": 4608,
      "rnn": 4609,
      "Ġtad": 4610,
      "MetaData": 4611,
      "ĠSz": 4612,
      "Ġkuasa": 4613,
      "Ġxref": 4614,
      "amiliar": 4615,
      "ĠMult": 4616,
      "ĠDex": 4617,
      "ĠPaxton": 4618,
      "ijala": 4619,
      "Ġplanos": 4620,
      "cola": 4621,
      "getCount": 4622,
      "zty": 4623,
      "parametric": 4624,
      "Ġkwargs": 4625,
      "Ġjunt": 4626,
      "LOCALHOST": 4627,
      "enangkan": 4628,
      "ĠPid": 4629,
      "ivement": 4630,
      "ĠitemId": 4631,
      "joni": 4632,
      "enteric": 4633,
      "ĠUms": 4634,
      "Ġnonparametric": 4635,
      "ĠKoi": 4636,
      "GetKey": 4637,
      "Ġsuy": 4638,
      "conciliation": 4639,
      "agang": 4640,
      "cznej": 4641,
      "Ġtongs": 4642,
      "ĠCarlton": 4643,
      "keto": 4644,
      "ĠMachado": 4645,
      "Ġblinded": 4646,
      "operative": 4647,
      "Ġgarr": 4648,
      "rivation": 4649,
      "Ġmedicare": 4650,
      "Ġdislikes": 4651,
      "tiers": 4652,
      "Ġlombok": 4653,
      "weis": 4654,
      "Ġuter": 4655,
      "RADIUS": 4656,
      "ceq": 4657,
      "getClient": 4658,
      "Ġadvanc": 4659,
      "STRUCTOR": 4660,
      "ibaldi": 4661,
      "indre": 4662,
      "Ġsterk": 4663,
      "omey": 4664,
      "Ġcutest": 4665,
      "Ġign": 4666,
      "chas": 4667,
      "Ġbram": 4668,
      "ĠShet": 4669,
      "Ġconcurred": 4670,
      "aglio": 4671,
      "Ġpostoperative": 4672,
      "Ġmasti": 4673,
      "ĠFargo": 4674,
      "ĠPlush": 4675,
      "ĠTori": 4676,
      "fluence": 4677,
      "GTH": 4678,
      "laan": 4679,
      "Ġdefamation": 4680,
      "ĠSlade": 4681,
      "mite": 4682,
      "ĠNIO": 4683,
      "Ġsanitizer": 4684,
      "iany": 4685,
      "phdr": 4686,
      "iculares": 4687,
      "punch": 4688,
      "ĠBakufu": 4689,
      "Processor": 4690,
      "Listeners": 4691,
      "ĠHerrn": 4692,
      "JSONException": 4693,
      "Ġtinggal": 4694,
      "Butler": 4695,
      "Ġmineralization": 4696,
      "Untitled": 4697,
      "orski": 4698,
      "luck": 4699,
      "ĠDosage": 4700,
      "glas": 4701,
      "reject": 4702,
      "Ġdrip": 4703,
      "Ġphosphor": 4704,
      "ĠBellingham": 4705,
      "robust": 4706,
      "yshException": 4707,
      "ĠRaut": 4708,
      "ĠFou": 4709,
      "Interrupt": 4710,
      "publicKey": 4711,
      "enuh": 4712,
      "ĠLeth": 4713,
      "ucers": 4714,
      "mented": 4715,
      "sto": 4716,
      "ancang": 4717,
      "IANA": 4718,
      "Regression": 4719,
      "yj": 4720,
      "ycyj": 4721,
      "hWnd": 4722,
      "Ġprag": 4723,
      "ĠLopes": 4724,
      "Ġcollect": 4725,
      "Ġphosphoryl": 4726,
      "pNOMBRE": 4727,
      "allOf": 4728,
      "lery": 4729,
      "Ġepileptic": 4730,
      "Ġsurmounted": 4731,
      "jms": 4732,
      "licas": 4733,
      "HDRProcessor": 4734,
      "mises": 4735,
      "pConst": 4736,
      "Ġdow": 4737,
      "ĠtpConst": 4738,
      "opers": 4739,
      "InputChange": 4740,
      "Ġmesenteric": 4741,
      "Ġsectarian": 4742,
      "Ġog": 4743,
      "ovost": 4744,
      "bara": 4745,
      "Ġenfl": 4746,
      "premises": 4747,
      "ayani": 4748,
      "setOn": 4749,
      "Ġequipped": 4750,
      "Ġrailroad": 4751,
      "ĠMultivariate": 4752,
      "setOnAction": 4753,
      "Ġsinus": 4754,
      "ĠLoot": 4755,
      "Ġpalindrome": 4756,
      "ĠKano": 4757,
      "ARRAN": 4758,
      "ĠloadAnimation": 4759,
      "irdi": 4760,
      "Ġsaab": 4761,
      "abre": 4762,
      "ĠJung": 4763,
      "rifying": 4764,
      "Ġgentil": 4765,
      "Ġpati": 4766,
      "igsl": 4767,
      "igslist": 4768,
      "Herr": 4769,
      "Ġzealand": 4770,
      "fpr": 4771,
      "Ġeel": 4772,
      "URATION": 4773,
      "ĠBundes": 4774,
      "Ġfenders": 4775,
      "kusen": 4776,
      "argsort": 4777,
      "iefer": 4778,
      "Ġcheat": 4779,
      "ĠDopp": 4780,
      "icionar": 4781,
      "Ġbrazen": 4782,
      "orith": 4783,
      "emonic": 4784,
      "ĠWARRAN": 4785,
      "editText": 4786,
      "ronomical": 4787,
      "fato": 4788,
      "ĠGre": 4789,
      "Ġdegr": 4790,
      "Ġsuicides": 4791,
      "ĠAguilar": 4792,
      "encing": 4793,
      "Ġasa": 4794,
      "Ġekran": 4795,
      "ĠDoppio": 4796,
      "ĠComm": 4797,
      "ikler": 4798,
      "bres": 4799,
      "cafe": 4800,
      "Ġreligiosa": 4801,
      "ĠWARRANTY": 4802,
      "Ġtrailing": 4803,
      "VERTISING": 4804,
      "ĠKernel": 4805,
      "ĠSaif": 4806,
      "Ġsingle": 4807,
      "ancia": 4808,
      "ĠEdel": 4809,
      "SQLform": 4810,
      "Ġeh": 4811,
      "Ġbuget": 4812,
      "Ġginh": 4813,
      "Ġdisapp": 4814,
      "Clientes": 4815,
      "Ġporous": 4816,
      "ĠSpiel": 4817,
      "Any": 4818,
      "FARE": 4819,
      "Wire": 4820,
      "ĠTyne": 4821,
      "Ġposti": 4822,
      "enzie": 4823,
      "Ġcapillary": 4824,
      "Ġoccasion": 4825,
      "igli": 4826,
      "Ġcommissary": 4827,
      "ĠCamera": 4828,
      "ĠCAMERA": 4829,
      "Ġaar": 4830,
      "Slim": 4831,
      "ColorF": 4832,
      "Ġneutron": 4833,
      "Ġsixteen": 4834,
      "owskiego": 4835,
      "ortic": 4836,
      "CPU": 4837,
      "Ġneige": 4838,
      "Upgrade": 4839,
      "Ġpozn": 4840,
      "Ġsincerity": 4841,
      "nast": 4842,
      "Ġmold": 4843,
      "Express": 4844,
      "ĠCalyce": 4845,
      "AnyCPU": 4846,
      "THREAD": 4847,
      "Ġraped": 4848,
      "ĠBaume": 4849,
      "mals": 4850,
      "Ġspindle": 4851,
      "Ġengulf": 4852,
      "ĠKalman": 4853,
      "ĠCheung": 4854,
      "Ġoxidative": 4855,
      "ĠPlummer": 4856,
      "Ġvagina": 4857,
      "oting": 4858,
      "yelination": 4859,
      "Ġnigris": 4860,
      "jag": 4861,
      "ĠVillanova": 4862,
      "NOUN": 4863,
      "opadhyay": 4864,
      "bon": 4865,
      "nomenclature": 4866,
      "ĠFils": 4867,
      "Ġrushed": 4868,
      "ĠCMT": 4869,
      "lensGlare": 4870,
      "Ġdere": 4871,
      "Ġestan": 4872,
      "hetical": 4873,
      "ĠFileWriter": 4874,
      "dot": 4875,
      "ĠCohn": 4876,
      "Ġobey": 4877,
      "FloatTensor": 4878,
      "Ġparalel": 4879,
      "Ġquen": 4880,
      "Ġrecessive": 4881,
      "ĠGue": 4882,
      "Ġcones": 4883,
      "ujud": 4884,
      "Ġerfolgt": 4885,
      "getHDRProcessor": 4886,
      "HEAP": 4887,
      "Ġlia": 4888,
      "MoO": 4889,
      "Ġmare": 4890,
      "this": 4891,
      "iculed": 4892,
      "Ġridiculed": 4893,
      "Ġarrears": 4894,
      "emort": 4895,
      "WaitFor": 4896,
      "Far": 4897,
      "Ġlinal": 4898,
      "Ġcheg": 4899,
      "Ġarticul": 4900,
      "deleteOne": 4901,
      "ĠItalians": 4902,
      "ĠPSB": 4903,
      "Ġrece": 4904,
      "Ġparochial": 4905,
      "akad": 4906,
      "DGF": 4907,
      "ĠPDGF": 4908,
      "Jay": 4909,
      "ĠTAD": 4910,
      "avers": 4911,
      "llis": 4912,
      "GO": 4913,
      "Ġrack": 4914,
      "ĠSEAS": 4915,
      "ĠSEASON": 4916,
      "XVII": 4917,
      "gef": 4918,
      "Ġacudir": 4919,
      "explo": 4920,
      "Hoist": 4921,
      "ĠSauvignon": 4922,
      "ĠInsol": 4923,
      "cshtml": 4924,
      "ĠPharisees": 4925,
      "ibrant": 4926,
      "Ġalia": 4927,
      "rolling": 4928,
      "elsey": 4929,
      "porn": 4930,
      "etva": 4931,
      "pass": 4932,
      "sink": 4933,
      "Ġcaches": 4934,
      "slo": 4935,
      "Ġrespecter": 4936,
      "ĠMers": 4937,
      "ĠDax": 4938,
      "Ġnit": 4939,
      "pores": 4940,
      "Ġprovoke": 4941,
      "oretum": 4942,
      "kikh": 4943,
      "STAN": 4944,
      "delimiter": 4945,
      "ĠSule": 4946,
      "puesta": 4947,
      "Ġtonic": 4948,
      "estate": 4949,
      "Ġpate": 4950,
      "ircon": 4951,
      "fting": 4952,
      "ĠTir": 4953,
      "Ġtras": 4954,
      "Ġdisturbances": 4955,
      "Crim": 4956,
      "Ġdharma": 4957,
      "ĠTama": 4958,
      "ĠKrug": 4959,
      "mast": 4960,
      "ĠDraft": 4961,
      "roasted": 4962,
      "ĠBack": 4963,
      "Pong": 4964,
      "Ġmanhood": 4965,
      "Ġkama": 4966,
      "Ġisnt": 4967,
      "cle": 4968,
      "ĠSchne": 4969,
      "Ġrapor": 4970,
      "THz": 4971,
      "ilot": 4972,
      "Ġbegren": 4973,
      "Ġrevolutionized": 4974,
      "story": 4975,
      "Ġorg": 4976,
      "Ġconcurso": 4977,
      "Ġeconomici": 4978,
      "Ġtherapies": 4979,
      "iciones": 4980,
      "osas": 4981,
      "Ġblow": 4982,
      "ICATIONS": 4983,
      "customerId": 4984,
      "idene": 4985,
      "ĠNure": 4986,
      "eyn": 4987,
      "ukone": 4988,
      "Ġheterogeneous": 4989,
      "btree": 4990,
      "Ġlub": 4991,
      "jacoco": 4992,
      "Ġtepat": 4993,
      "WALLE": 4994,
      "Ġleit": 4995,
      "rescue": 4996,
      "ipherals": 4997,
      "WALLET": 4998,
      "ritus": 4999,
      "ĠSalem": 5000,
      "orescent": 5001,
      "radical": 5002,
      "Ġblowout": 5003,
      "leter": 5004,
      "senz": 5005,
      "Ġfau": 5006,
      "ĠERC": 5007,
      "ĠSublime": 5008,
      "leterre": 5009,
      "orrow": 5010,
      "epen": 5011,
      "pyraz": 5012,
      "waste": 5013,
      "Ġtaxon": 5014,
      "Ġvence": 5015,
      "ĠYellow": 5016,
      "decompose": 5017,
      "wartz": 5018,
      "Ġsupremac": 5019,
      "Ġfauve": 5020,
      "Ġspinal": 5021,
      "ambi": 5022,
      "ĠCHAS": 5023,
      "Ġnegativos": 5024,
      "Ġsupremacist": 5025,
      "getAbsolutePath": 5026,
      "kts": 5027,
      "ĠSnell": 5028,
      "zess": 5029,
      "ILIA": 5030,
      "Ġflash": 5031,
      "tmux": 5032,
      "Ġevent": 5033,
      "ĠLakewood": 5034,
      "ĠBxc": 5035,
      "urias": 5036,
      "spapers": 5037,
      "Ġunserer": 5038,
      "Ġflashy": 5039,
      "deterministic": 5040,
      "Ġmultifamily": 5041,
      "Ġbasins": 5042,
      "ĠCatalan": 5043,
      "cps": 5044,
      "BIs": 5045,
      "isphere": 5046,
      "ĠMGM": 5047,
      "ĠRBIs": 5048,
      "ĠVerk": 5049,
      "ĠAFD": 5050,
      "Ġelab": 5051,
      "Ġmultiples": 5052,
      "Ġacab": 5053,
      "Ġedging": 5054,
      "Ġgebo": 5055,
      "Ġsaber": 5056,
      "ightly": 5057,
      "UNICATIONS": 5058,
      "Ġpatchy": 5059,
      "Ġsagen": 5060,
      "orno": 5061,
      "Ġhaq": 5062,
      "Ġneve": 5063,
      "efield": 5064,
      "ĠWakefield": 5065,
      "ĠBir": 5066,
      "Ġfrayed": 5067,
      "Pred": 5068,
      "arange": 5069,
      "Ġbanging": 5070,
      "Ġlistens": 5071,
      "ĠASGI": 5072,
      "Ġconfigur": 5073,
      "Ġlucru": 5074,
      "ackerel": 5075,
      "ĠdebugDocument": 5076,
      "rafi": 5077,
      "ĠBirla": 5078,
      "gms": 5079,
      "ermont": 5080,
      "apeti": 5081,
      "ĠPrat": 5082,
      "Navbar": 5083,
      "rmse": 5084,
      "hoven": 5085,
      "kent": 5086,
      "uencias": 5087,
      "aleb": 5088,
      "Ġscratched": 5089,
      "rens": 5090,
      "ĠSrc": 5091,
      "dai": 5092,
      "Ġsjuk": 5093,
      "Ġsucesso": 5094,
      "ĠClo": 5095,
      "Ġhors": 5096,
      "aito": 5097,
      "flask": 5098,
      "Ġfark": 5099,
      "ĠUSED": 5100,
      "groovy": 5101,
      "ĠClooney": 5102,
      "BOutlet": 5103,
      "hfill": 5104,
      "ĠIBOutlet": 5105,
      "ĠUsed": 5106,
      "Ġfurrow": 5107,
      "Ġgrazed": 5108,
      "ĠRuf": 5109,
      "Ġoppure": 5110,
      "Ġpediu": 5111,
      "Bash": 5112,
      "ĠKijk": 5113,
      "Regressor": 5114,
      "nan": 5115,
      "clay": 5116,
      "toh": 5117,
      "Predicate": 5118,
      "ĠYama": 5119,
      "ĠSHER": 5120,
      "personen": 5121,
      "bonne": 5122,
      "ĠSarm": 5123,
      "ĠHackSearch": 5124,
      "orestation": 5125,
      "urricular": 5126,
      "uido": 5127,
      "ĠHawke": 5128,
      "Ġachromatic": 5129,
      "ĠmaxValue": 5130,
      "Ġjams": 5131,
      "Ġperturbative": 5132,
      "Ġanagram": 5133,
      "ortaleza": 5134,
      "Ġprovocative": 5135,
      "Ġparade": 5136,
      "Ġelephant": 5137,
      "ĠKath": 5138,
      "ĠFortaleza": 5139,
      "Ġtestimon": 5140,
      "Ġqal": 5141,
      "igans": 5142,
      "Ġwatu": 5143,
      "Ġscor": 5144,
      "oppy": 5145,
      "ĠPalisades": 5146,
      "insk": 5147,
      "ĠSVM": 5148,
      "Ġmonumento": 5149,
      "mandu": 5150,
      "hain": 5151,
      "inado": 5152,
      "Ġhabite": 5153,
      "ĠKathmandu": 5154,
      "cens": 5155,
      "Ġsod": 5156,
      "tsd": 5157,
      "Ġfuzzy": 5158,
      "unoassay": 5159,
      "Ġviolates": 5160,
      "StrictMode": 5161,
      "seater": 5162,
      "oxel": 5163,
      "zco": 5164,
      "Subview": 5165,
      "terdam": 5166,
      "Ġfloppy": 5167,
      "Ġtermine": 5168,
      "vej": 5169,
      "Ġmelden": 5170,
      "married": 5171,
      "Sage": 5172,
      "iencing": 5173,
      "Ġmidfield": 5174,
      "obarb": 5175,
      "unal": 5176,
      "Ġtope": 5177,
      "getMeteringAreas": 5178,
      "Ġsodass": 5179,
      "ĠAnterior": 5180,
      "Ġcyclase": 5181,
      "Ġpillar": 5182,
      "Positive": 5183,
      "Ġcontention": 5184,
      "origin": 5185,
      "Month": 5186,
      "ilion": 5187,
      "Ġquos": 5188,
      "Ġpoached": 5189,
      "Ġcrossorigin": 5190,
      "Ġconfigurational": 5191,
      "ĠHall": 5192,
      "ocortic": 5193,
      "Ġavatar": 5194,
      "Ġmeu": 5195,
      "ĠAurang": 5196,
      "gefunden": 5197,
      "quartz": 5198,
      "Ġdevad": 5199,
      "Ġgericht": 5200,
      "Ġogran": 5201,
      "uktikan": 5202,
      "irit": 5203,
      "ĠKurz": 5204,
      "Checkout": 5205,
      "oramic": 5206,
      "issante": 5207,
      "Ġyyy": 5208,
      "ĠCTCF": 5209,
      "DEFGHIJKLMNOP": 5210,
      "Ġyyyy": 5211,
      "FromString": 5212,
      "ĠMcAfee": 5213,
      "Dix": 5214,
      "lys": 5215,
      "AndUpdate": 5216,
      "ĠTempest": 5217,
      "ExpressCheckout": 5218,
      "Ġcontemplating": 5219,
      "Ġtono": 5220,
      "popen": 5221,
      "ĠRy": 5222,
      "Ġcohort": 5223,
      "ĠJsonResult": 5224,
      "corner": 5225,
      "gher": 5226,
      "ĠRyu": 5227,
      "dolo": 5228,
      "Ġconos": 5229,
      "ponge": 5230,
      "Ġreverber": 5231,
      "ĠEnsure": 5232,
      "pug": 5233,
      "dah": 5234,
      "Ġpermeability": 5235,
      "ĠDICK": 5236,
      "Staff": 5237,
      "Ġdisarmament": 5238,
      "Ġimplying": 5239,
      "rystals": 5240,
      "ĠQaraldi": 5241,
      "Ġcandid": 5242,
      "Ġescuchar": 5243,
      "Descriptor": 5244,
      "icionado": 5245,
      "Ġsien": 5246,
      "StaffID": 5247,
      "Ġwield": 5248,
      "ĠGuinness": 5249,
      "Ġmultimodal": 5250,
      "Ġsimilar": 5251,
      "ĠSizedBox": 5252,
      "Ġfaith": 5253,
      "Ġcondens": 5254,
      "Ġriusc": 5255,
      "usson": 5256,
      "setItem": 5257,
      "ĠEcusson": 5258,
      "ROSS": 5259,
      "ĠNerd": 5260,
      "Ġsliders": 5261,
      "Ġflanks": 5262,
      "journ": 5263,
      "auks": 5264,
      "eleaf": 5265,
      "Saludo": 5266,
      "ĠBender": 5267,
      "resx": 5268,
      "enang": 5269,
      "Ġkwen": 5270,
      "plicial": 5271,
      "Ġbadges": 5272,
      "Ġkwenye": 5273,
      "Ġnume": 5274,
      "Ġblind": 5275,
      "ĠRS": 5276,
      "Ġfhe": 5277,
      "Ġpatiently": 5278,
      "bSet": 5279,
      "ĠDbSet": 5280,
      "ĠFrisch": 5281,
      "Ġscanty": 5282,
      "EventListeners": 5283,
      "dess": 5284,
      "terre": 5285,
      "Ġisomers": 5286,
      "geoip": 5287,
      "opilot": 5288,
      "dbname": 5289,
      "ĠSiri": 5290,
      "ĠAthe": 5291,
      "ĠPolskiej": 5292,
      "Ġdevre": 5293,
      "Ġfilos": 5294,
      "managed": 5295,
      "urger": 5296,
      "ydney": 5297,
      "Ġshakespeare": 5298,
      "Ġperpetuated": 5299,
      "ARY": 5300,
      "Ġindors": 5301,
      "Ġprofit": 5302,
      "Comm": 5303,
      "ĠHallmark": 5304,
      "managedbuild": 5305,
      "Thin": 5306,
      "ydat": 5307,
      "elift": 5308,
      "owered": 5309,
      "AuthProvider": 5310,
      "aundice": 5311,
      "ĠLein": 5312,
      "Ġcomun": 5313,
      "ĠLombard": 5314,
      "Montserrat": 5315,
      "Ġdoul": 5316,
      "ysl": 5317,
      "ĠOpfer": 5318,
      "parquet": 5319,
      "Ġaprove": 5320,
      "ĠEditable": 5321,
      "Ġznak": 5322,
      "rchen": 5323,
      "mao": 5324,
      "orpion": 5325,
      "Ġsuspended": 5326,
      "ugged": 5327,
      "aksi": 5328,
      "Called": 5329,
      "dessus": 5330,
      "Ġlargas": 5331,
      "ĠChina": 5332,
      "toHaveBeenCalled": 5333,
      "Ġbienvenida": 5334,
      "tent": 5335,
      "Ġdatth": 5336,
      "ENSE": 5337,
      "Ġdestacan": 5338,
      "Ġadulthood": 5339,
      "RENCE": 5340,
      "Ġcelor": 5341,
      "Ġtutti": 5342,
      "ERICK": 5343,
      "Moving": 5344,
      "Ġmomencie": 5345,
      "Ġchubby": 5346,
      "Den": 5347,
      "reement": 5348,
      "FocusMoving": 5349,
      "ĠDEALING": 5350,
      "ĠDEALINGS": 5351,
      "ICENSE": 5352,
      "Serum": 5353,
      "Ġninh": 5354,
      "istogram": 5355,
      "Ġconvene": 5356,
      "Ġkahit": 5357,
      "yam": 5358,
      "Ġrebuk": 5359,
      "Ġrebuke": 5360,
      "ĠBacon": 5361,
      "osiery": 5362,
      "Near": 5363,
      "Ġproport": 5364,
      "Ġadicionar": 5365,
      "Ġbety": 5366,
      "ĠScho": 5367,
      "Ġserializers": 5368,
      "Ġmanifest": 5369,
      "Ġinsolvency": 5370,
      "Ġgatiyam": 5371,
      "Ġdestiny": 5372,
      "iaus": 5373,
      "Spart": 5374,
      "gaia": 5375,
      "Ġmitosis": 5376,
      "IGN": 5377,
      "cision": 5378,
      "Ġszcz": 5379,
      "irmeye": 5380,
      "bnr": 5381,
      "Ġhtob": 5382,
      "Ġatentos": 5383,
      "itel": 5384,
      "ĠuseState": 5385,
      "Ġblots": 5386,
      "ĠSIINFEKLC": 5387,
      "Ġignite": 5388,
      "bringen": 5389,
      "thumbs": 5390,
      "ĠMcCullough": 5391,
      "fusc": 5392,
      "ĠSOR": 5393,
      "ĠVARIAB": 5394,
      "ĠMcMaster": 5395,
      "Ġavanzar": 5396,
      "ĠNEG": 5397,
      "ikel": 5398,
      "Chia": 5399,
      "schemaName": 5400,
      "lana": 5401,
      "ovia": 5402,
      "encies": 5403,
      "berto": 5404,
      "ntag": 5405,
      "Trash": 5406,
      "Malay": 5407,
      "Ġlaughs": 5408,
      "MalayMarks": 5409,
      "searchDisplay": 5410,
      "Ġhereunder": 5411,
      "ettu": 5412,
      "lessly": 5413,
      "Ġsut": 5414,
      "ĠBich": 5415,
      "ĠMoran": 5416,
      "Ġfood": 5417,
      "ĠFlix": 5418,
      "ĠKur": 5419,
      "nez": 5420,
      "Ġaque": 5421,
      "ĠObispo": 5422,
      "PIRE": 5423,
      "ĠZeichen": 5424,
      "favor": 5425,
      "chyn": 5426,
      "pbx": 5427,
      "ĠNAO": 5428,
      "rue": 5429,
      "ĠPlugins": 5430,
      "Ġaccrue": 5431,
      "MyLocation": 5432,
      "izan": 5433,
      "TextAppearance": 5434,
      "debugger": 5435,
      "URER": 5436,
      "hael": 5437,
      "ĠHoh": 5438,
      "querdo": 5439,
      "Ġsiento": 5440,
      "Ġhalfway": 5441,
      "ĠthrowIfNotFound": 5442,
      "unbind": 5443,
      "quake": 5444,
      "phol": 5445,
      "Ġfuertes": 5446,
      "bial": 5447,
      "Ġjogador": 5448,
      "imageView": 5449,
      "Ġscrewing": 5450,
      "ĠShader": 5451,
      "ĠSKAction": 5452,
      "ĠFawcett": 5453,
      "Unknown": 5454,
      "ĠDisrupt": 5455,
      "inot": 5456,
      "icial": 5457,
      "loat": 5458,
      "armonic": 5459,
      "ensione": 5460,
      "Ġmagnon": 5461,
      "Ġbiomark": 5462,
      "Ġef": 5463,
      "ĠHunt": 5464,
      "Ġgig": 5465,
      "FontStyle": 5466,
      "Ġreddit": 5467,
      "ĠSierra": 5468,
      "ĠaddChild": 5469,
      "ealthier": 5470,
      "progress": 5471,
      "ĠKeynes": 5472,
      "Ġmalice": 5473,
      "ĠDexter": 5474,
      "esity": 5475,
      "ĠKhart": 5476,
      "alkeeper": 5477,
      "ĠHuntington": 5478,
      "ĠKhartoum": 5479,
      "olphe": 5480,
      "Ġsezonie": 5481,
      "Ġtang": 5482,
      "Ġtonos": 5483,
      "ĠUserName": 5484,
      "immutable": 5485,
      "Ġsnap": 5486,
      "ĠAad": 5487,
      "Gaussian": 5488,
      "Ġums": 5489,
      "ĠWAST": 5490,
      "Uppercase": 5491,
      "ĠEuler": 5492,
      "Ġreader": 5493,
      "ĠFAMILY": 5494,
      "Ġschool": 5495,
      "BackgroundHelper": 5496,
      "ĠIsing": 5497,
      "ĠMilling": 5498,
      "insen": 5499,
      "ĠMachinist": 5500,
      "Ġcruel": 5501,
      "odox": 5502,
      "glacial": 5503,
      "titleMargin": 5504,
      "ĠCommodore": 5505,
      "heh": 5506,
      "ĠUltim": 5507,
      "Ġwasted": 5508,
      "ouer": 5509,
      "Ġzes": 5510,
      "Ġaffid": 5511,
      "Ġdrei": 5512,
      "ĠIbadan": 5513,
      "nsen": 5514,
      "shift": 5515,
      "ĠjinfoHome": 5516,
      "CCN": 5517,
      "ĠConcordia": 5518,
      "Ġdilwale": 5519,
      "Ġsanitized": 5520,
      "ĠOrigami": 5521,
      "ĠMerritt": 5522,
      "acency": 5523,
      "Ġhate": 5524,
      "spaceship": 5525,
      "Ġbacklinks": 5526,
      "oureuse": 5527,
      "Ġdouloureuse": 5528,
      "Ġpobl": 5529,
      "ourtn": 5530,
      "SCO": 5531,
      "blonde": 5532,
      "Ġnemoc": 5533,
      "ourtney": 5534,
      "clam": 5535,
      "Ġbora": 5536,
      "Ġoameni": 5537,
      "ĠWeing": 5538,
      "uangan": 5539,
      "ĠMeesho": 5540,
      "ĠPacers": 5541,
      "mappings": 5542,
      "Ġpoblaciones": 5543,
      "ĠRetrieved": 5544,
      "SER": 5545,
      "ĠBudd": 5546,
      "Ġcareer": 5547,
      "Ġtrat": 5548,
      "Ġpunishable": 5549,
      "ressione": 5550,
      "ĠAuger": 5551,
      "chuck": 5552,
      "ĠGeme": 5553,
      "ResumeLayout": 5554,
      "meisterschaft": 5555,
      "Ġesterno": 5556,
      "Ġtestified": 5557,
      "Ġmanifeste": 5558,
      "breakable": 5559,
      "ĠAppropriation": 5560,
      "dau": 5561,
      "ĠCour": 5562,
      "Ġnitride": 5563,
      "itys": 5564,
      "ourbon": 5565,
      "Ġaumentada": 5566,
      "Ġdenotes": 5567,
      "PARAM": 5568,
      "ĠGasp": 5569,
      "Ġunbreakable": 5570,
      "olja": 5571,
      "ĠBuddha": 5572,
      "XML": 5573,
      "ĠApar": 5574,
      "Ġlmao": 5575,
      "Ġirrelevant": 5576,
      "Hamlet": 5577,
      "ĠKurn": 5578,
      "ebe": 5579,
      "ĠLam": 5580,
      "neux": 5581,
      "ĠNish": 5582,
      "angaroo": 5583,
      "ĠLamont": 5584,
      "DLC": 5585,
      "Ġstuck": 5586,
      "Ġklubu": 5587,
      "Eth": 5588,
      "Rot": 5589,
      "SERVIDOR": 5590,
      "lyrics": 5591,
      "ĠZusch": 5592,
      "Ġaeruginosa": 5593,
      "Ġels": 5594,
      "Ġseal": 5595,
      "Ġneler": 5596,
      "ĠJop": 5597,
      "Ġelsif": 5598,
      "ohid": 5599,
      "Ġresistant": 5600,
      "ufl": 5601,
      "ĠPaper": 5602,
      "ĠDispatch": 5603,
      "ĠJoplin": 5604,
      "TNumber": 5605,
      "Ġcameras": 5606,
      "ĠMorg": 5607,
      "hjust": 5608,
      "jala": 5609,
      "Ġdeta": 5610,
      "Ġfal": 5611,
      "Histogram": 5612,
      "Later": 5613,
      "Ġaft": 5614,
      "Ġedific": 5615,
      "initConfig": 5616,
      "Ġrach": 5617,
      "invokeLater": 5618,
      "Ġdemanding": 5619,
      "returnValue": 5620,
      "gb": 5621,
      "ĠCCR": 5622,
      "Ġalt": 5623,
      "ĠErfol": 5624,
      "iscono": 5625,
      "Ġdonne": 5626,
      "<UNK>": 5627
    },
    "old_vocab": {
      "!": 0,
      "\"": 1,
      "#": 2,
      "$": 3,
      "%": 4,
      "&": 5,
      "'": 6,
      "(": 7,
      ")": 8,
      "*": 9,
      "+": 10,
      ",": 11,
      "-": 12,
      ".": 13,
      "/": 14,
      "0": 15,
      "1": 16,
      "2": 17,
      "3": 18,
      "4": 19,
      "5": 20,
      "6": 21,
      "7": 22,
      "8": 23,
      "9": 24,
      ":": 25,
      ";": 26,
      "<": 27,
      "=": 28,
      ">": 29,
      "?": 30,
      "@": 31,
      "A": 32,
      "B": 33,
      "C": 34,
      "D": 35,
      "E": 36,
      "F": 37,
      "G": 38,
      "H": 39,
      "I": 40,
      "J": 41,
      "K": 42,
      "L": 43,
      "M": 44,
      "N": 45,
      "O": 46,
      "P": 47,
      "Q": 48,
      "R": 49,
      "S": 50,
      "T": 51,
      "U": 52,
      "V": 53,
      "W": 54,
      "X": 55,
      "Y": 56,
      "Z": 57,
      "[": 58,
      "\\": 59,
      "]": 60,
      "^": 61,
      "_": 62,
      "`": 63,
      "a": 64,
      "b": 65,
      "c": 66,
      "d": 67,
      "e": 68,
      "f": 69,
      "g": 70,
      "h": 71,
      "i": 72,
      "j": 73,
      "k": 74,
      "l": 75,
      "m": 76,
      "n": 77,
      "o": 78,
      "p": 79,
      "q": 80,
      "r": 81,
      "s": 82,
      "t": 83,
      "u": 84,
      "v": 85,
      "w": 86,
      "x": 87,
      "y": 88,
      "z": 89,
      "{": 90,
      "|": 91,
      "}": 92,
      "~": 93,
      "¡": 94,
      "¢": 95,
      "£": 96,
      "¤": 97,
      "¥": 98,
      "¦": 99,
      "§": 100,
      "¨": 101,
      "©": 102,
      "ª": 103,
      "«": 104,
      "¬": 105,
      "®": 106,
      "¯": 107,
      "°": 108,
      "±": 109,
      "²": 110,
      "³": 111,
      "´": 112,
      "µ": 113,
      "¶": 114,
      "·": 115,
      "¸": 116,
      "¹": 117,
      "º": 118,
      "»": 119,
      "¼": 120,
      "½": 121,
      "¾": 122,
      "¿": 123,
      "À": 124,
      "Á": 125,
      "Â": 126,
      "Ã": 127,
      "Ä": 128,
      "Å": 129,
      "Æ": 130,
      "Ç": 131,
      "È": 132,
      "É": 133,
      "Ê": 134,
      "Ë": 135,
      "Ì": 136,
      "Í": 137,
      "Î": 138,
      "Ï": 139,
      "Ð": 140,
      "Ñ": 141,
      "Ò": 142,
      "Ó": 143,
      "Ô": 144,
      "Õ": 145,
      "Ö": 146,
      "×": 147,
      "Ø": 148,
      "Ù": 149,
      "Ú": 150,
      "Û": 151,
      "Ü": 152,
      "Ý": 153,
      "Þ": 154,
      "ß": 155,
      "à": 156,
      "á": 157,
      "â": 158,
      "ã": 159,
      "ä": 160,
      "å": 161,
      "æ": 162,
      "ç": 163,
      "è": 164,
      "é": 165,
      "ê": 166,
      "ë": 167,
      "ì": 168,
      "í": 169,
      "î": 170,
      "ï": 171,
      "ð": 172,
      "ñ": 173,
      "ò": 174,
      "ó": 175,
      "ô": 176,
      "õ": 177,
      "ö": 178,
      "÷": 179,
      "ø": 180,
      "ù": 181,
      "ú": 182,
      "û": 183,
      "ü": 184,
      "ý": 185,
      "þ": 186,
      "ÿ": 187,
      "Ā": 188,
      "ā": 189,
      "Ă": 190,
      "ă": 191,
      "Ą": 192,
      "ą": 193,
      "Ć": 194,
      "ć": 195,
      "Ĉ": 196,
      "ĉ": 197,
      "Ċ": 198,
      "ċ": 199,
      "Č": 200,
      "č": 201,
      "Ď": 202,
      "ď": 203,
      "Đ": 204,
      "đ": 205,
      "Ē": 206,
      "ē": 207,
      "Ĕ": 208,
      "ĕ": 209,
      "Ė": 210,
      "ė": 211,
      "Ę": 212,
      "ę": 213,
      "Ě": 214,
      "ě": 215,
      "Ĝ": 216,
      "ĝ": 217,
      "Ğ": 218,
      "ğ": 219,
      "Ġ": 220,
      "ġ": 221,
      "Ģ": 222,
      "ģ": 223,
      "Ĥ": 224,
      "ĥ": 225,
      "Ħ": 226,
      "ħ": 227,
      "Ĩ": 228,
      "ĩ": 229,
      "Ī": 230,
      "ī": 231,
      "Ĭ": 232,
      "ĭ": 233,
      "Į": 234,
      "į": 235,
      "İ": 236,
      "ı": 237,
      "Ĳ": 238,
      "ĳ": 239,
      "Ĵ": 240,
      "ĵ": 241,
      "Ķ": 242,
      "ķ": 243,
      "ĸ": 244,
      "Ĺ": 245,
      "ĺ": 246,
      "Ļ": 247,
      "ļ": 248,
      "Ľ": 249,
      "ľ": 250,
      "Ŀ": 251,
      "ŀ": 252,
      "Ł": 253,
      "ł": 254,
      "Ń": 255,
      "er": 256,
      "an": 257,
      "in": 258,
      "en": 259,
      "on": 260,
      "ar": 261,
      "at": 262,
      "es": 263,
      "al": 264,
      "or": 265,
      "et": 266,
      "it": 267,
      "st": 268,
      "le": 269,
      "ic": 270,
      "el": 271,
      "ed": 272,
      "ch": 273,
      "am": 274,
      "ro": 275,
      "is": 276,
      "re": 277,
      "ad": 278,
      "Ġs": 279,
      "Ġp": 280,
      "un": 281,
      "il": 282,
      "ĠS": 283,
      "as": 284,
      "ing": 285,
      "ut": 286,
      "ĠC": 287,
      "ent": 288,
      "ol": 289,
      "ur": 290,
      "ĠM": 291,
      "us": 292,
      "ĠB": 293,
      "ra": 294,
      "ion": 295,
      "Ġc": 296,
      "id": 297,
      "Ġd": 298,
      "ĠP": 299,
      "ul": 300,
      "im": 301,
      "Ġt": 302,
      "Ġm": 303,
      "om": 304,
      "ĠA": 305,
      "ac": 306,
      "ag": 307,
      "em": 308,
      "ab": 309,
      "ĠD": 310,
      "os": 311,
      "ot": 312,
      "um": 313,
      "ig": 314,
      "ct": 315,
      "od": 316,
      "Ġb": 317,
      "ri": 318,
      "ĠT": 319,
      "ĠG": 320,
      "ĠR": 321,
      "ĠH": 322,
      "ap": 323,
      "ie": 324,
      "ak": 325,
      "oc": 326,
      "ir": 327,
      "ĠN": 328,
      "est": 329,
      "ĠL": 330,
      "ay": 331,
      "ow": 332,
      "Ġf": 333,
      "ĠE": 334,
      "Ġg": 335,
      "ex": 336,
      "op": 337,
      "Ġv": 338,
      "Ġh": 339,
      "and": 340,
      "th": 341,
      "ia": 342,
      "ĠK": 343,
      "ce": 344,
      "qu": 345,
      "Ġn": 346,
      "iv": 347,
      "ĠF": 348,
      "ate": 349,
      "av": 350,
      "ers": 351,
      "ĠW": 352,
      "ang": 353,
      "ation": 354,
      "og": 355,
      "Ġl": 356,
      "ant": 357,
      "In": 358,
      "ik": 359,
      "ov": 360,
      "ah": 361,
      "ec": 362,
      "eg": 363,
      "Ġk": 364,
      "ist": 365,
      "end": 366,
      "ub": 367,
      "ud": 368,
      "ter": 369,
      "ff": 370,
      "ine": 371,
      "ont": 372,
      "St": 373,
      "ob": 374,
      "ib": 375,
      "Ġr": 376,
      "up": 377,
      "ip": 378,
      "ton": 379,
      "ess": 380,
      "ath": 381,
      "iz": 382,
      "ian": 383,
      "ey": 384,
      "ell": 385,
      "ug": 386,
      "ect": 387,
      "ĠV": 388,
      "ĠI": 389,
      "ind": 390,
      "ard": 391,
      "ly": 392,
      "ert": 393,
      "ast": 394,
      "ĠJ": 395,
      "pe": 396,
      "ord": 397,
      "ph": 398,
      "ok": 399,
      "get": 400,
      "ill": 401,
      "Ġw": 402,
      "pt": 403,
      "art": 404,
      "ue": 405,
      "Ġre": 406,
      "uc": 407,
      "ne": 408,
      "ht": 409,
      "yl": 410,
      "age": 411,
      "Ġin": 412,
      "ĠU": 413,
      "ĠO": 414,
      "if": 415,
      "eb": 416,
      "te": 417,
      "ass": 418,
      "io": 419,
      "se": 420,
      "au": 421,
      "ung": 422,
      "all": 423,
      "ev": 424,
      "und": 425,
      "ek": 426,
      "ef": 427,
      "ep": 428,
      "ox": 429,
      "able": 430,
      "ile": 431,
      "ens": 432,
      "uk": 433,
      "aw": 434,
      "Ġst": 435,
      "Ġj": 436,
      "ext": 437,
      "ata": 438,
      "erm": 439,
      "ack": 440,
      "he": 441,
      "ult": 442,
      "out": 443,
      "ĠCh": 444,
      "set": 445,
      "int": 446,
      "ity": 447,
      "az": 448,
      "ew": 449,
      "ial": 450,
      "pl": 451,
      "ach": 452,
      "our": 453,
      "ies": 454,
      "ym": 455,
      "rop": 456,
      "ran": 457,
      "ou": 458,
      "sk": 459,
      "aj": 460,
      "ort": 461,
      "Ġch": 462,
      "ick": 463,
      "ame": 464,
      "ock": 465,
      "Ġa": 466,
      "ry": 467,
      "ann": 468,
      "Ġun": 469,
      "ost": 470,
      "ai": 471,
      "cl": 472,
      "Ġcon": 473,
      "sh": 474,
      "son": 475,
      "ĠMc": 476,
      "att": 477,
      "ive": 478,
      "pr": 479,
      "ust": 480,
      "ject": 481,
      "ment": 482,
      "iew": 483,
      "her": 484,
      "iel": 485,
      "yn": 486,
      "ll": 487,
      "ous": 488,
      "per": 489,
      "ele": 490,
      "ya": 491,
      "ier": 492,
      "ode": 493,
      "ype": 494,
      "ain": 495,
      "add": 496,
      "unt": 497,
      "erv": 498,
      "are": 499,
      "put": 500,
      "to": 501,
      "na": 502,
      "ich": 503,
      "ij": 504,
      "ish": 505,
      "ER": 506,
      "ong": 507,
      "eng": 508,
      "ite": 509,
      "lo": 510,
      "ax": 511,
      "ign": 512,
      "ond": 513,
      "Cont": 514,
      "sp": 515,
      "ring": 516,
      "pp": 517,
      "ber": 518,
      "ane": 519,
      "ull": 520,
      "ati": 521,
      "ore": 522,
      "ice": 523,
      "Val": 524,
      "ez": 525,
      "Ar": 526,
      "ire": 527,
      "ure": 528,
      "Ch": 529,
      "Ob": 530,
      "rom": 531,
      "ary": 532,
      "ild": 533,
      "ide": 534,
      "omp": 535,
      "To": 536,
      "man": 537,
      "ron": 538,
      "ash": 539,
      "ated": 540,
      "ST": 541,
      "oh": 542,
      "ru": 543,
      "ft": 544,
      "res": 545,
      "ime": 546,
      "ink": 547,
      "ett": 548,
      "Ġz": 549,
      "sc": 550,
      "ĠSh": 551,
      "iss": 552,
      "ight": 553,
      "nd": 554,
      "ana": 555,
      "err": 556,
      "ield": 557,
      "Ġpro": 558,
      "ark": 559,
      "enc": 560,
      "Object": 561,
      "Type": 562,
      "ge": 563,
      "ith": 564,
      "Con": 565,
      "ern": 566,
      "ize": 567,
      "Ġsp": 568,
      "eth": 569,
      "ere": 570,
      "own": 571,
      "ID": 572,
      "les": 573,
      "eh": 574,
      "Par": 575,
      "iy": 576,
      "tr": 577,
      "Cl": 578,
      "Ġe": 579,
      "orm": 580,
      "itt": 581,
      "ins": 582,
      "ene": 583,
      "View": 584,
      "ray": 585,
      "OR": 586,
      "Value": 587,
      "erc": 588,
      "oll": 589,
      "ley": 590,
      "oy": 591,
      "ON": 592,
      "ham": 593,
      "Ġle": 594,
      "Ġpr": 595,
      "ors": 596,
      "ale": 597,
      "AR": 598,
      "Res": 599,
      "ons": 600,
      "ma": 601,
      "co": 602,
      "EN": 603,
      "ium": 604,
      "UR": 605,
      "rr": 606,
      "Ġim": 607,
      "List": 608,
      "ka": 609,
      "IC": 610,
      "oj": 611,
      "ace": 612,
      "ient": 613,
      "Ex": 614,
      "ho": 615,
      "ss": 616,
      "ical": 617,
      "row": 618,
      "ction": 619,
      "tt": 620,
      "ina": 621,
      "ĠY": 622,
      "IN": 623,
      "Ġth": 624,
      "Path": 625,
      "old": 626,
      "ver": 627,
      "we": 628,
      "AN": 629,
      "ĠAr": 630,
      "act": 631,
      "ence": 632,
      "Pro": 633,
      "olor": 634,
      "ys": 635,
      "que": 636,
      "rit": 637,
      "SC": 638,
      "utton": 639,
      "ase": 640,
      "enn": 641,
      "ato": 642,
      "no": 643,
      "arg": 644,
      "ler": 645,
      "ram": 646,
      "Err": 647,
      "ĠSt": 648,
      "cept": 649,
      "ead": 650,
      "ni": 651,
      "one": 652,
      "ĠZ": 653,
      "atch": 654,
      "Ġqu": 655,
      "Ġex": 656,
      "Ġab": 657,
      "ald": 658,
      "Ġsc": 659,
      "ck": 660,
      "ole": 661,
      "tem": 662,
      "CC": 663,
      "Id": 664,
      "ood": 665,
      "ush": 666,
      "omm": 667,
      "sch": 668,
      "LE": 669,
      "Ġpl": 670,
      "Name": 671,
      "ans": 672,
      "ĠQ": 673,
      "Error": 674,
      "ee": 675,
      "oz": 676,
      "rent": 677,
      "bo": 678,
      "ric": 679,
      "ser": 680,
      "ance": 681,
      "of": 682,
      "ix": 683,
      "erg": 684,
      "ail": 685,
      "Data": 686,
      "Im": 687,
      "ari": 688,
      "Ġdis": 689,
      "ank": 690,
      "AL": 691,
      "app": 692,
      "Ġad": 693,
      "arl": 694,
      "CT": 695,
      "Sc": 696,
      "yd": 697,
      "anc": 698,
      "ado": 699,
      "ini": 700,
      "AT": 701,
      "Key": 702,
      "Ġal": 703,
      "uf": 704,
      "amp": 705,
      "Ġsub": 706,
      "yt": 707,
      "Comp": 708,
      "rid": 709,
      "uff": 710,
      "ĠSch": 711,
      "led": 712,
      "Serv": 713,
      "ĠAl": 714,
      "Button": 715,
      "ement": 716,
      "emb": 717,
      "SE": 718,
      "ret": 719,
      "ani": 720,
      "ait": 721,
      "Text": 722,
      "sl": 723,
      "ĠIn": 724,
      "af": 725,
      "orn": 726,
      "rav": 727,
      "arr": 728,
      "gen": 729,
      "AM": 730,
      "ator": 731,
      "fo": 732,
      "Ġy": 733,
      "equ": 734,
      "hen": 735,
      "ais": 736,
      "land": 737,
      "amb": 738,
      "SP": 739,
      "ings": 740,
      "val": 741,
      "IT": 742,
      "Size": 743,
      "yp": 744,
      "ear": 745,
      "eter": 746,
      "Array": 747,
      "String": 748,
      "ada": 749,
      "ford": 750,
      "air": 751,
      "RE": 752,
      "inn": 753,
      "iti": 754,
      "Item": 755,
      "ien": 756,
      "ions": 757,
      "esh": 758,
      "Co": 759,
      "SA": 760,
      "ren": 761,
      "Param": 762,
      "By": 763,
      "Of": 764,
      "ugh": 765,
      "ade": 766,
      "ott": 767,
      "Ġget": 768,
      "con": 769,
      "Ġsh": 770,
      "RP": 771,
      "kan": 772,
      "eck": 773,
      "inc": 774,
      "ein": 775,
      "cc": 776,
      "uj": 777,
      "utt": 778,
      "BS": 779,
      "ict": 780,
      "era": 781,
      "ica": 782,
      "over": 783,
      "Context": 784,
      "CS": 785,
      "ĠBl": 786,
      "ng": 787,
      "uss": 788,
      "yc": 789,
      "eat": 790,
      "vent": 791,
      "Ġpar": 792,
      "nt": 793,
      "ps": 794,
      "ory": 795,
      "rib": 796,
      "unc": 797,
      "ara": 798,
      "umb": 799,
      "oth": 800,
      "ke": 801,
      "Int": 802,
      "ics": 803,
      "onent": 804,
      "uth": 805,
      "urrent": 806,
      "arm": 807,
      "urs": 808,
      "ql": 809,
      "ena": 810,
      "uch": 811,
      "ger": 812,
      "lement": 813,
      "Pl": 814,
      "yst": 815,
      "ego": 816,
      "Field": 817,
      "Ġan": 818,
      "Ġen": 819,
      "Image": 820,
      "iro": 821,
      "ora": 822,
      "isc": 823,
      "osit": 824,
      "File": 825,
      "AC": 826,
      "ute": 827,
      "PS": 828,
      "ira": 829,
      "App": 830,
      "reate": 831,
      "reen": 832,
      "ih": 833,
      "roup": 834,
      "ama": 835,
      "Ġac": 836,
      "ze": 837,
      "ĠGu": 838,
      "ager": 839,
      "use": 840,
      "ater": 841,
      "CP": 842,
      "va": 843,
      "ala": 844,
      "Ġdes": 845,
      "str": 846,
      "Mod": 847,
      "Ġsl": 848,
      "ve": 849,
      "uto": 850,
      "umber": 851,
      "fl": 852,
      "Ġar": 853,
      "off": 854,
      "Ġap": 855,
      "Get": 856,
      "che": 857,
      "DA": 858,
      "uy": 859,
      "Ġset": 860,
      "ism": 861,
      "den": 862,
      "atth": 863,
      "ery": 864,
      "ĠX": 865,
      "Ġrec": 866,
      "Time": 867,
      "als": 868,
      "me": 869,
      "equest": 870,
      "Man": 871,
      "kh": 872,
      "roll": 873,
      "ress": 874,
      "IA": 875,
      "ise": 876,
      "State": 877,
      "par": 878,
      "ament": 879,
      "Ġper": 880,
      "dex": 881,
      "IS": 882,
      "po": 883,
      "ner": 884,
      "ille": 885,
      "urn": 886,
      "PC": 887,
      "itz": 888,
      "arc": 889,
      "uz": 890,
      "ates": 891,
      "Ġro": 892,
      "ular": 893,
      "orr": 894,
      "ech": 895,
      "let": 896,
      "ius": 897,
      "rad": 898,
      "order": 899,
      "ave": 900,
      "alt": 901,
      "raw": 902,
      "anj": 903,
      "ha": 904,
      "Color": 905,
      "fe": 906,
      "Sh": 907,
      "ets": 908,
      "arb": 909,
      "orb": 910,
      "du": 911,
      "Code": 912,
      "IL": 913,
      "iff": 914,
      "oph": 915,
      "ref": 916,
      "rev": 917,
      "ose": 918,
      "Index": 919,
      "lock": 920,
      "uv": 921,
      "Char": 922,
      "ource": 923,
      "DP": 924,
      "Fl": 925,
      "ES": 926,
      "ili": 927,
      "UT": 928,
      "rist": 929,
      "Ġres": 930,
      "Ġis": 931,
      "uh": 932,
      "gl": 933,
      "bar": 934,
      "pi": 935,
      "ml": 936,
      "iter": 937,
      "Component": 938,
      "MS": 939,
      "ks": 940,
      "kt": 941,
      "ied": 942,
      "ians": 943,
      "ruct": 944,
      "ych": 945,
      "ayout": 946,
      "ree": 947,
      "IP": 948,
      "Request": 949,
      "uan": 950,
      "ld": 951,
      "Ġmen": 952,
      "yr": 953,
      "ĠTh": 954,
      "ington": 955,
      "rack": 956,
      "CH": 957,
      "ii": 958,
      "omb": 959,
      "och": 960,
      "elect": 961,
      "sub": 962,
      "Out": 963,
      "rag": 964,
      "eme": 965,
      "ux": 966,
      "Set": 967,
      "All": 968,
      "ĠAm": 969,
      "ete": 970,
      "SI": 971,
      "rim": 972,
      "Call": 973,
      "MA": 974,
      "cz": 975,
      "CA": 976,
      "fig": 977,
      "ano": 978,
      "ae": 979,
      "abb": 980,
      "ao": 981,
      "rol": 982,
      "form": 983,
      "sw": 984,
      "Ġcont": 985,
      "ely": 986,
      "En": 987,
      "Event": 988,
      "Ref": 989,
      "ĠSc": 990,
      "Group": 991,
      "TR": 992,
      "ays": 993,
      "rans": 994,
      "go": 995,
      "ake": 996,
      "za": 997,
      "asc": 998,
      "ET": 999,
      "erd": 1000,
      "oxy": 1001,
      "Ġjed": 1002,
      "Box": 1003,
      "Ġod": 1004,
      "Action": 1005,
      "oid": 1006,
      "back": 1007,
      "yle": 1008,
      "Ġam": 1009,
      "red": 1010,
      "ros": 1011,
      "ĠLe": 1012,
      "riv": 1013,
      "ese": 1014,
      "oa": 1015,
      "ots": 1016,
      "la": 1017,
      "ork": 1018,
      "oo": 1019,
      "line": 1020,
      "Ġret": 1021,
      "Ġund": 1022,
      "aff": 1023,
      "Result": 1024,
      "UN": 1025,
      "atur": 1026,
      "Sp": 1027,
      "rt": 1028,
      "ĠCon": 1029,
      "ered": 1030,
      "Ġind": 1031,
      "indow": 1032,
      "ception": 1033,
      "Prop": 1034,
      "endo": 1035,
      "Input": 1036,
      "Manager": 1037,
      "Ġcom": 1038,
      "ĠBar": 1039,
      "Up": 1040,
      "MP": 1041,
      "Ġob": 1042,
      "rec": 1043,
      "Exception": 1044,
      "Ġant": 1045,
      "Service": 1046,
      "men": 1047,
      "ling": 1048,
      "ĠAd": 1049,
      "ump": 1050,
      "Count": 1051,
      "AG": 1052,
      "ester": 1053,
      "shire": 1054,
      "ĠEd": 1055,
      "unter": 1056,
      "uild": 1057,
      "ej": 1058,
      "Ad": 1059,
      "aya": 1060,
      "anam": 1061,
      "ios": 1062,
      "rl": 1063,
      "ĠEm": 1064,
      "Class": 1065,
      "els": 1066,
      "Ġimp": 1067,
      "ten": 1068,
      "ocal": 1069,
      "PA": 1070,
      "mer": 1071,
      "eut": 1072,
      "ower": 1073,
      "ats": 1074,
      "Layout": 1075,
      "Table": 1076,
      "ask": 1077,
      "ener": 1078,
      "uit": 1079,
      "ĠRe": 1080,
      "ars": 1081,
      "bur": 1082,
      "ĠAn": 1083,
      "TS": 1084,
      "For": 1085,
      "ocation": 1086,
      "amil": 1087,
      "Ġem": 1088,
      "idd": 1089,
      "my": 1090,
      "ione": 1091,
      "oss": 1092,
      "iqu": 1093,
      "As": 1094,
      "uck": 1095,
      "port": 1096,
      "elle": 1097,
      "ized": 1098,
      "ucle": 1099,
      "ange": 1100,
      "ule": 1101,
      "nik": 1102,
      "SM": 1103,
      "ound": 1104,
      "Ġtr": 1105,
      "ogg": 1106,
      "atic": 1107,
      "ual": 1108,
      "ility": 1109,
      "raph": 1110,
      "org": 1111,
      "ract": 1112,
      "Element": 1113,
      "ouse": 1114,
      "ette": 1115,
      "ED": 1116,
      "last": 1117,
      "pro": 1118,
      "With": 1119,
      "las": 1120,
      "Info": 1121,
      "Config": 1122,
      "DR": 1123,
      "pon": 1124,
      "ayer": 1125,
      "User": 1126,
      "anel": 1127,
      "AD": 1128,
      "lad": 1129,
      "AP": 1130,
      "Api": 1131,
      "berg": 1132,
      "iej": 1133,
      "Ġco": 1134,
      "Ġov": 1135,
      "Ġel": 1136,
      "BC": 1137,
      "Ġph": 1138,
      "ui": 1139,
      "ĠEl": 1140,
      "edi": 1141,
      "idth": 1142,
      "ino": 1143,
      "SS": 1144,
      "be": 1145,
      "icht": 1146,
      "ĠBr": 1147,
      "eader": 1148,
      "reg": 1149,
      "oto": 1150,
      "olic": 1151,
      "hi": 1152,
      "Al": 1153,
      "ome": 1154,
      "IM": 1155,
      "bit": 1156,
      "br": 1157,
      "Is": 1158,
      "unk": 1159,
      "map": 1160,
      "load": 1161,
      "cent": 1162,
      "Ġfl": 1163,
      "inal": 1164,
      "ral": 1165,
      "aut": 1166,
      "Window": 1167,
      "web": 1168,
      "iet": 1169,
      "lect": 1170,
      "CO": 1171,
      "ough": 1172,
      "EC": 1173,
      "ura": 1174,
      "ating": 1175,
      "Ġinc": 1176,
      "Ġent": 1177,
      "Ġon": 1178,
      "Ġx": 1179,
      "Ġed": 1180,
      "Ġsk": 1181,
      "wood": 1182,
      "path": 1183,
      "any": 1184,
      "SRP": 1185,
      "tn": 1186,
      "ali": 1187,
      "Ġang": 1188,
      "ior": 1189,
      "cht": 1190,
      "ski": 1191,
      "abel": 1192,
      "new": 1193,
      "IV": 1194,
      "DK": 1195,
      "Model": 1196,
      "erk": 1197,
      "Ġop": 1198,
      "ĠSal": 1199,
      "arn": 1200,
      "Test": 1201,
      "da": 1202,
      "anti": 1203,
      "PM": 1204,
      "eep": 1205,
      "uid": 1206,
      "rv": 1207,
      "ional": 1208,
      "rab": 1209,
      "Ġgr": 1210,
      "arch": 1211,
      "ENT": 1212,
      "aan": 1213,
      "ider": 1214,
      "Ġmult": 1215,
      "field": 1216,
      "ript": 1217,
      "board": 1218,
      "Ġuse": 1219,
      "aur": 1220,
      "Ph": 1221,
      "Log": 1222,
      "ulf": 1223,
      "fer": 1224,
      "ection": 1225,
      "iment": 1226,
      "Params": 1227,
      "ts": 1228,
      "ima": 1229,
      "BA": 1230,
      "oad": 1231,
      "ega": 1232,
      "ris": 1233,
      "MC": 1234,
      "udd": 1235,
      "lic": 1236,
      "ĠSp": 1237,
      "GF": 1238,
      "igh": 1239,
      "Ġint": 1240,
      "item": 1241,
      "etail": 1242,
      "erty": 1243,
      "US": 1244,
      "oke": 1245,
      "UM": 1246,
      "cal": 1247,
      "Node": 1248,
      "ible": 1249,
      "Ġdi": 1250,
      "Ġcl": 1251,
      "key": 1252,
      "ĠWil": 1253,
      "Panel": 1254,
      "enu": 1255,
      "ations": 1256,
      "olog": 1257,
      "anth": 1258,
      "OA": 1259,
      "ody": 1260,
      "ync": 1261,
      "by": 1262,
      "Ġout": 1263,
      "acter": 1264,
      "Stat": 1265,
      "kow": 1266,
      "HT": 1267,
      "leg": 1268,
      "At": 1269,
      "Map": 1270,
      "PT": 1271,
      "MD": 1272,
      "akan": 1273,
      "Ġra": 1274,
      "vert": 1275,
      "Bar": 1276,
      "sed": 1277,
      "ores": 1278,
      "emp": 1279,
      "Col": 1280,
      "bra": 1281,
      "oken": 1282,
      "je": 1283,
      "Ġbl": 1284,
      "for": 1285,
      "ĠSw": 1286,
      "ĠCl": 1287,
      "adi": 1288,
      "ĠCo": 1289,
      "CM": 1290,
      "hat": 1291,
      "iem": 1292,
      "Number": 1293,
      "ched": 1294,
      "ita": 1295,
      "mo": 1296,
      "Ġau": 1297,
      "Un": 1298,
      "icul": 1299,
      "Ġol": 1300,
      "date": 1301,
      "Start": 1302,
      "eron": 1303,
      "zy": 1304,
      "aud": 1305,
      "ny": 1306,
      "ethod": 1307,
      "ĠMcC": 1308,
      "atri": 1309,
      "CI": 1310,
      "Ġconv": 1311,
      "Or": 1312,
      "aro": 1313,
      "iri": 1314,
      "Ġmax": 1315,
      "Ġpost": 1316,
      "ils": 1317,
      "Content": 1318,
      "TE": 1319,
      "lin": 1320,
      "aa": 1321,
      "Const": 1322,
      "ercent": 1323,
      "Em": 1324,
      "IB": 1325,
      "onic": 1326,
      "ĠBur": 1327,
      "ument": 1328,
      "ponse": 1329,
      "Width": 1330,
      "ĠBh": 1331,
      "omer": 1332,
      "Ġult": 1333,
      "zt": 1334,
      "rich": 1335,
      "alk": 1336,
      "net": 1337,
      "ook": 1338,
      "aus": 1339,
      "Arg": 1340,
      "ua": 1341,
      "CE": 1342,
      "Block": 1343,
      "Date": 1344,
      "SR": 1345,
      "ms": 1346,
      "eer": 1347,
      "ido": 1348,
      "amente": 1349,
      "Ġtrans": 1350,
      "ero": 1351,
      "ona": 1352,
      "On": 1353,
      "etri": 1354,
      "Line": 1355,
      "hr": 1356,
      "Header": 1357,
      "FA": 1358,
      "ender": 1359,
      "Ġas": 1360,
      "OM": 1361,
      "Star": 1362,
      "ommand": 1363,
      "het": 1364,
      "jsk": 1365,
      "Auto": 1366,
      "Ġinter": 1367,
      "lor": 1368,
      "ĠPal": 1369,
      "its": 1370,
      "ois": 1371,
      "AS": 1372,
      "IR": 1373,
      "win": 1374,
      "Ġvol": 1375,
      "Ġer": 1376,
      "Off": 1377,
      "ative": 1378,
      "read": 1379,
      "Server": 1380,
      "imp": 1381,
      "EL": 1382,
      "Ġpot": 1383,
      "DC": 1384,
      "ialog": 1385,
      "ethyl": 1386,
      "stra": 1387,
      "IF": 1388,
      "essage": 1389,
      "Mode": 1390,
      "Output": 1391,
      "js": 1392,
      "UI": 1393,
      "osh": 1394,
      "de": 1395,
      "db": 1396,
      "utter": 1397,
      "aster": 1398,
      "CL": 1399,
      "Ġsw": 1400,
      "urt": 1401,
      "orth": 1402,
      "xc": 1403,
      "rob": 1404,
      "An": 1405,
      "Menu": 1406,
      "itor": 1407,
      "less": 1408,
      "iles": 1409,
      "aks": 1410,
      "ipp": 1411,
      "Mut": 1412,
      "Ġdec": 1413,
      "acch": 1414,
      "Ġto": 1415,
      "LO": 1416,
      "li": 1417,
      "round": 1418,
      "Ġadd": 1419,
      "ouch": 1420,
      "thor": 1421,
      "erson": 1422,
      "aki": 1423,
      "DB": 1424,
      "Pop": 1425,
      "Ġep": 1426,
      "Ġber": 1427,
      "lex": 1428,
      "Ġtest": 1429,
      "ven": 1430,
      "pen": 1431,
      "lar": 1432,
      "Ġjedn": 1433,
      "uffer": 1434,
      "ocus": 1435,
      "Ġbh": 1436,
      "der": 1437,
      "ycl": 1438,
      "ition": 1439,
      "orph": 1440,
      "icz": 1441,
      "MB": 1442,
      "box": 1443,
      "asi": 1444,
      "esp": 1445,
      "Go": 1446,
      "illa": 1447,
      "Ġsal": 1448,
      "ency": 1449,
      "atan": 1450,
      "ols": 1451,
      "ength": 1452,
      "vi": 1453,
      "Ġdef": 1454,
      "raz": 1455,
      "TA": 1456,
      "PE": 1457,
      "ami": 1458,
      "Ġag": 1459,
      "roph": 1460,
      "zo": 1461,
      "PR": 1462,
      "Url": 1463,
      "arth": 1464,
      "ING": 1465,
      "min": 1466,
      "KA": 1467,
      "edia": 1468,
      "eight": 1469,
      "TC": 1470,
      "ious": 1471,
      "aire": 1472,
      "udent": 1473,
      "ola": 1474,
      "met": 1475,
      "ities": 1476,
      "com": 1477,
      "aul": 1478,
      "Conn": 1479,
      "Nav": 1480,
      "bl": 1481,
      "ĠWh": 1482,
      "econd": 1483,
      "amera": 1484,
      "ault": 1485,
      "Av": 1486,
      "cess": 1487,
      "ymb": 1488,
      "ĠQu": 1489,
      "input": 1490,
      "Dialog": 1491,
      "Ġsm": 1492,
      "Ġsch": 1493,
      "ĠPr": 1494,
      "ĠMah": 1495,
      "Control": 1496,
      "ĠAg": 1497,
      "plic": 1498,
      "SO": 1499,
      "eli": 1500,
      "rey": 1501,
      "ĠDor": 1502,
      "ML": 1503,
      "eld": 1504,
      "well": 1505,
      "rain": 1506,
      "rap": 1507,
      "ca": 1508,
      "Ġrem": 1509,
      "ĠMcG": 1510,
      "Ġoc": 1511,
      "Qu": 1512,
      "amm": 1513,
      "IG": 1514,
      "rum": 1515,
      "Ġpal": 1516,
      "oot": 1517,
      "find": 1518,
      "ebug": 1519,
      "Bit": 1520,
      "ĠCB": 1521,
      "Ġrep": 1522,
      "Ġcurrent": 1523,
      "wa": 1524,
      "ĠKn": 1525,
      "ically": 1526,
      "ias": 1527,
      "onn": 1528,
      "Ġmil": 1529,
      "Resource": 1530,
      "uro": 1531,
      "ope": 1532,
      "raft": 1533,
      "Ġpre": 1534,
      "Response": 1535,
      "Init": 1536,
      "lu": 1537,
      "alle": 1538,
      "nya": 1539,
      "Ġapp": 1540,
      "New": 1541,
      "oi": 1542,
      "ability": 1543,
      "awa": 1544,
      "Ġnew": 1545,
      "ĠEr": 1546,
      "ĠWood": 1547,
      "ove": 1548,
      "Ġdel": 1549,
      "ukan": 1550,
      "FBS": 1551,
      "Buffer": 1552,
      "andle": 1553,
      "anz": 1554,
      "user": 1555,
      "Def": 1556,
      "eral": 1557,
      "ropri": 1558,
      "FBSDK": 1559,
      "Inter": 1560,
      "atis": 1561,
      "ream": 1562,
      "itri": 1563,
      "arget": 1564,
      "uer": 1565,
      "ava": 1566,
      "Focus": 1567,
      "van": 1568,
      "Ġsup": 1569,
      "angan": 1570,
      "Var": 1571,
      "aka": 1572,
      "ji": 1573,
      "Oper": 1574,
      "stein": 1575,
      "ĠApp": 1576,
      "ateg": 1577,
      "vis": 1578,
      "ĠBx": 1579,
      "ift": 1580,
      "imm": 1581,
      "OP": 1582,
      "Change": 1583,
      "SD": 1584,
      "Ġup": 1585,
      "ras": 1586,
      "anh": 1587,
      "apt": 1588,
      "oun": 1589,
      "Select": 1590,
      "ante": 1591,
      "Ġcreate": 1592,
      "rz": 1593,
      "cp": 1594,
      "pring": 1595,
      "acy": 1596,
      "ĠWar": 1597,
      "ever": 1598,
      "Ġmeng": 1599,
      "ĠCor": 1600,
      "ĠPh": 1601,
      "ization": 1602,
      "Ġter": 1603,
      "not": 1604,
      "ific": 1605,
      "ĠBro": 1606,
      "ector": 1607,
      "Client": 1608,
      "akt": 1609,
      "iki": 1610,
      "ila": 1611,
      "ste": 1612,
      "Ġleg": 1613,
      "Rec": 1614,
      "Page": 1615,
      "Message": 1616,
      "from": 1617,
      "AF": 1618,
      "type": 1619,
      "Ġgl": 1620,
      "ĠMan": 1621,
      "DI": 1622,
      "akkh": 1623,
      "Ġo": 1624,
      "aga": 1625,
      "Property": 1626,
      "ĠQx": 1627,
      "data": 1628,
      "Down": 1629,
      "current": 1630,
      "nal": 1631,
      "send": 1632,
      "oul": 1633,
      "TP": 1634,
      "do": 1635,
      "Ġact": 1636,
      "erence": 1637,
      "ges": 1638,
      "Ġinf": 1639,
      "vol": 1640,
      "IO": 1641,
      "alf": 1642,
      "eger": 1643,
      "igg": 1644,
      "cont": 1645,
      "ben": 1646,
      "End": 1647,
      "ster": 1648,
      "ION": 1649,
      "anyl": 1650,
      "isT": 1651,
      "erman": 1652,
      "eda": 1653,
      "ean": 1654,
      "CB": 1655,
      "ula": 1656,
      "AY": 1657,
      "uct": 1658,
      "open": 1659,
      "oma": 1660,
      "Detail": 1661,
      "ander": 1662,
      "gar": 1663,
      "Sw": 1664,
      "stit": 1665,
      "ibus": 1666,
      "ĠBe": 1667,
      "Cell": 1668,
      "aft": 1669,
      "ĠAt": 1670,
      "atha": 1671,
      "Sub": 1672,
      "kin": 1673,
      "ypes": 1674,
      "ersion": 1675,
      "DE": 1676,
      "itch": 1677,
      "cad": 1678,
      "ertex": 1679,
      "andler": 1680,
      "elly": 1681,
      "itth": 1682,
      "ages": 1683,
      "And": 1684,
      "RG": 1685,
      "ko": 1686,
      "arks": 1687,
      "oles": 1688,
      "CD": 1689,
      "tot": 1690,
      "ignment": 1691,
      "Ġev": 1692,
      "rat": 1693,
      "ww": 1694,
      "EM": 1695,
      "ĠVill": 1696,
      "down": 1697,
      "Ġcor": 1698,
      "rin": 1699,
      "ney": 1700,
      "ged": 1701,
      "yan": 1702,
      "ced": 1703,
      "MR": 1704,
      "uel": 1705,
      "ants": 1706,
      "Ġir": 1707,
      "ĠMar": 1708,
      "Ġpor": 1709,
      "sm": 1710,
      "Location": 1711,
      "ĠEn": 1712,
      "inch": 1713,
      "imb": 1714,
      "Web": 1715,
      "start": 1716,
      "older": 1717,
      "Main": 1718,
      "ando": 1719,
      "ico": 1720,
      "Att": 1721,
      "inate": 1722,
      "Ġman": 1723,
      "Ġhem": 1724,
      "Ġpat": 1725,
      "imento": 1726,
      "oder": 1727,
      "odes": 1728,
      "asm": 1729,
      "Null": 1730,
      "Ġend": 1731,
      "PP": 1732,
      "Back": 1733,
      "ues": 1734,
      "ĠAb": 1735,
      "roc": 1736,
      "yte": 1737,
      "ken": 1738,
      "TT": 1739,
      "ttp": 1740,
      "Buf": 1741,
      "nam": 1742,
      "patch": 1743,
      "Link": 1744,
      "oint": 1745,
      "ĠRock": 1746,
      "Dis": 1747,
      "ices": 1748,
      "Spr": 1749,
      "ye": 1750,
      "Ġav": 1751,
      "acc": 1752,
      "Status": 1753,
      "ĠSm": 1754,
      "ova": 1755,
      "Form": 1756,
      "ved": 1757,
      "GC": 1758,
      "icks": 1759,
      "Json": 1760,
      "LU": 1761,
      "Card": 1762,
      "enz": 1763,
      "HP": 1764,
      "ja": 1765,
      "Ġexp": 1766,
      "ĠMcK": 1767,
      "Ġmon": 1768,
      "riff": 1769,
      "ĠMon": 1770,
      "Height": 1771,
      "auc": 1772,
      "uen": 1773,
      "rip": 1774,
      "yth": 1775,
      "fs": 1776,
      "Pref": 1777,
      "earch": 1778,
      "ĠRo": 1779,
      "MN": 1780,
      "Posit": 1781,
      "qual": 1782,
      "Debug": 1783,
      "Rect": 1784,
      "rac": 1785,
      "Ed": 1786,
      "umer": 1787,
      "ĠMcD": 1788,
      "var": 1789,
      "mm": 1790,
      "Ġpay": 1791,
      "ather": 1792,
      "irt": 1793,
      "Ġkn": 1794,
      "stance": 1795,
      "Ġrel": 1796,
      "oft": 1797,
      "Ġne": 1798,
      "Ġip": 1799,
      "ally": 1800,
      "Row": 1801,
      "ella": 1802,
      "ente": 1803,
      "sb": 1804,
      "rif": 1805,
      "mp": 1806,
      "iev": 1807,
      "Ġur": 1808,
      "aps": 1809,
      "name": 1810,
      "etry": 1811,
      "text": 1812,
      "Build": 1813,
      "ĠMad": 1814,
      "ahan": 1815,
      "Ġsol": 1816,
      "Ġut": 1817,
      "oin": 1818,
      "elt": 1819,
      "TL": 1820,
      "Exp": 1821,
      "play": 1822,
      "Ġadj": 1823,
      "Find": 1824,
      "ci": 1825,
      "Ġver": 1826,
      "eta": 1827,
      "omen": 1828,
      "Sync": 1829,
      "point": 1830,
      "ison": 1831,
      "ivity": 1832,
      "awn": 1833,
      "ĠCar": 1834,
      "pty": 1835,
      "adr": 1836,
      "yk": 1837,
      "pond": 1838,
      "lay": 1839,
      "igest": 1840,
      "HDR": 1841,
      "ĠVer": 1842,
      "Ġcons": 1843,
      "itter": 1844,
      "ination": 1845,
      "Open": 1846,
      "eni": 1847,
      "From": 1848,
      "usc": 1849,
      "ĠAng": 1850,
      "ĠRx": 1851,
      "unch": 1852,
      "urb": 1853,
      "aug": 1854,
      "lob": 1855,
      "ted": 1856,
      "inu": 1857,
      "han": 1858,
      "Length": 1859,
      "ĠNew": 1860,
      "eit": 1861,
      "ĠMont": 1862,
      "ader": 1863,
      "getB": 1864,
      "ushed": 1865,
      "Method": 1866,
      "utto": 1867,
      "odel": 1868,
      "UC": 1869,
      "RC": 1870,
      "print": 1871,
      "Dec": 1872,
      "anda": 1873,
      "file": 1874,
      "ape": 1875,
      "chen": 1876,
      "ĠFl": 1877,
      "lection": 1878,
      "agn": 1879,
      "Create": 1880,
      "init": 1881,
      "HA": 1882,
      "ctive": 1883,
      "Ġcur": 1884,
      "Ġes": 1885,
      "Query": 1886,
      "Cho": 1887,
      "idaz": 1888,
      "ĠRed": 1889,
      "Ġnot": 1890,
      "igned": 1891,
      "ville": 1892,
      "Num": 1893,
      "Auth": 1894,
      "ersh": 1895,
      "hou": 1896,
      "ustom": 1897,
      "Ġimm": 1898,
      "iya": 1899,
      "sel": 1900,
      "omot": 1901,
      "lem": 1902,
      "mat": 1903,
      "Student": 1904,
      "md": 1905,
      "Ġprz": 1906,
      "way": 1907,
      "ĠOr": 1908,
      "apter": 1909,
      "Update": 1910,
      "mann": 1911,
      "ĠPar": 1912,
      "ĠUn": 1913,
      "oard": 1914,
      "iver": 1915,
      "eto": 1916,
      "Ġemb": 1917,
      "Ġpart": 1918,
      "ei": 1919,
      "SX": 1920,
      "word": 1921,
      "gu": 1922,
      "raf": 1923,
      "ollow": 1924,
      "des": 1925,
      "xy": 1926,
      "riz": 1927,
      "UL": 1928,
      "room": 1929,
      "auf": 1930,
      "Per": 1931,
      "Ġover": 1932,
      "osa": 1933,
      "Ġoff": 1934,
      "GE": 1935,
      "mi": 1936,
      "LC": 1937,
      "del": 1938,
      "rea": 1939,
      "IST": 1940,
      "cop": 1941,
      "Game": 1942,
      "riter": 1943,
      "ines": 1944,
      "allow": 1945,
      "duct": 1946,
      "VC": 1947,
      "Ġfor": 1948,
      "ĠLor": 1949,
      "ful": 1950,
      "Label": 1951,
      "ĠMart": 1952,
      "roid": 1953,
      "ĠBel": 1954,
      "una": 1955,
      "olo": 1956,
      "Ġann": 1957,
      "eal": 1958,
      "Ġbil": 1959,
      "anch": 1960,
      "draw": 1961,
      "sa": 1962,
      "press": 1963,
      "Token": 1964,
      "ume": 1965,
      "irst": 1966,
      "Ġdem": 1967,
      "under": 1968,
      "ĠHar": 1969,
      "argin": 1970,
      "Asset": 1971,
      "Ġref": 1972,
      "ĠCol": 1973,
      "elles": 1974,
      "TH": 1975,
      "obj": 1976,
      "ellen": 1977,
      "vas": 1978,
      "ribute": 1979,
      "Not": 1980,
      "Sl": 1981,
      "Tool": 1982,
      "eks": 1983,
      "Ġneut": 1984,
      "vers": 1985,
      "DS": 1986,
      "atrix": 1987,
      "Style": 1988,
      "ĠSe": 1989,
      "Attribute": 1990,
      "hav": 1991,
      "counter": 1992,
      "Ġpol": 1993,
      "emia": 1994,
      "Ġspl": 1995,
      "ains": 1996,
      "ende": 1997,
      "unn": 1998,
      "gi": 1999,
      "ides": 2000,
      "color": 2001,
      "ba": 2002,
      "ĠFre": 2003,
      "embre": 2004,
      "Position": 2005,
      "ades": 2006,
      "Ġval": 2007,
      "ulfanyl": 2008,
      "Ġq": 2009,
      "space": 2010,
      "ared": 2011,
      "hel": 2012,
      "Builder": 2013,
      "sulfanyl": 2014,
      "Ġacc": 2015,
      "pie": 2016,
      "sal": 2017,
      "arat": 2018,
      "phen": 2019,
      "Full": 2020,
      "URN": 2021,
      "ense": 2022,
      "ĠEll": 2023,
      "ĠBlack": 2024,
      "len": 2025,
      "lov": 2026,
      "esthet": 2027,
      "Ġhum": 2028,
      "ives": 2029,
      "inst": 2030,
      "vel": 2031,
      "bu": 2032,
      "Cent": 2033,
      "Add": 2034,
      "esi": 2035,
      "perm": 2036,
      "Sprite": 2037,
      "Ġsn": 2038,
      "aat": 2039,
      "GR": 2040,
      "ijk": 2041,
      "onc": 2042,
      "api": 2043,
      "ourn": 2044,
      "ites": 2045,
      "Ġtri": 2046,
      "inding": 2047,
      "ungen": 2048,
      "ceed": 2049,
      "ote": 2050,
      "ents": 2051,
      "eton": 2052,
      "iego": 2053,
      "aires": 2054,
      "onne": 2055,
      "opp": 2056,
      "acute": 2057,
      "Ġfre": 2058,
      "irect": 2059,
      "Components": 2060,
      "ĠMor": 2061,
      "rone": 2062,
      "har": 2063,
      "angk": 2064,
      "Offset": 2065,
      "agen": 2066,
      "rog": 2067,
      "Ġtra": 2068,
      "itar": 2069,
      "enna": 2070,
      "cs": 2071,
      "Vertex": 2072,
      "view": 2073,
      "rie": 2074,
      "bb": 2075,
      "ĠWal": 2076,
      "war": 2077,
      "Now": 2078,
      "Ġcar": 2079,
      "bor": 2080,
      "link": 2081,
      "Th": 2082,
      "ugin": 2083,
      "OC": 2084,
      "prop": 2085,
      "sky": 2086,
      "sis": 2087,
      "aph": 2088,
      "ito": 2089,
      "EG": 2090,
      "test": 2091,
      "class": 2092,
      "Ġwh": 2093,
      "esto": 2094,
      "pton": 2095,
      "arsh": 2096,
      "eller": 2097,
      "itis": 2098,
      "ams": 2099,
      "SF": 2100,
      "Source": 2101,
      "Ġpres": 2102,
      "ucc": 2103,
      "iento": 2104,
      "eil": 2105,
      "iler": 2106,
      "ĠGal": 2107,
      "LP": 2108,
      "pos": 2109,
      "string": 2110,
      "isi": 2111,
      "ries": 2112,
      "ital": 2113,
      "sen": 2114,
      "oom": 2115,
      "ĠRaj": 2116,
      "ĠKe": 2117,
      "ĠMo": 2118,
      "ution": 2119,
      "Ġpret": 2120,
      "Port": 2121,
      "ohn": 2122,
      "ique": 2123,
      "Record": 2124,
      "uring": 2125,
      "Non": 2126,
      "rite": 2127,
      "CR": 2128,
      "ERN": 2129,
      "log": 2130,
      "hn": 2131,
      "Body": 2132,
      "Keys": 2133,
      "so": 2134,
      "Sett": 2135,
      "ĠRUT": 2136,
      "umn": 2137,
      "ranch": 2138,
      "Pos": 2139,
      "ĠUI": 2140,
      "ours": 2141,
      "ĠPol": 2142,
      "hab": 2143,
      "ĠHo": 2144,
      "Ġdist": 2145,
      "aker": 2146,
      "ilt": 2147,
      "Login": 2148,
      "akukan": 2149,
      "ideo": 2150,
      "emy": 2151,
      "El": 2152,
      "Video": 2153,
      "ueue": 2154,
      "inct": 2155,
      "Ġmy": 2156,
      "Marks": 2157,
      "review": 2158,
      "ymbol": 2159,
      "Ġpop": 2160,
      "lig": 2161,
      "eler": 2162,
      "ĠHe": 2163,
      "efont": 2164,
      "ĠGar": 2165,
      "eport": 2166,
      "elli": 2167,
      "Ġhab": 2168,
      "mond": 2169,
      "ocket": 2170,
      "Settings": 2171,
      "eft": 2172,
      "ĠEp": 2173,
      "ocalVar": 2174,
      "gg": 2175,
      "other": 2176,
      "TI": 2177,
      "Ġple": 2178,
      "bert": 2179,
      "page": 2180,
      "Sup": 2181,
      "yo": 2182,
      "atu": 2183,
      "etter": 2184,
      "ĠCav": 2185,
      "zn": 2186,
      "Script": 2187,
      "ahi": 2188,
      "annya": 2189,
      "Sal": 2190,
      "Did": 2191,
      "HL": 2192,
      "itle": 2193,
      "big": 2194,
      "ingen": 2195,
      "cher": 2196,
      "rel": 2197,
      "TO": 2198,
      "vo": 2199,
      "ĠCro": 2200,
      "uda": 2201,
      "Ġsur": 2202,
      "Screen": 2203,
      "Player": 2204,
      "Temp": 2205,
      "Ġmel": 2206,
      "ĠCont": 2207,
      "Rad": 2208,
      "FS": 2209,
      "ves": 2210,
      "Counter": 2211,
      "lich": 2212,
      "eston": 2213,
      "eva": 2214,
      "Types": 2215,
      "HS": 2216,
      "Show": 2217,
      "Ġvatt": 2218,
      "ĠIr": 2219,
      "Sql": 2220,
      "OU": 2221,
      "zin": 2222,
      "rvGroup": 2223,
      "ista": 2224,
      "MT": 2225,
      "Ġcyt": 2226,
      "ĠRh": 2227,
      "Queue": 2228,
      "Load": 2229,
      "ilde": 2230,
      "upt": 2231,
      "Ġaus": 2232,
      "count": 2233,
      "Para": 2234,
      "ĠHor": 2235,
      "right": 2236,
      "Ġcomp": 2237,
      "imi": 2238,
      "ude": 2239,
      "tils": 2240,
      "Items": 2241,
      "BE": 2242,
      "reens": 2243,
      "Dict": 2244,
      "ĠSom": 2245,
      "hd": 2246,
      "ashi": 2247,
      "Parameter": 2248,
      "lish": 2249,
      "Parser": 2250,
      "dl": 2251,
      "Ġstat": 2252,
      "ists": 2253,
      "yg": 2254,
      "RS": 2255,
      "ehyd": 2256,
      "illy": 2257,
      "nc": 2258,
      "ocument": 2259,
      "Compat": 2260,
      "yll": 2261,
      "htt": 2262,
      "vider": 2263,
      "Ġbr": 2264,
      "Ġconc": 2265,
      "ece": 2266,
      "omy": 2267,
      "Com": 2268,
      "Ġhot": 2269,
      "getC": 2270,
      "ystem": 2271,
      "aten": 2272,
      "osis": 2273,
      "rome": 2274,
      "gram": 2275,
      "iendo": 2276,
      "efore": 2277,
      "ones": 2278,
      "mouse": 2279,
      "ollis": 2280,
      "FT": 2281,
      "istic": 2282,
      "eed": 2283,
      "AB": 2284,
      "Ġins": 2285,
      "PL": 2286,
      "ki": 2287,
      "augh": 2288,
      "itte": 2289,
      "Ġtre": 2290,
      "atter": 2291,
      "Module": 2292,
      "ymph": 2293,
      "ĠGo": 2294,
      "Btn": 2295,
      "otrop": 2296,
      "ĠBerg": 2297,
      "ĠEst": 2298,
      "Ġele": 2299,
      "Bound": 2300,
      "FF": 2301,
      "create": 2302,
      "wick": 2303,
      "ika": 2304,
      "Wait": 2305,
      "Ġmin": 2306,
      "ĠPA": 2307,
      "Ġcontent": 2308,
      "URL": 2309,
      "irm": 2310,
      "ony": 2311,
      "ativ": 2312,
      "BL": 2313,
      "math": 2314,
      "aria": 2315,
      "une": 2316,
      "rine": 2317,
      "owan": 2318,
      "ĠPl": 2319,
      "aret": 2320,
      "Ġmast": 2321,
      "ici": 2322,
      "Plugin": 2323,
      "etta": 2324,
      "nej": 2325,
      "OL": 2326,
      "Ġpur": 2327,
      "imer": 2328,
      "icons": 2329,
      "BI": 2330,
      "ilit": 2331,
      "iley": 2332,
      "Ġmag": 2333,
      "ytes": 2334,
      "Ġenc": 2335,
      "iled": 2336,
      "hot": 2337,
      "AA": 2338,
      "hm": 2339,
      "ther": 2340,
      "GP": 2341,
      "ival": 2342,
      "ĠSte": 2343,
      "elet": 2344,
      "Ġconse": 2345,
      "obac": 2346,
      "aran": 2347,
      "Ġass": 2348,
      "SU": 2349,
      "ĠAy": 2350,
      "ache": 2351,
      "oen": 2352,
      "Struct": 2353,
      "allback": 2354,
      "andom": 2355,
      "ogen": 2356,
      "Ġcre": 2357,
      "Pk": 2358,
      "aint": 2359,
      "aler": 2360,
      "Operation": 2361,
      "Command": 2362,
      "Dev": 2363,
      "uml": 2364,
      "eek": 2365,
      "ĠAsh": 2366,
      "Ġtor": 2367,
      "zen": 2368,
      "bs": 2369,
      "Scroll": 2370,
      "atham": 2371,
      "uble": 2372,
      "iye": 2373,
      "bury": 2374,
      "Ġdham": 2375,
      "Ret": 2376,
      "Avg": 2377,
      "ited": 2378,
      "Sch": 2379,
      "ĠArch": 2380,
      "Ġpos": 2381,
      "Ġor": 2382,
      "imo": 2383,
      "osc": 2384,
      "Vis": 2385,
      "stock": 2386,
      "ayam": 2387,
      "Ġinv": 2388,
      "Font": 2389,
      "ample": 2390,
      "rou": 2391,
      "AE": 2392,
      "rug": 2393,
      "ether": 2394,
      "ĠPL": 2395,
      "eon": 2396,
      "Rout": 2397,
      "inf": 2398,
      "hal": 2399,
      "rown": 2400,
      "anja": 2401,
      "erto": 2402,
      "amo": 2403,
      "ulation": 2404,
      "Ġstr": 2405,
      "Ġpe": 2406,
      "mas": 2407,
      "roller": 2408,
      "tim": 2409,
      "opl": 2410,
      "Right": 2411,
      "ike": 2412,
      "tered": 2413,
      "Ġreg": 2414,
      "kit": 2415,
      "osph": 2416,
      "ristian": 2417,
      "rowser": 2418,
      "Ġvel": 2419,
      "ga": 2420,
      "ĠNag": 2421,
      "ogram": 2422,
      "ework": 2423,
      "Pack": 2424,
      "Top": 2425,
      "eco": 2426,
      "ogo": 2427,
      "ness": 2428,
      "olson": 2429,
      "vation": 2430,
      "ND": 2431,
      "Ptr": 2432,
      "ĠReg": 2433,
      "ĠRos": 2434,
      "outs": 2435,
      "Ġpers": 2436,
      "etch": 2437,
      "ono": 2438,
      "ados": 2439,
      "unsch": 2440,
      "GS": 2441,
      "asis": 2442,
      "CF": 2443,
      "Press": 2444,
      "face": 2445,
      "olicy": 2446,
      "nem": 2447,
      "Ġsil": 2448,
      "Task": 2449,
      "Ġduk": 2450,
      "lav": 2451,
      "oggle": 2452,
      "Ġmer": 2453,
      "ania": 2454,
      "ĠGir": 2455,
      "iol": 2456,
      "SXml": 2457,
      "Version": 2458,
      "ĠEM": 2459,
      "image": 2460,
      "assa": 2461,
      "umph": 2462,
      "czn": 2463,
      "oup": 2464,
      "Ġloc": 2465,
      "lj": 2466,
      "Search": 2467,
      "hes": 2468,
      "obb": 2469,
      "UID": 2470,
      "ĠMcInt": 2471,
      "Navig": 2472,
      "Http": 2473,
      "Equal": 2474,
      "Gl": 2475,
      "Ġsput": 2476,
      "Instance": 2477,
      "edit": 2478,
      "akes": 2479,
      "oji": 2480,
      "Character": 2481,
      "Ġinput": 2482,
      "Connection": 2483,
      "Unary": 2484,
      "olm": 2485,
      "illes": 2486,
      "lio": 2487,
      "Ġrect": 2488,
      "ilda": 2489,
      "Ġdo": 2490,
      "rame": 2491,
      "ĠDom": 2492,
      "atform": 2493,
      "angu": 2494,
      "asena": 2495,
      "ĠBer": 2496,
      "onucle": 2497,
      "Ġaf": 2498,
      "Props": 2499,
      "ĠEx": 2500,
      "aton": 2501,
      "Ġbul": 2502,
      "icker": 2503,
      "Ġext": 2504,
      "SON": 2505,
      "ĠMcL": 2506,
      "atas": 2507,
      "ART": 2508,
      "aron": 2509,
      "erred": 2510,
      "Ġing": 2511,
      "cre": 2512,
      "racket": 2513,
      "asal": 2514,
      "Pix": 2515,
      "uced": 2516,
      "getM": 2517,
      "Camera": 2518,
      "ology": 2519,
      "rew": 2520,
      "irl": 2521,
      "Ġparab": 2522,
      "Empty": 2523,
      "OW": 2524,
      "Ġsam": 2525,
      "ify": 2526,
      "screen": 2527,
      "Ġlle": 2528,
      "Mutability": 2529,
      "Ġsymbol": 2530,
      "head": 2531,
      "econds": 2532,
      "PD": 2533,
      "idden": 2534,
      "aliz": 2535,
      "idazole": 2536,
      "Ġmic": 2537,
      "Interface": 2538,
      "isTrack": 2539,
      "ador": 2540,
      "Ġgi": 2541,
      "ori": 2542,
      "ained": 2543,
      "alan": 2544,
      "rep": 2545,
      "arant": 2546,
      "cy": 2547,
      "ILL": 2548,
      "hy": 2549,
      "Ow": 2550,
      "apping": 2551,
      "ĠHay": 2552,
      "DL": 2553,
      "Fit": 2554,
      "ground": 2555,
      "Push": 2556,
      "azar": 2557,
      "Ġred": 2558,
      "rod": 2559,
      "ective": 2560,
      "Policy": 2561,
      "miss": 2562,
      "EP": 2563,
      "ury": 2564,
      "ikt": 2565,
      "Ġkar": 2566,
      "ĠLuc": 2567,
      "ials": 2568,
      "Target": 2569,
      "pm": 2570,
      "VCT": 2571,
      "Ġte": 2572,
      "ske": 2573,
      "lectic": 2574,
      "BP": 2575,
      "Ġfo": 2576,
      "Ġde": 2577,
      "ief": 2578,
      "ORT": 2579,
      "enden": 2580,
      "ĠCH": 2581,
      "osk": 2582,
      "nav": 2583,
      "FC": 2584,
      "raven": 2585,
      "Board": 2586,
      "eros": 2587,
      "Bl": 2588,
      "Callback": 2589,
      "bad": 2590,
      "RA": 2591,
      "oor": 2592,
      "Project": 2593,
      "iana": 2594,
      "vr": 2595,
      "Ġcol": 2596,
      "Handler": 2597,
      "rows": 2598,
      "ĠGi": 2599,
      "ister": 2600,
      "amily": 2601,
      "appe": 2602,
      "PO": 2603,
      "Device": 2604,
      "Sample": 2605,
      "ingham": 2606,
      "ĠSk": 2607,
      "race": 2608,
      "ytic": 2609,
      "inde": 2610,
      "ondo": 2611,
      "idin": 2612,
      "Ġpercent": 2613,
      "erno": 2614,
      "ardi": 2615,
      "char": 2616,
      "Ġviv": 2617,
      "Fact": 2618,
      "Flight": 2619,
      "arker": 2620,
      "eground": 2621,
      "esus": 2622,
      "ife": 2623,
      "Used": 2624,
      "Ġvutt": 2625,
      "ĠKx": 2626,
      "Ġmeg": 2627,
      "atiti": 2628,
      "ersch": 2629,
      "ĠBad": 2630,
      "code": 2631,
      "esse": 2632,
      "umann": 2633,
      "Ġbet": 2634,
      "Ġsu": 2635,
      "search": 2636,
      "oney": 2637,
      "ĠMax": 2638,
      "peat": 2639,
      "PI": 2640,
      "imple": 2641,
      "Ġmost": 2642,
      "ungs": 2643,
      "itone": 2644,
      "Ġferr": 2645,
      "Ġren": 2646,
      "Ġgel": 2647,
      "ilis": 2648,
      "wise": 2649,
      "ired": 2650,
      "pear": 2651,
      "inner": 2652,
      "Ġfamil": 2653,
      "ordan": 2654,
      "Ġdiss": 2655,
      "rift": 2656,
      "Ġknock": 2657,
      "rish": 2658,
      "Details": 2659,
      "ĠMaur": 2660,
      "ursor": 2661,
      "ushroom": 2662,
      "ergic": 2663,
      "ĠAll": 2664,
      "osi": 2665,
      "oon": 2666,
      "ĠGall": 2667,
      "eza": 2668,
      "Ġic": 2669,
      "outh": 2670,
      "Ġdata": 2671,
      "ĠBeat": 2672,
      "aze": 2673,
      "burg": 2674,
      "angle": 2675,
      "ahu": 2676,
      "aim": 2677,
      "anny": 2678,
      "DT": 2679,
      "zi": 2680,
      "ilm": 2681,
      "ĠRUTAR": 2682,
      "Save": 2683,
      "url": 2684,
      "ĠOb": 2685,
      "FR": 2686,
      "sid": 2687,
      "ahul": 2688,
      "ague": 2689,
      "rot": 2690,
      "ida": 2691,
      "Ġsubt": 2692,
      "urope": 2693,
      "roke": 2694,
      "lyn": 2695,
      "Ġphen": 2696,
      "tha": 2697,
      "ebra": 2698,
      "Bin": 2699,
      "eres": 2700,
      "stream": 2701,
      "OH": 2702,
      "Ġcle": 2703,
      "UD": 2704,
      "Ġbro": 2705,
      "ures": 2706,
      "ikan": 2707,
      "yatt": 2708,
      "stone": 2709,
      "Ext": 2710,
      "ĠBuk": 2711,
      "Provider": 2712,
      "Ġax": 2713,
      "Ġhead": 2714,
      "owell": 2715,
      "had": 2716,
      "ĠGh": 2717,
      "Wall": 2718,
      "ĠShe": 2719,
      "Adapter": 2720,
      "ĠBoy": 2721,
      "amine": 2722,
      "abbam": 2723,
      "Ġdign": 2724,
      "rust": 2725,
      "Args": 2726,
      "igo": 2727,
      "Ġposit": 2728,
      "amento": 2729,
      "ĠDal": 2730,
      "ĠAnd": 2731,
      "olver": 2732,
      "Des": 2733,
      "Ġmot": 2734,
      "ĠHumph": 2735,
      "tb": 2736,
      "mult": 2737,
      "Flag": 2738,
      "him": 2739,
      "odor": 2740,
      "rant": 2741,
      "ward": 2742,
      "uls": 2743,
      "NS": 2744,
      "Center": 2745,
      "iers": 2746,
      "arah": 2747,
      "Ġvert": 2748,
      "ĠCR": 2749,
      "sad": 2750,
      "ERC": 2751,
      "Ġhand": 2752,
      "Utils": 2753,
      "Ġprop": 2754,
      "Ġcr": 2755,
      "alam": 2756,
      "ffen": 2757,
      "EY": 2758,
      "raul": 2759,
      "Ġtot": 2760,
      "alar": 2761,
      "allel": 2762,
      "stant": 2763,
      "ational": 2764,
      "ĠMarg": 2765,
      "ranc": 2766,
      "urd": 2767,
      "aye": 2768,
      "umm": 2769,
      "VER": 2770,
      "ieg": 2771,
      "Ġmill": 2772,
      "ĠGr": 2773,
      "Controller": 2774,
      "Tab": 2775,
      "alm": 2776,
      "eno": 2777,
      "eless": 2778,
      "tol": 2779,
      "edd": 2780,
      "Ġabh": 2781,
      "ĠCorn": 2782,
      "Ġdil": 2783,
      "Str": 2784,
      "Ass": 2785,
      "ĠNorth": 2786,
      "ĠUt": 2787,
      "ello": 2788,
      "Ġkey": 2789,
      "Dto": 2790,
      "Ġexc": 2791,
      "por": 2792,
      "ĠNL": 2793,
      "uest": 2794,
      "Del": 2795,
      "Opt": 2796,
      "Ġten": 2797,
      "BT": 2798,
      "bre": 2799,
      "revi": 2800,
      "akespe": 2801,
      "wrap": 2802,
      "kar": 2803,
      "itrile": 2804,
      "Current": 2805,
      "Ġvucc": 2806,
      "aad": 2807,
      "ĠBa": 2808,
      "dk": 2809,
      "Ġat": 2810,
      "Ġkah": 2811,
      "Radius": 2812,
      "auer": 2813,
      "pop": 2814,
      "Ġmyc": 2815,
      "sche": 2816,
      "Ġprim": 2817,
      "ĠUIC": 2818,
      "inder": 2819,
      "Ġunder": 2820,
      "itting": 2821,
      "endez": 2822,
      "sy": 2823,
      "reet": 2824,
      "ryst": 2825,
      "fordshire": 2826,
      "VS": 2827,
      "anger": 2828,
      "trl": 2829,
      "esu": 2830,
      "idad": 2831,
      "ĠMull": 2832,
      "oster": 2833,
      "si": 2834,
      "ĠCan": 2835,
      "ily": 2836,
      "Beat": 2837,
      "ĠGreen": 2838,
      "Vector": 2839,
      "ches": 2840,
      "imation": 2841,
      "ommon": 2842,
      "sn": 2843,
      "iaz": 2844,
      "sec": 2845,
      "eder": 2846,
      "Ġven": 2847,
      "Ġsem": 2848,
      "house": 2849,
      "Dir": 2850,
      "Child": 2851,
      "aird": 2852,
      "Re": 2853,
      "atir": 2854,
      "Chang": 2855,
      "icate": 2856,
      "obil": 2857,
      "Popup": 2858,
      "andal": 2859,
      "eze": 2860,
      "struct": 2861,
      "ĠComp": 2862,
      "ĠTon": 2863,
      "Photo": 2864,
      "ĠStaff": 2865,
      "Stack": 2866,
      "ĠStr": 2867,
      "One": 2868,
      "Ġtub": 2869,
      "ences": 2870,
      "ging": 2871,
      "acht": 2872,
      "ĠWeb": 2873,
      "quier": 2874,
      "System": 2875,
      "nes": 2876,
      "drop": 2877,
      "fol": 2878,
      "ypt": 2879,
      "bum": 2880,
      "Byte": 2881,
      "alur": 2882,
      "ĠBarcl": 2883,
      "ĠSab": 2884,
      "ilib": 2885,
      "enie": 2886,
      "INT": 2887,
      "lia": 2888,
      "ĠAp": 2889,
      "ije": 2890,
      "Keyboard": 2891,
      "brevi": 2892,
      "Ġwarm": 2893,
      "ĠFerr": 2894,
      "Ġconf": 2895,
      "Ġest": 2896,
      "cor": 2897,
      "quam": 2898,
      "ayan": 2899,
      "ska": 2900,
      "ĠHer": 2901,
      "ulin": 2902,
      "Mov": 2903,
      "iros": 2904,
      "orum": 2905,
      "Route": 2906,
      "iyet": 2907,
      "has": 2908,
      "iller": 2909,
      "azi": 2910,
      "sql": 2911,
      "Ġet": 2912,
      "abs": 2913,
      "sman": 2914,
      "ME": 2915,
      "Aud": 2916,
      "Case": 2917,
      "eman": 2918,
      "ĠMain": 2919,
      "Ġbe": 2920,
      "uchi": 2921,
      "zym": 2922,
      "orrh": 2923,
      "ikum": 2924,
      "Ġfile": 2925,
      "jel": 2926,
      "ĠsubTest": 2927,
      "olds": 2928,
      "elf": 2929,
      "RAN": 2930,
      "ĠMa": 2931,
      "Ġrup": 2932,
      "ements": 2933,
      "Ġeg": 2934,
      "Percent": 2935,
      "lt": 2936,
      "QL": 2937,
      "uang": 2938,
      "Document": 2939,
      "Product": 2940,
      "ĠFair": 2941,
      "Ġatth": 2942,
      "ewer": 2943,
      "Ġodp": 2944,
      "Ġcin": 2945,
      "Ac": 2946,
      "Ġtem": 2947,
      "iner": 2948,
      "ators": 2949,
      "asp": 2950,
      "Ġmet": 2951,
      "Ġbo": 2952,
      "GA": 2953,
      "ĠHein": 2954,
      "ube": 2955,
      "ĠGer": 2956,
      "Ġmod": 2957,
      "ehen": 2958,
      "wen": 2959,
      "erre": 2960,
      "Ġaff": 2961,
      "kk": 2962,
      "arra": 2963,
      "ĠGro": 2964,
      "cd": 2965,
      "inh": 2966,
      "ĠLut": 2967,
      "aste": 2968,
      "aries": 2969,
      "ograph": 2970,
      "spl": 2971,
      "DF": 2972,
      "onda": 2973,
      "aris": 2974,
      "vach": 2975,
      "wt": 2976,
      "iper": 2977,
      "olt": 2978,
      "Pass": 2979,
      "ieht": 2980,
      "atin": 2981,
      "elo": 2982,
      "ĠCam": 2983,
      "aneu": 2984,
      "ramework": 2985,
      "ission": 2986,
      "ryl": 2987,
      "XY": 2988,
      "ĠAss": 2989,
      "We": 2990,
      "ĠRad": 2991,
      "rach": 2992,
      "ĠEng": 2993,
      "rik": 2994,
      "Navigator": 2995,
      "ĠHaw": 2996,
      "ruff": 2997,
      "webElement": 2998,
      "ermi": 2999,
      "Tree": 3000,
      "inden": 3001,
      "Ġdev": 3002,
      "unct": 3003,
      "stat": 3004,
      "Ġmit": 3005,
      "ofar": 3006,
      "iser": 3007,
      "arin": 3008,
      "ongo": 3009,
      "ĠSur": 3010,
      "igan": 3011,
      "yloxy": 3012,
      "col": 3013,
      "Area": 3014,
      "align": 3015,
      "lands": 3016,
      "sun": 3017,
      "ibb": 3018,
      "phal": 3019,
      "YPE": 3020,
      "romo": 3021,
      "iko": 3022,
      "Each": 3023,
      "Unit": 3024,
      "write": 3025,
      "Kind": 3026,
      "ĠMal": 3027,
      "Core": 3028,
      "If": 3029,
      "VP": 3030,
      "ĠUl": 3031,
      "adam": 3032,
      "Ab": 3033,
      "ĠPet": 3034,
      "ells": 3035,
      "ky": 3036,
      "feit": 3037,
      "Ġart": 3038,
      "def": 3039,
      "iph": 3040,
      "ool": 3041,
      "ĠBrit": 3042,
      "Cap": 3043,
      "Ġoct": 3044,
      "atts": 3045,
      "ela": 3046,
      "rex": 3047,
      "nown": 3048,
      "Ġand": 3049,
      "lis": 3050,
      "Ġid": 3051,
      "rypt": 3052,
      "olid": 3053,
      "hens": 3054,
      "ĠFA": 3055,
      "list": 3056,
      "Grid": 3057,
      "ucleaires": 3058,
      "UE": 3059,
      "umble": 3060,
      "LAG": 3061,
      "Ap": 3062,
      "agger": 3063,
      "etz": 3064,
      "ysz": 3065,
      "posit": 3066,
      "Preview": 3067,
      "greg": 3068,
      "Pane": 3069,
      "ĠSL": 3070,
      "owe": 3071,
      "ubs": 3072,
      "urk": 3073,
      "angs": 3074,
      "rote": 3075,
      "oku": 3076,
      "Ġauto": 3077,
      "ising": 3078,
      "Ġrealiz": 3079,
      "Drop": 3080,
      "Ġmar": 3081,
      "0x": 3082,
      "<0x": 3083,
      "Ġcond": 3084,
      "ĠWill": 3085,
      "etic": 3086,
      "RGB": 3087,
      "IK": 3088,
      "resh": 3089,
      "ĠGab": 3090,
      "iffer": 3091,
      "Ġther": 3092,
      "Rx": 3093,
      "RxDocument": 3094,
      "Ġatt": 3095,
      "rict": 3096,
      "comstock": 3097,
      "ĠSRP": 3098,
      "Asp": 3099,
      "icle": 3100,
      "ahl": 3101,
      "ekt": 3102,
      "Support": 3103,
      "chn": 3104,
      "agon": 3105,
      "Ġbre": 3106,
      "ĠYam": 3107,
      "kinson": 3108,
      "ĠMaj": 3109,
      "Ġnov": 3110,
      "phenyl": 3111,
      "Ġbeg": 3112,
      "ĠAug": 3113,
      "thorax": 3114,
      "igation": 3115,
      "Events": 3116,
      "rane": 3117,
      "ToProps": 3118,
      "iddle": 3119,
      "ĠBal": 3120,
      "anes": 3121,
      "ĠFitz": 3122,
      "erial": 3123,
      "illus": 3124,
      "Concept": 3125,
      "YY": 3126,
      "Ġtw": 3127,
      "Ġmand": 3128,
      "Graph": 3129,
      "ĠPad": 3130,
      "beat": 3131,
      "ATIV": 3132,
      "Perm": 3133,
      "ophor": 3134,
      "xx": 3135,
      "http": 3136,
      "rington": 3137,
      "follow": 3138,
      "ĠBern": 3139,
      "Ġrev": 3140,
      "agin": 3141,
      "uana": 3142,
      "Ġla": 3143,
      "illon": 3144,
      "Ġneg": 3145,
      "aved": 3146,
      "isms": 3147,
      "Ent": 3148,
      "Ġhalf": 3149,
      "cup": 3150,
      "Ġped": 3151,
      "expr": 3152,
      "Ġcele": 3153,
      "Ġgacch": 3154,
      "oe": 3155,
      "onom": 3156,
      "Ġfast": 3157,
      "Compl": 3158,
      "ermin": 3159,
      "ĠLiv": 3160,
      "hook": 3161,
      "Edit": 3162,
      "She": 3163,
      "Choice": 3164,
      "Ġju": 3165,
      "Root": 3166,
      "acet": 3167,
      "Ġport": 3168,
      "iot": 3169,
      "anche": 3170,
      "Trans": 3171,
      "ĠKais": 3172,
      "imiz": 3173,
      "Br": 3174,
      "GT": 3175,
      "XYZ": 3176,
      "Ġsob": 3177,
      "wan": 3178,
      "exec": 3179,
      "irth": 3180,
      "Matrix": 3181,
      "Dispatch": 3182,
      "ommod": 3183,
      "SL": 3184,
      "ently": 3185,
      "Shape": 3186,
      "cul": 3187,
      "ĠCyr": 3188,
      "iat": 3189,
      "arded": 3190,
      "etr": 3191,
      "onna": 3192,
      "yer": 3193,
      "ikut": 3194,
      "iert": 3195,
      "Ġbas": 3196,
      "idget": 3197,
      "ĠBog": 3198,
      "offset": 3199,
      "uge": 3200,
      "ympt": 3201,
      "Lua": 3202,
      "plot": 3203,
      "method": 3204,
      "egu": 3205,
      "corr": 3206,
      "BU": 3207,
      "Ġinst": 3208,
      "thol": 3209,
      "iary": 3210,
      "rek": 3211,
      "esz": 3212,
      "ctivity": 3213,
      "sie": 3214,
      "bib": 3215,
      "Ġtro": 3216,
      "II": 3217,
      "SH": 3218,
      "Ġwa": 3219,
      "ĠLak": 3220,
      "quare": 3221,
      "ried": 3222,
      "icles": 3223,
      "ĠPe": 3224,
      "anvas": 3225,
      "obe": 3226,
      "BR": 3227,
      "ateral": 3228,
      "ĠPro": 3229,
      "nego": 3230,
      "ĠEug": 3231,
      "adal": 3232,
      "Ġfe": 3233,
      "rig": 3234,
      "Base": 3235,
      "Column": 3236,
      "ydro": 3237,
      "unes": 3238,
      "sor": 3239,
      "erecht": 3240,
      "iran": 3241,
      "Ġall": 3242,
      "ĠDown": 3243,
      "apsed": 3244,
      "jal": 3245,
      "urity": 3246,
      "DM": 3247,
      "Factory": 3248,
      "Ġbase": 3249,
      "okat": 3250,
      "etto": 3251,
      "ĠDod": 3252,
      "Before": 3253,
      "IZ": 3254,
      "param": 3255,
      "Platform": 3256,
      "iber": 3257,
      "asus": 3258,
      "Ġdep": 3259,
      "ĠDh": 3260,
      "Ġyath": 3261,
      "iven": 3262,
      "ĠAugust": 3263,
      "itten": 3264,
      "Ġnaj": 3265,
      "itim": 3266,
      "Arch": 3267,
      "hatu": 3268,
      "imet": 3269,
      "yb": 3270,
      "anne": 3271,
      "then": 3272,
      "namefont": 3273,
      "Canvas": 3274,
      "udan": 3275,
      "mund": 3276,
      "evel": 3277,
      "opy": 3278,
      "mont": 3279,
      "ullam": 3280,
      "post": 3281,
      "rade": 3282,
      "CTOR": 3283,
      "Background": 3284,
      "Sort": 3285,
      "Ġphot": 3286,
      "Enc": 3287,
      "ĠOl": 3288,
      "Space": 3289,
      "ĠlocalVar": 3290,
      "ottom": 3291,
      "ĠViv": 3292,
      "ublic": 3293,
      "game": 3294,
      "ĠNP": 3295,
      "oja": 3296,
      "ARR": 3297,
      "Folder": 3298,
      "cest": 3299,
      "Texture": 3300,
      "dd": 3301,
      "organ": 3302,
      "ivo": 3303,
      "Level": 3304,
      "erme": 3305,
      "adis": 3306,
      "Ġdob": 3307,
      "Activity": 3308,
      "engu": 3309,
      "encent": 3310,
      "ASE": 3311,
      "ĠPel": 3312,
      "ungan": 3313,
      "arbox": 3314,
      "ELE": 3315,
      "ĠBo": 3316,
      "ipe": 3317,
      "ĠIN": 3318,
      "ĠKey": 3319,
      "ousse": 3320,
      "Scale": 3321,
      "ELEASE": 3322,
      "Ġitem": 3323,
      "rech": 3324,
      "eben": 3325,
      "SrvGroup": 3326,
      "rij": 3327,
      "Tmp": 3328,
      "ĠSpring": 3329,
      "Ġconsequ": 3330,
      "ential": 3331,
      "cel": 3332,
      "ple": 3333,
      "odh": 3334,
      "time": 3335,
      "ept": 3336,
      "Ġaliqu": 3337,
      "www": 3338,
      "wwwpond": 3339,
      "ento": 3340,
      "Ġlib": 3341,
      "Ġdrag": 3342,
      "andl": 3343,
      "ctx": 3344,
      "Post": 3345,
      "Ġmultic": 3346,
      "iam": 3347,
      "Match": 3348,
      "CPP": 3349,
      "ĠInput": 3350,
      "ĠKish": 3351,
      "AI": 3352,
      "Ġlab": 3353,
      "ĠPap": 3354,
      "antile": 3355,
      "urry": 3356,
      "erton": 3357,
      "ĠMH": 3358,
      "gd": 3359,
      "RAM": 3360,
      "loud": 3361,
      "uses": 3362,
      "ARG": 3363,
      "max": 3364,
      "cos": 3365,
      "ĠJac": 3366,
      "dis": 3367,
      "Package": 3368,
      "Idle": 3369,
      "vm": 3370,
      "IdleSync": 3371,
      "Pkg": 3372,
      "ParaPkg": 3373,
      "lus": 3374,
      "ĠBrid": 3375,
      "Ġrh": 3376,
      "dam": 3377,
      "uman": 3378,
      "aras": 3379,
      "Ġlu": 3380,
      "Ġgah": 3381,
      "nah": 3382,
      "ALL": 3383,
      "otlin": 3384,
      "icture": 3385,
      "Ġsac": 3386,
      "henium": 3387,
      "iom": 3388,
      "buf": 3389,
      "ĠHeid": 3390,
      "fu": 3391,
      "Ġtran": 3392,
      "awks": 3393,
      "Take": 3394,
      "ship": 3395,
      "ĠWat": 3396,
      "feat": 3397,
      "ENUM": 3398,
      "NewUrl": 3399,
      "formed": 3400,
      "Ġgahet": 3401,
      "Ġmicro": 3402,
      "ĠhalfCanvas": 3403,
      "amos": 3404,
      "Ġmem": 3405,
      "omes": 3406,
      "ĠAv": 3407,
      "ershire": 3408,
      "usp": 3409,
      "ĠVen": 3410,
      "arlene": 3411,
      "MethodBeat": 3412,
      "mit": 3413,
      "coprote": 3414,
      "Ġanis": 3415,
      "gn": 3416,
      "Raw": 3417,
      "Ġneutral": 3418,
      "Ġgol": 3419,
      "ĠPat": 3420,
      "Ġmorph": 3421,
      "ĠMerc": 3422,
      "aric": 3423,
      "enny": 3424,
      "ĠAst": 3425,
      "job": 3426,
      "enia": 3427,
      "osin": 3428,
      "apped": 3429,
      "Do": 3430,
      "sten": 3431,
      "ĠMod": 3432,
      "ober": 3433,
      "OCC": 3434,
      "Point": 3435,
      "aniy": 3436,
      "uo": 3437,
      "rar": 3438,
      "NN": 3439,
      "alg": 3440,
      "size": 3441,
      "fill": 3442,
      "Ġsett": 3443,
      "Ġinterview": 3444,
      "Ġsle": 3445,
      "enth": 3446,
      "ĠBang": 3447,
      "abbo": 3448,
      "ĠPfe": 3449,
      "FER": 3450,
      "ago": 3451,
      "tin": 3452,
      "Ġus": 3453,
      "otherm": 3454,
      "esting": 3455,
      "WMN": 3456,
      "sz": 3457,
      "atory": 3458,
      "hed": 3459,
      "orman": 3460,
      "Put": 3461,
      "alaikum": 3462,
      "ĠPear": 3463,
      "orrent": 3464,
      "ehyde": 3465,
      "ordon": 3466,
      "EE": 3467,
      "ĠCov": 3468,
      "VOA": 3469,
      "lr": 3470,
      "ilian": 3471,
      "lef": 3472,
      "ungk": 3473,
      "StructOf": 3474,
      "ĠPay": 3475,
      "ycle": 3476,
      "iente": 3477,
      "jug": 3478,
      "ĠMcM": 3479,
      "Archive": 3480,
      "curs": 3481,
      "Left": 3482,
      "stm": 3483,
      "keit": 3484,
      "ified": 3485,
      "egen": 3486,
      "inter": 3487,
      "Pressed": 3488,
      "piece": 3489,
      "bed": 3490,
      "ĠLD": 3491,
      "ilon": 3492,
      "erat": 3493,
      "Ġrepet": 3494,
      "band": 3495,
      "ued": 3496,
      "utte": 3497,
      "LAN": 3498,
      "ohl": 3499,
      "burn": 3500,
      "ĠHod": 3501,
      "command": 3502,
      "imura": 3503,
      "Ġher": 3504,
      "DBOutput": 3505,
      "Ġcal": 3506,
      "river": 3507,
      "akam": 3508,
      "Ġprec": 3509,
      "Mapping": 3510,
      "rizz": 3511,
      "arts": 3512,
      "ongs": 3513,
      "ategory": 3514,
      "dal": 3515,
      "ummy": 3516,
      "ĠInd": 3517,
      "ivers": 3518,
      "Values": 3519,
      "Ġu": 3520,
      "ĠMcKin": 3521,
      "Ġtop": 3522,
      "aty": 3523,
      "amom": 3524,
      "Max": 3525,
      "itu": 3526,
      "ifier": 3527,
      "arshal": 3528,
      "exual": 3529,
      "ugo": 3530,
      "oxic": 3531,
      "EO": 3532,
      "estruct": 3533,
      "ĠLour": 3534,
      "slide": 3535,
      "BitCount": 3536,
      "Ġodb": 3537,
      "mic": 3538,
      "ĠDomin": 3539,
      "uration": 3540,
      "atal": 3541,
      "Ġdisc": 3542,
      "estro": 3543,
      "Ġsadd": 3544,
      "Findings": 3545,
      "idu": 3546,
      "ying": 3547,
      "ateMutability": 3548,
      "ously": 3549,
      "eps": 3550,
      "ĠGod": 3551,
      "ardin": 3552,
      "Ġaut": 3553,
      "ByURL": 3554,
      "ĠSa": 3555,
      "Ġausten": 3556,
      "ĠMend": 3557,
      "amanam": 3558,
      "edRight": 3559,
      "Ġit": 3560,
      "ĠLev": 3561,
      "aking": 3562,
      "hang": 3563,
      "setF": 3564,
      "border": 3565,
      "Ok": 3566,
      "Ġprimary": 3567,
      "phrine": 3568,
      "Ġselect": 3569,
      "Ġiz": 3570,
      "dev": 3571,
      "zhou": 3572,
      "ĠSlov": 3573,
      "ĠAri": 3574,
      "ature": 3575,
      "Ġtuberc": 3576,
      "Bib": 3577,
      "uncul": 3578,
      "ected": 3579,
      "este": 3580,
      "ariant": 3581,
      "Ġnam": 3582,
      "ATE": 3583,
      "Ant": 3584,
      "iesz": 3585,
      "iga": 3586,
      "Listener": 3587,
      "assing": 3588,
      "ĠEnd": 3589,
      "methyl": 3590,
      "mak": 3591,
      "uent": 3592,
      "egan": 3593,
      "Nam": 3594,
      "uje": 3595,
      "ĠGust": 3596,
      "Ġflav": 3597,
      "aldehyde": 3598,
      "ĠBos": 3599,
      "Rew": 3600,
      "Ġkon": 3601,
      "rained": 3602,
      "abin": 3603,
      "iao": 3604,
      "Ġbit": 3605,
      "ĠNor": 3606,
      "elia": 3607,
      "hatt": 3608,
      "ĠServ": 3609,
      "aq": 3610,
      "Delete": 3611,
      "olan": 3612,
      "Ġbes": 3613,
      "spec": 3614,
      "UND": 3615,
      "hut": 3616,
      "Ġpinch": 3617,
      "atholic": 3618,
      "Mat": 3619,
      "iance": 3620,
      "Ġpri": 3621,
      "ĠSil": 3622,
      "findBy": 3623,
      "ĠSomers": 3624,
      "calright": 3625,
      "erken": 3626,
      "Preference": 3627,
      "dPar": 3628,
      "flow": 3629,
      "ibility": 3630,
      "oza": 3631,
      "BUR": 3632,
      "anas": 3633,
      "ĠGen": 3634,
      "ĠObject": 3635,
      "overe": 3636,
      "Ġhomot": 3637,
      "eff": 3638,
      "mooth": 3639,
      "alBlock": 3640,
      "uzz": 3641,
      "Guid": 3642,
      "Ġnek": 3643,
      "utan": 3644,
      "election": 3645,
      "cell": 3646,
      "resc": 3647,
      "Fields": 3648,
      "unci": 3649,
      "ĠNo": 3650,
      "getR": 3651,
      "Selection": 3652,
      "arik": 3653,
      "adow": 3654,
      "arkar": 3655,
      "aily": 3656,
      "STR": 3657,
      "inger": 3658,
      "Ġfont": 3659,
      "Ġdiff": 3660,
      "qt": 3661,
      "utta": 3662,
      "Ġdek": 3663,
      "empor": 3664,
      "kes": 3665,
      "ymp": 3666,
      "cation": 3667,
      "sem": 3668,
      "Visual": 3669,
      "rival": 3670,
      "ird": 3671,
      "Ġparl": 3672,
      "abc": 3673,
      "ITH": 3674,
      "ĠIP": 3675,
      "Ġunb": 3676,
      "ĠEhn": 3677,
      "ĠEhnerg": 3678,
      "rident": 3679,
      "ĠSyl": 3680,
      "esti": 3681,
      "oving": 3682,
      "ĠData": 3683,
      "eled": 3684,
      "ĠPack": 3685,
      "wyn": 3686,
      "yar": 3687,
      "ĠDer": 3688,
      "Ġexceed": 3689,
      "thal": 3690,
      "Ġgo": 3691,
      "ueva": 3692,
      "enda": 3693,
      "idal": 3694,
      "mn": 3695,
      "Pen": 3696,
      "nail": 3697,
      "nique": 3698,
      "Password": 3699,
      "ored": 3700,
      "ointer": 3701,
      "ĠRam": 3702,
      "hole": 3703,
      "LOT": 3704,
      "enberg": 3705,
      "Unique": 3706,
      "CV": 3707,
      "Picker": 3708,
      "ulu": 3709,
      "VR": 3710,
      "ensch": 3711,
      "FieldContext": 3712,
      "owied": 3713,
      "ollo": 3714,
      "issions": 3715,
      "Owner": 3716,
      "thel": 3717,
      "Okno": 3718,
      "ORN": 3719,
      "Ġthrom": 3720,
      "ĠDon": 3721,
      "ĠHan": 3722,
      "build": 3723,
      "Ġaug": 3724,
      "etty": 3725,
[...]
